{
  "version": "1.0",
  "truncation": null,
  "padding": null,
  "added_tokens": [
    {
      "id": 0,
      "content": "[UNK]",
      "single_word": false,
      "lstrip": false,
      "rstrip": false,
      "normalized": false,
      "special": true
    },
    {
      "id": 1,
      "content": "[CLS]",
      "single_word": false,
      "lstrip": false,
      "rstrip": false,
      "normalized": false,
      "special": true
    },
    {
      "id": 2,
      "content": "[SEP]",
      "single_word": false,
      "lstrip": false,
      "rstrip": false,
      "normalized": false,
      "special": true
    },
    {
      "id": 3,
      "content": "[PAD]",
      "single_word": false,
      "lstrip": false,
      "rstrip": false,
      "normalized": false,
      "special": true
    },
    {
      "id": 4,
      "content": "[MASK]",
      "single_word": false,
      "lstrip": false,
      "rstrip": false,
      "normalized": false,
      "special": true
    }
  ],
  "normalizer": {
    "type": "Sequence",
    "normalizers": [
      {
        "type": "NFD"
      },
      {
        "type": "Lowercase"
      },
      {
        "type": "StripAccents"
      }
    ]
  },
  "pre_tokenizer": {
    "type": "Whitespace"
  },
  "post_processor": {
    "type": "TemplateProcessing",
    "single": [
      {
        "SpecialToken": {
          "id": "[CLS]",
          "type_id": 0
        }
      },
      {
        "Sequence": {
          "id": "A",
          "type_id": 0
        }
      },
      {
        "SpecialToken": {
          "id": "[SEP]",
          "type_id": 0
        }
      }
    ],
    "pair": [
      {
        "SpecialToken": {
          "id": "[CLS]",
          "type_id": 0
        }
      },
      {
        "Sequence": {
          "id": "A",
          "type_id": 0
        }
      },
      {
        "SpecialToken": {
          "id": "[SEP]",
          "type_id": 0
        }
      },
      {
        "Sequence": {
          "id": "B",
          "type_id": 1
        }
      },
      {
        "SpecialToken": {
          "id": "[SEP]",
          "type_id": 1
        }
      }
    ],
    "special_tokens": {
      "[CLS]": {
        "id": "[CLS]",
        "ids": [
          1
        ],
        "tokens": [
          "[CLS]"
        ]
      },
      "[SEP]": {
        "id": "[SEP]",
        "ids": [
          2
        ],
        "tokens": [
          "[SEP]"
        ]
      }
    }
  },
  "decoder": {
    "type": "WordPiece",
    "prefix": "##",
    "cleanup": true
  },
  "model": {
    "type": "WordPiece",
    "unk_token": "[UNK]",
    "continuing_subword_prefix": "##",
    "max_input_chars_per_word": 100,
    "vocab": {
      "[UNK]": 0,
      "[CLS]": 1,
      "[SEP]": 2,
      "[PAD]": 3,
      "[MASK]": 4,
      "!": 5,
      "\"": 6,
      "#": 7,
      "%": 8,
      "'": 9,
      "(": 10,
      ")": 11,
      "+": 12,
      ",": 13,
      "-": 14,
      ".": 15,
      "/": 16,
      "0": 17,
      "1": 18,
      "2": 19,
      "3": 20,
      "4": 21,
      "5": 22,
      "6": 23,
      "7": 24,
      "8": 25,
      "9": 26,
      ":": 27,
      ";": 28,
      "?": 29,
      "@": 30,
      "[": 31,
      "]": 32,
      "_": 33,
      "`": 34,
      "a": 35,
      "b": 36,
      "c": 37,
      "d": 38,
      "e": 39,
      "f": 40,
      "g": 41,
      "h": 42,
      "i": 43,
      "j": 44,
      "k": 45,
      "l": 46,
      "m": 47,
      "n": 48,
      "o": 49,
      "p": 50,
      "q": 51,
      "r": 52,
      "s": 53,
      "t": 54,
      "u": 55,
      "v": 56,
      "w": 57,
      "x": 58,
      "y": 59,
      "z": 60,
      "«": 61,
      "´": 62,
      "»": 63,
      "а": 64,
      "б": 65,
      "в": 66,
      "г": 67,
      "д": 68,
      "е": 69,
      "ж": 70,
      "з": 71,
      "и": 72,
      "к": 73,
      "л": 74,
      "м": 75,
      "н": 76,
      "о": 77,
      "п": 78,
      "р": 79,
      "с": 80,
      "т": 81,
      "у": 82,
      "ф": 83,
      "х": 84,
      "ц": 85,
      "ч": 86,
      "ш": 87,
      "щ": 88,
      "ъ": 89,
      "ы": 90,
      "ь": 91,
      "э": 92,
      "ю": 93,
      "я": 94,
      "ՙ": 95,
      "՚": 96,
      "՛": 97,
      "՜": 98,
      "՝": 99,
      "՞": 100,
      "ա": 101,
      "բ": 102,
      "գ": 103,
      "դ": 104,
      "ե": 105,
      "զ": 106,
      "է": 107,
      "ը": 108,
      "թ": 109,
      "ժ": 110,
      "ի": 111,
      "լ": 112,
      "խ": 113,
      "ծ": 114,
      "կ": 115,
      "հ": 116,
      "ձ": 117,
      "ղ": 118,
      "ճ": 119,
      "մ": 120,
      "յ": 121,
      "ն": 122,
      "շ": 123,
      "ո": 124,
      "չ": 125,
      "պ": 126,
      "ջ": 127,
      "ռ": 128,
      "ս": 129,
      "վ": 130,
      "տ": 131,
      "ր": 132,
      "ց": 133,
      "ւ": 134,
      "փ": 135,
      "ք": 136,
      "օ": 137,
      "ֆ": 138,
      "և": 139,
      "—": 140,
      "•": 141,
      "…": 142,
      "##ն": 143,
      "##ձ": 144,
      "##ե": 145,
      "##ռ": 146,
      "##վ": 147,
      "##ց": 148,
      "##ի": 149,
      "##ս": 150,
      "##կ": 151,
      "##ր": 152,
      "##ո": 153,
      "##r": 154,
      "##a": 155,
      "##p": 156,
      "##k": 157,
      "##ղ": 158,
      "##ա": 159,
      "##տ": 160,
      "##ւ": 161,
      "##մ": 162,
      "##ը": 163,
      "##դ": 164,
      "##3": 165,
      "##1": 166,
      "##լ": 167,
      "##յ": 168,
      "##զ": 169,
      "##պ": 170,
      "##գ": 171,
      "##և": 172,
      "##ժ": 173,
      "##ք": 174,
      "##շ": 175,
      "##հ": 176,
      "##թ": 177,
      "##ջ": 178,
      "##բ": 179,
      "##ծ": 180,
      "##խ": 181,
      "##փ": 182,
      "##o": 183,
      "##m": 184,
      "##v": 185,
      "##չ": 186,
      "##e": 187,
      "##i": 188,
      "##n": 189,
      "##d": 190,
      "##u": 191,
      "##b": 192,
      "##s": 193,
      "##t": 194,
      "##z": 195,
      "##c": 196,
      "##ֆ": 197,
      "##ճ": 198,
      "##է": 199,
      "##0": 200,
      "##f": 201,
      "##g": 202,
      "##5": 203,
      "##7": 204,
      "##օ": 205,
      "##h": 206,
      "##4": 207,
      "##8": 208,
      "##y": 209,
      "##w": 210,
      "##2": 211,
      "##а": 212,
      "##l": 213,
      "##о": 214,
      "##л": 215,
      "##ь": 216,
      "##ш": 217,
      "##и": 218,
      "##x": 219,
      "##6": 220,
      "##9": 221,
      "##j": 222,
      "##с": 223,
      "##у": 224,
      "##к": 225,
      "##м": 226,
      "##.": 227,
      "##ч": 228,
      "##н": 229,
      "##т": 230,
      "##е": 231,
      "##р": 232,
      "##ф": 233,
      "##ы": 234,
      "##)": 235,
      "##՝": 236,
      "##д": 237,
      "##я": 238,
      "##б": 239,
      "##г": 240,
      "##:": 241,
      "##в": 242,
      "##з": 243,
      "##q": 244,
      "##-": 245,
      "##…": 246,
      "##»": 247,
      "##ж": 248,
      "##х": 249,
      "##«": 250,
      "##՛": 251,
      "###": 252,
      "##_": 253,
      "##,": 254,
      "##ю": 255,
      "##;": 256,
      "##э": 257,
      "##ц": 258,
      "##`": 259,
      "##+": 260,
      "##п": 261,
      "##ъ": 262,
      "##/": 263,
      "##!": 264,
      "##\"": 265,
      "##•": 266,
      "##щ": 267,
      "##%": 268,
      "##]": 269,
      "##ՙ": 270,
      "##[": 271,
      "##՞": 272,
      "##@": 273,
      "##(": 274,
      "##—": 275,
      "##ու": 276,
      "##ան": 277,
      "##ար": 278,
      "##եր": 279,
      "##ակ": 280,
      "##ել": 281,
      "##ում": 282,
      "##ին": 283,
      "##այ": 284,
      "##ութ": 285,
      "##ությ": 286,
      "##ներ": 287,
      "##որ": 288,
      "##ամ": 289,
      "##ուն": 290,
      "##ատ": 291,
      "##աս": 292,
      "##ական": 293,
      "##ավ": 294,
      "##են": 295,
      "##աց": 296,
      "##ություն": 297,
      "##ով": 298,
      "որ": 299,
      "##ետ": 300,
      "##ող": 301,
      "##ած": 302,
      "##ության": 303,
      "##ահ": 304,
      "##ների": 305,
      "այ": 306,
      "են": 307,
      "##ագ": 308,
      "##անի": 309,
      "##ախ": 310,
      "##ման": 311,
      "ու": 312,
      "##ալ": 313,
      "հայ": 314,
      "ար": 315,
      "##վել": 316,
      "##ապ": 317,
      "ան": 318,
      "##ես": 319,
      "եւ": 320,
      "##առ": 321,
      "##եղ": 322,
      "##եւ": 323,
      "համ": 324,
      "##ազ": 325,
      "##աղ": 326,
      "##ված": 327,
      "##յան": 328,
      "ին": 329,
      "##ից": 330,
      "##ոն": 331,
      "եր": 332,
      "մի": 333,
      "##եկ": 334,
      "##աստ": 335,
      "##ային": 336,
      "իր": 337,
      "##ները": 338,
      "##ստ": 339,
      "##եց": 340,
      "##ադ": 341,
      "առ": 342,
      "##աք": 343,
      "##իր": 344,
      "##ավոր": 345,
      "##աշ": 346,
      "նախ": 347,
      "հետ": 348,
      "##աբ": 349,
      "##ուր": 350,
      "ըն": 351,
      "##ործ": 352,
      "##երի": 353,
      "մաս": 354,
      "##իկ": 355,
      "##ույ": 356,
      "հար": 357,
      "ամ": 358,
      "պատ": 359,
      "##ությունը": 360,
      "##ելու": 361,
      "հան": 362,
      "##արար": 363,
      "##քի": 364,
      "այս": 365,
      "##րան": 366,
      "հայտ": 367,
      "կար": 368,
      "##արկ": 369,
      "##ոս": 370,
      "##րա": 371,
      "##այի": 372,
      "մար": 373,
      "##ուս": 374,
      "##անակ": 375,
      "գործ": 376,
      "տար": 377,
      "նա": 378,
      "վեր": 379,
      "##ենք": 380,
      "##իս": 381,
      "տեղ": 382,
      "##ոց": 383,
      "##ամբ": 384,
      "համար": 385,
      "##եմ": 386,
      "##իմ": 387,
      "##աջ": 388,
      "##շխ": 389,
      "##յանը": 390,
      "##վում": 391,
      "##եռ": 392,
      "ներ": 393,
      "##այն": 394,
      "##ակց": 395,
      "երկ": 396,
      "##որդ": 397,
      "##իտ": 398,
      "##ոլ": 399,
      "##անում": 400,
      "##աղաք": 401,
      "մե": 402,
      "միջ": 403,
      "##նել": 404,
      "մասին": 405,
      "##ագր": 406,
      "##ուց": 407,
      "##ազմ": 408,
      "քաղաք": 409,
      "պետ": 410,
      "##ավար": 411,
      "##ոխ": 412,
      "ստ": 413,
      "հայաստ": 414,
      "##ոտ": 415,
      "էր": 416,
      "առաջ": 417,
      "աս": 418,
      "##ադր": 419,
      "ժամ": 420,
      "ինչ": 421,
      "##տր": 422,
      "##երը": 423,
      "##ատար": 424,
      "օր": 425,
      "նշ": 426,
      "այդ": 427,
      "վար": 428,
      "ուն": 429,
      "աշխ": 430,
      "##դր": 431,
      "##արգ": 432,
      "##իվ": 433,
      "##քում": 434,
      "##նում": 435,
      "այն": 436,
      "##պես": 437,
      "##ությունների": 438,
      "##ապետ": 439,
      "##ներին": 440,
      "##անք": 441,
      "##անց": 442,
      "##պան": 443,
      "##ափ": 444,
      "##կայ": 445,
      "20": 446,
      "##անգ": 447,
      "##իչ": 448,
      "»,": 449,
      "##րամ": 450,
      "ապ": 451,
      "##եպ": 452,
      "ընդ": 453,
      "##նն": 454,
      "նախագ": 455,
      "մեկ": 456,
      "##ոշ": 457,
      "##աշտ": 458,
      "##սկ": 459,
      "##աբեր": 460,
      "##աժ": 461,
      "աշխատ": 462,
      "##արձ": 463,
      "##ությամբ": 464,
      "##օր": 465,
      "##րի": 466,
      "##արտ": 467,
      "արդ": 468,
      "##րել": 469,
      "##եք": 470,
      "##րջ": 471,
      "##րդ": 472,
      "ավ": 473,
      "##յալ": 474,
      "հհ": 475,
      "##նակ": 476,
      "թե": 477,
      "ազ": 478,
      "##աթ": 479,
      "##ողմ": 480,
      "հարց": 481,
      "##լի": 482,
      "չի": 483,
      "##յանի": 484,
      "նախագահ": 485,
      "պաշտ": 486,
      "##ումը": 487,
      "##նի": 488,
      "ներկայ": 489,
      "##անկ": 490,
      "»,-": 491,
      "##անը": 492,
      "ավել": 493,
      "##ներում": 494,
      "արտ": 495,
      "##նդ": 496,
      "##որհ": 497,
      "փոխ": 498,
      "կողմ": 499,
      "##արի": 500,
      "ժամանակ": 501,
      "կառ": 502,
      "նոր": 503,
      "##ելով": 504,
      "ուղ": 505,
      "իրավ": 506,
      "##ողով": 507,
      "##ացել": 508,
      "##ացի": 509,
      "մեր": 510,
      "հայտարար": 511,
      "պահ": 512,
      "##անդ": 513,
      "##քը": 514,
      "հայաստանի": 515,
      "նաեւ": 516,
      "նրան": 517,
      "##ակի": 518,
      "##ոմ": 519,
      "##իշ": 520,
      "ներկայաց": 521,
      "##բեր": 522,
      "##յուն": 523,
      "սահ": 524,
      "կարող": 525,
      "##աձ": 526,
      "##ուղ": 527,
      "քնն": 528,
      "##արդ": 529,
      "հաս": 530,
      "##թաց": 531,
      "հր": 532,
      "##ելի": 533,
      "էլ": 534,
      "դեպ": 535,
      "նախարար": 536,
      "##կեր": 537,
      "մասն": 538,
      "մարդ": 539,
      "##ագործ": 540,
      "##ություններ": 541,
      "##ույն": 542,
      "##վի": 543,
      "տարած": 544,
      "##ապար": 545,
      "##իճ": 546,
      "ոչ": 547,
      "##եջ": 548,
      "շար": 549,
      "վարչ": 550,
      "պետք": 551,
      "եմ": 552,
      "հանր": 553,
      "ավելի": 554,
      "##գամ": 555,
      "##ությունները": 556,
      "##նական": 557,
      "պար": 558,
      "հիմ": 559,
      "##ուկ": 560,
      "այլ": 561,
      "##գային": 562,
      "շրջ": 563,
      "գր": 564,
      "ռուս": 565,
      "պայ": 566,
      "##առայ": 567,
      "որոշ": 568,
      "կազմ": 569,
      "հավ": 570,
      "##դի": 571,
      "##խան": 572,
      "երկր": 573,
      "##ենց": 574,
      "օգ": 575,
      "խոս": 576,
      "##ույց": 577,
      "»:": 578,
      "##վող": 579,
      "##ոկ": 580,
      "ենք": 581,
      "ակ": 582,
      "##շտ": 583,
      "##այում": 584,
      "եղ": 585,
      "սահման": 586,
      "##ուլ": 587,
      "իսկ": 588,
      "իրական": 589,
      "որոն": 590,
      "դատ": 591,
      "հաղ": 592,
      "##իկան": 593,
      "##ապես": 594,
      "##այր": 595,
      "կր": 596,
      "մենք": 597,
      "անց": 598,
      "ադր": 599,
      "##բեջ": 600,
      "ադրբեջ": 601,
      "##ըն": 602,
      "կատար": 603,
      "##թի": 604,
      "մեջ": 605,
      "ոստ": 606,
      "ունեց": 607,
      "##մամբ": 608,
      "տեղեկ": 609,
      "կան": 610,
      "թուր": 611,
      "##աչ": 612,
      "խորհ": 613,
      "##րագր": 614,
      "մոտ": 615,
      "այսօր": 616,
      "ոստիկան": 617,
      "##յա": 618,
      "կապ": 619,
      "##ուտ": 620,
      "##ացման": 621,
      "##ոլոր": 622,
      "կառավար": 623,
      "##երին": 624,
      "##ճառ": 625,
      "##ներից": 626,
      "ինչպես": 627,
      "որը": 628,
      "##ակարգ": 629,
      "հն": 630,
      "ծառայ": 631,
      "հատ": 632,
      "սպ": 633,
      "հետո": 634,
      "կողմից": 635,
      "##քով": 636,
      "կամ": 637,
      "անհ": 638,
      "նրա": 639,
      "##ալի": 640,
      "##բերի": 641,
      "##երպ": 642,
      "##վա": 643,
      "##ակցության": 644,
      "կեն": 645,
      "բաց": 646,
      "##ակում": 647,
      "վրա": 648,
      "##րաստ": 649,
      "եվ": 650,
      "ամեն": 651,
      "ընտր": 652,
      "##եռն": 653,
      "##ինի": 654,
      "վերջ": 655,
      "##որձ": 656,
      "201": 657,
      "ընթաց": 658,
      "տես": 659,
      "թվ": 660,
      "տն": 661,
      "##ներով": 662,
      "մին": 663,
      "##ոգ": 664,
      "միջոց": 665,
      "##եմբերի": 666,
      "հակ": 667,
      "անվ": 668,
      "##ձն": 669,
      "##սի": 670,
      "խորհրդ": 671,
      "բնակ": 672,
      "##ությանը": 673,
      "ամն": 674,
      "բոլոր": 675,
      "##ոյ": 676,
      "փորձ": 677,
      "##իսի": 678,
      "##ասխան": 679,
      "սկ": 680,
      "էին": 681,
      "##00": 682,
      "պաշտոն": 683,
      "##քն": 684,
      "կայ": 685,
      "երեւ": 686,
      "##ոչ": 687,
      "մեծ": 688,
      "արդյուն": 689,
      "մարզ": 690,
      "##թե": 691,
      "րդ": 692,
      "ասել": 693,
      "իշխ": 694,
      "##անական": 695,
      "տեղի": 696,
      "հաղորդ": 697,
      "ժողով": 698,
      "##նելու": 699,
      "##ատակ": 700,
      "քանի": 701,
      "ղեկ": 702,
      "գյ": 703,
      "սակ": 704,
      "##մբ": 705,
      "##տրոն": 706,
      "իրենց": 707,
      "նկ": 708,
      "ղեկավար": 709,
      "##ոհ": 710,
      "##իստ": 711,
      "անձ": 712,
      "##արավոր": 713,
      "##գր": 714,
      "քաղաքական": 715,
      "##ակից": 716,
      "##տի": 717,
      "դեմ": 718,
      "##երթ": 719,
      "ճան": 720,
      "փաստ": 721,
      "շատ": 722,
      "վերաբեր": 723,
      "գլ": 724,
      "##տես": 725,
      "##ներն": 726,
      "##ակալ": 727,
      "ես": 728,
      "##աշին": 729,
      "##ակերպ": 730,
      "որպես": 731,
      "##եղծ": 732,
      "##ությունն": 733,
      "իրականաց": 734,
      "##տանգ": 735,
      "ընկեր": 736,
      "ռուսաստ": 737,
      "##ew": 738,
      "ուղղ": 739,
      "չեն": 740,
      "զին": 741,
      "բայ": 742,
      "մինչ": 743,
      "իշխան": 744,
      "##եյ": 745,
      "թվական": 746,
      "գտ": 747,
      "դիմ": 748,
      "##պանության": 749,
      "##ապատ": 750,
      "բարձ": 751,
      "սակայն": 752,
      "որոնք": 753,
      "չէ": 754,
      "հնարավոր": 755,
      "հայտն": 756,
      "##րաժ": 757,
      "հեռ": 758,
      "##հան": 759,
      "##ումների": 760,
      "##եւոր": 761,
      "##ews": 762,
      "դրամ": 763,
      "աշխատանք": 764,
      "հանդի": 765,
      "##գն": 766,
      "am": 767,
      "եղել": 768,
      "գն": 769,
      "դա": 770,
      "##իայի": 771,
      "հանդիպ": 772,
      "ուժ": 773,
      "ազատ": 774,
      "##ատես": 775,
      "երբ": 776,
      "##րո": 777,
      "պայման": 778,
      "մտ": 779,
      "ընթացքում": 780,
      "հայտնել": 781,
      "news": 782,
      "հուն": 783,
      "##կին": 784,
      "կենտրոն": 785,
      "երկու": 786,
      "ավտ": 787,
      "հայտնում": 788,
      "մեղ": 789,
      "##ությունից": 790,
      "դր": 791,
      "##արկել": 792,
      "խնդ": 793,
      "##տեմբերի": 794,
      "հանրապետ": 795,
      "##քների": 796,
      "##յուր": 797,
      "##առն": 798,
      "եթե": 799,
      "թուրքի": 800,
      "##աձայն": 801,
      "ենթ": 802,
      "եկ": 803,
      "պատճառ": 804,
      "##դամ": 805,
      "##ույթ": 806,
      "մակ": 807,
      "##րկ": 808,
      "##ակը": 809,
      "նպ": 810,
      "կազմակերպ": 811,
      "##րե": 812,
      "##ոստ": 813,
      "նկատ": 814,
      "10": 815,
      "##ողջ": 816,
      "պարզ": 817,
      "##անջ": 818,
      "աղ": 819,
      "բայց": 820,
      "բեր": 821,
      "##ալու": 822,
      "լին": 823,
      "բաժ": 824,
      "գլխ": 825,
      "##ատվ": 826,
      "##ացած": 827,
      "ասաց": 828,
      "նույն": 829,
      "խնդիր": 830,
      "արց": 831,
      "##ոք": 832,
      "բար": 833,
      "հիշ": 834,
      "##ապարհ": 835,
      "##ուցիչ": 836,
      "արցախ": 837,
      "արձ": 838,
      "19": 839,
      "առաջին": 840,
      "##ուժ": 841,
      "խաղ": 842,
      "##կական": 843,
      "խմբ": 844,
      "համաձայն": 845,
      "վարչապետ": 846,
      "հետեւ": 847,
      "##նաս": 848,
      "ցուց": 849,
      "հայտարարել": 850,
      "բարձր": 851,
      "նշել": 852,
      "##ոդ": 853,
      "գյուղ": 854,
      "ունեն": 855,
      "գործող": 856,
      "##յուս": 857,
      "##տեղ": 858,
      "##եցին": 859,
      "գործըն": 860,
      "##արհ": 861,
      "ում": 862,
      "գեր": 863,
      "##այտ": 864,
      "քրե": 865,
      "##ուծ": 866,
      "ծրագր": 867,
      "##եփ": 868,
      "##եշտ": 869,
      "վերջին": 870,
      "##ուրջ": 871,
      "##ահատ": 872,
      "շարուն": 873,
      "կարգ": 874,
      "##ապահ": 875,
      "հաշ": 876,
      "ըստ": 877,
      "մահ": 878,
      "դրան": 879,
      "##աժողով": 880,
      "##եզ": 881,
      "##ազգային": 882,
      "##իջ": 883,
      "##աբան": 884,
      "##անից": 885,
      "օգտ": 886,
      "##յանին": 887,
      "##ազար": 888,
      "միայն": 889,
      "պատասխան": 890,
      "ազգային": 891,
      "ից": 892,
      "նրանց": 893,
      "##ուշ": 894,
      "գլխավոր": 895,
      "##իլ": 896,
      "##երում": 897,
      "անդամ": 898,
      "նման": 899,
      "ռազմ": 900,
      "##աշրջ": 901,
      "##մանը": 902,
      "##աճ": 903,
      "##ացին": 904,
      "դատար": 905,
      "##որտ": 906,
      "##կա": 907,
      "ստեղծ": 908,
      "դոլ": 909,
      "գտն": 910,
      "կոր": 911,
      "##ափոխ": 912,
      "միջազգային": 913,
      "հրապար": 914,
      "նպատակ": 915,
      "##ոցի": 916,
      "համակարգ": 917,
      "##երով": 918,
      "պետական": 919,
      "նախկին": 920,
      "ման": 921,
      "գիտ": 922,
      "ամյա": 923,
      "տնտես": 924,
      "անվտանգ": 925,
      "հանձն": 926,
      "##ասն": 927,
      "##դան": 928,
      "տարբեր": 929,
      "##ողների": 930,
      "մասնակց": 931,
      "քրեական": 932,
      "արդեն": 933,
      "##ուրս": 934,
      "##կաց": 935,
      "տարի": 936,
      "##յանն": 937,
      "ընդուն": 938,
      "իրավուն": 939,
      "բան": 940,
      "##եխ": 941,
      "ունեցել": 942,
      "##ումներ": 943,
      "սկս": 944,
      "##շակ": 945,
      "կլ": 946,
      "տվ": 947,
      "հիմն": 948,
      "պատգամ": 949,
      "##ենի": 950,
      "բանակ": 951,
      "տոկ": 952,
      "##ագիր": 953,
      "պատգամավոր": 954,
      "անգամ": 955,
      "պահանջ": 956,
      "##ուլի": 957,
      "ինքն": 958,
      "արմ": 959,
      "ով": 960,
      "զարգ": 961,
      "##աստատ": 962,
      "ճանապարհ": 963,
      "ալ": 964,
      "##ոբ": 965,
      "##ուհ": 966,
      "փաշին": 967,
      "ցանկ": 968,
      "սեր": 969,
      "##րույց": 970,
      "»-": 971,
      "կուս": 972,
      "սա": 973,
      "##իան": 974,
      "##ակայ": 975,
      "հայաստանում": 976,
      "կարծ": 977,
      "##ոփ": 978,
      "հայաստան": 979,
      "տոկոս": 980,
      "նվ": 981,
      "սարգ": 982,
      "նշանակ": 983,
      "ոստիկանության": 984,
      "ուս": 985,
      "ահ": 986,
      "##յու": 987,
      "անկ": 988,
      "զոհ": 989,
      "##ագույն": 990,
      "##իզ": 991,
      "վերաբերյալ": 992,
      "քննարկ": 993,
      "մարմ": 994,
      "պատրաստ": 995,
      "##վելու": 996,
      "մլ": 997,
      "առավ": 998,
      "##արանի": 999,
      "15": 1000,
      "202": 1001,
      "##ագետ": 1002,
      "եվրո": 1003,
      "մամ": 1004,
      "խոսքով": 1005,
      "ադրբեջանի": 1006,
      "##արան": 1007,
      "ժամը": 1008,
      "##ադարձ": 1009,
      "ներկայացուցիչ": 1010,
      "շահ": 1011,
      "##ինը": 1012,
      "օրեն": 1013,
      "##ացրել": 1014,
      "##ադիր": 1015,
      "ամբ": 1016,
      "մարտ": 1017,
      "##ուստ": 1018,
      "հաստատ": 1019,
      "##աքնն": 1020,
      "իմ": 1021,
      "սարգս": 1022,
      "վաղ": 1023,
      "դեռ": 1024,
      "##որեն": 1025,
      "##ակել": 1026,
      "##ուրդ": 1027,
      "##իա": 1028,
      "նիստ": 1029,
      "աջ": 1030,
      "հաղորդում": 1031,
      "ձեր": 1032,
      "##կան": 1033,
      "պարտ": 1034,
      "##չական": 1035,
      "##քին": 1036,
      "դուրս": 1037,
      "վնաս": 1038,
      "փող": 1039,
      "լր": 1040,
      "իս": 1041,
      "##ոռ": 1042,
      "##արակ": 1043,
      "նրանք": 1044,
      "լի": 1045,
      "հազար": 1046,
      "##ավիր": 1047,
      "ձեռ": 1048,
      "նկատմամբ": 1049,
      "այց": 1050,
      "12": 1051,
      "##երն": 1052,
      "##վարի": 1053,
      "տվյալ": 1054,
      "վիճ": 1055,
      "հանդ": 1056,
      "նաև": 1057,
      "##րաժեշտ": 1058,
      "հարաբեր": 1059,
      "##աբար": 1060,
      "իրավիճ": 1061,
      "##er": 1062,
      "##վեն": 1063,
      "աժ": 1064,
      "հիշեց": 1065,
      "մինչեւ": 1066,
      "##անքով": 1067,
      "##վար": 1068,
      "որի": 1069,
      "00": 1070,
      "հանրապետության": 1071,
      "լավ": 1072,
      "30": 1073,
      "##ենան": 1074,
      "ժողովրդ": 1075,
      "ռուսաստանի": 1076,
      "անհրաժեշտ": 1077,
      "կոչ": 1078,
      "##երից": 1079,
      "11": 1080,
      "արժ": 1081,
      "##ալով": 1082,
      "##պր": 1083,
      "կոմ": 1084,
      "նիկ": 1085,
      "##վե": 1086,
      "համագործ": 1087,
      "##նելով": 1088,
      "##ահով": 1089,
      "դոլար": 1090,
      "##րաին": 1091,
      "##ուզ": 1092,
      "ոլ": 1093,
      "##ումները": 1094,
      "մն": 1095,
      "##նորհ": 1096,
      "ուկ": 1097,
      "աճ": 1098,
      "անվտանգության": 1099,
      "##աշխ": 1100,
      "ուկրաին": 1101,
      "պատմ": 1102,
      "հաջ": 1103,
      "դարձ": 1104,
      "փոխանց": 1105,
      "##ությունում": 1106,
      "##նենք": 1107,
      "շուրջ": 1108,
      "աշխարհ": 1109,
      "##արժ": 1110,
      "հայկական": 1111,
      "ունի": 1112,
      "ընդհան": 1113,
      "անդր": 1114,
      "լրագր": 1115,
      "##ություններին": 1116,
      "##իք": 1117,
      "##իթ": 1118,
      "համայն": 1119,
      "հայտնաբեր": 1120,
      "##յութ": 1121,
      "կոն": 1122,
      "երկրի": 1123,
      "##զի": 1124,
      "զբ": 1125,
      "##վեց": 1126,
      "բնակիչ": 1127,
      "թվականի": 1128,
      "##նորդ": 1129,
      "հիվ": 1130,
      "հիվանդ": 1131,
      "կիր": 1132,
      "##այլ": 1133,
      "հով": 1134,
      "խաղաղ": 1135,
      "շրջանակ": 1136,
      "բր": 1137,
      "ապահով": 1138,
      "##ավորման": 1139,
      "հայր": 1140,
      "սիր": 1141,
      "##ղթ": 1142,
      "որտեղ": 1143,
      "կառավարության": 1144,
      "նիկոլ": 1145,
      "ստոր": 1146,
      "##ախտ": 1147,
      "եվրոպ": 1148,
      "հոդ": 1149,
      "##ատր": 1150,
      "մեկն": 1151,
      "##ոնի": 1152,
      "##վածի": 1153,
      "պաշտպանության": 1154,
      "քաղաքացին": 1155,
      "արտահ": 1156,
      "քան": 1157,
      "ֆրան": 1158,
      "##ույլ": 1159,
      "ամբողջ": 1160,
      "թուրքիայի": 1161,
      "տեղափոխ": 1162,
      "ավտոմ": 1163,
      "դես": 1164,
      "##ահար": 1165,
      "տարվա": 1166,
      "մամուլի": 1167,
      "օրին": 1168,
      "դեպքում": 1169,
      "##իպ": 1170,
      "փրկ": 1171,
      "վիր": 1172,
      "լուծ": 1173,
      "##ռն": 1174,
      "նշեց": 1175,
      "##գել": 1176,
      "արցախի": 1177,
      "##րույցում": 1178,
      "##տիվ": 1179,
      "նախատես": 1180,
      "վայր": 1181,
      "տալ": 1182,
      "գիշ": 1183,
      "նախագահի": 1184,
      "16": 1185,
      "##ետր": 1186,
      "մեք": 1187,
      "թուրք": 1188,
      "մր": 1189,
      "վճ": 1190,
      "##նախ": 1191,
      "մասնավոր": 1192,
      "##ոփոխ": 1193,
      "շարունակ": 1194,
      "##նած": 1195,
      "##ամաս": 1196,
      "տղ": 1197,
      "##կր": 1198,
      "##ագիտ": 1199,
      "##քան": 1200,
      "հանց": 1201,
      "շնորհ": 1202,
      "##ոզ": 1203,
      "##աժամ": 1204,
      "սպաս": 1205,
      "մշակ": 1206,
      "##եստ": 1207,
      "առավել": 1208,
      "զոր": 1209,
      "##ավորված": 1210,
      "18": 1211,
      "դեպք": 1212,
      "##եի": 1213,
      "օգտագործ": 1214,
      "##ուգ": 1215,
      "պատճառով": 1216,
      "##ուբ": 1217,
      "պաշտպան": 1218,
      "գրում": 1219,
      "երեւանի": 1220,
      "ծան": 1221,
      "##անքի": 1222,
      "կարեւոր": 1223,
      "##քային": 1224,
      "##ացվել": 1225,
      "ղար": 1226,
      "14": 1227,
      "##անիշ": 1228,
      "մրց": 1229,
      "հասց": 1230,
      "կապված": 1231,
      "##անոց": 1232,
      "համապատ": 1233,
      "հանձնաժողով": 1234,
      "քաղաքապետ": 1235,
      "ամերի": 1236,
      "թույլ": 1237,
      "չուն": 1238,
      "տրամ": 1239,
      "##ոսի": 1240,
      "##աբաղ": 1241,
      "դրա": 1242,
      "##երազմ": 1243,
      "##ադրան": 1244,
      "հաշվ": 1245,
      "##ումն": 1246,
      "փոփոխ": 1247,
      "գազ": 1248,
      "չափ": 1249,
      "17": 1250,
      "ղարաբաղ": 1251,
      "անցկաց": 1252,
      "առանց": 1253,
      "թիվ": 1254,
      "կաս": 1255,
      "հերթ": 1256,
      "##արք": 1257,
      "ող": 1258,
      "միջեւ": 1259,
      "ընդհանուր": 1260,
      "##ողական": 1261,
      "13": 1262,
      "ավտոմեք": 1263,
      "##անս": 1264,
      "պատերազմ": 1265,
      "ձեռք": 1266,
      "քաղաքի": 1267,
      "##ումբ": 1268,
      "տնօր": 1269,
      "##եխն": 1270,
      "##զբ": 1271,
      "##ուք": 1272,
      "##իգ": 1273,
      "խն": 1274,
      "կա": 1275,
      "հավաք": 1276,
      "օրենս": 1277,
      "առաջարկ": 1278,
      "##an": 1279,
      "երկրների": 1280,
      "ոլորտ": 1281,
      "ել": 1282,
      "##եհ": 1283,
      "հրապարակ": 1284,
      "արդյունքում": 1285,
      "բժ": 1286,
      "հոգ": 1287,
      "խաչ": 1288,
      "ապրի": 1289,
      "##նակից": 1290,
      "հավել": 1291,
      "##ելը": 1292,
      "##ացնել": 1293,
      "##յակ": 1294,
      "մլն": 1295,
      "##գծ": 1296,
      "միջոցառ": 1297,
      "քաղաքացի": 1298,
      "կն": 1299,
      "աջակց": 1300,
      "բազմ": 1301,
      "արար": 1302,
      "բանակց": 1303,
      "մեզ": 1304,
      ".-": 1305,
      "##կած": 1306,
      "##ացնում": 1307,
      "դեսպան": 1308,
      "տարածաշրջ": 1309,
      "##ատեղ": 1310,
      "բանկ": 1311,
      "թվում": 1312,
      "հասարակ": 1313,
      "քայլ": 1314,
      "##իջոց": 1315,
      "##քները": 1316,
      "##արը": 1317,
      "ամերիկ": 1318,
      "չին": 1319,
      "ֆին": 1320,
      "գում": 1321,
      "##եւէ": 1322,
      "հիշեցնենք": 1323,
      "որոնց": 1324,
      "արեւ": 1325,
      "##րաժար": 1326,
      "25": 1327,
      "մարդկ": 1328,
      "ընդգծ": 1329,
      "մայի": 1330,
      "##կետ": 1331,
      "արագ": 1332,
      "##ոթ": 1333,
      "հայտնի": 1334,
      "պատվ": 1335,
      "մայր": 1336,
      "երեք": 1337,
      "որպեսզի": 1338,
      "հրաժար": 1339,
      "##անին": 1340,
      "տնտեսական": 1341,
      "##ահանգ": 1342,
      "ձեռն": 1343,
      "##անա": 1344,
      "քննչական": 1345,
      "ռազմական": 1346,
      "200": 1347,
      "աստ": 1348,
      "գնահատ": 1349,
      "լուս": 1350,
      "ապա": 1351,
      "մարզի": 1352,
      "զարգացման": 1353,
      "սեպ": 1354,
      "ստացել": 1355,
      "##եկտ": 1356,
      "կհ": 1357,
      "##որոշ": 1358,
      "աբ": 1359,
      "##որի": 1360,
      "գործընթաց": 1361,
      "բն": 1362,
      "##նող": 1363,
      "##ացված": 1364,
      "բող": 1365,
      "վրաստ": 1366,
      "##քեր": 1367,
      "մեկը": 1368,
      "ձեւ": 1369,
      "հատուկ": 1370,
      "ընդդ": 1371,
      "գործուն": 1372,
      "##ինգ": 1373,
      "ուղղությամբ": 1374,
      "պայք": 1375,
      "առողջ": 1376,
      "ճանաչ": 1377,
      "զրույցում": 1378,
      "նշենք": 1379,
      "դպր": 1380,
      "##ենը": 1381,
      "դիտ": 1382,
      "հոկ": 1383,
      "թեկ": 1384,
      "բռն": 1385,
      "նոյ": 1386,
      "կառուց": 1387,
      "##անագր": 1388,
      "աշխատակից": 1389,
      "##իտաս": 1390,
      "նավ": 1391,
      "կմ": 1392,
      "##եգ": 1393,
      "ձերբ": 1394,
      "ֆրանսի": 1395,
      "սպան": 1396,
      "որեւէ": 1397,
      "եւս": 1398,
      "մարտի": 1399,
      "երկրորդ": 1400,
      "##աճառ": 1401,
      "##րայ": 1402,
      "##աքին": 1403,
      "տվել": 1404,
      "մասնավորապես": 1405,
      "ընտ": 1406,
      "զբաղ": 1407,
      "առան": 1408,
      "գործունե": 1409,
      "զգ": 1410,
      "մյուս": 1411,
      "ստան": 1412,
      "փրկարար": 1413,
      "ռդ": 1414,
      "##նչ": 1415,
      "ձերբակալ": 1416,
      "դիր": 1417,
      "21": 1418,
      "համապատասխան": 1419,
      "##իսկ": 1420,
      "ակտիվ": 1421,
      "հարկ": 1422,
      "հեղ": 1423,
      "##ադար": 1424,
      "##եդ": 1425,
      "քարտ": 1426,
      "օրը": 1427,
      "##իների": 1428,
      "##ատի": 1429,
      "##ստահ": 1430,
      "ավարտ": 1431,
      "արգել": 1432,
      "կանխ": 1433,
      "տեխն": 1434,
      "##վոր": 1435,
      "երև": 1436,
      "մարդու": 1437,
      "##ևոր": 1438,
      "##անել": 1439,
      "ռուսական": 1440,
      "սկզբ": 1441,
      "թեկնած": 1442,
      "##ամիջոց": 1443,
      "շարք": 1444,
      "ուշ": 1445,
      "հետեւանքով": 1446,
      "խախտ": 1447,
      "##ախազ": 1448,
      "##իական": 1449,
      "համալ": 1450,
      "գիշերը": 1451,
      "գտնվող": 1452,
      "դավ": 1453,
      "կյան": 1454,
      "փողոց": 1455,
      "##ապարտ": 1456,
      "ֆինանս": 1457,
      "##աբեկ": 1458,
      "կրթ": 1459,
      "մեղադր": 1460,
      "դատախազ": 1461,
      "շենք": 1462,
      "միլի": 1463,
      "գալ": 1464,
      "եկել": 1465,
      "##պետ": 1466,
      "շրջան": 1467,
      "##պեր": 1468,
      "կալ": 1469,
      "որն": 1470,
      "բավ": 1471,
      "##սպ": 1472,
      "սեփ": 1473,
      "##քներ": 1474,
      "գրել": 1475,
      "##ույթի": 1476,
      "ծառայության": 1477,
      "նվազ": 1478,
      "##եին": 1479,
      "##ովը": 1480,
      "յուր": 1481,
      "համարում": 1482,
      "ներդր": 1483,
      "իրեն": 1484,
      "դեպքի": 1485,
      "տրամադր": 1486,
      "##ժմ": 1487,
      "արդար": 1488,
      "խնդր": 1489,
      "երիտաս": 1490,
      "##ոսկ": 1491,
      "ընդդիմ": 1492,
      "սեփական": 1493,
      "կուսակցության": 1494,
      "մանրամ": 1495,
      "երիտասարդ": 1496,
      "թեր": 1497,
      "չեմ": 1498,
      "##ամարտ": 1499,
      "խորհրդար": 1500,
      "դաս": 1501,
      "ցեղ": 1502,
      "նպատակով": 1503,
      "տուժ": 1504,
      "օրենք": 1505,
      "արձանագր": 1506,
      "նախաձ": 1507,
      "հարձ": 1508,
      "երե": 1509,
      "24": 1510,
      "##ոջ": 1511,
      "վստահ": 1512,
      "հիմա": 1513,
      "ողջ": 1514,
      "գործընկեր": 1515,
      "##իծ": 1516,
      "հաղթ": 1517,
      "վաճառ": 1518,
      "հիմնական": 1519,
      "##ամարդ": 1520,
      "##րանց": 1521,
      "##ոպ": 1522,
      "##մուն": 1523,
      "որով": 1524,
      "##եկան": 1525,
      "վարորդ": 1526,
      "շարժ": 1527,
      "կոմիտ": 1528,
      "մայիսի": 1529,
      "թող": 1530,
      "##զում": 1531,
      "արտադր": 1532,
      "##պիսի": 1533,
      "ընտանի": 1534,
      "արմեն": 1535,
      "փետր": 1536,
      "ապրիլի": 1537,
      "երեխան": 1538,
      "կիրառ": 1539,
      "ցեղաս": 1540,
      "իսրայ": 1541,
      "հունիսի": 1542,
      "կլինի": 1543,
      "##ուլիսի": 1544,
      "».": 1545,
      "երեկ": 1546,
      "փաստաթ": 1547,
      "##մանի": 1548,
      "##թեր": 1549,
      "աղբ": 1550,
      "22": 1551,
      "տղամարդ": 1552,
      "##արյանը": 1553,
      "սր": 1554,
      "իրանի": 1555,
      "արտաքին": 1556,
      "վկայ": 1557,
      "հոկտեմբերի": 1558,
      "դրանք": 1559,
      "##ագիրը": 1560,
      "դժ": 1561,
      "ներկայացրել": 1562,
      "ենթարկ": 1563,
      "հոդվածի": 1564,
      "##անն": 1565,
      "հյուս": 1566,
      "մոսկ": 1567,
      "##en": 1568,
      "##շի": 1569,
      "համագործակցության": 1570,
      "դեկ": 1571,
      "կարծում": 1572,
      "##ոյի": 1573,
      "ական": 1574,
      "ասում": 1575,
      "վարչության": 1576,
      "23": 1577,
      "լեռն": 1578,
      "##տար": 1579,
      "նահանգ": 1580,
      "##ենա": 1581,
      "հարավ": 1582,
      "ստորագր": 1583,
      "գրի": 1584,
      "##ակցությունը": 1585,
      "##ընդ": 1586,
      "խոր": 1587,
      "վիրավոր": 1588,
      "զինվոր": 1589,
      "##on": 1590,
      "հանցագործ": 1591,
      "##es": 1592,
      "##երեկ": 1593,
      "ցերեկ": 1594,
      "սահմանադր": 1595,
      "հատված": 1596,
      "մարդկանց": 1597,
      "եք": 1598,
      "թվականին": 1599,
      "վճար": 1600,
      "դաշ": 1601,
      "սեպտեմբերի": 1602,
      "դեկտեմբերի": 1603,
      "պահպան": 1604,
      "բախ": 1605,
      "օգն": 1606,
      "լինի": 1607,
      "կատարել": 1608,
      "հաջող": 1609,
      "առաջնորդ": 1610,
      "խորհրդի": 1611,
      "շաբ": 1612,
      "##ագիտական": 1613,
      "նախաձեռն": 1614,
      "ցույց": 1615,
      "##ախոս": 1616,
      "նոյեմբերի": 1617,
      "գրանց": 1618,
      "##վան": 1619,
      "հարցը": 1620,
      "##ուսի": 1621,
      "ունեցած": 1622,
      "մեղադրան": 1623,
      "##գոր": 1624,
      "ժողովուրդ": 1625,
      "##ովի": 1626,
      "ընկերության": 1627,
      "երթ": 1628,
      "##ություններով": 1629,
      "լրատվ": 1630,
      "սուր": 1631,
      "ակն": 1632,
      "ժամկետ": 1633,
      "նշված": 1634,
      "բացի": 1635,
      "ամիս": 1636,
      "նախարարության": 1637,
      "հանդիպման": 1638,
      "տալիս": 1639,
      "##ուդ": 1640,
      "##երմ": 1641,
      "խոշ": 1642,
      "էջ": 1643,
      "տարածքում": 1644,
      "##ադատ": 1645,
      "մասնակից": 1646,
      "երկար": 1647,
      "##in": 1648,
      "հրամ": 1649,
      "ցերեկը": 1650,
      "գագ": 1651,
      "հանգ": 1652,
      "հայաստանը": 1653,
      "փաշինյանը": 1654,
      "նախագծ": 1655,
      "թուրքական": 1656,
      "##եթ": 1657,
      "):": 1658,
      "շաբաթ": 1659,
      "100": 1660,
      "##ադառն": 1661,
      "տնօրեն": 1662,
      "դիրք": 1663,
      "հյուսիս": 1664,
      "դիվ": 1665,
      "հունվարի": 1666,
      "տակ": 1667,
      "ռե": 1668,
      "##ակազմ": 1669,
      "հենց": 1670,
      "##գործ": 1671,
      "##աքս": 1672,
      "բրիտ": 1673,
      "զանգ": 1674,
      "##ումից": 1675,
      "չինաստ": 1676,
      "հայոց": 1677,
      "պաշտոնական": 1678,
      "ուր": 1679,
      "միջոցով": 1680,
      "##ություններից": 1681,
      "եզ": 1682,
      "արել": 1683,
      "դպրոց": 1684,
      "##վեր": 1685,
      "##աքր": 1686,
      "##ույս": 1687,
      "ուսում": 1688,
      "##ացնելու": 1689,
      "օպեր": 1690,
      "##եւս": 1691,
      "ունեցող": 1692,
      "փետրվարի": 1693,
      "շտ": 1694,
      "##եբ": 1695,
      "վերահ": 1696,
      "ծանր": 1697,
      "տեղեկատվ": 1698,
      "սոցի": 1699,
      "##ցի": 1700,
      "երեւան": 1701,
      "##այից": 1702,
      "վարկ": 1703,
      "վնասված": 1704,
      "եվր": 1705,
      "##չության": 1706,
      "27": 1707,
      "ահաբեկ": 1708,
      "##անման": 1709,
      "լինելու": 1710,
      "առեւ": 1711,
      "),": 1712,
      "փակ": 1713,
      "##ոնը": 1714,
      "ադրբեջանական": 1715,
      "դադար": 1716,
      "ավագ": 1717,
      "մարդիկ": 1718,
      "մակարդ": 1719,
      "օգոստ": 1720,
      "կասկած": 1721,
      "դատապարտ": 1722,
      "քար": 1723,
      "երկիր": 1724,
      "##ավետ": 1725,
      "##առակ": 1726,
      "##ներգ": 1727,
      "անձանց": 1728,
      "##լին": 1729,
      "հարություն": 1730,
      "սերժ": 1731,
      "մարմին": 1732,
      "ձեռնարկ": 1733,
      "խոշոր": 1734,
      "##քից": 1735,
      "հարուց": 1736,
      "##ողները": 1737,
      "հետև": 1738,
      "հիվանդանոց": 1739,
      "հանրային": 1740,
      "ծրագրի": 1741,
      "##ետեւ": 1742,
      "գաղ": 1743,
      "##նախարար": 1744,
      "##ապնդ": 1745,
      "բաժան": 1746,
      "##ասեն": 1747,
      "##երթը": 1748,
      "##րեց": 1749,
      "##եքս": 1750,
      "դրանց": 1751,
      "հուլիսի": 1752,
      "##ահայտ": 1753,
      "##ծառայ": 1754,
      "առաջադր": 1755,
      "##ություններն": 1756,
      "##եծ": 1757,
      "գործով": 1758,
      "##եմբեր": 1759,
      "անկախ": 1760,
      "##իկական": 1761,
      "բժշ": 1762,
      "##ություններում": 1763,
      "իրավունքների": 1764,
      "հատկ": 1765,
      "##ակատար": 1766,
      "բացառ": 1767,
      "ինչը": 1768,
      "##ալական": 1769,
      "որոշում": 1770,
      "փոք": 1771,
      "քվե": 1772,
      "այսօրվա": 1773,
      "հակամարտ": 1774,
      "##նես": 1775,
      "##իքի": 1776,
      "այժմ": 1777,
      "ալի": 1778,
      "##երս": 1779,
      "տարին": 1780,
      "գումար": 1781,
      "##ավալ": 1782,
      "##ենքի": 1783,
      "##րած": 1784,
      "ազդ": 1785,
      "##ատն": 1786,
      "##աքաղաք": 1787,
      "այցել": 1788,
      "լրագրողների": 1789,
      "գրիգոր": 1790,
      "##ce": 1791,
      "վարդան": 1792,
      "ընդունել": 1793,
      "թեկնածու": 1794,
      "սարգսյանը": 1795,
      "չկա": 1796,
      "աղբյուր": 1797,
      "ինձ": 1798,
      "հարաբերությունների": 1799,
      "##ոլոգ": 1800,
      "բաղ": 1801,
      "նյութ": 1802,
      "սկսել": 1803,
      "համատեղ": 1804,
      "մահացել": 1805,
      "եվրոպական": 1806,
      "վտանգ": 1807,
      "##ենտ": 1808,
      "##եցրել": 1809,
      "թրամ": 1810,
      "թրամփ": 1811,
      "##գտ": 1812,
      "դատական": 1813,
      "էդ": 1814,
      "խմբակցության": 1815,
      "ուղղված": 1816,
      "լեռնային": 1817,
      "դատավոր": 1818,
      "կառավարման": 1819,
      "գող": 1820,
      "կոտ": 1821,
      "տր": 1822,
      "շրջանում": 1823,
      "լինել": 1824,
      "հովհան": 1825,
      "անում": 1826,
      "նախորդ": 1827,
      "զինծառայ": 1828,
      "նախագահը": 1829,
      "պատժ": 1830,
      "գործակալ": 1831,
      "##ar": 1832,
      "##իռ": 1833,
      "արթ": 1834,
      "դարձել": 1835,
      "բողո": 1836,
      "28": 1837,
      "վահ": 1838,
      "##աչափ": 1839,
      "հարցին": 1840,
      "##իկայի": 1841,
      "պահին": 1842,
      "որում": 1843,
      "կերպ": 1844,
      "խումբ": 1845,
      "ծն": 1846,
      "կարելի": 1847,
      "քարտուղ": 1848,
      "ինտ": 1849,
      "հետագ": 1850,
      "հհկ": 1851,
      "կետ": 1852,
      "խոստ": 1853,
      "աշխատանքի": 1854,
      "հնարավորություն": 1855,
      "##ումով": 1856,
      "երեւանում": 1857,
      "հիմնադր": 1858,
      "հանձնաժողովի": 1859,
      "օրենսգր": 1860,
      "քաղաքացիական": 1861,
      "##ադեպ": 1862,
      "տրան": 1863,
      "պայմանավորված": 1864,
      "դիմաց": 1865,
      "դիմել": 1866,
      "մասնակցել": 1867,
      "գործում": 1868,
      "միլիոն": 1869,
      "ծառ": 1870,
      "##անկար": 1871,
      "##ազոտ": 1872,
      "ինքը": 1873,
      "##աշխարհ": 1874,
      "հանգամ": 1875,
      "ապօր": 1876,
      "##կալ": 1877,
      "կուն": 1878,
      "##ուպ": 1879,
      "##al": 1880,
      "##ավարական": 1881,
      "##ակցությամբ": 1882,
      "հարցում": 1883,
      "տոն": 1884,
      "##ատիվ": 1885,
      "հետախ": 1886,
      "ուզում": 1887,
      "հեռուստ": 1888,
      "հաճ": 1889,
      "26": 1890,
      "վարչական": 1891,
      "թղթ": 1892,
      "ջր": 1893,
      "##ավայր": 1894,
      "ուժերի": 1895,
      "ոլորտում": 1896,
      "դատարանի": 1897,
      "օրինակ": 1898,
      "անուն": 1899,
      "համաշխարհ": 1900,
      "ամս": 1901,
      "համաշխարհային": 1902,
      "տան": 1903,
      "##ահամ": 1904,
      "##անային": 1905,
      "խմբի": 1906,
      "օգոստոսի": 1907,
      "##անավոր": 1908,
      "կանգ": 1909,
      "##ողի": 1910,
      "կազմել": 1911,
      "սպառն": 1912,
      "##or": 1913,
      "##ոսյանը": 1914,
      "տարեկան": 1915,
      "29": 1916,
      "վերահսկ": 1917,
      "##ավեր": 1918,
      "ուկրաինայի": 1919,
      "նախատեսված": 1920,
      "նով": 1921,
      "գեղ": 1922,
      "շին": 1923,
      "դիվան": 1924,
      "50": 1925,
      "ծր": 1926,
      "չոր": 1927,
      "##ատու": 1928,
      "հակոբ": 1929,
      "գտնվում": 1930,
      "ամերիկյան": 1931,
      "սպառ": 1932,
      "##իդ": 1933,
      "կորոն": 1934,
      "##ոյանը": 1935,
      "դաշն": 1936,
      "օբ": 1937,
      "ավտոմեքենան": 1938,
      "##ողներին": 1939,
      "ռուբ": 1940,
      "հետազոտ": 1941,
      "պայթ": 1942,
      "կկ": 1943,
      "ցանկանում": 1944,
      "##արժեք": 1945,
      "շրջանակներում": 1946,
      "##որտի": 1947,
      "առանձն": 1948,
      "փոքր": 1949,
      "առաք": 1950,
      "զինված": 1951,
      "կառավարությունը": 1952,
      "մակնի": 1953,
      "ագ": 1954,
      "##ter": 1955,
      "պատվիր": 1956,
      "կորոնավիր": 1957,
      "հեր": 1958,
      "ընկերությունը": 1959,
      "իշխանությունները": 1960,
      "##եմատ": 1961,
      "##գրավ": 1962,
      "արձագ": 1963,
      "տեղափոխվել": 1964,
      "ագն": 1965,
      "կտր": 1966,
      "պող": 1967,
      "բուժ": 1968,
      "եկեղ": 1969,
      "հաջորդ": 1970,
      "մեքենան": 1971,
      "##ակոչ": 1972,
      "##աքրք": 1973,
      "չենք": 1974,
      "##յուջ": 1975,
      "սարք": 1976,
      "միաս": 1977,
      "##at": 1978,
      "ապրան": 1979,
      "վրաստանի": 1980,
      "այնպես": 1981,
      "բացահայտ": 1982,
      "հրաման": 1983,
      "ընդգծել": 1984,
      "թերթի": 1985,
      "##it": 1986,
      "##ագահ": 1987,
      "##իճան": 1988,
      "անմ": 1989,
      "հետաքրք": 1990,
      "##ափակ": 1991,
      "վարչապետի": 1992,
      "հարձակ": 1993,
      "հոս": 1994,
      "փուլ": 1995,
      "##ոճ": 1996,
      "ակց": 1997,
      "պուտ": 1998,
      "գերմանի": 1999,
      "##յակի": 2000,
      "երկրում": 2001,
      "հայտնաբերվել": 2002,
      "հի": 2003,
      "##գրես": 2004,
      "ծառայությունից": 2005,
      "ռեժ": 2006,
      "մակնիշի": 2007,
      "##ագն": 2008,
      "##ազրկ": 2009,
      "##իկա": 2010,
      "կգ": 2011,
      "##մի": 2012,
      "##անչ": 2013,
      "##ստեղ": 2014,
      "բերել": 2015,
      "պլ": 2016,
      "##անալ": 2017,
      "լուրջ": 2018,
      "##վազ": 2019,
      "##նասիր": 2020,
      "##երձ": 2021,
      "վերական": 2022,
      "մշտ": 2023,
      "կտ": 2024,
      "օդ": 2025,
      "##երտ": 2026,
      "շարունակում": 2027,
      "տիգ": 2028,
      "բժշկական": 2029,
      "##իի": 2030,
      "##ազոր": 2031,
      "օդան": 2032,
      "##ագրի": 2033,
      "##աթիվ": 2034,
      "նվիր": 2035,
      "տիգրան": 2036,
      "հետախուզ": 2037,
      "##oo": 2038,
      "էլեկ": 2039,
      "##գնաժամ": 2040,
      "մարտական": 2041,
      "##ակցի": 2042,
      "առկա": 2043,
      "թռ": 2044,
      "վթ": 2045,
      "##ինակ": 2046,
      "թիվը": 2047,
      "զինվորական": 2048,
      "հանգամանք": 2049,
      "ատ": 2050,
      "սոցիալական": 2051,
      "աշ": 2052,
      "##անցի": 2053,
      "օդանավ": 2054,
      "##արյանի": 2055,
      "##րդեհ": 2056,
      "նախարարի": 2057,
      "ովքեր": 2058,
      "որովհ": 2059,
      "##ացումը": 2060,
      "հաղորդագր": 2061,
      "վայ": 2062,
      "այստեղ": 2063,
      "կարևոր": 2064,
      "ներառ": 2065,
      "իշխանության": 2066,
      "ինչի": 2067,
      "դեր": 2068,
      "##եւան": 2069,
      "նստ": 2070,
      "##նակի": 2071,
      "հանդես": 2072,
      "դադարեց": 2073,
      "կենտրոնական": 2074,
      "ապօրինի": 2075,
      "գրասեն": 2076,
      "կոմիտեի": 2077,
      "խորհրդարանական": 2078,
      "##ատակարար": 2079,
      "որդ": 2080,
      "ստացվել": 2081,
      "փաստաթղթ": 2082,
      "ժողովրդի": 2083,
      "հրդեհ": 2084,
      "ճգնաժամ": 2085,
      "կապակցությամբ": 2086,
      "մլրդ": 2087,
      "40": 2088,
      "ամր": 2089,
      "պարզվել": 2090,
      "վատ": 2091,
      "մանրամասն": 2092,
      "դժվար": 2093,
      "հակառակ": 2094,
      "ջերմ": 2095,
      "##ունակ": 2096,
      "ուսումնասիր": 2097,
      "##աֆ": 2098,
      "առաքել": 2099,
      "31": 2100,
      "հաշվի": 2101,
      "##ամի": 2102,
      "##ացող": 2103,
      "օրենսգրքի": 2104,
      "նախարարը": 2105,
      "լղ": 2106,
      "##րորդ": 2107,
      "կանոն": 2108,
      "##գի": 2109,
      "էներգ": 2110,
      "##et": 2111,
      "կատարելու": 2112,
      "ծախ": 2113,
      "##մար": 2114,
      "հարցերի": 2115,
      "##շաբ": 2116,
      "սարգսյանի": 2117,
      "##անտ": 2118,
      "փորձում": 2119,
      "##ավորում": 2120,
      "դեպի": 2121,
      "ծավալ": 2122,
      "տաս": 2123,
      "պայքար": 2124,
      "տրանսպ": 2125,
      "բել": 2126,
      "##ացում": 2127,
      "կլին": 2128,
      "ցեղասպանության": 2129,
      "co": 2130,
      "օրվա": 2131,
      "առեւտր": 2132,
      "արդյունավետ": 2133,
      "արթուր": 2134,
      "հաճախ": 2135,
      "##ադի": 2136,
      "կազմում": 2137,
      "սահմաններում": 2138,
      "##նեն": 2139,
      "##ստակ": 2140,
      "ենթադր": 2141,
      "մոսկվ": 2142,
      "դուք": 2143,
      "իրավիճակ": 2144,
      "հարված": 2145,
      "վերադարձ": 2146,
      "գյում": 2147,
      "սյուն": 2148,
      "##ադիմ": 2149,
      "նատ": 2150,
      "##ովոր": 2151,
      "իրենք": 2152,
      "##անյութ": 2153,
      "վան": 2154,
      "որոշումը": 2155,
      "##թիվ": 2156,
      "վերաբերում": 2157,
      "համալս": 2158,
      "բազմաթիվ": 2159,
      "ապագ": 2160,
      "նույնիսկ": 2161,
      "դատարանը": 2162,
      "##նշ": 2163,
      "##իկի": 2164,
      "չէր": 2165,
      "փաշինյանի": 2166,
      "թերթը": 2167,
      "քոչ": 2168,
      "##անյանը": 2169,
      "նչ": 2170,
      "ելույթ": 2171,
      "գույ": 2172,
      "կառույց": 2173,
      "արժեք": 2174,
      "հստակ": 2175,
      "նախաքնն": 2176,
      "փոխար": 2177,
      "ծախս": 2178,
      "խաչատր": 2179,
      "##նայ": 2180,
      "միջնորդ": 2181,
      "ղարաբաղի": 2182,
      "##անելի": 2183,
      "ունենք": 2184,
      "արդյ": 2185,
      "բարեկ": 2186,
      "դառն": 2187,
      "քաղաքում": 2188,
      "##աքանչ": 2189,
      "ասվում": 2190,
      "ապր": 2191,
      "քննարկել": 2192,
      "շրջանակում": 2193,
      "պատվիրակ": 2194,
      "բյուջ": 2195,
      "եռ": 2196,
      "ալեքս": 2197,
      "ռեժիմ": 2198,
      "ռո": 2199,
      "գործերի": 2200,
      "##սկի": 2201,
      "աշխատանքային": 2202,
      "արձագանք": 2203,
      "վլ": 2204,
      "յուրաքանչ": 2205,
      "##անան": 2206,
      "օպերատիվ": 2207,
      "##քերի": 2208,
      "տեղակալ": 2209,
      "հանդիս": 2210,
      "մայրաքաղաք": 2211,
      "յուրաքանչյուր": 2212,
      "ցանկացած": 2213,
      "##շաբթի": 2214,
      "##ակա": 2215,
      "ցավ": 2216,
      "##ականը": 2217,
      "դի": 2218,
      "2018": 2219,
      "կուսակց": 2220,
      "##ահկ": 2221,
      "գործողությունների": 2222,
      "##ահավ": 2223,
      "կրակ": 2224,
      "կայուն": 2225,
      "##եյս": 2226,
      "կարծի": 2227,
      "տվյալներով": 2228,
      "փախ": 2229,
      "##ականի": 2230,
      "##ազանգ": 2231,
      "իրավիճակը": 2232,
      "պետր": 2233,
      "գործի": 2234,
      "փորձագետ": 2235,
      "օրակարգ": 2236,
      "նատօ": 2237,
      "##անշ": 2238,
      "հերթական": 2239,
      "դաշին": 2240,
      "##դող": 2241,
      "աշխարհի": 2242,
      "մասի": 2243,
      "##նա": 2244,
      "պետության": 2245,
      "հայտարարեց": 2246,
      "ջանք": 2247,
      "##նիս": 2248,
      "մասով": 2249,
      "լար": 2250,
      "ուղարկ": 2251,
      "##կոն": 2252,
      "վերց": 2253,
      "##ատուց": 2254,
      "դոլարի": 2255,
      "2020": 2256,
      "պատերազմի": 2257,
      "զենք": 2258,
      "##ոյան": 2259,
      "##le": 2260,
      "##ազատ": 2261,
      "գյուղի": 2262,
      "հարավային": 2263,
      "նովոստ": 2264,
      "##ակառ": 2265,
      "խորհուրդ": 2266,
      "գոտ": 2267,
      "մուտ": 2268,
      "##ողության": 2269,
      "##ստանի": 2270,
      "էրդող": 2271,
      "հոդված": 2272,
      "քարտուղար": 2273,
      "համեմատ": 2274,
      "համայնքի": 2275,
      "այնտեղ": 2276,
      "առնչ": 2277,
      "նշվում": 2278,
      "քիչ": 2279,
      "##ակետ": 2280,
      "թաղ": 2281,
      "ներքին": 2282,
      "դրանից": 2283,
      "չունի": 2284,
      "##անապարհ": 2285,
      "ենթարկել": 2286,
      "անդրադառն": 2287,
      "##իծը": 2288,
      "պարբեր": 2289,
      "քաղաքացիների": 2290,
      "կին": 2291,
      "մեկնել": 2292,
      "ավտոճ": 2293,
      "բաժնի": 2294,
      "փոխանցում": 2295,
      "մեկի": 2296,
      "հրավիր": 2297,
      "պարտավոր": 2298,
      "ավտոճանապարհ": 2299,
      "##պանի": 2300,
      "սահակ": 2301,
      "հովհաննիս": 2302,
      "պր": 2303,
      "##ասխ": 2304,
      "##ազգ": 2305,
      "արեւել": 2306,
      "կդ": 2307,
      "պնդ": 2308,
      "օրենքի": 2309,
      "կնոջ": 2310,
      "բաք": 2311,
      "հղ": 2312,
      "մասը": 2313,
      "ստիպ": 2314,
      "199": 2315,
      "հայրենի": 2316,
      "թուրքիան": 2317,
      "հյուսիսային": 2318,
      "մաքս": 2319,
      "բնական": 2320,
      "հյուր": 2321,
      "##իշտ": 2322,
      "մանկ": 2323,
      "##ատոր": 2324,
      "##ադիմիր": 2325,
      "լիազոր": 2326,
      "##ահան": 2327,
      "ամուս": 2328,
      "լրատվամիջոց": 2329,
      "վլադիմիր": 2330,
      "##ութային": 2331,
      "##ակով": 2332,
      "ընտրությունների": 2333,
      "դեռեւս": 2334,
      "տեխնոլոգ": 2335,
      "զր": 2336,
      "ֆոտ": 2337,
      "դավիթ": 2338,
      "սար": 2339,
      "համակարգի": 2340,
      "տոկոսով": 2341,
      "հերթին": 2342,
      "տուն": 2343,
      "##եւի": 2344,
      "տեղեկացրել": 2345,
      "եահկ": 2346,
      "##քերը": 2347,
      "##չի": 2348,
      "անել": 2349,
      "լս": 2350,
      "հող": 2351,
      "սովոր": 2352,
      "համոզ": 2353,
      "կենտրոնի": 2354,
      "այսին": 2355,
      "դրամով": 2356,
      "սահմանադրական": 2357,
      "զեկ": 2358,
      "##արանում": 2359,
      "շփ": 2360,
      "ախ": 2361,
      "մասնագետ": 2362,
      "##ադատության": 2363,
      "000": 2364,
      "##աշեն": 2365,
      "էջում": 2366,
      "վկայակոչ": 2367,
      "ռիա": 2368,
      "##ազանց": 2369,
      "##ոնալ": 2370,
      "##տրական": 2371,
      "##իզնես": 2372,
      "բողոքի": 2373,
      "տասն": 2374,
      "պատասխանատվ": 2375,
      "գիտնական": 2376,
      "շիր": 2377,
      "##he": 2378,
      "ընկ": 2379,
      "տեղեկացնում": 2380,
      "դատարան": 2381,
      "հռ": 2382,
      "արտակարգ": 2383,
      "կեղծ": 2384,
      "##քներով": 2385,
      "ֆրանսիայի": 2386,
      "գեւոր": 2387,
      "առթիվ": 2388,
      "##ավորել": 2389,
      "մինչև": 2390,
      "իշխանությունների": 2391,
      "բավարար": 2392,
      "հինգ": 2393,
      "միջադեպ": 2394,
      "##ապատրաստ": 2395,
      "տուժած": 2396,
      "##արկի": 2397,
      "արձակ": 2398,
      "մեկնաբան": 2399,
      "սպառնալի": 2400,
      "այսինքն": 2401,
      "կարգավորման": 2402,
      "սեւ": 2403,
      "##կաս": 2404,
      "##այով": 2405,
      "զոհվել": 2406,
      "արեւմ": 2407,
      "ներգրավ": 2408,
      "նախնական": 2409,
      "նույնպես": 2410,
      "բրիտանի": 2411,
      "եզր": 2412,
      "##եմբերին": 2413,
      "հուշ": 2414,
      "35": 2415,
      "##ացիայի": 2416,
      "բավական": 2417,
      "հատկապես": 2418,
      "կի": 2419,
      "##ճատ": 2420,
      "##ովին": 2421,
      "հարակից": 2422,
      "##իսին": 2423,
      "բիզնես": 2424,
      "չհ": 2425,
      "ահազանգ": 2426,
      "սամ": 2427,
      "սկզբուն": 2428,
      "արաբ": 2429,
      "առաջն": 2430,
      "ուղեւոր": 2431,
      "խաղաղության": 2432,
      "ստեփ": 2433,
      "գործունեության": 2434,
      "նկար": 2435,
      "չնայ": 2436,
      "գեւորգ": 2437,
      "աին": 2438,
      "%-": 2439,
      "հազ": 2440,
      "##եթե": 2441,
      "կարեն": 2442,
      "կրթության": 2443,
      "կենս": 2444,
      "չնայած": 2445,
      "գծ": 2446,
      "##բերտ": 2447,
      "որովհետեւ": 2448,
      "##աշարժ": 2449,
      "##ելուց": 2450,
      "ներկա": 2451,
      "##աթիռ": 2452,
      "##եներ": 2453,
      "##ենայի": 2454,
      "կարապետ": 2455,
      "ոստիկանությունը": 2456,
      "վկայակոչելով": 2457,
      "չար": 2458,
      "գագիկ": 2459,
      "ազդեց": 2460,
      "առավոտ": 2461,
      "##ատնտես": 2462,
      "թանկ": 2463,
      "խմ": 2464,
      "սխ": 2465,
      "##հկ": 2466,
      "##անալու": 2467,
      "պատժամիջոց": 2468,
      "միջին": 2469,
      "մոտեց": 2470,
      "հեռախոս": 2471,
      "հույս": 2472,
      "անդրադարձ": 2473,
      "լրաց": 2474,
      "հնչ": 2475,
      "##առանգ": 2476,
      "երեխ": 2477,
      "հայտնվել": 2478,
      "##իայում": 2479,
      "նշում": 2480,
      "եղբ": 2481,
      "պալ": 2482,
      "առն": 2483,
      "մարզում": 2484,
      "կես": 2485,
      "ձայն": 2486,
      "ճնշ": 2487,
      "##ացույց": 2488,
      "հաշվարկ": 2489,
      "սուրբ": 2490,
      "որից": 2491,
      "դիրքորոշ": 2492,
      "##..": 2493,
      "##իշկ": 2494,
      "արտահայտ": 2495,
      "իրավական": 2496,
      "իրավապահ": 2497,
      "ադրբեջանը": 2498,
      "երրորդ": 2499,
      "##լայն": 2500,
      "խորհրդարանի": 2501,
      "##որտային": 2502,
      "##ատեր": 2503,
      "ինստ": 2504,
      "հարցեր": 2505,
      "տարածք": 2506,
      "ֆինանսական": 2507,
      "##am": 2508,
      "##անու": 2509,
      "միաց": 2510,
      "կատարվում": 2511,
      "ազատազրկ": 2512,
      "պահանջում": 2513,
      "հայտնաբերել": 2514,
      "հասարակական": 2515,
      "ընդդիմադիր": 2516,
      "ձեզ": 2517,
      "որոշակի": 2518,
      "աֆ": 2519,
      "ժողովի": 2520,
      "բժիշկ": 2521,
      "կունենա": 2522,
      "##եւը": 2523,
      "##աբանական": 2524,
      "կրկին": 2525,
      "ստեղծել": 2526,
      "բերման": 2527,
      "գյումրի": 2528,
      "պն": 2529,
      "##վեցին": 2530,
      "խնդիրը": 2531,
      "շուկ": 2532,
      "հայտարարության": 2533,
      "նախկինում": 2534,
      "առողջապահ": 2535,
      "փոխանցմամբ": 2536,
      "մարգ": 2537,
      "ժամանակահատ": 2538,
      "գազի": 2539,
      "##ինք": 2540,
      "գործարար": 2541,
      "արամ": 2542,
      "ազգ": 2543,
      "քաղաքականության": 2544,
      "պայմաններում": 2545,
      "հայկ": 2546,
      "հրապարակում": 2547,
      "իրավունք": 2548,
      "անդրադառնալով": 2549,
      "ինստիտ": 2550,
      "##թն": 2551,
      "աշխատակազմ": 2552,
      "չինաստանի": 2553,
      "գար": 2554,
      "կող": 2555,
      "##ամական": 2556,
      "իհ": 2557,
      "նպաստ": 2558,
      "մատակարար": 2559,
      "##կանում": 2560,
      "քվեարկ": 2561,
      "ժառանգ": 2562,
      "աշխատել": 2563,
      "ուշադր": 2564,
      "արդարադատության": 2565,
      "ներկայում": 2566,
      "ինք": 2567,
      "անձնական": 2568,
      "##ամտ": 2569,
      "բաժին": 2570,
      "##ահայ": 2571,
      "առումով": 2572,
      "եկեղեց": 2573,
      "շենքի": 2574,
      "աշխատում": 2575,
      "2019": 2576,
      "սյունիքի": 2577,
      "##ացու": 2578,
      "խնդիրների": 2579,
      "ծեծ": 2580,
      "##սեն": 2581,
      "տեղադր": 2582,
      "ընդամ": 2583,
      "արդյոք": 2584,
      "##խոս": 2585,
      "ստուգ": 2586,
      "տասս": 2587,
      "նամ": 2588,
      "շնորհակալ": 2589,
      "##ունի": 2590,
      "բալ": 2591,
      "թմ": 2592,
      "##ացավ": 2593,
      "աղջ": 2594,
      "հակամարտության": 2595,
      "##ահոգ": 2596,
      "որոշել": 2597,
      "իտ": 2598,
      "գրավ": 2599,
      "հետաքրքր": 2600,
      "ճապ": 2601,
      "##եյսբ": 2602,
      "թիմ": 2603,
      "##ինե": 2604,
      "##այել": 2605,
      "բախվել": 2606,
      "##լանդ": 2607,
      "կազմակերպության": 2608,
      "միակ": 2609,
      "ընդամենը": 2610,
      "ռուսաստանը": 2611,
      "##ուհի": 2612,
      "հետագա": 2613,
      "օտար": 2614,
      "մերժ": 2615,
      "անցած": 2616,
      "ծառայությունը": 2617,
      "զբոս": 2618,
      "հրամանատար": 2619,
      "գնում": 2620,
      "##ագծ": 2621,
      "տարածքային": 2622,
      "##եփոխ": 2623,
      "հաստատել": 2624,
      "հեռուստա": 2625,
      "ֆեյսբ": 2626,
      "##ասյանը": 2627,
      "գրեթե": 2628,
      "ոսկ": 2629,
      "կալանավոր": 2630,
      "պաշտոնյան": 2631,
      "##ավուշ": 2632,
      "##արկե": 2633,
      "եղանակ": 2634,
      "հանդիպել": 2635,
      "ուժեղ": 2636,
      "բարեփոխ": 2637,
      "##երկր": 2638,
      "դրական": 2639,
      "իսրայել": 2640,
      "օրերին": 2641,
      "##ուխ": 2642,
      "ներք": 2643,
      "որոշման": 2644,
      "արմավիր": 2645,
      "մեղադրանք": 2646,
      "##ացական": 2647,
      "##եքստ": 2648,
      "աշոտ": 2649,
      "սեն": 2650,
      "##աբաժ": 2651,
      "վարչապետը": 2652,
      "##ոռուպ": 2653,
      "դիտարկ": 2654,
      "կյանքի": 2655,
      "չկ": 2656,
      "տեր": 2657,
      "մարզպետ": 2658,
      "այր": 2659,
      "փաստաբան": 2660,
      "հրաժարվել": 2661,
      "իհարկե": 2662,
      "##ետի": 2663,
      "ավետ": 2664,
      "թափ": 2665,
      "##el": 2666,
      "հետաքնն": 2667,
      "##ուկային": 2668,
      "fa": 2669,
      "##րահամ": 2670,
      "##ազան": 2671,
      "մտած": 2672,
      "անվան": 2673,
      "նշանակում": 2674,
      "լուսանկար": 2675,
      "հեղինակ": 2676,
      "գրանցվել": 2677,
      "##ավարձ": 2678,
      "##ունդ": 2679,
      "լայն": 2680,
      "տեղական": 2681,
      "##ացմանը": 2682,
      "մահվան": 2683,
      "##աժամանակ": 2684,
      "առանձ": 2685,
      "հոր": 2686,
      "##լուծ": 2687,
      "##ուսափ": 2688,
      "հասել": 2689,
      "նախարարությունը": 2690,
      "կրկ": 2691,
      "տոկոսը": 2692,
      "տիր": 2693,
      "գործիչ": 2694,
      "շրջանի": 2695,
      "հարաբերությունները": 2696,
      "միության": 2697,
      "փորձել": 2698,
      "արարատ": 2699,
      "դաշտ": 2700,
      "##եցնել": 2701,
      "սպասվում": 2702,
      "տարածաշրջանում": 2703,
      "պատկեր": 2704,
      "վիճակը": 2705,
      "աբրահամ": 2706,
      "կոտայ": 2707,
      "##եֆ": 2708,
      "տեղում": 2709,
      "հասկան": 2710,
      "2016": 2711,
      "քարոզ": 2712,
      "այնուհ": 2713,
      "նիստում": 2714,
      "աշխարհում": 2715,
      "շինարար": 2716,
      "կաթ": 2717,
      "##կի": 2718,
      "որին": 2719,
      "ինստիտուտ": 2720,
      "փաթ": 2721,
      "ավանդ": 2722,
      "##անդակ": 2723,
      "ունենալ": 2724,
      "գաղտ": 2725,
      "պրո": 2726,
      "տեղեկություններով": 2727,
      "ցուցանիշ": 2728,
      "ամրապնդ": 2729,
      "հյ": 2730,
      "##ահր": 2731,
      "գալիս": 2732,
      "հարուցվել": 2733,
      "ռոբերտ": 2734,
      "##ur": 2735,
      "խոսել": 2736,
      "կրճատ": 2737,
      "##ողը": 2738,
      "2015": 2739,
      "ձերբակալվել": 2740,
      "ավագանու": 2741,
      "բեռն": 2742,
      "##եսի": 2743,
      "նախապատրաստ": 2744,
      "այցելել": 2745,
      "ձև": 2746,
      "սպանության": 2747,
      "գործը": 2748,
      "բողոք": 2749,
      "##ահավաք": 2750,
      "առջ": 2751,
      "հարթ": 2752,
      "մերձ": 2753,
      "օրենսդր": 2754,
      "բանկի": 2755,
      "աթ": 2756,
      "##զմ": 2757,
      "միջուկային": 2758,
      "ներկայացուցիչների": 2759,
      "##ստի": 2760,
      "անմիջ": 2761,
      "ենթարկվել": 2762,
      "արագած": 2763,
      "կախ": 2764,
      "##ասար": 2765,
      "մտահոգ": 2766,
      "խնդիրները": 2767,
      "կորե": 2768,
      "փողոցի": 2769,
      "արժան": 2770,
      "զանգված": 2771,
      "re": 2772,
      "երեխաների": 2773,
      "միացյալ": 2774,
      "աշխատավարձ": 2775,
      "##աժողովի": 2776,
      "մանրամաս": 2777,
      "միաժամանակ": 2778,
      "միջոցառումների": 2779,
      "##պատ": 2780,
      "տեսանյութ": 2781,
      "ուսան": 2782,
      "##st": 2783,
      "հարցազ": 2784,
      "ծրագիրը": 2785,
      "...": 2786,
      "ճիշտ": 2787,
      "վր": 2788,
      "վարդ": 2789,
      "մարզային": 2790,
      "սերգ": 2791,
      "բաժանորդ": 2792,
      "վերան": 2793,
      "շնորհիվ": 2794,
      "օբյ": 2795,
      "անտ": 2796,
      "դրս": 2797,
      "փրկարարական": 2798,
      "##վազն": 2799,
      "հրազ": 2800,
      "առնվազն": 2801,
      "կիս": 2802,
      "##ակաց": 2803,
      "##իկը": 2804,
      "2014": 2805,
      "մարմնական": 2806,
      "հավելել": 2807,
      "գործընթացը": 2808,
      "մշտական": 2809,
      "որքան": 2810,
      "հարցերով": 2811,
      "կատարվել": 2812,
      "ծնված": 2813,
      "բհկ": 2814,
      "##քել": 2815,
      "##ամուտ": 2816,
      "##ոլի": 2817,
      "առաջիկա": 2818,
      "կբ": 2819,
      "##ովկաս": 2820,
      "##իտի": 2821,
      "դիմում": 2822,
      "կարգավոր": 2823,
      "խնդիրներ": 2824,
      "նվիրված": 2825,
      "##աստանի": 2826,
      "այդպես": 2827,
      "կատարված": 2828,
      "բելառ": 2829,
      "ծով": 2830,
      "##այք": 2831,
      "մտադիր": 2832,
      "լիբ": 2833,
      "պայթյուն": 2834,
      "the": 2835,
      "գոյ": 2836,
      "##շավ": 2837,
      "երաշխ": 2838,
      "միշտ": 2839,
      "իսրայելի": 2840,
      "առողջապահության": 2841,
      "առնելով": 2842,
      "իրականացնել": 2843,
      "##ակառուց": 2844,
      "ֆոտո": 2845,
      "իրադարձ": 2846,
      "նորմ": 2847,
      "աճել": 2848,
      "վերականգն": 2849,
      "միջև": 2850,
      "ընդլայն": 2851,
      "##գրկ": 2852,
      "սկսվել": 2853,
      "հայտնեց": 2854,
      "ազատության": 2855,
      "երևան": 2856,
      "##ոնդ": 2857,
      "ընթ": 2858,
      "##թիռ": 2859,
      "գյուղատնտես": 2860,
      "կարծիքով": 2861,
      "հարգ": 2862,
      "անցյալ": 2863,
      "շարունակվում": 2864,
      "ղազ": 2865,
      "ցուցաբեր": 2866,
      "ծառուկ": 2867,
      "իջ": 2868,
      "անձի": 2869,
      "երևանի": 2870,
      "հիման": 2871,
      "զեկույց": 2872,
      "սխալ": 2873,
      "մետ": 2874,
      "ֆիլ": 2875,
      "##ենային": 2876,
      "առարկ": 2877,
      "վերլուծ": 2878,
      "հավան": 2879,
      "սամվել": 2880,
      "##ողություն": 2881,
      "սպիտ": 2882,
      "հարությունյանը": 2883,
      "լեւ": 2884,
      "նշելով": 2885,
      "խոսքը": 2886,
      "զոհերի": 2887,
      "պատրաստվում": 2888,
      "կստ": 2889,
      "շեշտ": 2890,
      "##ակն": 2891,
      "հանձ": 2892,
      "հակառակորդ": 2893,
      "առանձին": 2894,
      "հյդ": 2895,
      "##ականների": 2896,
      "##գործնախարար": 2897,
      "ալեքսան": 2898,
      "ոտ": 2899,
      "##իլի": 2900,
      "զար": 2901,
      "լոռ": 2902,
      "հսկ": 2903,
      "##ic": 2904,
      "այսպես": 2905,
      "ներկայացնում": 2906,
      "##ույթը": 2907,
      "տարածաշրջանային": 2908,
      "##իները": 2909,
      "##րաձ": 2910,
      "այնքան": 2911,
      "ընտրական": 2912,
      "##արկման": 2913,
      "տեսակի": 2914,
      "##կրետ": 2915,
      "ծանոթ": 2916,
      "պայքարի": 2917,
      "ցեղասպան": 2918,
      "շու": 2919,
      "##աների": 2920,
      "##ինչ": 2921,
      "ղեկավարը": 2922,
      "ժամանակահատված": 2923,
      "##փոփ": 2924,
      "##անձ": 2925,
      "միջոցներ": 2926,
      "##ակների": 2927,
      "աշխատանքների": 2928,
      "կենտրոնում": 2929,
      "թղթակցի": 2930,
      "չորս": 2931,
      "##րամի": 2932,
      "##րիստ": 2933,
      "ծրագրերի": 2934,
      "կշ": 2935,
      "սիմ": 2936,
      "##զոր": 2937,
      "ընդգրկ": 2938,
      "հանձնարար": 2939,
      "կոնգրես": 2940,
      "գնդ": 2941,
      "##եցնում": 2942,
      "##արձակ": 2943,
      "##բերգ": 2944,
      "կոնկրետ": 2945,
      "ուժի": 2946,
      "##ընթաց": 2947,
      "շուտ": 2948,
      "կանանց": 2949,
      "մասնակցելու": 2950,
      "աստիճան": 2951,
      "տեխնոլոգիան": 2952,
      "իրավաս": 2953,
      "բնակչության": 2954,
      "եվրոպայի": 2955,
      "##ուքյան": 2956,
      "թեմ": 2957,
      "հնդ": 2958,
      "##իղ": 2959,
      "##il": 2960,
      "աշխատանքները": 2961,
      "համագործակց": 2962,
      "##շն": 2963,
      "վիճակում": 2964,
      "շտապ": 2965,
      "գերմանիայի": 2966,
      "բաբ": 2967,
      "կապերի": 2968,
      "իսլ": 2969,
      "հայրեն": 2970,
      "զգալի": 2971,
      "##րատ": 2972,
      "##օգն": 2973,
      "##այրի": 2974,
      "##ավիճ": 2975,
      "##աստի": 2976,
      "հանդիպում": 2977,
      "համալիր": 2978,
      "գագաթ": 2979,
      "սփ": 2980,
      "տավուշ": 2981,
      "##ro": 2982,
      "փոխարժեք": 2983,
      "##միր": 2984,
      "##անակի": 2985,
      "##արանը": 2986,
      "##եւեկ": 2987,
      "հավանական": 2988,
      "կենդան": 2989,
      "տեսնում": 2990,
      "##ook": 2991,
      "թագ": 2992,
      "2017": 2993,
      "ղեկավարի": 2994,
      "ստեղծված": 2995,
      "խումբը": 2996,
      "մեխ": 2997,
      "սահմանված": 2998,
      "եվրամի": 2999,
      "կոտայքի": 3000,
      "##ախմբ": 3001,
      "արդյունքները": 3002,
      "քննարկման": 3003,
      "իրավիճակի": 3004,
      "հատվածում": 3005,
      "չգ": 3006,
      "##հայտ": 3007,
      "բնակարան": 3008,
      "խափ": 3009,
      "երկկ": 3010,
      "խոսում": 3011,
      "##ընկեր": 3012,
      "34": 3013,
      "ցանց": 3014,
      "##ատրել": 3015,
      "նախըն": 3016,
      "մասնակի": 3017,
      "տեղակայ": 3018,
      "էինք": 3019,
      "աշխատանքը": 3020,
      "առաջադրվել": 3021,
      "##book": 3022,
      "ժամանակավոր": 3023,
      "բանտ": 3024,
      "երթեւեկ": 3025,
      "դիվանագիտական": 3026,
      "առավոտյան": 3027,
      "փոխհ": 3028,
      "հատկաց": 3029,
      "հանրապետական": 3030,
      "տնտեսության": 3031,
      "##յուռ": 3032,
      "հանդեպ": 3033,
      "ստանալ": 3034,
      "face": 3035,
      "բոր": 3036,
      "բարդ": 3037,
      "##ևէ": 3038,
      "##ակտ": 3039,
      "##ավորվել": 3040,
      "պատկան": 3041,
      "արտգործնախարար": 3042,
      "հրապարակել": 3043,
      "նախատեսվում": 3044,
      "ճապոն": 3045,
      "2021": 3046,
      "ստանալու": 3047,
      "60": 3048,
      "պարզել": 3049,
      "կարգավիճ": 3050,
      "սդ": 3051,
      "հետապնդ": 3052,
      "մնալ": 3053,
      "հարձակում": 3054,
      "մարմինների": 3055,
      "լղհ": 3056,
      "երկկողմ": 3057,
      "գործադր": 3058,
      "փորձաքնն": 3059,
      "կայան": 3060,
      "թրամփը": 3061,
      "զբոսաշրջ": 3062,
      "հարցով": 3063,
      "ոչնչ": 3064,
      "անձինք": 3065,
      "թուրքիայում": 3066,
      "նշանակվել": 3067,
      "խուսափ": 3068,
      "հապ": 3069,
      "ինչու": 3070,
      "կայացած": 3071,
      "դրամի": 3072,
      "մանուկ": 3073,
      "ակնհայտ": 3074,
      "օդանավակայ": 3075,
      "վանաձ": 3076,
      "##ուրգ": 3077,
      "##իկների": 3078,
      "աշխատանքներ": 3079,
      "ունենում": 3080,
      "մշակույթի": 3081,
      "միր": 3082,
      "32": 3083,
      "ամփոփ": 3084,
      "կորոնավիրուսի": 3085,
      "վթարի": 3086,
      "վաշին": 3087,
      "անցել": 3088,
      "բայդ": 3089,
      "##նախագահ": 3090,
      "լուր": 3091,
      "իրաք": 3092,
      "իրականացման": 3093,
      "ֆեյսբուքյան": 3094,
      "facebook": 3095,
      "##ոֆ": 3096,
      "ուղղակի": 3097,
      "ճանապարհի": 3098,
      "երեկոյան": 3099,
      "սերգեյ": 3100,
      "ներկայացվել": 3101,
      "շնորհակալություն": 3102,
      "դար": 3103,
      "նգն": 3104,
      "##ավարժ": 3105,
      "ինքնաթիռ": 3106,
      "նվազել": 3107,
      "մոդ": 3108,
      "ավի": 3109,
      "եզրակաց": 3110,
      "##ed": 3111,
      "նախօր": 3112,
      "##իչը": 3113,
      "հետեւանք": 3114,
      "լրացուցիչ": 3115,
      "լեւոն": 3116,
      "##is": 3117,
      "ոստիկանները": 3118,
      "ամբողջությամբ": 3119,
      "բանակցությունների": 3120,
      "##եական": 3121,
      "##աղթ": 3122,
      "վարորդը": 3123,
      "com": 3124,
      "գալու": 3125,
      "կո": 3126,
      "##ճար": 3127,
      "##ացուց": 3128,
      "##ացնի": 3129,
      "համան": 3130,
      "փոխնախագահ": 3131,
      "համալսարանի": 3132,
      "##որում": 3133,
      "##ավարության": 3134,
      "առաջարկել": 3135,
      "նախագահական": 3136,
      "այնպիսի": 3137,
      "անհայտ": 3138,
      "լավագույն": 3139,
      "արտահերթ": 3140,
      "գեներ": 3141,
      "ներս": 3142,
      "##ացիոն": 3143,
      "արագածոտ": 3144,
      "##տյան": 3145,
      "##ակատ": 3146,
      "##եռներում": 3147,
      "մեղավոր": 3148,
      "քննարկվել": 3149,
      "հիմնադրամի": 3150,
      "սպիտակ": 3151,
      "ժամանակահատվածում": 3152,
      "քաղ": 3153,
      "##արող": 3154,
      "##ենդ": 3155,
      "##վելով": 3156,
      "երկխոս": 3157,
      "ավելին": 3158,
      "##ent": 3159,
      "գաղտնի": 3160,
      "վախ": 3161,
      "խոսնակ": 3162,
      "վճռ": 3163,
      "փոփոխություններ": 3164,
      "ստիպված": 3165,
      "##ավայրի": 3166,
      "##ահման": 3167,
      "շուկայ": 3168,
      "տալու": 3169,
      "##ահեղ": 3170,
      "հարազատ": 3171,
      "հետևանքով": 3172,
      "##ամասի": 3173,
      "գաղափ": 3174,
      "պապ": 3175,
      "մնացել": 3176,
      "տեղափոխել": 3177,
      "ցած": 3178,
      "անընդ": 3179,
      "##ոնին": 3180,
      "հարեւան": 3181,
      "փոխանակ": 3182,
      "ներկայումս": 3183,
      ".)": 3184,
      "հում": 3185,
      "սնն": 3186,
      "քաշ": 3187,
      "##անակը": 3188,
      "միջոցների": 3189,
      "արցախում": 3190,
      "գործողությունները": 3191,
      "մշակութային": 3192,
      "օգտագործել": 3193,
      "չափով": 3194,
      "քրիստ": 3195,
      "##ոսյանի": 3196,
      "վերած": 3197,
      "ասված": 3198,
      "իշխանությունը": 3199,
      "ցուցարար": 3200,
      "բանակի": 3201,
      "նիստի": 3202,
      "նավթի": 3203,
      "կանց": 3204,
      "##ամեն": 3205,
      "##ատուն": 3206,
      "պարոն": 3207,
      "միասին": 3208,
      "##իկայում": 3209,
      "համայնք": 3210,
      "սիրիայի": 3211,
      "##մունք": 3212,
      "շտաբ": 3213,
      "տարիներին": 3214,
      "in": 3215,
      "կովկաս": 3216,
      "տուգ": 3217,
      "##օդ": 3218,
      "##ահաս": 3219,
      "##ալից": 3220,
      "##աշար": 3221,
      "հրթիռ": 3222,
      "ուժերը": 3223,
      "երկիրը": 3224,
      "միասնական": 3225,
      "ղազախ": 3226,
      "##առատ": 3227,
      "երգ": 3228,
      "վարույթ": 3229,
      "ներկայացված": 3230,
      "ծառայությունների": 3231,
      "հասարակության": 3232,
      "կորոնավիրուս": 3233,
      "դեղ": 3234,
      "##ակար": 3235,
      "##ոչընդ": 3236,
      "##բը": 3237,
      "նախագծի": 3238,
      "շիրակի": 3239,
      "գոր": 3240,
      "հուս": 3241,
      "կարճ": 3242,
      "նախագիծը": 3243,
      "իրավունքի": 3244,
      "ընտանիքի": 3245,
      "խիստ": 3246,
      "որևէ": 3247,
      "##ոչընդոտ": 3248,
      "##երծ": 3249,
      "##ավառ": 3250,
      "այգ": 3251,
      "վարակ": 3252,
      "##երեն": 3253,
      "հայտարարություն": 3254,
      "պատասխանատու": 3255,
      "պողոտ": 3256,
      "եղբայր": 3257,
      "խան": 3258,
      "կատարած": 3259,
      "պատասխանել": 3260,
      "ներկայացուցիչները": 3261,
      "ամուսն": 3262,
      "դու": 3263,
      "նար": 3264,
      "պարագ": 3265,
      "##ters": 3266,
      "տրանսպորտային": 3267,
      "45": 3268,
      "##յակում": 3269,
      "լարված": 3270,
      "սփյուռ": 3271,
      "հորդ": 3272,
      "կողմը": 3273,
      "##ելիք": 3274,
      "2012": 3275,
      "վերջինս": 3276,
      "կուսակցությունը": 3277,
      "տվյալների": 3278,
      "էներգետ": 3279,
      "արագածոտնի": 3280,
      "##թացի": 3281,
      "##ելավ": 3282,
      "հայց": 3283,
      "անձն": 3284,
      "ուղարկել": 3285,
      "պատմական": 3286,
      "չունեն": 3287,
      "աշխատակիցները": 3288,
      "զրկ": 3289,
      "նր": 3290,
      "##մուծ": 3291,
      "եկամուտ": 3292,
      "##յուղ": 3293,
      "##արկում": 3294,
      "հանրապետությունում": 3295,
      "2022": 3296,
      "նիստը": 3297,
      "փողոցում": 3298,
      "ողջուն": 3299,
      "ակնկալ": 3300,
      "ծաղ": 3301,
      "առիթ": 3302,
      "ներմուծ": 3303,
      "մասնագիտական": 3304,
      "##ատան": 3305,
      "կորց": 3306,
      "ժողովրդին": 3307,
      "ռուբեն": 3308,
      "300": 3309,
      "թուն": 3310,
      "##համ": 3311,
      "արման": 3312,
      "վարձ": 3313,
      "պատճառը": 3314,
      "այցի": 3315,
      "փաթեթ": 3316,
      "ավստ": 3317,
      "##աձգ": 3318,
      "իրականացվող": 3319,
      "հանդիպմանը": 3320,
      "զրուց": 3321,
      "հապկ": 3322,
      "կինը": 3323,
      "դրությամբ": 3324,
      "ստորաբաժ": 3325,
      "գրիգորյանը": 3326,
      "reu": 3327,
      "մեխանի": 3328,
      "##ենզ": 3329,
      "##եւն": 3330,
      "##ագրական": 3331,
      "2013": 3332,
      "իրականացվել": 3333,
      "հեղափոխ": 3334,
      "հզոր": 3335,
      "##իրական": 3336,
      "##իտալ": 3337,
      "ոլորտի": 3338,
      "կանխատես": 3339,
      "reuters": 3340,
      "33": 3341,
      "##թար": 3342,
      "##առնում": 3343,
      "ընտրություններին": 3344,
      "մնացած": 3345,
      "##ակներ": 3346,
      "երկրաշարժ": 3347,
      "պատմության": 3348,
      "հիմնականում": 3349,
      "աշխատակիցների": 3350,
      "առջեւ": 3351,
      "500": 3352,
      "լեզ": 3353,
      "կոռուպ": 3354,
      "##փակ": 3355,
      "##ավորության": 3356,
      "իրականացնելու": 3357,
      "բաժն": 3358,
      "2023": 3359,
      "չկան": 3360,
      "սահմանափ": 3361,
      "գյուղում": 3362,
      "աած": 3363,
      "##id": 3364,
      "մեկում": 3365,
      "հավատ": 3366,
      "բարեկամ": 3367,
      "ափ": 3368,
      "տպ": 3369,
      "փոխնախարար": 3370,
      "կախված": 3371,
      "նախօրեին": 3372,
      "դանի": 3373,
      "թշն": 3374,
      "##as": 3375,
      "##ակողմ": 3376,
      "##ախագահ": 3377,
      "գործել": 3378,
      "արդյունաբեր": 3379,
      "##եցինք": 3380,
      "շրջանառ": 3381,
      "հովհաննիսյանը": 3382,
      "պեկ": 3383,
      "##աստան": 3384,
      "հարցերը": 3385,
      "պայմանագր": 3386,
      "վիճակ": 3387,
      "արարող": 3388,
      "տեխնիկական": 3389,
      "##նց": 3390,
      "ամենամ": 3391,
      "ar": 3392,
      "չեղ": 3393,
      "##որը": 3394,
      "հավելելով": 3395,
      "մետր": 3396,
      "սու": 3397,
      "##us": 3398,
      "##ոկրատ": 3399,
      "ունենալու": 3400,
      "մարմնի": 3401,
      "խոչընդոտ": 3402,
      "##ամին": 3403,
      "կարիք": 3404,
      "ինչպ": 3405,
      "##օրյա": 3406,
      "կլինեն": 3407,
      "##անների": 3408,
      "հարցի": 3409,
      "36": 3410,
      "միտ": 3411,
      "փոխարեն": 3412,
      "##սը": 3413,
      "արսեն": 3414,
      "բացել": 3415,
      "##եկց": 3416,
      "զինծառայող": 3417,
      "ազատազրկման": 3418,
      "պարգ": 3419,
      "##ատուր": 3420,
      "##ացրեց": 3421,
      "հարյուր": 3422,
      "միջանց": 3423,
      "քննադատ": 3424,
      "երբեք": 3425,
      "շարունակել": 3426,
      "քննարկում": 3427,
      "ղարաբաղյան": 3428,
      "ավետիս": 3429,
      "38": 3430,
      "44": 3431,
      "գին": 3432,
      "##րաբ": 3433,
      "##անիտար": 3434,
      "աչ": 3435,
      "ջոկ": 3436,
      "վե": 3437,
      "##աչու": 3438,
      "համակարգը": 3439,
      "ստորագրել": 3440,
      "թռչ": 3441,
      "##եշ": 3442,
      "գտել": 3443,
      "բարելավ": 3444,
      "հաղորդագրության": 3445,
      "ծայր": 3446,
      "##ամթեր": 3447,
      "##ուլիս": 3448,
      "անդամները": 3449,
      "մասնակցում": 3450,
      "տասնյակ": 3451,
      "պակ": 3452,
      "##ղզ": 3453,
      "երաժ": 3454,
      "հանդիպումը": 3455,
      "ամբողջական": 3456,
      "##պետք": 3457,
      "միրզ": 3458,
      "զուգ": 3459,
      "##ակամ": 3460,
      "ոչինչ": 3461,
      "ընկերությունների": 3462,
      "կազմակերպությունների": 3463,
      "համագործակցությունը": 3464,
      "##ասխանում": 3465,
      "աշխատակազմի": 3466,
      "գեներալ": 3467,
      "##ուսը": 3468,
      "առեւտրի": 3469,
      "ցածր": 3470,
      "ծագ": 3471,
      "կներ": 3472,
      "##այական": 3473,
      "գործար": 3474,
      "հասնել": 3475,
      "արարատի": 3476,
      "##եում": 3477,
      "##բր": 3478,
      "##ճի": 3479,
      "##ակները": 3480,
      "##վածների": 3481,
      "հրշ": 3482,
      "վերջերս": 3483,
      "պուտինը": 3484,
      "վառ": 3485,
      "տված": 3486,
      "##եցի": 3487,
      "որոշմամբ": 3488,
      "##ալիք": 3489,
      "իրականացվում": 3490,
      "գերազանց": 3491,
      "գիշեր": 3492,
      "հասցրել": 3493,
      "ձեռքբեր": 3494,
      "քկ": 3495,
      "##im": 3496,
      "արև": 3497,
      "ներկ": 3498,
      "ստաց": 3499,
      "##սկս": 3500,
      "լինեն": 3501,
      "գիտության": 3502,
      "##ցիոն": 3503,
      "կերպով": 3504,
      "թռիչ": 3505,
      "հրշեջ": 3506,
      "կաշ": 3507,
      "տարիների": 3508,
      "դպրոցի": 3509,
      "ակցիան": 3510,
      "դին": 3511,
      "##ենգ": 3512,
      "##ոնում": 3513,
      "տարել": 3514,
      "կողմի": 3515,
      "աջակցության": 3516,
      "թաք": 3517,
      "ջուր": 3518,
      "##ումներով": 3519,
      "տղամարդը": 3520,
      "հաջողվել": 3521,
      "##ոնալդ": 3522,
      "եգ": 3523,
      "##անյան": 3524,
      "համեր": 3525,
      "ուղիղ": 3526,
      "##ուղթ": 3527,
      "այլն": 3528,
      "պարզաբան": 3529,
      "բրիտանիայի": 3530,
      "ներքո": 3531,
      "բազ": 3532,
      "չպետք": 3533,
      "պետությունների": 3534,
      "ամենայն": 3535,
      "ցուցադր": 3536,
      "նովոստի": 3537,
      "հնդկ": 3538,
      "ուստի": 3539,
      "բացակայ": 3540,
      "մնում": 3541,
      "ֆիզ": 3542,
      "##bc": 3543,
      "##անումը": 3544,
      "բնակչ": 3545,
      "օրինական": 3546,
      "միլիարդ": 3547,
      "հին": 3548,
      "##ովյան": 3549,
      "##րանտ": 3550,
      "ներկայացնել": 3551,
      "այլեւ": 3552,
      "երկրներում": 3553,
      "##ընտ": 3554,
      "սիմոն": 3555,
      "խանութ": 3556,
      "##ֆոր": 3557,
      "##ակային": 3558,
      "ստանում": 3559,
      "բռ": 3560,
      "հայերի": 3561,
      "գերատես": 3562,
      "գործունեությունը": 3563,
      "շարժման": 3564,
      "պնդում": 3565,
      "ետ": 3566,
      "հաց": 3567,
      "ճակատ": 3568,
      "այդպիսի": 3569,
      "##որհրդ": 3570,
      "հասկանում": 3571,
      "հանրաք": 3572,
      "ապրում": 3573,
      "կրակոց": 3574,
      "ագրես": 3575,
      "##իոն": 3576,
      "##ay": 3577,
      "##ակո": 3578,
      "##ատարած": 3579,
      "##ոմս": 3580,
      "կապի": 3581,
      "2011": 3582,
      "բաժնում": 3583,
      "թրամփի": 3584,
      "գործակալությունը": 3585,
      "##վարդ": 3586,
      "##անիկ": 3587,
      "##արգել": 3588,
      "տարածել": 3589,
      "բացատր": 3590,
      "անդամների": 3591,
      "պարտական": 3592,
      "տեղեկատվության": 3593,
      "համանախագահ": 3594,
      "##անյանի": 3595,
      "պատշ": 3596,
      "գեղարք": 3597,
      "ծրագիր": 3598,
      "զանգվածային": 3599,
      "տուր": 3600,
      "##ատեքստ": 3601,
      "դեմոկրատ": 3602,
      "ապահովել": 3603,
      "պաշտպանական": 3604,
      "զենքի": 3605,
      "էկ": 3606,
      "ևս": 3607,
      "##եգր": 3608,
      "##az": 3609,
      "##ատը": 3610,
      "ուրի": 3611,
      "առմամբ": 3612,
      "ընկած": 3613,
      "ինչո": 3614,
      "##անգստ": 3615,
      "վերջնական": 3616,
      "պարզապես": 3617,
      "բնապահ": 3618,
      "##ինական": 3619,
      "միավոր": 3620,
      "հայտարարությունը": 3621,
      "տեղեկություններ": 3622,
      "հետագայում": 3623,
      "անմիջապես": 3624,
      "կշար": 3625,
      "կպ": 3626,
      "անջ": 3627,
      "անհետ": 3628,
      "##իպտ": 3629,
      "բռնկ": 3630,
      "վայոց": 3631,
      "ընթանում": 3632,
      "խափանման": 3633,
      "հագ": 3634,
      "##ույր": 3635,
      "##ահարել": 3636,
      "ճանաչել": 3637,
      "արմավիրի": 3638,
      "ալեքսանդր": 3639,
      "պակաս": 3640,
      "եգիպտ": 3641,
      "թանգ": 3642,
      "իրականացնում": 3643,
      "պատմել": 3644,
      "հարկային": 3645,
      "կց": 3646,
      "պես": 3647,
      "րոպ": 3648,
      "##չակ": 3649,
      "մահացած": 3650,
      "շահագործ": 3651,
      "իսլամական": 3652,
      "ռադի": 3653,
      "որոնցից": 3654,
      "գործակալության": 3655,
      "մոսկվայի": 3656,
      "պաղ": 3657,
      "##ադարի": 3658,
      "նաիր": 3659,
      "կազմակերպել": 3660,
      "##ակայքում": 3661,
      "օրենքով": 3662,
      "գրասենյակի": 3663,
      "նախընտրական": 3664,
      "դոնալդ": 3665,
      "##իներ": 3666,
      "ներկայացուց": 3667,
      "իրականացնող": 3668,
      "ընդհանր": 3669,
      "լրագրող": 3670,
      "ներդրում": 3671,
      "փուլում": 3672,
      "ձախ": 3673,
      "մեն": 3674,
      "##վեյ": 3675,
      "իրականում": 3676,
      "կրթական": 3677,
      "մատուց": 3678,
      "փակել": 3679,
      "##իժ": 3680,
      "##թափ": 3681,
      "##ազդ": 3682,
      "հանրության": 3683,
      "թվով": 3684,
      "մինսկի": 3685,
      "##տրոնային": 3686,
      "իրականացրել": 3687,
      "ռազմավարական": 3688,
      "դատարանում": 3689,
      "ճանապարհային": 3690,
      "վաշինգտ": 3691,
      "ru": 3692,
      "##ացնելով": 3693,
      "##ադեմ": 3694,
      "պատահ": 3695,
      "պահանջել": 3696,
      "հակոբյանը": 3697,
      "օտարերկր": 3698,
      "բջ": 3699,
      "կարմիր": 3700,
      "քննիչ": 3701,
      "ապահովման": 3702,
      "փոփոխությունների": 3703,
      "աստիճ": 3704,
      "օբամ": 3705,
      "70": 3706,
      "էս": 3707,
      "##ol": 3708,
      "մաքսային": 3709,
      "այնուհետեւ": 3710,
      "պրոֆ": 3711,
      "իրավասության": 3712,
      "##ավան": 3713,
      "հանրահավաք": 3714,
      "հիշատակ": 3715,
      "##ամասում": 3716,
      "##աժամկետ": 3717,
      "եկեղեցու": 3718,
      "բեռ": 3719,
      "##յակը": 3720,
      "##ut": 3721,
      "##ենում": 3722,
      "սահմանափակ": 3723,
      "պաշտոնակատար": 3724,
      "բնակիչների": 3725,
      "փոխհատուց": 3726,
      "սառ": 3727,
      "##որոգ": 3728,
      "արձանագրվել": 3729,
      "խորհրդարանում": 3730,
      "տեղեկատվական": 3731,
      "հոսպ": 3732,
      "շուկայում": 3733,
      "մալ": 3734,
      "##եցված": 3735,
      "ուղեկց": 3736,
      "հրադ": 3737,
      "կանչ": 3738,
      "պատրաստակամ": 3739,
      "խոստով": 3740,
      "կտա": 3741,
      "ֆիլմ": 3742,
      "քպ": 3743,
      "հասանելի": 3744,
      "հիմք": 3745,
      "սպասում": 3746,
      "դառնալ": 3747,
      "էրդողանը": 3748,
      "ap": 3749,
      "դանակ": 3750,
      "մկր": 3751,
      "առայ": 3752,
      "մեծամ": 3753,
      "ճանապարհը": 3754,
      "խնդրի": 3755,
      "խնդրել": 3756,
      "ապրանքների": 3757,
      "դաշինքի": 3758,
      "41": 3759,
      "հկ": 3760,
      "ձորի": 3761,
      "##ot": 3762,
      "##ion": 3763,
      "##իսով": 3764,
      "ճանապարհին": 3765,
      "պարտադիր": 3766,
      "լրագրողներին": 3767,
      "ավտոմեքենայի": 3768,
      "ֆուտ": 3769,
      "##ելյան": 3770,
      "անշ": 3771,
      "տարածաշրջանի": 3772,
      "աֆղ": 3773,
      "##ացվի": 3774,
      "##յանց": 3775,
      "ընկել": 3776,
      "ռես": 3777,
      "վեց": 3778,
      "երկաթ": 3779,
      "2010": 3780,
      "օգնության": 3781,
      "բեռնատար": 3782,
      "գրառ": 3783,
      "198": 3784,
      "առաջարկում": 3785,
      "ոլորտներում": 3786,
      "ձերբակալել": 3787,
      "օգնություն": 3788,
      "պիտի": 3789,
      "քր": 3790,
      "գործողություններ": 3791,
      "գերման": 3792,
      "քաղաքացիներին": 3793,
      "արեւմուտ": 3794,
      "պատկանող": 3795,
      "չվ": 3796,
      "##տեմբերին": 3797,
      "##ինա": 3798,
      "այո": 3799,
      "ստացված": 3800,
      "##վարչ": 3801,
      "հատկանիշ": 3802,
      "հարձակման": 3803,
      "վթար": 3804,
      "##գար": 3805,
      "##եսը": 3806,
      "##աքար": 3807,
      "ավտոբ": 3808,
      "վտանգավոր": 3809,
      "տավուշի": 3810,
      "թիր": 3811,
      "կուտ": 3812,
      "##աշվի": 3813,
      "մկրտ": 3814,
      "էի": 3815,
      "##ia": 3816,
      "##ումներին": 3817,
      "որակ": 3818,
      "թեեւ": 3819,
      "գրոհ": 3820,
      "տեղեկություն": 3821,
      "##րաստիճան": 3822,
      "վերջինիս": 3823,
      "մակարդակի": 3824,
      "վերականգ": 3825,
      "սահմանափակում": 3826,
      "իբր": 3827,
      "մատ": 3828,
      "տեւ": 3829,
      "համարվում": 3830,
      "##ննդ": 3831,
      "արդյունք": 3832,
      "պատվիրակության": 3833,
      "37": 3834,
      "ծնող": 3835,
      "##յալների": 3836,
      "90": 3837,
      "մոն": 3838,
      "##քս": 3839,
      "##մանն": 3840,
      "##այիս": 3841,
      "բարձրաստիճան": 3842,
      "ենթակառուց": 3843,
      "հետեւյալ": 3844,
      "գիտնականները": 3845,
      "պաղեստ": 3846,
      "ֆուտբ": 3847,
      "##վարչապետ": 3848,
      "թիրախ": 3849,
      "խթ": 3850,
      "կոլ": 3851,
      "օրա": 3852,
      "##գոհ": 3853,
      "ուղերձ": 3854,
      "իշխող": 3855,
      "ճանապարհով": 3856,
      "նախատեսում": 3857,
      "մեխանիզմ": 3858,
      "սահմանին": 3859,
      "անհանգստ": 3860,
      "գտնվել": 3861,
      "տվյալները": 3862,
      "ողբերգ": 3863,
      "ընդգծեց": 3864,
      "ստորաբաժանում": 3865,
      "ենթակառուցված": 3866,
      "նյու": 3867,
      "տարոն": 3868,
      "ժամանել": 3869,
      "ընտրությունները": 3870,
      "նիստին": 3871,
      "քաղաքապետարանի": 3872,
      "տրամադրել": 3873,
      "ուրախ": 3874,
      "##ետև": 3875,
      "միք": 3876,
      "հունվար": 3877,
      "գնահատել": 3878,
      "դժգոհ": 3879,
      "էլեկտրոնային": 3880,
      "գետ": 3881,
      "լից": 3882,
      "կողմերը": 3883,
      "առավելագույն": 3884,
      "քայլը": 3885,
      "սրբ": 3886,
      "նահանգի": 3887,
      "բաղդ": 3888,
      "պարագայում": 3889,
      "պատշաճ": 3890,
      "##ահանդ": 3891,
      "ակումբ": 3892,
      "բացաս": 3893,
      "ընտրություններում": 3894,
      "հակաս": 3895,
      "պաշտոնում": 3896,
      "մարզերում": 3897,
      "բանաձ": 3898,
      "դաշնային": 3899,
      "կործ": 3900,
      "նետ": 3901,
      "##տվ": 3902,
      "##պիսով": 3903,
      "կարողացել": 3904,
      "պայմանագիր": 3905,
      "գերագույն": 3906,
      "նրանցից": 3907,
      "ապահովելու": 3908,
      "քաղաքապետի": 3909,
      "ընդդիմության": 3910,
      "ժողովուրդը": 3911,
      "ընդհանրապես": 3912,
      "ոք": 3913,
      "##ch": 3914,
      "փոխվարչապետ": 3915,
      "գործընթացի": 3916,
      "օգտին": 3917,
      "հայաստանն": 3918,
      "ճշ": 3919,
      "արա": 3920,
      "պահել": 3921,
      "պատվաստ": 3922,
      "մոսկվայում": 3923,
      "խաչատրյանը": 3924,
      "ուղարկվել": 3925,
      "մուր": 3926,
      "տանը": 3927,
      "##ad": 3928,
      "տեղեկանում": 3929,
      "##ուհին": 3930,
      "վկայում": 3931,
      "վնասվածքներ": 3932,
      "գույքի": 3933,
      "պալատի": 3934,
      "իտալի": 3935,
      "առայժմ": 3936,
      "##ակր": 3937,
      "##ասպ": 3938,
      "արհ": 3939,
      "արտաս": 3940,
      "իլ": 3941,
      "##ավի": 3942,
      "##ացիան": 3943,
      "այլեւս": 3944,
      "բերված": 3945,
      "կարգով": 3946,
      "##ուդյան": 3947,
      "ջերմաստ": 3948,
      "սեռ": 3949,
      "վարչակազմ": 3950,
      "փաստացի": 3951,
      "զոհրաբ": 3952,
      "առողջական": 3953,
      "հա": 3954,
      "մոր": 3955,
      "վազ": 3956,
      "համաժողով": 3957,
      "հանուն": 3958,
      "ստամբ": 3959,
      "նկատել": 3960,
      "մասնակցությամբ": 3961,
      "մարտիր": 3962,
      "հայրապետ": 3963,
      "ախտ": 3964,
      "սեղ": 3965,
      "##մս": 3966,
      "##մեր": 3967,
      "##ir": 3968,
      "##իչների": 3969,
      "մարդաս": 3970,
      "հավատար": 3971,
      "##ազարյանը": 3972,
      "քաղաքացիները": 3973,
      "կարապետյանը": 3974,
      "անդրադարձել": 3975,
      "##ատեքստում": 3976,
      "ծննդ": 3977,
      "նալ": 3978,
      "##սին": 3979,
      "քննություն": 3980,
      "ադրբեջանում": 3981,
      "##րոպ": 3982,
      "վաղը": 3983,
      "աջակցություն": 3984,
      "80": 3985,
      "ռիսկ": 3986,
      "փարի": 3987,
      "արծ": 3988,
      "ունեմ": 3989,
      "մեկին": 3990,
      "բնակավայր": 3991,
      "պաշտոնը": 3992,
      "պատգամավորը": 3993,
      "սաֆ": 3994,
      "դեպքերի": 3995,
      "նովոստին": 3996,
      "կդառն": 3997,
      "անտառ": 3998,
      "օլ": 3999,
      "##ոնե": 4000,
      "հանել": 4001,
      "##եմն": 4002,
      "ադրբեջանին": 4003,
      "գումարը": 4004,
      "փրկարարները": 4005,
      "կանխարգել": 4006,
      "անկախության": 4007,
      "##րին": 4008,
      "##երթի": 4009,
      "անգ": 4010,
      "##եկտիվ": 4011,
      "գնացել": 4012,
      "տեխնոլոգիաների": 4013,
      "ծայրահեղ": 4014,
      "400": 4015,
      "լույս": 4016,
      "կվեր": 4017,
      "ձայ": 4018,
      "մխ": 4019,
      "մանդ": 4020,
      "վերադառն": 4021,
      "ապացույց": 4022,
      "ռուսաստանում": 4023,
      "##ացիների": 4024,
      "նշանակության": 4025,
      "2008": 4026,
      "սպանել": 4027,
      "հեռուստաալի": 4028,
      "##ոյանի": 4029,
      "##ասի": 4030,
      "միջամտ": 4031,
      "քննության": 4032,
      "ավարտվել": 4033,
      "վիրավորվել": 4034,
      "հիմնադրամ": 4035,
      "քոչարյանի": 4036,
      "միքայել": 4037,
      "գնել": 4038,
      "գինը": 4039,
      "սան": 4040,
      "կարողանում": 4041,
      "##արդյուն": 4042,
      "անհատ": 4043,
      "##աբանության": 4044,
      "շրջանների": 4045,
      "##ing": 4046,
      "վնասվածք": 4047,
      "ներառյալ": 4048,
      "արեւմտյան": 4049,
      "ջրի": 4050,
      "##արշավ": 4051,
      "##ակին": 4052,
      "արմենի": 4053,
      "հայաստանին": 4054,
      "բանից": 4055,
      "հափ": 4056,
      "##տոր": 4057,
      "կամավոր": 4058,
      "բարձրագույն": 4059,
      "փաստաթուղթ": 4060,
      "հանցագործության": 4061,
      "կանգնած": 4062,
      "պատասխանատվության": 4063,
      "գեղարքուն": 4064,
      "տի": 4065,
      "գործադիր": 4066,
      "առաջատար": 4067,
      "##ադրության": 4068,
      "նախագահին": 4069,
      "աճի": 4070,
      "հաշվետ": 4071,
      "տուժել": 4072,
      "արտադրության": 4073,
      "լրատվական": 4074,
      "խորհուրդը": 4075,
      "բավականին": 4076,
      "աֆղան": 4077,
      "փն": 4078,
      "##բանդ": 4079,
      "##եցնելու": 4080,
      "կարծիք": 4081,
      "դատախազության": 4082,
      "պահպանման": 4083,
      "հոսպիտալ": 4084,
      "լեհ": 4085,
      "ձգտ": 4086,
      "##ուի": 4087,
      "##ստանում": 4088,
      "ստացած": 4089,
      "ստեղծվել": 4090,
      "համապատասխանում": 4091,
      "քայլեր": 4092,
      "չինական": 4093,
      "հղում": 4094,
      "հափշտ": 4095,
      "##վանից": 4096,
      "մինչդ": 4097,
      "մասնակիցները": 4098,
      "հերոս": 4099,
      "հարցազրույցում": 4100,
      "կոալից": 4101,
      "ջերմաստիճ": 4102,
      "նալբանդ": 4103,
      "բառ": 4104,
      "դե": 4105,
      "##ետային": 4106,
      "մեթ": 4107,
      "քաղաքացու": 4108,
      "ընտրվել": 4109,
      "նպատակը": 4110,
      "զորավարժ": 4111,
      "բյուջեի": 4112,
      "արեւելյան": 4113,
      "##չափ": 4114,
      "համատեքստում": 4115,
      "ժամանակակից": 4116,
      "հեռանկար": 4117,
      "ինտերն": 4118,
      "մեծամասն": 4119,
      "55": 4120,
      "##ազրույց": 4121,
      "երկրները": 4122,
      "թվականից": 4123,
      "միջոցառումներ": 4124,
      "##օգնության": 4125,
      "բջջ": 4126,
      "ռեսուրս": 4127,
      "աշակ": 4128,
      "մթն": 4129,
      "##un": 4130,
      "արգ": 4131,
      "բերվել": 4132,
      "կորուստ": 4133,
      "լավր": 4134,
      "ղարաբաղում": 4135,
      "սահակյանը": 4136,
      "43": 4137,
      "փլ": 4138,
      "##բիլ": 4139,
      "նորից": 4140,
      "կանադ": 4141,
      "վայրում": 4142,
      "բրիտանական": 4143,
      "մթնոլոր": 4144,
      "սուբ": 4145,
      "իրանը": 4146,
      "##ակցություն": 4147,
      "առաջիկայում": 4148,
      "տարածքը": 4149,
      "ունենալով": 4150,
      "հրաժարական": 4151,
      "դիվանագետ": 4152,
      "պետրոսյանը": 4153,
      "բջջային": 4154,
      "pr": 4155,
      "##այման": 4156,
      "հարմար": 4157,
      "իրականացված": 4158,
      "մտել": 4159,
      "ավտով": 4160,
      "մեքեն": 4161,
      "ուսումնական": 4162,
      "օբյեկտ": 4163,
      "գեղարքունիքի": 4164,
      "48": 4165,
      "լոնդ": 4166,
      "արայ": 4167,
      "մեդ": 4168,
      "ապացուց": 4169,
      "արտոն": 4170,
      "ինքնաս": 4171,
      "հովիկ": 4172,
      "փախստ": 4173,
      "հանրաքվե": 4174,
      "դառնում": 4175,
      "լուծման": 4176,
      "sh": 4177,
      "ասուլիս": 4178,
      "##նակազմ": 4179,
      "անվանել": 4180,
      "լինում": 4181,
      "մեկնարկ": 4182,
      "վճարել": 4183,
      "հետախուզական": 4184,
      "վրացական": 4185,
      "հումանիտար": 4186,
      "հրադադարի": 4187,
      "մղ": 4188,
      "##հատ": 4189,
      "համաձայնագրի": 4190,
      "ստեղծման": 4191,
      "ակտիվիստ": 4192,
      "փառատ": 4193,
      "խոսք": 4194,
      "իշխանություններին": 4195,
      "աջակցել": 4196,
      "տարիներ": 4197,
      "որդին": 4198,
      "մայ": 4199,
      "##ևս": 4200,
      "##իկն": 4201,
      "ժաման": 4202,
      "հավասար": 4203,
      "զորքերի": 4204,
      "##եգործ": 4205,
      "ահաբեկչական": 4206,
      "տրանսպորտի": 4207,
      "ստեփանակ": 4208,
      "գյուղատնտեսության": 4209,
      "աշակերտ": 4210,
      "թատր": 4211,
      "սև": 4212,
      "նախալ": 4213,
      "ինչն": 4214,
      "##արիայի": 4215,
      "աշխատանքից": 4216,
      "ծրագրերը": 4217,
      "մրցույթ": 4218,
      "աստղ": 4219,
      "հանձնել": 4220,
      "բագր": 4221,
      "ջոն": 4222,
      "սաուդյան": 4223,
      "ուսուց": 4224,
      "լուսավոր": 4225,
      "հրավիրել": 4226,
      "ներգրավված": 4227,
      "գաղափար": 4228,
      "կփ": 4229,
      "քրդ": 4230,
      "##արում": 4231,
      "տեղեկությունների": 4232,
      "պաշտոնից": 4233,
      "կայացրել": 4234,
      "##եզեր": 4235,
      "մարտահր": 4236,
      "շրջաններում": 4237,
      "փոխարժեքը": 4238,
      "ռեկ": 4239,
      "##ցանց": 4240,
      "##ֆի": 4241,
      "##օղ": 4242,
      "##ալը": 4243,
      "միմ": 4244,
      "իրանական": 4245,
      "ցուցահանդ": 4246,
      "փաշինյանն": 4247,
      "ձեւաչափ": 4248,
      "ֆինանսների": 4249,
      "եկեղեցին": 4250,
      "դերաս": 4251,
      "մուտք": 4252,
      "շփման": 4253,
      "հեն": 4254,
      "շվեյ": 4255,
      "փբը": 4256,
      "##լմ": 4257,
      "##անքը": 4258,
      "##ոմի": 4259,
      "բրյուս": 4260,
      "առնչությամբ": 4261,
      "ներկայիս": 4262,
      "շվեյց": 4263,
      "##ասյանի": 4264,
      "##ապաշտ": 4265,
      "տարում": 4266,
      "էրեբ": 4267,
      "գիտական": 4268,
      "ներկայացուցիչը": 4269,
      "փոխարին": 4270,
      "մերձավոր": 4271,
      "եվրամիության": 4272,
      "փնտր": 4273,
      "ադ": 4274,
      "բլ": 4275,
      "գոհ": 4276,
      "հոլ": 4277,
      "հրաձ": 4278,
      "##ահերթ": 4279,
      "##ազերծ": 4280,
      "ասած": 4281,
      "ապրել": 4282,
      "տնօրենի": 4283,
      "մինչդեռ": 4284,
      "39": 4285,
      "##yan": 4286,
      "##արյան": 4287,
      "միգ": 4288,
      "միեւն": 4289,
      "ամենա": 4290,
      "քրեակատար": 4291,
      "ուսուցիչ": 4292,
      "եվրաս": 4293,
      "վահե": 4294,
      "անունը": 4295,
      "բարեփոխումների": 4296,
      "պարգեւ": 4297,
      "միմյանց": 4298,
      "##էներգ": 4299,
      "փոխել": 4300,
      "ընդունվել": 4301,
      "հոգեբ": 4302,
      "զգուշ": 4303,
      "դատապարտել": 4304,
      "ամսվա": 4305,
      "պայքարում": 4306,
      "հուշարձ": 4307,
      "##ams": 4308,
      "կոշ": 4309,
      "##ենս": 4310,
      "ունենա": 4311,
      "նպատակն": 4312,
      "նշանակություն": 4313,
      "իմաստ": 4314,
      "խաղաղապահ": 4315,
      "թույլտվ": 4316,
      "սահմանադրության": 4317,
      "գոյություն": 4318,
      "երաժշտ": 4319,
      "քրեակատարողական": 4320,
      "42": 4321,
      "մել": 4322,
      "##ելյանը": 4323,
      "արտադրան": 4324,
      "գլոբ": 4325,
      "2024": 4326,
      "վնասվածքներով": 4327,
      "հովհաննես": 4328,
      "կտրուկ": 4329,
      "դրսեւոր": 4330,
      "րոպե": 4331,
      "եպ": 4332,
      "ղր": 4333,
      "յոր": 4334,
      "##եստի": 4335,
      "##ադուլ": 4336,
      "##ուցե": 4337,
      "##արտուղ": 4338,
      "սիրիայում": 4339,
      "լուծել": 4340,
      "կնք": 4341,
      "նավթ": 4342,
      "գործընկերների": 4343,
      "հաճախորդ": 4344,
      "օհան": 4345,
      "ուկրաինական": 4346,
      "##ess": 4347,
      "հազարավոր": 4348,
      "##ակիր": 4349,
      "##օրինական": 4350,
      "ավազ": 4351,
      "տեսել": 4352,
      "բոլորը": 4353,
      "անձը": 4354,
      "լուծում": 4355,
      "անցկացնել": 4356,
      "բացառապես": 4357,
      "վեն": 4358,
      "տաք": 4359,
      "##ողիկ": 4360,
      "գործիք": 4361,
      "վրաերթի": 4362,
      "տեսակետ": 4363,
      "քաղաքականությունը": 4364,
      "փաստը": 4365,
      "չէին": 4366,
      "դաշնակից": 4367,
      "թմրամ": 4368,
      "օժ": 4369,
      "##մեդ": 4370,
      "##ամփ": 4371,
      "պետքարտուղ": 4372,
      "սպը": 4373,
      "ժողովրդավարական": 4374,
      "##մունքի": 4375,
      "կորեայի": 4376,
      "չգիտ": 4377,
      "բացասական": 4378,
      "արայիկ": 4379,
      "եխ": 4380,
      "կատարում": 4381,
      "հաղորդել": 4382,
      "ամերիկացի": 4383,
      "գնահատական": 4384,
      "բռնության": 4385,
      "էլեկտր": 4386,
      "զլմ": 4387,
      "խուզ": 4388,
      "##իում": 4389,
      "##սկայ": 4390,
      "##ամս": 4391,
      "գնալ": 4392,
      "նյութեր": 4393,
      "զինծառայողների": 4394,
      "կներկայ": 4395,
      "##օղլ": 4396,
      "էն": 4397,
      "##շխան": 4398,
      "պետի": 4399,
      "թեման": 4400,
      "անձնակազմ": 4401,
      "ժողովրդական": 4402,
      "##եկտրա": 4403,
      "ռեժիմի": 4404,
      "զու": 4405,
      "##նին": 4406,
      "##կար": 4407,
      "անօդ": 4408,
      "##առք": 4409,
      "ակադեմ": 4410,
      "պատասխանեց": 4411,
      "հանձնաժողովը": 4412,
      "չափազանց": 4413,
      "տղամարդու": 4414,
      "վերահսկողության": 4415,
      "ռեկորդ": 4416,
      "միեւնույն": 4417,
      "թալ": 4418,
      "##աշնորհ": 4419,
      "զարգաց": 4420,
      "բնակիչները": 4421,
      "ճգնաժամային": 4422,
      "վերանորոգ": 4423,
      "տեղակայված": 4424,
      "կոռուպց": 4425,
      "դահ": 4426,
      "դեկտ": 4427,
      "##wit": 4428,
      "##ուել": 4429,
      "արք": 4430,
      "իրար": 4431,
      "##ավորումը": 4432,
      "##ագրված": 4433,
      "ամենը": 4434,
      "բանակցությունները": 4435,
      "վրաստանում": 4436,
      "պուտինի": 4437,
      "##անշանակ": 4438,
      "բելառուսի": 4439,
      "լոռու": 4440,
      "տա": 4441,
      "##ամշակ": 4442,
      "համբ": 4443,
      "համարել": 4444,
      "անհն": 4445,
      "փորձի": 4446,
      "ղեկավարների": 4447,
      "ապրանք": 4448,
      "բաժնետ": 4449,
      "an": 4450,
      "կատ": 4451,
      "քմ": 4452,
      "##դանի": 4453,
      "##ողներ": 4454,
      "հարցերին": 4455,
      "ծառայություն": 4456,
      "կառուցված": 4457,
      "սուրեն": 4458,
      "ահաբեկչության": 4459,
      "արհեստ": 4460,
      "սալ": 4461,
      "սեյ": 4462,
      "պաշտոնատար": 4463,
      "դոլարով": 4464,
      "վիրահատ": 4465,
      "համաց": 4466,
      "պաշտպանի": 4467,
      "կապիտ": 4468,
      "միջոցները": 4469,
      "արձակել": 4470,
      "ներկայացուցիչներ": 4471,
      "հաստատվել": 4472,
      "դարձավ": 4473,
      "շարունակելու": 4474,
      "##ագիտության": 4475,
      "կալան": 4476,
      "կիրառել": 4477,
      "մասնակիցների": 4478,
      "համոզված": 4479,
      "աթոռ": 4480,
      "նորմալ": 4481,
      "բաբայ": 4482,
      "##ընտրան": 4483,
      "##մերուկ": 4484,
      "կք": 4485,
      "կադր": 4486,
      "##ուամեն": 4487,
      "##ինյանը": 4488,
      "##ովանդակ": 4489,
      "##այնիվ": 4490,
      "հայաստանից": 4491,
      "սահմանի": 4492,
      "սկսած": 4493,
      "հայաստանյան": 4494,
      "մնացական": 4495,
      "ավարտին": 4496,
      "կկարող": 4497,
      "ետմ": 4498,
      "գները": 4499,
      "թբիլ": 4500,
      "վալ": 4501,
      "##ոակ": 4502,
      "##ունը": 4503,
      "ապհ": 4504,
      "թեհ": 4505,
      "փոխանցել": 4506,
      "պահպանել": 4507,
      "լիբան": 4508,
      "մարտահրավեր": 4509,
      "անօդաչու": 4510,
      "##ուամենայնիվ": 4511,
      "twit": 4512,
      "արվ": 4513,
      "##առու": 4514,
      "առև": 4515,
      "քաղաքային": 4516,
      "հայտարարում": 4517,
      "անձամբ": 4518,
      "վիճակի": 4519,
      "ապագա": 4520,
      "մետաղ": 4521,
      "բագրատ": 4522,
      "անօրինական": 4523,
      "##ոնական": 4524,
      "գործառ": 4525,
      "##աժան": 4526,
      "էլեկտրա": 4527,
      "վերաբերող": 4528,
      "զոհված": 4529,
      "2009": 4530,
      "քոչարյանը": 4531,
      "դիրքորոշումը": 4532,
      "twitter": 4533,
      "թաթ": 4534,
      "##աբոր": 4535,
      "ակտ": 4536,
      "##ուլում": 4537,
      "պատգամավորների": 4538,
      "հավելեց": 4539,
      "47": 4540,
      "շուշ": 4541,
      "##ինս": 4542,
      "անչափ": 4543,
      "##ավորական": 4544,
      "նախազգ": 4545,
      "այնուամենայնիվ": 4546,
      "մեկուս": 4547,
      "##անկյուն": 4548,
      "փոխգործ": 4549,
      "կազմակերպված": 4550,
      "այցը": 4551,
      "համայնքների": 4552,
      "տղան": 4553,
      "առեւտրային": 4554,
      "օրակարգում": 4555,
      "առնչվող": 4556,
      "ինքնակ": 4557,
      "ուրիշ": 4558,
      "հատկանիշներով": 4559,
      "նախազգուշ": 4560,
      "##քներին": 4561,
      "միջավայրի": 4562,
      "##ուղու": 4563,
      "օգտագործման": 4564,
      "անցկացրել": 4565,
      "բանակցություններ": 4566,
      "խոստացել": 4567,
      "առաջնահերթ": 4568,
      "գլոբալ": 4569,
      "չմ": 4570,
      "քիմ": 4571,
      "##մեն": 4572,
      "համարանիշ": 4573,
      "մեքենայի": 4574,
      "բաղրամ": 4575,
      "##ումներից": 4576,
      "արտակ": 4577,
      "շարմ": 4578,
      "կայացել": 4579,
      "հայտնեցին": 4580,
      "կարգի": 4581,
      "համակարգում": 4582,
      "դեսպանը": 4583,
      "կյանքը": 4584,
      "ջանքերը": 4585,
      "հռչակ": 4586,
      "երեխայի": 4587,
      "ուշադրություն": 4588,
      "մոլ": 4589,
      "##վագ": 4590,
      "##իմն": 4591,
      "արտահանման": 4592,
      "հաշվին": 4593,
      "աջակցությունը": 4594,
      "եզրա": 4595,
      "մայրաքաղաքում": 4596,
      "բաքվի": 4597,
      "ինստիտուտի": 4598,
      "արմենիա": 4599,
      "նախալեռներում": 4600,
      "թեստ": 4601,
      "լց": 4602,
      "ծխ": 4603,
      "ոգ": 4604,
      "պբ": 4605,
      "ռեստ": 4606,
      "սն": 4607,
      "##արին": 4608,
      "առկայ": 4609,
      "##ոսը": 4610,
      "տեղյակ": 4611,
      "հարցաքնն": 4612,
      "պաշտոնապես": 4613,
      "հանցավոր": 4614,
      "նվազագույն": 4615,
      "խնդրում": 4616,
      "աբրահամյանը": 4617,
      "էլեկտրաէներգ": 4618,
      "գասպ": 4619,
      "դրել": 4620,
      "ղուկ": 4621,
      "ների": 4622,
      "վի": 4623,
      "##ավաճ": 4624,
      "անբ": 4625,
      "պետություն": 4626,
      "նշվել": 4627,
      "նախարարների": 4628,
      "պայմանագրի": 4629,
      "խաչմերուկ": 4630,
      "տոննա": 4631,
      "արժեքը": 4632,
      "ստեփան": 4633,
      "նարեկ": 4634,
      "##վածության": 4635,
      "##եցման": 4636,
      "##անգամ": 4637,
      "համաձայնագր": 4638,
      "արմատ": 4639,
      "անհրաժեշտության": 4640,
      "աճը": 4641,
      "ուկրաինայում": 4642,
      "մեղադրել": 4643,
      "ահաբեկչ": 4644,
      "շուկան": 4645,
      "խաբ": 4646,
      "##անոցի": 4647,
      "##աբանում": 4648,
      "խորհրդական": 4649,
      "ենթադրում": 4650,
      "հարվածել": 4651,
      "st": 4652,
      "»՝": 4653,
      "գով": 4654,
      "##անալով": 4655,
      "աննա": 4656,
      "ժամանակին": 4657,
      "օգնել": 4658,
      "ունեցավ": 4659,
      "տվյալներ": 4660,
      "հաղթանակ": 4661,
      "հետաքրքիր": 4662,
      "ֆլ": 4663,
      "ֆուն": 4664,
      "##ուարդ": 4665,
      "##ուշտ": 4666,
      "այլընտրան": 4667,
      "հեռու": 4668,
      "գյուղապետ": 4669,
      "շենքը": 4670,
      "քվեարկել": 4671,
      "ակցիայի": 4672,
      "կայանալիք": 4673,
      "մթնոլորտ": 4674,
      "բարգ": 4675,
      "##ներս": 4676,
      "##ասարակ": 4677,
      "##ավորությամբ": 4678,
      "մարդը": 4679,
      "դիտորդ": 4680,
      "բացահայտվել": 4681,
      "օդային": 4682,
      "պարբերաբար": 4683,
      "զավ": 4684,
      "օդի": 4685,
      "##ատիպ": 4686,
      "##առաջ": 4687,
      "խնդրան": 4688,
      "բերելու": 4689,
      "պատասխանելով": 4690,
      "##ուստի": 4691,
      "հանցագործությունների": 4692,
      "էդուարդ": 4693,
      "իրավիճակների": 4694,
      "շտաբի": 4695,
      "եվրասիական": 4696,
      "բենզ": 4697,
      "բովանդակ": 4698,
      "##ra": 4699,
      "##ազին": 4700,
      "##իչի": 4701,
      "##լիճ": 4702,
      "նախագահն": 4703,
      "կառավարությանը": 4704,
      "օրինագծ": 4705,
      "մանրամասներ": 4706,
      "բարգավաճ": 4707,
      "##խուժ": 4708,
      "##ապաղ": 4709,
      "պետությունը": 4710,
      "ընթացիկ": 4711,
      "ընթացակարգ": 4712,
      "##ակիցը": 4713,
      "փաստաբ": 4714,
      "մտց": 4715,
      "հիմնադիր": 4716,
      "սարգսյանն": 4717,
      "սպառնում": 4718,
      "մշտապես": 4719,
      "ինքնի": 4720,
      "կաթողիկ": 4721,
      "օրենսդրական": 4722,
      "խստ": 4723,
      "քաջ": 4724,
      "##ժի": 4725,
      "##ուրի": 4726,
      "այսպիսով": 4727,
      "ինչպիսի": 4728,
      "սահմանել": 4729,
      "տվեց": 4730,
      "հակառակորդի": 4731,
      "կիլ": 4732,
      "կղզ": 4733,
      "տապ": 4734,
      "օս": 4735,
      "շրջակա": 4736,
      "իսկապես": 4737,
      "փաշինյանին": 4738,
      "անկար": 4739,
      "հանգամանքները": 4740,
      "ցավոք": 4741,
      "##կոնոմ": 4742,
      "քարոզարշավ": 4743,
      "սեռական": 4744,
      "եթ": 4745,
      "##յաց": 4746,
      "##ci": 4747,
      "անհապաղ": 4748,
      "համաձայնագիրը": 4749,
      "մրցանակ": 4750,
      "պատժամիջոցների": 4751,
      "ժառանգություն": 4752,
      "հեռուստաընկեր": 4753,
      "ինքնիշխան": 4754,
      "իման": 4755,
      "##արմ": 4756,
      "##ոսյան": 4757,
      "ներխուժ": 4758,
      "փաստի": 4759,
      "ազատվել": 4760,
      "իրավունքը": 4761,
      "քաղաքացիներ": 4762,
      "ելնելով": 4763,
      "հոգեւոր": 4764,
      "մարդկային": 4765,
      "ձեռնարկել": 4766,
      "շենքեր": 4767,
      "օրենքը": 4768,
      "ավստր": 4769,
      "ինչպե": 4770,
      "աստիճանի": 4771,
      "75": 4772,
      "քանակ": 4773,
      "պատկանում": 4774,
      "##ոսին": 4775,
      "օրում": 4776,
      "հավաստի": 4777,
      "ոստիկանությունից": 4778,
      "ռուսաստան": 4779,
      "երկուշաբթի": 4780,
      "դավթ": 4781,
      "2014թ": 4782,
      "կանցկաց": 4783,
      "մկրտչ": 4784,
      "տիեզեր": 4785,
      "ռեստոր": 4786,
      "65": 4787,
      "մաք": 4788,
      "շվե": 4789,
      "չտ": 4790,
      "##րիկ": 4791,
      "անելով": 4792,
      "միանգամ": 4793,
      "##ագրության": 4794,
      "քաղաքագետ": 4795,
      "##սկին": 4796,
      "մոտակայքում": 4797,
      "##եյն": 4798,
      "պարզվում": 4799,
      "գիտակց": 4800,
      "խաչատուր": 4801,
      "սկզբին": 4802,
      "խախտում": 4803,
      "ժամկետով": 4804,
      "մակարդակով": 4805,
      "ջոկատ": 4806,
      "սին": 4807,
      "անելու": 4808,
      "##ոնների": 4809,
      "##իրի": 4810,
      "##իկին": 4811,
      "ոստիկանություն": 4812,
      "փորձը": 4813,
      "գտնել": 4814,
      "պարզելու": 4815,
      "ավտոմեքեն": 4816,
      "ամերիկայի": 4817,
      "ամիսներին": 4818,
      "տրվել": 4819,
      "վահան": 4820,
      "կդառնա": 4821,
      "to": 4822,
      "բուլ": 4823,
      "##re": 4824,
      "տեսանկյուն": 4825,
      "կայքում": 4826,
      "հաղորդվում": 4827,
      "197": 4828,
      "ապագայում": 4829,
      "ավտոճանապարհի": 4830,
      "ծեծի": 4831,
      "ամենամեծ": 4832,
      "օտարերկրյա": 4833,
      "սթ": 4834,
      "ցնց": 4835,
      "##ուչ": 4836,
      "##այթ": 4837,
      "##ահեռ": 4838,
      "համավար": 4839,
      "##իկներ": 4840,
      "վերսկս": 4841,
      "արդյունքների": 4842,
      "համաձայնության": 4843,
      "մարմինը": 4844,
      "գնահատում": 4845,
      "կառուցման": 4846,
      "հայրենիքի": 4847,
      "օրաթ": 4848,
      "վիզ": 4849,
      "##նձ": 4850,
      "##ևեկ": 4851,
      "##ավճ": 4852,
      "##ախց": 4853,
      "անի": 4854,
      "##աղորդ": 4855,
      "##ոնիայի": 4856,
      "ներկայացնելու": 4857,
      "##ենցի": 4858,
      "սերտ": 4859,
      "կոչված": 4860,
      "էջմի": 4861,
      "հանգստ": 4862,
      "կառույցների": 4863,
      "հարցազրույց": 4864,
      "հաշվետվ": 4865,
      "դահլիճ": 4866,
      "էջմիած": 4867,
      "##երտի": 4868,
      "մարի": 4869,
      "գործնական": 4870,
      "##յալի": 4871,
      "պահի": 4872,
      "պահելու": 4873,
      "երկրներից": 4874,
      "##ոյում": 4875,
      "կիրակի": 4876,
      "օրենքում": 4877,
      "արձանագրել": 4878,
      "երթևեկ": 4879,
      "չարաշ": 4880,
      "սփյուռքի": 4881,
      "քառ": 4882,
      "##աններ": 4883,
      "##անքների": 4884,
      "փոխադարձ": 4885,
      "կողմնակից": 4886,
      "##արդար": 4887,
      "դրանով": 4888,
      "ստեղծելու": 4889,
      "շարունակական": 4890,
      "պայքարը": 4891,
      "վարդանյանը": 4892,
      "լրատվամիջոցների": 4893,
      "արժանապատ": 4894,
      "պաղեստին": 4895,
      "արտասահման": 4896,
      "shams": 4897,
      "խուզարկ": 4898,
      "շարմազան": 4899,
      "էության": 4900,
      "կեր": 4901,
      "##ail": 4902,
      "իրագործ": 4903,
      "##ուրդի": 4904,
      "##ագրգ": 4905,
      "ադրբեջան": 4906,
      "տեղեկաց": 4907,
      "բացարձակ": 4908,
      "հնարավորությունները": 4909,
      "ինքնությունը": 4910,
      "հարուցված": 4911,
      "աղբյուրը": 4912,
      "վայրի": 4913,
      "shamsh": 4914,
      "tim": 4915,
      "բարի": 4916,
      "խոց": 4917,
      "հեշտ": 4918,
      "մաղթ": 4919,
      "##om": 4920,
      "##ելում": 4921,
      "##աբարձ": 4922,
      "օրն": 4923,
      "դեպարտ": 4924,
      "գնաճ": 4925,
      "աղետ": 4926,
      "զարգացմանը": 4927,
      "աբդ": 4928,
      "ֆրանսիական": 4929,
      "կետով": 4930,
      "ֆիզիկական": 4931,
      "տեսանկյունից": 4932,
      "54": 4933,
      "52": 4934,
      "դաժան": 4935,
      "##պանում": 4936,
      "##ժան": 4937,
      "##so": 4938,
      "##էկ": 4939,
      "##ինին": 4940,
      "հանք": 4941,
      "կողմերի": 4942,
      "գլխավորությամբ": 4943,
      "լիարժեք": 4944,
      "կգմս": 4945,
      "բժիշկները": 4946,
      "##ակրթ": 4947,
      "shamshyan": 4948,
      "վավեր": 4949,
      "##պարտ": 4950,
      "ուներ": 4951,
      "մասնակցության": 4952,
      "կատարման": 4953,
      "հնարավորությունը": 4954,
      "կազմակերպման": 4955,
      "խնդիրն": 4956,
      "շահագրգ": 4957,
      "##եգին": 4958,
      "օգնությունը": 4959,
      "կասկածանքով": 4960,
      "հարությունյանի": 4961,
      "ճգնաժամի": 4962,
      "ճապոնիայի": 4963,
      "բխ": 4964,
      "##սեր": 4965,
      "##տու": 4966,
      "##բաթ": 4967,
      "##ik": 4968,
      "##այան": 4969,
      "անդ": 4970,
      "ընկալ": 4971,
      "հետեւում": 4972,
      "կմասն": 4973,
      "նախաձեռնությամբ": 4974,
      "գա": 4975,
      "էկոնոմ": 4976,
      "մատն": 4977,
      "պտ": 4978,
      "##եցնի": 4979,
      "վերաքնն": 4980,
      "նորք": 4981,
      "կառավարությունն": 4982,
      "իսպանի": 4983,
      "աստված": 4984,
      "զբաղվում": 4985,
      "վաճառքի": 4986,
      "մերժել": 4987,
      "gaz": 4988,
      "##երես": 4989,
      "##ակցական": 4990,
      "##աթոշ": 4991,
      "փոխվել": 4992,
      "խորհրդարան": 4993,
      "ստեղծում": 4994,
      "մեկնարկել": 4995,
      "աջակցում": 4996,
      "62": 4997,
      "խանգ": 4998,
      "կռ": 4999,
      "կխ": 5000,
      "##բան": 5001,
      "կարի": 5002,
      "##ավարման": 5003,
      "այդքան": 5004,
      "ավելացել": 5005,
      "անձր": 5006,
      "սպանվել": 5007,
      "շենքերը": 5008,
      "ժամկետը": 5009,
      "դաշնության": 5010,
      "էլեկտրական": 5011,
      "ատոմ": 5012,
      "դադարեցնել": 5013,
      "կշարունակ": 5014,
      "կոռուպցիայի": 5015,
      "թթ": 5016,
      "խր": 5017,
      "##օգտ": 5018,
      "միկ": 5019,
      "##ակցին": 5020,
      "##իչները": 5021,
      "##ոյական": 5022,
      "գլուխ": 5023,
      "ծրագրեր": 5024,
      "ելք": 5025,
      "ձերբակալված": 5026,
      "գագաթն": 5027,
      "նրանից": 5028,
      "գերատեսչ": 5029,
      "համացանց": 5030,
      "53": 5031,
      "##ավանդ": 5032,
      "ասուլիսի": 5033,
      "կողմն": 5034,
      "սակագ": 5035,
      "հասցե": 5036,
      "ձեւակերպ": 5037,
      "հանգիստ": 5038,
      "հիվանդանոցում": 5039,
      "##աքաղաքական": 5040,
      "խաչատրյանի": 5041,
      "հավանաբար": 5042,
      "ղազախստանի": 5043,
      "bbc": 5044,
      "էական": 5045,
      "##ամերձ": 5046,
      "##րանյութ": 5047,
      "ավիա": 5048,
      "օգնական": 5049,
      "ադրբեջանցի": 5050,
      "ծառայողները": 5051,
      "##ինգի": 5052,
      "երևանում": 5053,
      "տեղեկատվություն": 5054,
      "սարքավոր": 5055,
      "շուկայի": 5056,
      "լիտ": 5057,
      "պաշար": 5058,
      "տները": 5059,
      "##եքի": 5060,
      "##արյանին": 5061,
      "##ազեկ": 5062,
      "տարածքի": 5063,
      "արցախը": 5064,
      "մանվել": 5065,
      "բանակը": 5066,
      "գողության": 5067,
      "մայրաքաղաքի": 5068,
      "էրդողանի": 5069,
      "կողքին": 5070,
      "թմրանյութ": 5071,
      "էներգետիկ": 5072,
      "ձախող": 5073,
      "51": 5074,
      "զել": 5075,
      "լաբոր": 5076,
      "ռեկտ": 5077,
      "ֆոնին": 5078,
      "##ենն": 5079,
      "##ովս": 5080,
      "##ագում": 5081,
      "##ագիծը": 5082,
      "գյուլ": 5083,
      "բրազ": 5084,
      "արտահան": 5085,
      "կհայտ": 5086,
      "փրկարարների": 5087,
      "երեխաներին": 5088,
      "գների": 5089,
      "թոր": 5090,
      "կկայ": 5091,
      "##օգ": 5092,
      "անթ": 5093,
      "##իցս": 5094,
      "տեղաշարժ": 5095,
      "##օրինակ": 5096,
      "150": 5097,
      "կալանքի": 5098,
      "ուրբաթ": 5099,
      "բաժանորդները": 5100,
      "հայրենակից": 5101,
      "##ախմբի": 5102,
      "ակնկալում": 5103,
      "սոց": 5104,
      "##պտ": 5105,
      "##իկյանը": 5106,
      "տոկոսի": 5107,
      "երեխա": 5108,
      "գարեգին": 5109,
      "այրվել": 5110,
      "ավտովթար": 5111,
      "##ապաշտպան": 5112,
      "թբիլիսի": 5113,
      "տաճ": 5114,
      "##արանից": 5115,
      "##ովան": 5116,
      "միպ": 5117,
      "##իկները": 5118,
      "անցնում": 5119,
      "զինամթեր": 5120,
      "սպասարկման": 5121,
      "ճանաչում": 5122,
      "էդվարդ": 5123,
      "##eta": 5124,
      "ծախսերը": 5125,
      "միջադեպի": 5126,
      "2015թ": 5127,
      "ներդրումային": 5128,
      "ձմ": 5129,
      "մովս": 5130,
      "վիկ": 5131,
      "##ասուն": 5132,
      "##ացան": 5133,
      "##ողությամբ": 5134,
      "արտաշ": 5135,
      "ներկայացրած": 5136,
      "երկրներ": 5137,
      "նկատի": 5138,
      "բարձրացման": 5139,
      "##ացիները": 5140,
      "ընդունված": 5141,
      "պատգամավորները": 5142,
      "շահերի": 5143,
      "դարձնել": 5144,
      "համայնքում": 5145,
      "ճանաչման": 5146,
      "զբաղեց": 5147,
      "մակարդակը": 5148,
      "փաստաթղթերի": 5149,
      "հանդիսանում": 5150,
      "լսել": 5151,
      "բեկ": 5152,
      "##կն": 5153,
      "##պար": 5154,
      "##em": 5155,
      "միխ": 5156,
      "այսպիսի": 5157,
      "##այիլ": 5158,
      "բոլորի": 5159,
      "բարեգործ": 5160,
      "գերեզ": 5161,
      "ծրագրում": 5162,
      "կորած": 5163,
      "այցով": 5164,
      "անհրաժեշտությունը": 5165,
      "անցկացվել": 5166,
      "մեքենաների": 5167,
      "լրատվամիջոցները": 5168,
      "մարգարյանը": 5169,
      "կոնգրեսի": 5170,
      "ֆուտբոլ": 5171,
      "մարկ": 5172,
      "պատիվ": 5173,
      "ադրբեջանց": 5174,
      "կանաչ": 5175,
      "կանայք": 5176,
      "հակակ": 5177,
      "շատերը": 5178,
      "ընդունում": 5179,
      "նահանգում": 5180,
      "դատապարտվել": 5181,
      "գոտում": 5182,
      "վերականգնման": 5183,
      "շուտով": 5184,
      "բնապահպան": 5185,
      "կքնն": 5186,
      "անչափահաս": 5187,
      "բաղրամյան": 5188,
      "լռ": 5189,
      "##իներին": 5190,
      "##ացիա": 5191,
      "հասնելու": 5192,
      "ընտրություններ": 5193,
      "ենթակա": 5194,
      "հիմնված": 5195,
      "առանձնապես": 5196,
      "փլուզ": 5197,
      "վերաքննիչ": 5198,
      "գուցե": 5199,
      "##ոկայ": 5200,
      "##ամենտ": 5201,
      "##ավախ": 5202,
      "պատիժ": 5203,
      "թեթ": 5204,
      "անցնել": 5205,
      "ոստիկանների": 5206,
      "կայացվել": 5207,
      "բնույթի": 5208,
      "##ապարտեզ": 5209,
      "մարմինները": 5210,
      "վերցրել": 5211,
      "մասնագետների": 5212,
      "իսրայելական": 5213,
      "ավանդական": 5214,
      "ցուցաբերել": 5215,
      "զուգահեռ": 5216,
      "##ակոծ": 5217,
      "600": 5218,
      "թով": 5219,
      "թվի": 5220,
      "թուլ": 5221,
      "արդիական": 5222,
      "ընթացող": 5223,
      "հակա": 5224,
      "իրավունքները": 5225,
      "հիշեցրել": 5226,
      "ներսում": 5227,
      "49": 5228,
      "մոլոր": 5229,
      "շենգ": 5230,
      "ւմ": 5231,
      "##ատներ": 5232,
      "##ողությունը": 5233,
      "##ախորհրդ": 5234,
      "##անցիկ": 5235,
      "փոխադր": 5236,
      "պահեստ": 5237,
      "հատվածի": 5238,
      "արցախյան": 5239,
      "օգտատեր": 5240,
      "հայտնաբերված": 5241,
      "փոփոխություն": 5242,
      "բազմիցս": 5243,
      "կոմիտեն": 5244,
      "գրիգորյանի": 5245,
      "դերակատար": 5246,
      "մանկապարտեզ": 5247,
      "բայդենը": 5248,
      "ջերմաստիճանը": 5249,
      "gazeta": 5250,
      "լուկ": 5251,
      "կոպ": 5252,
      "անխ": 5253,
      "##աբնակ": 5254,
      "ներուժ": 5255,
      "պահպանության": 5256,
      "տեղեկությունը": 5257,
      "հետեւաբար": 5258,
      "պատգամավորի": 5259,
      "ուկրաինային": 5260,
      "դեպքերում": 5261,
      "հոգի": 5262,
      "կունենան": 5263,
      "հարձակվել": 5264,
      "cov": 5265,
      "վանաձոր": 5266,
      "քրիստոն": 5267,
      "ենթակառուցվածքների": 5268,
      "ախտորոշ": 5269,
      "մեթոդ": 5270,
      "ասուլիսում": 5271,
      "սեյրան": 5272,
      "տապալ": 5273,
      "բանի": 5274,
      "ռեջ": 5275,
      "տառ": 5276,
      "փոստ": 5277,
      "##ալյանը": 5278,
      "արշակ": 5279,
      "անս": 5280,
      "միջավայր": 5281,
      "իրավաբանական": 5282,
      "հրապարակվել": 5283,
      "ականատես": 5284,
      "կանգն": 5285,
      "կնոջը": 5286,
      "բելառուս": 5287,
      "46": 5288,
      "թերթ": 5289,
      "փծ": 5290,
      "##լահ": 5291,
      "##ct": 5292,
      "##էջ": 5293,
      "##եւին": 5294,
      "##իրավ": 5295,
      "հետաձգ": 5296,
      "վերոն": 5297,
      "##ագրել": 5298,
      "եղած": 5299,
      "անցկ": 5300,
      "մեջբեր": 5301,
      "սկանդ": 5302,
      "առեւանգ": 5303,
      "ռեժիմը": 5304,
      "սովորական": 5305,
      "##ատրելի": 5306,
      "անշարժ": 5307,
      "էրեբունի": 5308,
      "ռեջեփ": 5309,
      "հսկայ": 5310,
      "մագն": 5311,
      "##լու": 5312,
      "##ետն": 5313,
      "##իմպ": 5314,
      "մասնագիտ": 5315,
      "գնաց": 5316,
      "բարս": 5317,
      "անվտանգությունը": 5318,
      "մնաց": 5319,
      "մեքենա": 5320,
      "բանակցային": 5321,
      "##ine": 5322,
      "արեւելքում": 5323,
      "արհեստական": 5324,
      "օրաթերթը": 5325,
      "էկոնոմիկայի": 5326,
      "կը": 5327,
      "ճշտ": 5328,
      "##նջ": 5329,
      "##ber": 5330,
      "առգրավ": 5331,
      "##ոսում": 5332,
      "վարել": 5333,
      "ժամանակով": 5334,
      "##եյտ": 5335,
      "մեղմ": 5336,
      "հարաբերություններ": 5337,
      "##աշխատ": 5338,
      "եվրոպայում": 5339,
      "աջակցությամբ": 5340,
      "մեղադրում": 5341,
      "եվրոյի": 5342,
      "գողացել": 5343,
      "ինտեգր": 5344,
      "կրկն": 5345,
      "վարդեն": 5346,
      "ընդգրկված": 5347,
      "թմրամիջոց": 5348,
      "sp": 5349,
      "զուր": 5350,
      "հք": 5351,
      "##խվ": 5352,
      "##անները": 5353,
      "##ունելի": 5354,
      "հարս": 5355,
      "պատասխ": 5356,
      "աշխատող": 5357,
      "կրում": 5358,
      "գլխավորած": 5359,
      "սիրի": 5360,
      "օգտագործում": 5361,
      "արգելափակ": 5362,
      "արձագանքել": 5363,
      "կիպր": 5364,
      "59": 5365,
      "թայի": 5366,
      "##կյան": 5367,
      "##ղթի": 5368,
      "##բանկ": 5369,
      "##ումներն": 5370,
      "##ամու": 5371,
      "օրյա": 5372,
      "մերկ": 5373,
      "շրջափակ": 5374,
      "անցակետ": 5375,
      "կենտրոնը": 5376,
      "դրված": 5377,
      "թուրքիային": 5378,
      "բերում": 5379,
      "անդամներ": 5380,
      "տնտեսվար": 5381,
      "փոփոխության": 5382,
      "երեքշաբթի": 5383,
      "մոսկվա": 5384,
      "վարկանիշ": 5385,
      "ակցիա": 5386,
      "բուլղ": 5387,
      "թովմ": 5388,
      "09": 5389,
      "պղ": 5390,
      "##ig": 5391,
      "##ատիր": 5392,
      "##ականները": 5393,
      "հայտարարվել": 5394,
      "հրահանգ": 5395,
      "սահմանը": 5396,
      "կազմակերպությունը": 5397,
      "##ուհու": 5398,
      "անկարգ": 5399,
      "մեքս": 5400,
      "մրցույթի": 5401,
      "ներդրումների": 5402,
      "թողել": 5403,
      "հոդվածով": 5404,
      "օբյեկտիվ": 5405,
      "շվեդի": 5406,
      "##օգտագործ": 5407,
      "յոթ": 5408,
      "սլ": 5409,
      "սմար": 5410,
      "անպ": 5411,
      "##ոսյանին": 5412,
      "կրակել": 5413,
      "գործողության": 5414,
      "ալեն": 5415,
      "իրավիճակում": 5416,
      "##ուբար": 5417,
      "չունենք": 5418,
      "մեղադրվում": 5419,
      "##ation": 5420,
      "մանրամասները": 5421,
      "ծաղկ": 5422,
      "մխիթ": 5423,
      "դեկտեմբերին": 5424,
      "սմարթ": 5425,
      "ռում": 5426,
      "սի": 5427,
      "սարգսյանին": 5428,
      "բանկային": 5429,
      "ճանաչվել": 5430,
      "կկազմ": 5431,
      "քվեարկության": 5432,
      "բաժանորդներ": 5433,
      "սննդի": 5434,
      "արդյունաբերության": 5435,
      "պետքարտուղար": 5436,
      "եխխվ": 5437,
      "times": 5438,
      "թայիփ": 5439,
      "57": 5440,
      "te": 5441,
      "բոլ": 5442,
      "բուհ": 5443,
      "էժան": 5444,
      "մաքր": 5445,
      "##ացնող": 5446,
      "##ածավալ": 5447,
      "համախմբ": 5448,
      "##րանում": 5449,
      "##ագրությունը": 5450,
      "վարած": 5451,
      "ազն": 5452,
      "սահմանային": 5453,
      "զորամասի": 5454,
      "հյուրանոց": 5455,
      "նամակ": 5456,
      "պայթյունի": 5457,
      "covid": 5458,
      "մուս": 5459,
      "պոակ": 5460,
      "##շռ": 5461,
      "##արանական": 5462,
      "##ացնեն": 5463,
      "անփ": 5464,
      "տարածքների": 5465,
      "ծառայությունները": 5466,
      "ընտրության": 5467,
      "պայմաններ": 5468,
      "խմբակց": 5469,
      "հիմնախ": 5470,
      "հրապարակված": 5471,
      "գալստ": 5472,
      "հրդեհը": 5473,
      "բյուջե": 5474,
      "գյումրիում": 5475,
      "իրաքի": 5476,
      "անընդհատ": 5477,
      "անընդունելի": 5478,
      "##ֆորմ": 5479,
      "վիկտոր": 5480,
      "կըհ": 5481,
      "զիջ": 5482,
      "հյու": 5483,
      "փար": 5484,
      "##միտ": 5485,
      "##թող": 5486,
      "երազ": 5487,
      "##աստանում": 5488,
      "տեղը": 5489,
      "ներկր": 5490,
      "առաջընթաց": 5491,
      "վարչությունում": 5492,
      "հաշվառ": 5493,
      "աբովյան": 5494,
      "վահագն": 5495,
      "պարբերականը": 5496,
      "բնականաբար": 5497,
      "գյումրիի": 5498,
      "շեշտել": 5499,
      "թաքց": 5500,
      "բաղդաս": 5501,
      "հսկայական": 5502,
      "սմարթֆ": 5503,
      "լեռներում": 5504,
      "հաստ": 5505,
      "##ag": 5506,
      "##ple": 5507,
      "##բուրգ": 5508,
      "##ատում": 5509,
      "##ագրում": 5510,
      "##ավարտ": 5511,
      "ինչից": 5512,
      "դեպքը": 5513,
      "բոլորին": 5514,
      "ժողովում": 5515,
      "հայտնելով": 5516,
      "դրոշ": 5517,
      "մակր": 5518,
      "զգում": 5519,
      "երիտասարդական": 5520,
      "մոդել": 5521,
      "կորոնավիրուսով": 5522,
      "միրզոյանը": 5523,
      "կաշառք": 5524,
      "չարաշահ": 5525,
      "գոնե": 5526,
      "չլին": 5527,
      "քանդ": 5528,
      "##րը": 5529,
      "##դա": 5530,
      "##անանք": 5531,
      "##ումի": 5532,
      "##անկարը": 5533,
      "տեսնել": 5534,
      "անվճար": 5535,
      "պահանջները": 5536,
      "պատերազմը": 5537,
      "իսրայելը": 5538,
      "նախաձեռնության": 5539,
      "առանձնահատ": 5540,
      "տունը": 5541,
      "մանուկյանը": 5542,
      "մարդասիրական": 5543,
      "լաբորատոր": 5544,
      "01": 5545,
      "ատր": 5546,
      "թում": 5547,
      "կվ": 5548,
      "##տեմբեր": 5549,
      "##բին": 5550,
      "##ածկ": 5551,
      "##մանդամ": 5552,
      "գործոն": 5553,
      "##արդախ": 5554,
      "ոստիկանապետ": 5555,
      "ուղղաթիռ": 5556,
      "գործընթացում": 5557,
      "դատախազությունը": 5558,
      "սրահ": 5559,
      "եռամս": 5560,
      "մասնագետները": 5561,
      "վերոնշ": 5562,
      "բացման": 5563,
      "լքել": 5564,
      "նեղ": 5565,
      "շան": 5566,
      "##թթ": 5567,
      "##ասեր": 5568,
      "##եսկ": 5569,
      "##ույգ": 5570,
      "սահմանապահ": 5571,
      "կազմակերպելու": 5572,
      "անդամներին": 5573,
      "նմանատիպ": 5574,
      "ստեղծագործ": 5575,
      "##իպի": 5576,
      "նստաշրջ": 5577,
      "վերադարձել": 5578,
      "ազդեցություն": 5579,
      "շտապօգնության": 5580,
      "երկխոսության": 5581,
      "էլեկտրաէներգիայի": 5582,
      "03": 5583,
      "հալ": 5584,
      "ռոս": 5585,
      "վեհ": 5586,
      "րաֆ": 5587,
      "փամփ": 5588,
      "##ցեն": 5589,
      "արվում": 5590,
      "##ադիտ": 5591,
      "լինելով": 5592,
      "196": 5593,
      "##ուստամ": 5594,
      "հավաքել": 5595,
      "գործունեություն": 5596,
      "վարկային": 5597,
      "հրդեհի": 5598,
      "նախաքննության": 5599,
      "պրոց": 5600,
      "լիազորությունները": 5601,
      "ամրապնդման": 5602,
      "ցեղասպանությունը": 5603,
      "վճռական": 5604,
      "պողոտայում": 5605,
      "ժամանած": 5606,
      ".,": 5607,
      "զրույց": 5608,
      "##ուների": 5609,
      "##երեւ": 5610,
      "##ագավառ": 5611,
      "##ավորություն": 5612,
      "##եմի": 5613,
      "##արտար": 5614,
      "պաշտոնեական": 5615,
      "աշխատանքներին": 5616,
      "հաշիվ": 5617,
      "վաղուց": 5618,
      "սեպտեմբերին": 5619,
      "բնույթ": 5620,
      "սոցիալ": 5621,
      "ավտոմեքենաները": 5622,
      "ծավալը": 5623,
      "հանդիսացող": 5624,
      "պաշտոնյաների": 5625,
      "բանտարկ": 5626,
      "համերգ": 5627,
      "գերմանական": 5628,
      "առևտր": 5629,
      "աշտ": 5630,
      "գանձ": 5631,
      "լաչ": 5632,
      "լյու": 5633,
      "խարդախ": 5634,
      "յուն": 5635,
      "պոլ": 5636,
      "սող": 5637,
      "տեքստ": 5638,
      "##նդր": 5639,
      "վերին": 5640,
      "օրեր": 5641,
      "##լիջ": 5642,
      "անհամ": 5643,
      "տեսակ": 5644,
      "անդրե": 5645,
      "հայրը": 5646,
      "անցկացնելու": 5647,
      "բնագավառ": 5648,
      "դասախոս": 5649,
      "վաճառել": 5650,
      "հայրենիք": 5651,
      "համայնքապետ": 5652,
      "խել": 5653,
      "##սեփ": 5654,
      "##յակից": 5655,
      "##ատների": 5656,
      "առաջացրել": 5657,
      "վարք": 5658,
      "ընդհ": 5659,
      "ներկայացել": 5660,
      "վերջո": 5661,
      "ղեկավարության": 5662,
      "##եյթ": 5663,
      "ֆրանկ": 5664,
      "##պետական": 5665,
      "միջադեպը": 5666,
      "մեկնաբանել": 5667,
      "իրադարձությունների": 5668,
      "իլհամ": 5669,
      "էմ": 5670,
      "կրել": 5671,
      "հրա": 5672,
      "պորտ": 5673,
      "սե": 5674,
      "##երային": 5675,
      "իրազեկ": 5676,
      "տարածած": 5677,
      "տեսախց": 5678,
      "վարչապետին": 5679,
      "համակարգերի": 5680,
      "կոմուն": 5681,
      "անդրանիկ": 5682,
      "կոնֆ": 5683,
      "մշակել": 5684,
      "հասցնելու": 5685,
      "հավաքական": 5686,
      "խախտման": 5687,
      "մեղադրանքով": 5688,
      "առաջադրված": 5689,
      "նյութերի": 5690,
      "դիլիջ": 5691,
      "տարածքներում": 5692,
      "դաշտում": 5693,
      "եկամուտների": 5694,
      "օբաման": 5695,
      "հանրաքվեի": 5696,
      "միգրանտ": 5697,
      "բու": 5698,
      "հմ": 5699,
      "##եթի": 5700,
      "##արակի": 5701,
      "##ամաք": 5702,
      "արվել": 5703,
      "կարդ": 5704,
      "օրերս": 5705,
      "նախագիծ": 5706,
      "հասկաց": 5707,
      "##ուլիսին": 5708,
      "հնա": 5709,
      "##ույթների": 5710,
      "խմբավորման": 5711,
      "օգտվել": 5712,
      "210": 5713,
      "դավաճ": 5714,
      "դատախազի": 5715,
      "1000": 5716,
      "##աչափի": 5717,
      "գրասենյակ": 5718,
      "առիթով": 5719,
      "օլիմպ": 5720,
      "վերոնշյալ": 5721,
      "լեգ": 5722,
      "ճարտար": 5723,
      "##գան": 5724,
      "##եւում": 5725,
      "երդ": 5726,
      "պատրի": 5727,
      "հայտարարությամբ": 5728,
      "անցնելու": 5729,
      "հունաստանի": 5730,
      "հետեւել": 5731,
      "հովսեփ": 5732,
      "ավտոմեքենա": 5733,
      "գործընկերության": 5734,
      "փետրվար": 5735,
      "սպառազին": 5736,
      "փախուստի": 5737,
      "բիզնեսի": 5738,
      "կենսաթոշ": 5739,
      "վանաձորի": 5740,
      "կանխարգելման": 5741,
      "օժանդակ": 5742,
      "ավստրալի": 5743,
      "02": 5744,
      "72": 5745,
      "բկ": 5746,
      "կահ": 5747,
      "ճեպ": 5748,
      "նռ": 5749,
      "ներդ": 5750,
      "##ակարգի": 5751,
      "հնարավորինս": 5752,
      "մտնում": 5753,
      "թուրքիա": 5754,
      "##պրոմ": 5755,
      "հավաքվել": 5756,
      "միջոցառումները": 5757,
      "բանկը": 5758,
      "հաղթահար": 5759,
      "չինաստանը": 5760,
      "աղբյուրի": 5761,
      "զեկուց": 5762,
      "տեղադրված": 5763,
      "թեմայով": 5764,
      "հավանականությամբ": 5765,
      "հորդոր": 5766,
      "էներգետիկայի": 5767,
      "շրջանառության": 5768,
      "ավիաընկեր": 5769,
      "հյուպատ": 5770,
      "դմիտ": 5771,
      "կընդ": 5772,
      "նահ": 5773,
      "##բեկ": 5774,
      "##ub": 5775,
      "##ույժ": 5776,
      "գործարք": 5777,
      "##ատարի": 5778,
      "վարչությունից": 5779,
      "##իստական": 5780,
      "ռուսաստանին": 5781,
      "հիշյալ": 5782,
      "անկեղծ": 5783,
      "միջոցառման": 5784,
      "դիտավորությամբ": 5785,
      "երեխաները": 5786,
      "##one": 5787,
      "դատավորների": 5788,
      "հետախուզության": 5789,
      "պատվիրակությունը": 5790,
      "անմիջական": 5791,
      "նրբ": 5792,
      "բռնկվել": 5793,
      "հափշտակ": 5794,
      "զուրաբ": 5795,
      "դմիտրի": 5796,
      "56": 5797,
      "դերը": 5798,
      "վազգ": 5799,
      "##կովը": 5800,
      "##ran": 5801,
      "##հմ": 5802,
      "##ահաղորդ": 5803,
      "##րաֆ": 5804,
      "դատավճ": 5805,
      "կայքի": 5806,
      "ազատել": 5807,
      "հաշմանդամ": 5808,
      "մասնակցությունը": 5809,
      "շահերը": 5810,
      "ապրիլ": 5811,
      "հետազոտության": 5812,
      "որովհետև": 5813,
      "ծախսերի": 5814,
      "կրկնակի": 5815,
      "թռչող": 5816,
      "ավտոբուս": 5817,
      "եպհ": 5818,
      "փաստաբանը": 5819,
      "58": 5820,
      "be": 5821,
      "թել": 5822,
      "ջո": 5823,
      "##ri": 5824,
      "որակի": 5825,
      "##աբլ": 5826,
      "պետեր": 5827,
      "ռուսաստանից": 5828,
      "ուկրաինան": 5829,
      "սիրելի": 5830,
      "մշակման": 5831,
      "քայլերը": 5832,
      "ձեւով": 5833,
      "ստանձն": 5834,
      "սրտ": 5835,
      "##աննա": 5836,
      "տրված": 5837,
      "անունով": 5838,
      "փաստաթղթերը": 5839,
      "ուշադրության": 5840,
      "եղանակով": 5841,
      "հրազենային": 5842,
      "հավանություն": 5843,
      "անձնագր": 5844,
      "խոստովանել": 5845,
      "գերեզման": 5846,
      "դիզ": 5847,
      "կաց": 5848,
      "հրանտ": 5849,
      "սիլ": 5850,
      "##տել": 5851,
      "##պաստ": 5852,
      "##անքում": 5853,
      "##երսի": 5854,
      "##ենտրոն": 5855,
      "արկ": 5856,
      "արշավ": 5857,
      "##ավորելու": 5858,
      "գործերով": 5859,
      "մասնաճ": 5860,
      "տեսքով": 5861,
      "հանդիպումներ": 5862,
      "կլիմ": 5863,
      "հիմնարկ": 5864,
      "արտահոս": 5865,
      "դեպքեր": 5866,
      "առանցքային": 5867,
      "հերթապահ": 5868,
      "աշխատակիցներին": 5869,
      "ֆրանսիայում": 5870,
      "օգնությամբ": 5871,
      "կուսակցությունների": 5872,
      "բաքվում": 5873,
      "արաբական": 5874,
      "վերադառնալ": 5875,
      "ինտերնետ": 5876,
      "մասնաճյուղ": 5877,
      "(«": 5878,
      "աննախ": 5879,
      "##ադրել": 5880,
      "նշան": 5881,
      "հայտարարությունում": 5882,
      "##ուլտ": 5883,
      "հանրապետություն": 5884,
      "փաշինյան": 5885,
      "դեռևս": 5886,
      "սիրիական": 5887,
      "ապրիլին": 5888,
      "զբաղվել": 5889,
      "արգելված": 5890,
      "հերքել": 5891,
      "##ահանձն": 5892,
      "շինարարության": 5893,
      "գյուղատնտեսական": 5894,
      "խուսափելու": 5895,
      "չվերթ": 5896,
      "լավրովը": 5897,
      "press": 5898,
      "եզրափակ": 5899,
      "դոն": 5900,
      "մհ": 5901,
      "օղ": 5902,
      "աշխատատեղ": 5903,
      "##ուղարկ": 5904,
      "##ելիքի": 5905,
      "նախարարությունից": 5906,
      "##ուկը": 5907,
      "ցուցակում": 5908,
      "զարգացում": 5909,
      "խաղաղություն": 5910,
      "բանկերի": 5911,
      "ենթարկված": 5912,
      "աղբյուրների": 5913,
      "աղբյուրները": 5914,
      "ինտեր": 5915,
      "հանգամանքը": 5916,
      "արձակվել": 5917,
      "կենդանիների": 5918,
      "ավստրի": 5919,
      "շահագործման": 5920,
      "դերասան": 5921,
      "լուկաշեն": 5922,
      "անցկացման": 5923,
      "թայ": 5924,
      "տանի": 5925,
      "##ռը": 5926,
      "արյուն": 5927,
      "##առլ": 5928,
      "ընտրություններից": 5929,
      "արդյունքներով": 5930,
      "փողոցների": 5931,
      "կետի": 5932,
      "պողոսյանը": 5933,
      "պատժամիջոցներ": 5934,
      "մտածում": 5935,
      "գորիս": 5936,
      "բացակայության": 5937,
      "ներկայացուցչի": 5938,
      "մուրադ": 5939,
      "լաչինի": 5940,
      "as": 5941,
      "առաջացել": 5942,
      "սահմանվել": 5943,
      "ծառայողական": 5944,
      "տարբերակ": 5945,
      "հաստատման": 5946,
      "լուծելու": 5947,
      "զորակոչ": 5948,
      "ֆրանսիան": 5949,
      "մեղադրյալ": 5950,
      "##մունքը": 5951,
      "կասկածյալ": 5952,
      "##ագնաց": 5953,
      "առաքելության": 5954,
      "նախաքննությունը": 5955,
      "մուտքի": 5956,
      "հարթակ": 5957,
      "աննախադեպ": 5958,
      "բադ": 5959,
      "դռ": 5960,
      "դուստ": 5961,
      "լող": 5962,
      "վոլ": 5963,
      "##os": 5964,
      "##ականության": 5965,
      "##ավել": 5966,
      "##եցվել": 5967,
      "ասելով": 5968,
      "##ադրույ": 5969,
      "օրս": 5970,
      "վարժ": 5971,
      "հանրությանը": 5972,
      "ընտրել": 5973,
      "##աշրջան": 5974,
      "ընդգծելով": 5975,
      "ստանձ": 5976,
      "արգելել": 5977,
      "թեկնածուն": 5978,
      "հաղթել": 5979,
      "##թերց": 5980,
      "որդու": 5981,
      "կանոնները": 5982,
      "հղել": 5983,
      "գծով": 5984,
      "կալանավորվել": 5985,
      "բայդենի": 5986,
      "սուբյ": 5987,
      "փոխգործակցության": 5988,
      "միկրո": 5989,
      "սանկ": 5990,
      "արված": 5991,
      "համաճ": 5992,
      "նախապես": 5993,
      "##իմի": 5994,
      "##այնության": 5995,
      "պարեկ": 5996,
      "ծառայողների": 5997,
      "սպորտի": 5998,
      "բացատրել": 5999,
      "խորհրդային": 6000,
      "ընկերությունները": 6001,
      "նկատեց": 6002,
      "աղմ": 6003,
      "կորպ": 6004,
      "##արանների": 6005,
      "պատմությունը": 6006,
      "բնակիչներին": 6007,
      "պաշտպանել": 6008,
      "տնօրենը": 6009,
      "ընդդեմ": 6010,
      "ընդդիմությունը": 6011,
      "վարկած": 6012,
      "կոշտ": 6013,
      "ատրճ": 6014,
      "91": 6015,
      "lent": 6016,
      "գաբ": 6017,
      "ճամբ": 6018,
      "քեր": 6019,
      "##ոյանն": 6020,
      "##ph": 6021,
      "##ատմ": 6022,
      "իրան": 6023,
      "##ոտի": 6024,
      "հարցն": 6025,
      "ներկայացնող": 6026,
      "##ուլյ": 6027,
      "հունգ": 6028,
      "նշանակել": 6029,
      "քննարկելու": 6030,
      "ժողովրդավարության": 6031,
      "ֆրանս": 6032,
      "աջակցելու": 6033,
      "սկզբում": 6034,
      "երթուղ": 6035,
      "անունից": 6036,
      "գեղամ": 6037,
      "թաղամաս": 6038,
      "եղբոր": 6039,
      "ճնշում": 6040,
      "ժառանգության": 6041,
      "##ոռուպցիոն": 6042,
      "տիրապետ": 6043,
      "arm": 6044,
      "հացադուլ": 6045,
      "փախստականների": 6046,
      "համացանցում": 6047,
      "դնում": 6048,
      "կոկ": 6049,
      "պակի": 6050,
      "տանում": 6051,
      "##ագիծ": 6052,
      "դատի": 6053,
      "ղեկավարությունը": 6054,
      "թվականներին": 6055,
      "ահա": 6056,
      "հիվանդության": 6057,
      "կառուցել": 6058,
      "կանխելու": 6059,
      "բրիտան": 6060,
      "ուրեմն": 6061,
      "հեռուստատես": 6062,
      "նախաքննություն": 6063,
      "2018թ": 6064,
      "2020թ": 6065,
      "սպառնալիք": 6066,
      "հանձնարարել": 6067,
      "բորս": 6068,
      "պարզաբանել": 6069,
      "արգենտ": 6070,
      "բրազիլի": 6071,
      "բարեգործական": 6072,
      "հակակոռուպցիոն": 6073,
      "հրաչ": 6074,
      "lenta": 6075,
      "բյուր": 6076,
      "մելիք": 6077,
      "##ջախ": 6078,
      "##եղի": 6079,
      "միգր": 6080,
      "ամուր": 6081,
      "ղեկավարները": 6082,
      "հիշում": 6083,
      "սկսում": 6084,
      "մարտին": 6085,
      "պատերազմում": 6086,
      "լուսանկարը": 6087,
      "խորհրդարանը": 6088,
      "մոսկվան": 6089,
      "նահանգների": 6090,
      "ժողովուրդների": 6091,
      "բացառիկ": 6092,
      "մեկնաբանելով": 6093,
      "խուսափել": 6094,
      "զրուցակից": 6095,
      "հարյուրավոր": 6096,
      "միջանցքի": 6097,
      "վեճ": 6098,
      "արևմ": 6099,
      "ծննդյան": 6100,
      "bl": 6101,
      "գոռ": 6102,
      "մոռ": 6103,
      "սադրան": 6104,
      "ֆոր": 6105,
      "##վկ": 6106,
      "##անեկան": 6107,
      "##ամար": 6108,
      "այսուհ": 6109,
      "քաղաքներում": 6110,
      "ավան": 6111,
      "պահում": 6112,
      "երկրներին": 6113,
      "խոսելով": 6114,
      "##երիների": 6115,
      "եկավ": 6116,
      "պարզաբանում": 6117,
      "հիմնավոր": 6118,
      "ալավեր": 6119,
      "120": 6120,
      "հրաժարականի": 6121,
      "մեղադրական": 6122,
      "կոմիտե": 6123,
      "շաբաթվա": 6124,
      "հետևյալ": 6125,
      "չորրորդ": 6126,
      "հետազոտությունների": 6127,
      "հինգշաբթի": 6128,
      "հետաքննություն": 6129,
      "ցուցանիշը": 6130,
      "սիմոնյանը": 6131,
      "անջատ": 6132,
      "պրոֆեսի": 6133,
      "հրաձգ": 6134,
      ",-": 6135,
      "##վին": 6136,
      "##ժեք": 6137,
      "##um": 6138,
      "##ատակի": 6139,
      "##ստանը": 6140,
      "##ագրման": 6141,
      "ոստիկանական": 6142,
      "հակառ": 6143,
      "բնակվող": 6144,
      "մեղրի": 6145,
      "վիճաբան": 6146,
      "հարաբերություններում": 6147,
      "աճուրդ": 6148,
      "տրվում": 6149,
      "եռակողմ": 6150,
      "պետրոսյանի": 6151,
      "գեւորգյանը": 6152,
      "գրոհային": 6153,
      "հավատարիմ": 6154,
      "ինքնասպան": 6155,
      "հյուպատոս": 6156,
      "գե": 6157,
      "լճի": 6158,
      "մես": 6159,
      "սաղ": 6160,
      "##ցը": 6161,
      "##սափ": 6162,
      "##15": 6163,
      "##ex": 6164,
      "##ինն": 6165,
      "##ավճար": 6166,
      "##ախախտ": 6167,
      "միշ": 6168,
      "2000": 6169,
      "ժամանակը": 6170,
      "բացվել": 6171,
      "ամբաստան": 6172,
      "դոլարը": 6173,
      "ապահովում": 6174,
      "##ամասնական": 6175,
      "քաղաքապետը": 6176,
      "գործընթացին": 6177,
      "կլիներ": 6178,
      "միջնորդությունը": 6179,
      "հսկողության": 6180,
      "քկհ": 6181,
      "apple": 6182,
      "կուտակ": 6183,
      "##օղլուն": 6184,
      "կալանավորված": 6185,
      "համարանիշի": 6186,
      "վազգեն": 6187,
      "լատ": 6188,
      "նազար": 6189,
      "նուբար": 6190,
      "սույն": 6191,
      "տաղ": 6192,
      "օկ": 6193,
      "##տը": 6194,
      "ինդ": 6195,
      "##ոնյանը": 6196,
      "հարստ": 6197,
      "համարժեք": 6198,
      "##ավարությունը": 6199,
      "ավեր": 6200,
      "##նդիր": 6201,
      "ներկայացրեց": 6202,
      "կրեմ": 6203,
      "ամենակար": 6204,
      "##ույթները": 6205,
      "սերբ": 6206,
      "հասցեում": 6207,
      "չունեց": 6208,
      "վրաստան": 6209,
      "քարտեզ": 6210,
      "կիրառման": 6211,
      "ալիեւի": 6212,
      "թանկարժեք": 6213,
      "հետաքննության": 6214,
      "բռնի": 6215,
      "եթերում": 6216,
      "փամփուշտ": 6217,
      "85": 6218,
      "իպ": 6219,
      "մմ": 6220,
      "ռուստամ": 6221,
      "վաստ": 6222,
      "քո": 6223,
      "անասն": 6224,
      "ամրագր": 6225,
      "պատահար": 6226,
      "##աջող": 6227,
      "իրավապաշտպան": 6228,
      "պայմանների": 6229,
      "195": 6230,
      "զորամաս": 6231,
      "օգտագործելու": 6232,
      "առողջության": 6233,
      "դպրոցում": 6234,
      "փաստաթղթեր": 6235,
      "արդյո": 6236,
      "նպաստել": 6237,
      "հասկանալ": 6238,
      "արժանացել": 6239,
      "##աշվիլին": 6240,
      "մարտիրոսյանը": 6241,
      "ձգտում": 6242,
      "կփոխ": 6243,
      "08": 6244,
      "goo": 6245,
      "լրջ": 6246,
      "տաթ": 6247,
      "##մուշ": 6248,
      "##աներ": 6249,
      "##առության": 6250,
      "ընձ": 6251,
      "ընթերց": 6252,
      "##եմին": 6253,
      "սահմանազատ": 6254,
      "##ոյին": 6255,
      "երեւում": 6256,
      "հասցեին": 6257,
      "տրամաչափի": 6258,
      "ազդեցության": 6259,
      "բժիշկների": 6260,
      "շինարարական": 6261,
      "հարգելի": 6262,
      "եզրակացության": 6263,
      "մհեր": 6264,
      "04": 6265,
      "թարմ": 6266,
      "կից": 6267,
      "սատար": 6268,
      "քանակը": 6269,
      "##ավաճառ": 6270,
      "##ացվեն": 6271,
      "ներողություն": 6272,
      "պետդ": 6273,
      "հասնում": 6274,
      "սահմանների": 6275,
      "##ոգման": 6276,
      "աղք": 6277,
      "մանր": 6278,
      "տարբերակը": 6279,
      "չափանիշ": 6280,
      "դեսպանատան": 6281,
      "մասնակիցներին": 6282,
      "իրավիճակին": 6283,
      "երաշխիք": 6284,
      "փորձաքննության": 6285,
      "հնդկաստանի": 6286,
      "պարտականությունները": 6287,
      "հքծ": 6288,
      "06": 6289,
      "64": 6290,
      "cn": 6291,
      "խեղ": 6292,
      "չեխ": 6293,
      "օսի": 6294,
      "##նեմ": 6295,
      "##խորհրդ": 6296,
      "##if": 6297,
      "##ասը": 6298,
      "միլ": 6299,
      "##իսը": 6300,
      "երկուս": 6301,
      "##սկու": 6302,
      "գյուղը": 6303,
      "քննարկումների": 6304,
      "հաստատված": 6305,
      "##իքս": 6306,
      "խնամ": 6307,
      "հրապարակային": 6308,
      "ակտիվորեն": 6309,
      "հատվածը": 6310,
      "գրանցված": 6311,
      "բաղադր": 6312,
      "2013թ": 6313,
      "զելեն": 6314,
      "միխայիլ": 6315,
      "գուրգ": 6316,
      "լվ": 6317,
      "սրան": 6318,
      "փայտ": 6319,
      "##նան": 6320,
      "##ելն": 6321,
      "##ամիտ": 6322,
      "##անիչ": 6323,
      "##ստր": 6324,
      "##ուրը": 6325,
      "գործն": 6326,
      "վերակառուց": 6327,
      "տեղումների": 6328,
      "##եմպ": 6329,
      "կատարելով": 6330,
      "մտադր": 6331,
      "պահանջը": 6332,
      "կիրական": 6333,
      "կհաս": 6334,
      "բռնություն": 6335,
      "հեղին": 6336,
      "ֆինանսավորման": 6337,
      "վահրամ": 6338,
      "ամսական": 6339,
      "կորցրել": 6340,
      "դեմոկրատական": 6341,
      "մանդատ": 6342,
      "շարմազանովը": 6343,
      "չբ": 6344,
      "տիմ": 6345,
      "տանկ": 6346,
      "##նիկ": 6347,
      "##իհ": 6348,
      "##ողին": 6349,
      "##ախումբ": 6350,
      "ժամանակի": 6351,
      "ադրբեջանն": 6352,
      "կառավարական": 6353,
      "##վաճառ": 6354,
      "##աշինության": 6355,
      "տարբերություն": 6356,
      "պահանջով": 6357,
      "ինքնուր": 6358,
      "դեպքերը": 6359,
      "հասցնել": 6360,
      "զբաղվող": 6361,
      "խախտել": 6362,
      "##սպաս": 6363,
      "ծնվել": 6364,
      "պայթուց": 6365,
      "իտալիայի": 6366,
      "ստեփանակերտ": 6367,
      "ցուցահանդես": 6368,
      "բաղդասարյանը": 6369,
      "րաֆֆի": 6370,
      "դնել": 6371,
      "դարի": 6372,
      "ձգ": 6373,
      "պոտ": 6374,
      "##զմի": 6375,
      "##արագ": 6376,
      "տեղահան": 6377,
      "##ագրով": 6378,
      "##ուկի": 6379,
      "քաղաքականություն": 6380,
      "սեփականատեր": 6381,
      "հանցագործություն": 6382,
      "նախաձեռնությունը": 6383,
      "ապրելու": 6384,
      "դիտարկմանը": 6385,
      "ինքնուրույն": 6386,
      "07": 6387,
      "բակո": 6388,
      "գևոր": 6389,
      "դրդ": 6390,
      "քույր": 6391,
      "##վենց": 6392,
      "##ակներով": 6393,
      "##ամետ": 6394,
      "##ահիտ": 6395,
      "##աբաշխ": 6396,
      "##արարական": 6397,
      "կարո": 6398,
      "տարհան": 6399,
      "միջպետական": 6400,
      "ավելացրել": 6401,
      "##ելիության": 6402,
      "եկած": 6403,
      "առաջինը": 6404,
      "համաձայնագիր": 6405,
      "առաջարկը": 6406,
      "բազմակողմ": 6407,
      "եվրախորհրդ": 6408,
      "կստեղծ": 6409,
      "##րաձայն": 6410,
      "հետապնդում": 6411,
      "նաիրա": 6412,
      "թատրոնի": 6413,
      "համավարակի": 6414,
      "խրախ": 6415,
      "թեթեւ": 6416,
      "դիպ": 6417,
      "սցեն": 6418,
      "##կերը": 6419,
      "##զգ": 6420,
      "##թոնի": 6421,
      "##խտ": 6422,
      "##gle": 6423,
      "ինժ": 6424,
      "##ակցային": 6425,
      "ինչքան": 6426,
      "վարում": 6427,
      "##լիի": 6428,
      "պարուն": 6429,
      "շրջապատ": 6430,
      "գրավոր": 6431,
      "իշխանական": 6432,
      "պայմանները": 6433,
      "բարաք": 6434,
      "բարձրացել": 6435,
      "լիովին": 6436,
      "մայրը": 6437,
      "դասընթաց": 6438,
      "վաճառվել": 6439,
      "խոշորագույն": 6440,
      "թեկնածուների": 6441,
      "թղթակիցը": 6442,
      "ազդեցությունը": 6443,
      "ստացվում": 6444,
      "խթան": 6445,
      "ողբերգական": 6446,
      "անհնար": 6447,
      "google": 6448,
      "ադամ": 6449,
      "բեն": 6450,
      "մաշտ": 6451,
      "մաթ": 6452,
      "##ak": 6453,
      "##ունու": 6454,
      "##ավազ": 6455,
      "անահիտ": 6456,
      "ամպ": 6457,
      "մարաշ": 6458,
      "թեժ": 6459,
      "ծառայությունում": 6460,
      "մինասյանը": 6461,
      "ուժգն": 6462,
      "տոկոսադրույ": 6463,
      "վարդանյանի": 6464,
      "ներառում": 6465,
      "կայունության": 6466,
      "սարսափ": 6467,
      "երթեւեկության": 6468,
      "ինչպիսին": 6469,
      "ձմեռ": 6470,
      "օլի": 6471,
      "##ահուն": 6472,
      "հայերը": 6473,
      "մասում": 6474,
      "##եքշաբթի": 6475,
      "հայտարարությունները": 6476,
      "հրայր": 6477,
      "##շտաբ": 6478,
      "ընթացքը": 6479,
      "անվանում": 6480,
      "իշխանություն": 6481,
      "անդամակց": 6482,
      "##ափոխադր": 6483,
      "ալկ": 6484,
      "քննարկվում": 6485,
      "բնակիչներ": 6486,
      "շնորհավորել": 6487,
      "հոկտեմբերին": 6488,
      "##իսկոպ": 6489,
      "կոտր": 6490,
      "ավտոմեքենաների": 6491,
      "դաշինքը": 6492,
      "հռոմի": 6493,
      "նախապատրաստվում": 6494,
      "ուսանողների": 6495,
      "զեկույցում": 6496,
      "տուգանք": 6497,
      "կանչել": 6498,
      "##արդյունաբեր": 6499,
      "##վկիան": 6500,
      "95": 6501,
      "կտեղ": 6502,
      "նիդ": 6503,
      "ռաֆ": 6504,
      "##ախմ": 6505,
      "համաժողովի": 6506,
      "##ավորվում": 6507,
      "##աբժ": 6508,
      "պատանդ": 6509,
      "##ադրի": 6510,
      "միջոցներով": 6511,
      "ընկերությանը": 6512,
      "##ալուծ": 6513,
      "սպասարկ": 6514,
      "խախտումների": 6515,
      "ընտանիքների": 6516,
      "չորեքշաբթի": 6517,
      "պատասխանատվություն": 6518,
      "արաբկ": 6519,
      "հեռախոսազրույց": 6520,
      "մատակարարման": 6521,
      "թիմի": 6522,
      "կովկասի": 6523,
      "կպահ": 6524,
      "ճշգր": 6525,
      "հավատարմ": 6526,
      "աղքատ": 6527,
      "05": 6528,
      "mer": 6529,
      "էթն": 6530,
      "խլ": 6531,
      "ծռ": 6532,
      "ցանցի": 6533,
      "##ոնն": 6534,
      "##աբազ": 6535,
      "տարր": 6536,
      "օրական": 6537,
      "##ուղի": 6538,
      "կրոնական": 6539,
      "աշխարհը": 6540,
      "դեսպանի": 6541,
      "գազայի": 6542,
      "սպանված": 6543,
      "տղամարդուն": 6544,
      "չինաստանում": 6545,
      "բնապահպանության": 6546,
      "հոսպիտալացվել": 6547,
      "լիբանանի": 6548,
      "մագնիտ": 6549,
      "բա": 6550,
      "խուլի": 6551,
      "##ցել": 6552,
      "##դով": 6553,
      "##ժդ": 6554,
      "##ացրած": 6555,
      "այվազ": 6556,
      "իրանում": 6557,
      "առցանց": 6558,
      "պետությանը": 6559,
      "##ափն": 6560,
      "թվային": 6561,
      "հանդիպումից": 6562,
      "մտնել": 6563,
      "հիմնարար": 6564,
      "պաշտպանելու": 6565,
      "հեղաշրջ": 6566,
      "վիրավորում": 6567,
      "ժամկետային": 6568,
      "տանող": 6569,
      "հարվածներ": 6570,
      "խմբեր": 6571,
      "խմբերի": 6572,
      "ծառուկյանը": 6573,
      "ծառուկյանի": 6574,
      "կովկասում": 6575,
      "փոխհատուցում": 6576,
      "վարչակազմի": 6577,
      "ձայների": 6578,
      "բրյուսելում": 6579,
      "63": 6580,
      "խոհ": 6581,
      "կոստ": 6582,
      "ղազարյանը": 6583,
      "մթեր": 6584,
      "ոճ": 6585,
      "##դիր": 6586,
      "##ունակի": 6587,
      "միացել": 6588,
      "հրատ": 6589,
      "իրականացումը": 6590,
      "թվականը": 6591,
      "պատմեց": 6592,
      "լուծումներ": 6593,
      "յուրի": 6594,
      "երիտասարդների": 6595,
      "##ոջը": 6596,
      "կոտրել": 6597,
      "ապագայի": 6598,
      "չկարող": 6599,
      "մտածել": 6600,
      "ծովային": 6601,
      "գևորգ": 6602,
      "գիր": 6603,
      "թեւ": 6604,
      "խս": 6605,
      "կգն": 6606,
      "շղթ": 6607,
      "ջարդ": 6608,
      "տիկին": 6609,
      "##եգն": 6610,
      "##քերով": 6611,
      "##չին": 6612,
      "##iv": 6613,
      "##ունք": 6614,
      "հայհ": 6615,
      "##ոսյանն": 6616,
      "հրատար": 6617,
      "խորհրդակց": 6618,
      "դրամական": 6619,
      "գնալու": 6620,
      "սարգսյան": 6621,
      "վաղար": 6622,
      "օգտագործելով": 6623,
      "պատերազմից": 6624,
      "տրամադրելու": 6625,
      "անմեղ": 6626,
      "գերմանիան": 6627,
      "առաքելությունը": 6628,
      "վանեց": 6629,
      "տուժածներ": 6630,
      "արձակուրդ": 6631,
      "լուսանկարները": 6632,
      "ինտերֆ": 6633,
      "այսուհետ": 6634,
      "խրախուս": 6635,
      "տեմպ": 6636,
      "##կոյի": 6637,
      "##ոյանին": 6638,
      "##տն": 6639,
      "##լե": 6640,
      "##ենկոն": 6641,
      "##ացուն": 6642,
      "##ովն": 6643,
      "համապար": 6644,
      "##աղբ": 6645,
      "ամառ": 6646,
      "գտնում": 6647,
      "հնարավորություններ": 6648,
      "բարձրացնել": 6649,
      "կարծես": 6650,
      "բնակիչը": 6651,
      "168": 6652,
      "անցկացվում": 6653,
      "##եինք": 6654,
      "դպրոցների": 6655,
      "կառույցի": 6656,
      "բարեկամական": 6657,
      "արաբիայի": 6658,
      "մարգար": 6659,
      "արարողությունը": 6660,
      "տարելից": 6661,
      "հիմնադրամը": 6662,
      "դեպարտամենտ": 6663,
      "արգենտին": 6664,
      "համապարփակ": 6665,
      "of": 6666,
      "բակում": 6667,
      "զսպ": 6668,
      "խց": 6669,
      "տո": 6670,
      "օպ": 6671,
      "հայեց": 6672,
      "##ագրավ": 6673,
      "հանրությունը": 6674,
      "այլև": 6675,
      "##ընտր": 6676,
      "ուժային": 6677,
      "կենտրոնից": 6678,
      "զարգացումը": 6679,
      "անհրաժեշտություն": 6680,
      "կհանդ": 6681,
      "##որոշման": 6682,
      "զբաղեցնում": 6683,
      "կյանքում": 6684,
      "տրամադրված": 6685,
      "վաճառվում": 6686,
      "փաստաթղթի": 6687,
      "գրանցել": 6688,
      "փորձագետը": 6689,
      "գծում": 6690,
      "պատժամիջոցները": 6691,
      "թափանցիկ": 6692,
      "աշխատավարձի": 6693,
      "օդանավակայանում": 6694,
      "##օդային": 6695,
      "դինամ": 6696,
      "##գարխ": 6697,
      "արքայ": 6698,
      "գովազդ": 6699,
      "խնդրանքով": 6700,
      "ինչպիսիք": 6701,
      "կքննարկ": 6702,
      "պոտենցի": 6703,
      "ալկոհ": 6704,
      "##աբժշ": 6705,
      "74": 6706,
      "կենց": 6707,
      "պենտ": 6708,
      "##սր": 6709,
      "##ab": 6710,
      "##des": 6711,
      "##ահանման": 6712,
      "տարեց": 6713,
      "այդտեղ": 6714,
      "հրետ": 6715,
      "շարքում": 6716,
      "հիմքում": 6717,
      "խոսքի": 6718,
      "##աժողովը": 6719,
      "աշխարհաքաղաքական": 6720,
      "քայլերի": 6721,
      "գումարի": 6722,
      "խորը": 6723,
      "##իռը": 6724,
      "ավտոճանապարհին": 6725,
      "միակողմ": 6726,
      "2016թ": 6727,
      "կշարունակի": 6728,
      "եգիպտոսի": 6729,
      "վենես": 6730,
      "ինքնակառ": 6731,
      "միանգամից": 6732,
      "բնապահպանական": 6733,
      "դանդ": 6734,
      "կուր": 6735,
      "չեք": 6736,
      "վկան": 6737,
      "##ռված": 6738,
      "##ac": 6739,
      "##ժամ": 6740,
      "տարեկ": 6741,
      "անհիմն": 6742,
      "դիմակայ": 6743,
      "բարձրաձայն": 6744,
      "հեռացել": 6745,
      "պայմանավորվել": 6746,
      "##դամթեր": 6747,
      "կարգը": 6748,
      "գտնվելու": 6749,
      "հովանավոր": 6750,
      "արձանագրված": 6751,
      "երեխաներ": 6752,
      "ձեռնարկված": 6753,
      "թղթակցին": 6754,
      "դադարեցնելու": 6755,
      "ճգնաժամը": 6756,
      "դառնա": 6757,
      "լրացումներ": 6758,
      "իրավապահները": 6759,
      "##ահայկական": 6760,
      "զարման": 6761,
      "ժամանակավորապես": 6762,
      "երկրաշարժի": 6763,
      "արարողությանը": 6764,
      "գործարքի": 6765,
      "անձնակազմի": 6766,
      "al": 6767,
      "սուտ": 6768,
      "##կռ": 6769,
      "##ելուն": 6770,
      "որս": 6771,
      "անտես": 6772,
      "##աստանը": 6773,
      "երկն": 6774,
      "տարածվել": 6775,
      "շրջվել": 6776,
      "սահմանամերձ": 6777,
      "ընթացքի": 6778,
      "տեսանելի": 6779,
      "##տեստ": 6780,
      "##ատեսակ": 6781,
      "պայմանագիրը": 6782,
      "մահմեդ": 6783,
      "օգտակար": 6784,
      "պատմություն": 6785,
      "հասարակայնության": 6786,
      "հրաժարվում": 6787,
      "ձեռնարկվում": 6788,
      "վտանգի": 6789,
      "ենթադրյալ": 6790,
      "զգալիորեն": 6791,
      "սննդամթեր": 6792,
      "##ենսիվ": 6793,
      "##իրավական": 6794,
      "գաբրի": 6795,
      "կենցաղ": 6796,
      "զույգ": 6797,
      "էլի": 6798,
      "վիլ": 6799,
      "##կացած": 6800,
      "##լավ": 6801,
      "հայաց": 6802,
      "##արգման": 6803,
      "ուղևոր": 6804,
      "ներկայացնելով": 6805,
      "հաղորդմամբ": 6806,
      "կարգապահ": 6807,
      "տնտեսությունը": 6808,
      "աճում": 6809,
      "կարեւորել": 6810,
      "նոյեմբեր": 6811,
      "շենքերի": 6812,
      "ներդրումներ": 6813,
      "ենթարկելու": 6814,
      "բաժանմուն": 6815,
      "սարքերի": 6816,
      "արձագանքեց": 6817,
      "փորձագետները": 6818,
      "տասնամ": 6819,
      "ծեծկռ": 6820,
      "ծովում": 6821,
      "կարգավիճակ": 6822,
      "փորձաքննություն": 6823,
      "ցուցարարները": 6824,
      "##ոմսերի": 6825,
      "պրոֆես": 6826,
      "հունվարին": 6827,
      "բարսեղ": 6828,
      "ստանձնել": 6829,
      "ինժեներ": 6830,
      "օլիգարխ": 6831,
      "հրատապ": 6832,
      "միակողմանի": 6833,
      "վենեսուել": 6834,
      "»)": 6835,
      "աման": 6836,
      "ռոբ": 6837,
      "##կել": 6838,
      "##ap": 6839,
      "##ost": 6840,
      "##ուալ": 6841,
      "##անայի": 6842,
      "##այանը": 6843,
      "քաղաքը": 6844,
      "ասոցի": 6845,
      "նորվե": 6846,
      "տարածման": 6847,
      "հիմքով": 6848,
      "որոշումն": 6849,
      "ընտրված": 6850,
      "վերջն": 6851,
      "ծրագրով": 6852,
      "սերունդ": 6853,
      "հաստատելու": 6854,
      "գազպրոմ": 6855,
      "հասարակությունը": 6856,
      "մայիսին": 6857,
      "վստահության": 6858,
      "սրտի": 6859,
      "երկարաժամկետ": 6860,
      "ապրող": 6861,
      "մարգարյանի": 6862,
      "տեղադրել": 6863,
      "##լանդիայի": 6864,
      "լայնածավալ": 6865,
      "դրսևոր": 6866,
      "երթեւեկելի": 6867,
      "ակումբի": 6868,
      "անհատական": 6869,
      "ջոկատից": 6870,
      "լե": 6871,
      "ծավ": 6872,
      "ոման": 6873,
      "##վենք": 6874,
      "##մահ": 6875,
      "ութ": 6876,
      "##ադը": 6877,
      "##րանսպ": 6878,
      "օրգ": 6879,
      "կարողանա": 6880,
      "սահմանները": 6881,
      "պաշտոնի": 6882,
      "հանրապետությունը": 6883,
      "լիներ": 6884,
      "խաղում": 6885,
      "##եզոք": 6886,
      "վնասվել": 6887,
      "վայրէջ": 6888,
      "հավաքված": 6889,
      "նոյեմբերին": 6890,
      "լրատվության": 6891,
      "ամիսների": 6892,
      "եվրահանձն": 6893,
      "ալիեւը": 6894,
      "բաղկացած": 6895,
      "բողոքը": 6896,
      "ռուբլու": 6897,
      "կրճատվել": 6898,
      "հավատում": 6899,
      "սուպեր": 6900,
      "ավետիսյանը": 6901,
      "պատրաստակամություն": 6902,
      "պայթուցիկ": 6903,
      "պենտագ": 6904,
      "66": 6905,
      "զվար": 6906,
      "շամ": 6907,
      "##ցիների": 6908,
      "##րու": 6909,
      "##ian": 6910,
      "##da": 6911,
      "##եցիկ": 6912,
      "նախիջ": 6913,
      "##որդների": 6914,
      "նախագահների": 6915,
      "նորանշանակ": 6916,
      "նրանով": 6917,
      "հասնելով": 6918,
      "որոշումների": 6919,
      "եղավ": 6920,
      "հետեւողական": 6921,
      "նվեր": 6922,
      "հավելված": 6923,
      "դիրքերի": 6924,
      "ինտենսիվ": 6925,
      "##իդե": 6926,
      "զինվորականները": 6927,
      "կողոպ": 6928,
      "թիմը": 6929,
      "հասկանալի": 6930,
      "լիցք": 6931,
      "տառապ": 6932,
      "պրոֆեսիոնալ": 6933,
      "գուրգեն": 6934,
      "##իսկոպոս": 6935,
      "թալի": 6936,
      "##յար": 6937,
      "##ուճ": 6938,
      "##աձոր": 6939,
      "մոտավոր": 6940,
      "##ալիստ": 6941,
      "ընտրողների": 6942,
      "հեռավորության": 6943,
      "խնդիրներին": 6944,
      "դրանում": 6945,
      "##յուչ": 6946,
      "մայիս": 6947,
      "կմեկ": 6948,
      "կանխել": 6949,
      "շենքում": 6950,
      "նախաձեռ": 6951,
      "դիվերսի": 6952,
      "տեղեկատվությունը": 6953,
      "դրանցից": 6954,
      "առաջադրել": 6955,
      "առանձնատներ": 6956,
      "փուլը": 6957,
      "պարբերականի": 6958,
      "աղջկա": 6959,
      "թագավոր": 6960,
      "վճռաբեկ": 6961,
      "ցուցարարների": 6962,
      "գերատեսչության": 6963,
      "նետել": 6964,
      "լոնդոնի": 6965,
      "մաշտոցի": 6966,
      "61": 6967,
      "ծիծ": 6968,
      "կազ": 6969,
      "հուզ": 6970,
      "չստ": 6971,
      "տալով": 6972,
      "ֆեդ": 6973,
      "##լեր": 6974,
      "##անետ": 6975,
      "##երորդ": 6976,
      "##ենին": 6977,
      "##ույզ": 6978,
      "տարածքից": 6979,
      "խոսակց": 6980,
      "անցում": 6981,
      "բոլորս": 6982,
      "լրիվ": 6983,
      "որտեղից": 6984,
      "##ոնիայում": 6985,
      "հաշվով": 6986,
      "ավարտել": 6987,
      "վերահաստատ": 6988,
      "դառնալու": 6989,
      "պարտավորությունները": 6990,
      "տեխնոլոգիական": 6991,
      "առաջնային": 6992,
      "ոսկու": 6993,
      "քաղց": 6994,
      "երգչ": 6995,
      "կցանկ": 6996,
      "լիցենզ": 6997,
      "կործանիչ": 6998,
      "մեջբերում": 6999,
      "մշ": 7000,
      "սասն": 7001,
      "սասուն": 7002,
      "վիվ": 7003,
      "##նից": 7004,
      "##մարտ": 7005,
      "##լը": 7006,
      "##ումյանը": 7007,
      "ամիր": 7008,
      "##արկվել": 7009,
      "օրերի": 7010,
      "կազմի": 7011,
      "գնով": 7012,
      "ուժեր": 7013,
      "բարոյական": 7014,
      "մահապատ": 7015,
      "գիտելի": 7016,
      "պատգամավորներ": 7017,
      "պատրաստել": 7018,
      "կոմիտաս": 7019,
      "համայնքային": 7020,
      "հրաժարականը": 7021,
      "հաղթանակի": 7022,
      "հատվածներում": 7023,
      "հանգեցրել": 7024,
      "##cedes": 7025,
      "բուժման": 7026,
      "ենթադրվում": 7027,
      "փորձագետների": 7028,
      "օրակարգի": 7029,
      "վերցնել": 7030,
      "վերականգնել": 7031,
      "զոհրաբյանը": 7032,
      "հեռուստաալիքը": 7033,
      "mercedes": 7034,
      "զնն": 7035,
      "թոշ": 7036,
      "նայ": 7037,
      "չեզոք": 7038,
      "ցր": 7039,
      "##եվեր": 7040,
      "##ատեխն": 7041,
      "արբան": 7042,
      "համաս": 7043,
      "##եպորտ": 7044,
      "##աթի": 7045,
      "պահված": 7046,
      "##ոմպ": 7047,
      "շարքային": 7048,
      "փաստորեն": 7049,
      "նշանակված": 7050,
      "լրտես": 7051,
      "այցելու": 7052,
      "250": 7053,
      "ստորագրվել": 7054,
      "##ահամալ": 7055,
      "գերմանիայում": 7056,
      "էներգիայի": 7057,
      "տեսանյութում": 7058,
      "հուսով": 7059,
      "ամենամյա": 7060,
      "թաքն": 7061,
      "փառատոնի": 7062,
      "ստեփանակերտի": 7063,
      "քրդական": 7064,
      "արտադրանքի": 7065,
      "արժանապատվ": 7066,
      "դավաճան": 7067,
      "էթնիկ": 7068,
      "հրատարակ": 7069,
      "դանդաղ": 7070,
      "սասնա": 7071,
      "##եպորտաժ": 7072,
      "67": 7073,
      "for": 7074,
      "արփ": 7075,
      "##յանների": 7076,
      "մարուք": 7077,
      "##ակցեն": 7078,
      "##ապետական": 7079,
      "##լիթ": 7080,
      "քննությունը": 7081,
      "երկրից": 7082,
      "իրականությանը": 7083,
      "##ընկալ": 7084,
      "տեղեկությունները": 7085,
      "անհաս": 7086,
      "վերջում": 7087,
      "կայքը": 7088,
      "պատճառված": 7089,
      "մահացու": 7090,
      "սկսելու": 7091,
      "ներկայացուցիչներին": 7092,
      "անցկացնում": 7093,
      "կնվազ": 7094,
      "վրաստանը": 7095,
      "զբաղեցրել": 7096,
      "արտադրական": 7097,
      "նախագծերի": 7098,
      "նստավայր": 7099,
      "սպառնալիքի": 7100,
      "գնդապետ": 7101,
      "համալիրի": 7102,
      "բորիս": 7103,
      "2012թ": 7104,
      "փաստաթուղթը": 7105,
      "սոցցանց": 7106,
      "պատասխանը": 7107,
      "պարունակում": 7108,
      "դուր": 7109,
      "զերծ": 7110,
      "ըմբ": 7111,
      "հեծ": 7112,
      "սիսի": 7113,
      "քեմ": 7114,
      "##լիկ": 7115,
      "##ևի": 7116,
      "##ֆիկ": 7117,
      "##ավանի": 7118,
      "միեդ": 7119,
      "##ուրգի": 7120,
      "տարեվեր": 7121,
      "##որդի": 7122,
      "ունակ": 7123,
      "##իչներ": 7124,
      "##աթափ": 7125,
      "##անդերձ": 7126,
      "##աձգել": 7127,
      "ոստիկ": 7128,
      "ռուսաստանն": 7129,
      "ուժերին": 7130,
      "գյուղերի": 7131,
      "կոնվենց": 7132,
      "քաղաքապետարանը": 7133,
      "մեղադրվող": 7134,
      "տուժող": 7135,
      "նահանգապետ": 7136,
      "դատապարտված": 7137,
      "սպառնացել": 7138,
      "հոսանք": 7139,
      "կարծիքը": 7140,
      "ավտոճանապարհը": 7141,
      "գծի": 7142,
      "ուշադրությունը": 7143,
      "2019թ": 7144,
      "չկատար": 7145,
      "կարգավիճակի": 7146,
      "սուքի": 7147,
      "##aily": 7148,
      "կկայանա": 7149,
      "խսհմ": 7150,
      "ինքնակառավարման": 7151,
      "տարեվերջ": 7152,
      "խողով": 7153,
      "չլ": 7154,
      "սեբ": 7155,
      "ֆր": 7156,
      "##րապար": 7157,
      "##տոտ": 7158,
      "##ութի": 7159,
      "երջ": 7160,
      "գործուղ": 7161,
      "գործարան": 7162,
      "առաջացնում": 7163,
      "հայտարարությանը": 7164,
      "նախարարին": 7165,
      "կրտ": 7166,
      "ունեցված": 7167,
      "ոստիկանությունում": 7168,
      "կենդանի": 7169,
      "ընկերների": 7170,
      "աղետի": 7171,
      "ցուցակը": 7172,
      "անդամակցության": 7173,
      "գիտությունների": 7174,
      "պահանջարկ": 7175,
      "արժողությամբ": 7176,
      "##ույլատրելի": 7177,
      "դեպքից": 7178,
      "հոգեկան": 7179,
      "ընտանեկան": 7180,
      "քարտուղարի": 7181,
      "ապօրին": 7182,
      "կտրամ": 7183,
      "գոտի": 7184,
      "մանկական": 7185,
      "գիտնականների": 7186,
      "ներմուծման": 7187,
      "գերազանցել": 7188,
      "անջել": 7189,
      "ռադիոկայ": 7190,
      "ճշմարտ": 7191,
      "լեհաստանի": 7192,
      "76": 7193,
      "##ft": 7194,
      "##արկետ": 7195,
      "##նակալ": 7196,
      "վարչությունը": 7197,
      "##եյր": 7198,
      "հունիսին": 7199,
      "կազմակերպվել": 7200,
      "ծրագրային": 7201,
      "##ակայանի": 7202,
      "լրագրողները": 7203,
      "վայրից": 7204,
      "վայրերում": 7205,
      "միջոցառմանը": 7206,
      "գործընկերներին": 7207,
      "ընտանիքը": 7208,
      "դադարեցրել": 7209,
      "զինծառայողի": 7210,
      "ջրային": 7211,
      "բացահայտել": 7212,
      "հովհաննիսյանի": 7213,
      "տիրող": 7214,
      "այնուհետև": 7215,
      "ծանոթացել": 7216,
      "ցեղասպանություն": 7217,
      "հագուստ": 7218,
      "վերանորոգման": 7219,
      "վալերի": 7220,
      "մկրտչյանը": 7221,
      "անթույլատրելի": 7222,
      "ֆրանկոֆ": 7223,
      "սանկտ": 7224,
      "##աբժշկական": 7225,
      "79": 7226,
      "լոս": 7227,
      "ղազար": 7228,
      "տոնի": 7229,
      "ֆոնդ": 7230,
      "##նաբ": 7231,
      "##նանը": 7232,
      "##վանի": 7233,
      "##մոն": 7234,
      "##անյ": 7235,
      "##ավե": 7236,
      "##ացվում": 7237,
      "անպատ": 7238,
      "##իկյանի": 7239,
      "##ագրվել": 7240,
      "աշխատելու": 7241,
      "պարունակ": 7242,
      "որոշումներ": 7243,
      "տեղեկացրեց": 7244,
      "կամրջ": 7245,
      "երբեմն": 7246,
      "համակարգող": 7247,
      "ընդունման": 7248,
      "արժանի": 7249,
      "աշխատակիցներ": 7250,
      "դպրոցներում": 7251,
      "հակամարտությունը": 7252,
      "հերքում": 7253,
      "կտրված": 7254,
      "հարձակումը": 7255,
      "ատել": 7256,
      "ջանքեր": 7257,
      "հետաքրքրություն": 7258,
      "ոսկե": 7259,
      "հեղափոխության": 7260,
      "կանադայի": 7261,
      "օհանյանը": 7262,
      "ավտոմեքենայով": 7263,
      "լիտվ": 7264,
      "77": 7265,
      "800": 7266,
      "զաք": 7267,
      "ռումբ": 7268,
      "սայ": 7269,
      "##պիսին": 7270,
      "##out": 7271,
      "##ամյա": 7272,
      "##ասիր": 7273,
      "##երիմ": 7274,
      "հարուստ": 7275,
      "գործին": 7276,
      "օրոք": 7277,
      "##անդարտ": 7278,
      "ամենաբարձ": 7279,
      "ուժը": 7280,
      "դրության": 7281,
      "դրվագ": 7282,
      "խմբագիր": 7283,
      "ցուցմունք": 7284,
      "ցանկություն": 7285,
      "անկան": 7286,
      "փոխանցվել": 7287,
      "սիրում": 7288,
      "զորքերը": 7289,
      "օրենսդիր": 7290,
      "հարկավոր": 7291,
      "ընտանիքին": 7292,
      "##est": 7293,
      "ժամկետում": 7294,
      "դատավորի": 7295,
      "զինվորականների": 7296,
      "լիազորությունների": 7297,
      "այրված": 7298,
      "##իլիպ": 7299,
      "զբոսաշրջության": 7300,
      "վարձակալ": 7301,
      "կոռուպցիոն": 7302,
      "աչքի": 7303,
      "ագրեսիայի": 7304,
      "անձրեւ": 7305,
      "պրոցես": 7306,
      "ամբաստանյալ": 7307,
      "##աղբյուր": 7308,
      "լեյտ": 7309,
      "ծովի": 7310,
      "կրի": 7311,
      "մայք": 7312,
      "պարկ": 7313,
      "տատ": 7314,
      "ցամաք": 7315,
      "##կը": 7316,
      "##կանց": 7317,
      "##րահ": 7318,
      "##միկ": 7319,
      "##ականացման": 7320,
      "##եսթ": 7321,
      "##եցրեց": 7322,
      "##ադաս": 7323,
      "մերս": 7324,
      "##ուլս": 7325,
      "հիշեցրեց": 7326,
      "ուկրաինա": 7327,
      "օգտագործվել": 7328,
      "չափը": 7329,
      "կյանք": 7330,
      "երեւանյան": 7331,
      "անունները": 7332,
      "սպառողների": 7333,
      "սովորաբար": 7334,
      "##ատնտեսական": 7335,
      "աբրահամյանի": 7336,
      "ծառուկյան": 7337,
      "օդանավակայանի": 7338,
      "հետեւանքների": 7339,
      "ողջունել": 7340,
      "պատահական": 7341,
      "ստամբուլի": 7342,
      "փնտրում": 7343,
      "համբարձ": 7344,
      "88": 7345,
      "ծածկ": 7346,
      "կզ": 7347,
      "հուլիսին": 7348,
      "ձկն": 7349,
      "չդ": 7350,
      "չվեր": 7351,
      "տաջ": 7352,
      "##անվել": 7353,
      "##ացումն": 7354,
      "պատր": 7355,
      "տեղակ": 7356,
      "ավելացնել": 7357,
      "տեսչական": 7358,
      "բնակելի": 7359,
      "համաձայնել": 7360,
      "վարչապետն": 7361,
      "##ուհամ": 7362,
      "ահկ": 7363,
      "նիկոլայ": 7364,
      "եվրոպա": 7365,
      "փրկել": 7366,
      "ձեւավորման": 7367,
      "ընտանիք": 7368,
      "##oom": 7369,
      "նստած": 7370,
      "ձայնը": 7371,
      "ճնշման": 7372,
      "վերլուծաբան": 7373,
      "գալուստ": 7374,
      "թանգարան": 7375,
      "նալբանդյանը": 7376,
      "պարգեւատր": 7377,
      "չունեցող": 7378,
      "խուլիգան": 7379,
      "սեբաստ": 7380,
      "99": 7381,
      "de": 7382,
      "բեգ": 7383,
      "խառն": 7384,
      "շո": 7385,
      "##ևը": 7386,
      "##չային": 7387,
      "##yet": 7388,
      "##աստառ": 7389,
      "##եցվի": 7390,
      "ամռ": 7391,
      "##ակցված": 7392,
      "ստանդարտ": 7393,
      "ապակ": 7394,
      "օգնում": 7395,
      "անցնող": 7396,
      "խորհրդակցության": 7397,
      "հաղորդվել": 7398,
      "վերաբերվում": 7399,
      "գլխին": 7400,
      "գործողություն": 7401,
      "գործողություններին": 7402,
      "սարգիս": 7403,
      "պատրաստված": 7404,
      "մնալու": 7405,
      "ամբողջովին": 7406,
      "կարեւորությունը": 7407,
      "կարեւորագույն": 7408,
      "գործընթացների": 7409,
      "կառուցվել": 7410,
      "սրճ": 7411,
      "հաջողությամբ": 7412,
      "##ոլոգիական": 7413,
      "ուսումնասիրել": 7414,
      "ստուգման": 7415,
      "կիսամ": 7416,
      "չգիտեմ": 7417,
      "խաչմերուկում": 7418,
      "օսման": 7419,
      "անպայման": 7420,
      "##րանսպորտային": 7421,
      "աի": 7422,
      "բաշխ": 7423,
      "ժան": 7424,
      "լճ": 7425,
      "լու": 7426,
      "կսկ": 7427,
      "օվկիան": 7428,
      "##լա": 7429,
      "##ևան": 7430,
      "##անե": 7431,
      "##ացնենք": 7432,
      "գործելու": 7433,
      "վերը": 7434,
      "մեդի": 7435,
      "##նումը": 7436,
      "##ոհամ": 7437,
      "աշխատանքներն": 7438,
      "ազատամարտ": 7439,
      "մտավախ": 7440,
      "ուսումն": 7441,
      "վնասի": 7442,
      "հիշեցնում": 7443,
      "տրամաբան": 7444,
      "հավաքած": 7445,
      "կնքել": 7446,
      "համալր": 7447,
      "կիրառվել": 7448,
      "մարմիններին": 7449,
      "կտան": 7450,
      "կանոնների": 7451,
      "տասը": 7452,
      "գույք": 7453,
      "գույքը": 7454,
      "հնչել": 7455,
      "նպաստում": 7456,
      "սենատոր": 7457,
      "փաստաբանների": 7458,
      "գործիչների": 7459,
      "գործադրել": 7460,
      "իրաքում": 7461,
      "ողջունում": 7462,
      "դանակով": 7463,
      "փարիզում": 7464,
      "##կարծ": 7465,
      "մնացականյանը": 7466,
      "ծխախ": 7467,
      "խանգար": 7468,
      "ch": 7469,
      "ած": 7470,
      "թիկն": 7471,
      "լոգ": 7472,
      "հողի": 7473,
      "հպարտ": 7474,
      "մյ": 7475,
      "##վով": 7476,
      "##լն": 7477,
      "##բա": 7478,
      "##ածին": 7479,
      "##ալց": 7480,
      "հայերեն": 7481,
      "միանշանակ": 7482,
      "հանկարծ": 7483,
      "##իմաստ": 7484,
      "փոխելու": 7485,
      "մարդուն": 7486,
      "տարածված": 7487,
      "եկեք": 7488,
      "104": 7489,
      "նպատակային": 7490,
      "քննարկումներ": 7491,
      "հաստատում": 7492,
      "հայտնաբերելու": 7493,
      "օրինագիծը": 7494,
      "թուրքմեն": 7495,
      "չունեմ": 7496,
      "##and": 7497,
      "ներդրման": 7498,
      "իրենից": 7499,
      "չեմպ": 7500,
      "հրամանագր": 7501,
      "զանգահարել": 7502,
      "ընդունելության": 7503,
      "ռուբլի": 7504,
      "ատյանի": 7505,
      "ամուսին": 7506,
      "պատասխանատվությունը": 7507,
      "սեւանա": 7508,
      "##eline": 7509,
      "կստանա": 7510,
      "##ամենտի": 7511,
      "թանգարանի": 7512,
      "ստորաբաժանումների": 7513,
      "անգլի": 7514,
      "բաբայանը": 7515,
      "վիենն": 7516,
      "beeline": 7517,
      "cnn": 7518,
      "ձմեռային": 7519,
      "մագնիտուդ": 7520,
      "լեյտենան": 7521,
      "68": 7522,
      "բուն": 7523,
      "կս": 7524,
      "կսկս": 7525,
      "պոմպ": 7526,
      "վագ": 7527,
      "##բուրգի": 7528,
      "##ագրություն": 7529,
      "##ափակել": 7530,
      "##անդի": 7531,
      "գրված": 7532,
      "կազմված": 7533,
      "իշխանություններն": 7534,
      "##իզմի": 7535,
      "փոփոխությունները": 7536,
      "չափերով": 7537,
      "2007": 7538,
      "թեկնածությունը": 7539,
      "նվազում": 7540,
      "առաջնորդների": 7541,
      "բաժանմունքի": 7542,
      "նյութական": 7543,
      "փոքրիկ": 7544,
      "օդաչու": 7545,
      "պայքարել": 7546,
      "ստիպել": 7547,
      "օրենսդրության": 7548,
      "զարուհի": 7549,
      "դուռը": 7550,
      "արդյունաբերական": 7551,
      "մոլդով": 7552,
      "իսպանիայի": 7553,
      "նուբարաշեն": 7554,
      "կենցաղային": 7555,
      "82": 7556,
      "ձյուն": 7557,
      "շք": 7558,
      "սթափ": 7559,
      "տներից": 7560,
      "քօ": 7561,
      "##թոնը": 7562,
      "##ow": 7563,
      "##անավ": 7564,
      "##ազն": 7565,
      "իրատես": 7566,
      "նախքան": 7567,
      "ամուլս": 7568,
      "##եմը": 7569,
      "##որդը": 7570,
      "##ափորձ": 7571,
      "##աձեւ": 7572,
      "խոսքում": 7573,
      "ընտրատեղ": 7574,
      "մարզերի": 7575,
      "ազատություն": 7576,
      "պատճառելով": 7577,
      "մակերես": 7578,
      "պատմում": 7579,
      "շնորհավոր": 7580,
      "պաշտպանը": 7581,
      "գնահատման": 7582,
      "կրթություն": 7583,
      "վճարում": 7584,
      "քարտուղարը": 7585,
      "դադարեցվել": 7586,
      "կդադար": 7587,
      "հղի": 7588,
      "սարքը": 7589,
      "տուժածների": 7590,
      "կարապետյանի": 7591,
      "մոտեցել": 7592,
      "ժամանակահատվածի": 7593,
      "տեսանյութը": 7594,
      "առարկա": 7595,
      "վախենում": 7596,
      "փոխանակման": 7597,
      "կորոնավիրուսային": 7598,
      "համերաշխ": 7599,
      "այլընտրանքային": 7600,
      "ընձեռ": 7601,
      "բեգլ": 7602,
      "բիլ": 7603,
      "գնի": 7604,
      "իվ": 7605,
      "ճաշ": 7606,
      "սարկ": 7607,
      "վիդե": 7608,
      "##անուն": 7609,
      "##արական": 7610,
      "##ատանը": 7611,
      "##ացոլ": 7612,
      "##ուրժ": 7613,
      "##իկյան": 7614,
      "##ագրերի": 7615,
      "հարցերում": 7616,
      "հավասարակ": 7617,
      "սահմանում": 7618,
      "ուղղություններով": 7619,
      "դիմելու": 7620,
      "պատճառները": 7621,
      "##ացիներին": 7622,
      "բանավե": 7623,
      "շահերից": 7624,
      "լիլիթ": 7625,
      "դեսպանության": 7626,
      "մրցակցության": 7627,
      "խնդրին": 7628,
      "տղամարդկանց": 7629,
      "երկարաձգ": 7630,
      "հրամանով": 7631,
      "արժեքների": 7632,
      "թաղամասում": 7633,
      "ազատազրկում": 7634,
      "քարոզչ": 7635,
      "շեշտեց": 7636,
      "լարվածության": 7637,
      "մալաթ": 7638,
      "երկաթուղ": 7639,
      "ծնողները": 7640,
      "ֆուտբոլի": 7641,
      "հափշտակել": 7642,
      "բխում": 7643,
      "լուկաշենկոն": 7644,
      "ինտերֆաքս": 7645,
      "81": 7646,
      "air": 7647,
      "զախ": 7648,
      "նյ": 7649,
      "նմուշ": 7650,
      "շառլ": 7651,
      "ջեյ": 7652,
      "սոն": 7653,
      "փոթ": 7654,
      "ֆյուչ": 7655,
      "##մա": 7656,
      "##բլ": 7657,
      "##աները": 7658,
      "##ակեն": 7659,
      "##ությանն": 7660,
      "անորոշ": 7661,
      "##ոնտ": 7662,
      "վերապատրաստ": 7663,
      "ինչին": 7664,
      "իրավախախտ": 7665,
      "հրաշ": 7666,
      "##ուտի": 7667,
      "ընկերությունն": 7668,
      "հեռանալ": 7669,
      "գնման": 7670,
      "մտս": 7671,
      "հայտնաբերման": 7672,
      "հավելյալ": 7673,
      "դեսպանին": 7674,
      "սեպտեմբեր": 7675,
      "սպանությունը": 7676,
      "կյանքին": 7677,
      "##ard": 7678,
      "հիաս": 7679,
      "հաղորդագրությունում": 7680,
      "ելույթում": 7681,
      "գոտու": 7682,
      "պրակտ": 7683,
      "նախընտր": 7684,
      "հարազատների": 7685,
      "հորդորում": 7686,
      "2011թ": 7687,
      "հեռուստաալիքի": 7688,
      "մեծամասնությունը": 7689,
      "ինքնասպանության": 7690,
      "69": 7691,
      "af": 7692,
      "pro": 7693,
      "բդ": 7694,
      "գոլ": 7695,
      "էթ": 7696,
      "էստ": 7697,
      "թա": 7698,
      "կձ": 7699,
      "կղ": 7700,
      "##day": 7701,
      "##ավիթ": 7702,
      "հայի": 7703,
      "##ոնյան": 7704,
      "##իսյանը": 7705,
      "ներկան": 7706,
      "##ադրությունը": 7707,
      "կառաջ": 7708,
      "##աձիգ": 7709,
      "նախարարները": 7710,
      "հանրակրթ": 7711,
      "կառավարություն": 7712,
      "երեւույթ": 7713,
      "չէի": 7714,
      "խաղերի": 7715,
      "##արաններում": 7716,
      "թիվն": 7717,
      "առողջությանը": 7718,
      "դատախազը": 7719,
      "երիտասարդը": 7720,
      "ազդել": 7721,
      "թեկնածուի": 7722,
      "պայմանավորվածություն": 7723,
      "հակոբյանի": 7724,
      "ներառված": 7725,
      "կանոնակարգ": 7726,
      "հոդվածը": 7727,
      "բաքուն": 7728,
      "աստիճանաբար": 7729,
      ".),": 7730,
      "չեղարկել": 7731,
      "ուղերձում": 7732,
      "իմաստով": 7733,
      "առկայության": 7734,
      "արմատական": 7735,
      "հեռուստաընկերության": 7736,
      "սեդր": 7737,
      "հմտ": 7738,
      "փետրվարին": 7739,
      "պրոֆեսոր": 7740,
      "700": 7741,
      "new": 7742,
      "tr": 7743,
      "էք": 7744,
      "ծիր": 7745,
      "ձոր": 7746,
      "քեզ": 7747,
      "ֆիլիպ": 7748,
      "##եչ": 7749,
      "##կալի": 7750,
      "##ov": 7751,
      "##որթ": 7752,
      "##ասյանին": 7753,
      "վերացման": 7754,
      "կողմերին": 7755,
      "քննվող": 7756,
      "նախարարն": 7757,
      "կապերը": 7758,
      "ծառայություններ": 7759,
      "վերջապես": 7760,
      "կայսր": 7761,
      "հայտնված": 7762,
      "հեռարձակ": 7763,
      "##ապահով": 7764,
      "բանակում": 7765,
      "##ուհուն": 7766,
      "##վեդ": 7767,
      "թույլատր": 7768,
      "անցկացված": 7769,
      "համապատասխանաբար": 7770,
      "վստահություն": 7771,
      "եվրոն": 7772,
      "տոնական": 7773,
      "որդուն": 7774,
      "դիտարկում": 7775,
      "մարզպետի": 7776,
      "համայնքներում": 7777,
      "զրուցել": 7778,
      "կրակոցներ": 7779,
      "պեսկովը": 7780,
      "դանակահար": 7781,
      "աֆղանստանի": 7782,
      "թույլտվություն": 7783,
      "ռումինի": 7784,
      "խարդախության": 7785,
      "ատրճանակ": 7786,
      "ամենակարեւոր": 7787,
      "ամենաբարձր": 7788,
      "78": 7789,
      "br": 7790,
      "գավառ": 7791,
      "լյ": 7792,
      "կուբ": 7793,
      "մզ": 7794,
      "ռամ": 7795,
      "ցմահ": 7796,
      "##30": 7797,
      "##հասարակ": 7798,
      "ուզ": 7799,
      "արեց": 7800,
      "##արկելու": 7801,
      "վերել": 7802,
      "##իտոր": 7803,
      "##աղաքական": 7804,
      "կողմին": 7805,
      "տարածքով": 7806,
      "դատաբժշկական": 7807,
      "սկիզ": 7808,
      "դիմակ": 7809,
      "հանդիպումների": 7810,
      "գյուղեր": 7811,
      "ունենան": 7812,
      "նիստերի": 7813,
      "կոնտ": 7814,
      "##յակին": 7815,
      "կնպ": 7816,
      "տարածաշրջան": 7817,
      "հանգուց": 7818,
      "##ատուների": 7819,
      "հոդվածում": 7820,
      "հարազատները": 7821,
      "աֆղանստանում": 7822,
      "սևան": 7823,
      "դահլիճում": 7824,
      "կմասնակցի": 7825,
      "սկանդալ": 7826,
      "բորսայում": 7827,
      "գեոր": 7828,
      "օկուպ": 7829,
      "հեղինակը": 7830,
      "գեն": 7831,
      "կալի": 7832,
      "պան": 7833,
      "պաստառ": 7834,
      "փայլ": 7835,
      "քոլ": 7836,
      "##աիրավական": 7837,
      "##տում": 7838,
      "##ob": 7839,
      "##ուներ": 7840,
      "##անաչ": 7841,
      "##ասյան": 7842,
      "##առի": 7843,
      "##ադառնում": 7844,
      "ամէ": 7845,
      "ամյակի": 7846,
      "մարվել": 7847,
      "##անցանելի": 7848,
      "տարածքները": 7849,
      "կառավարությունում": 7850,
      "հաղորդման": 7851,
      "ռուսաստանցի": 7852,
      "զոհվածների": 7853,
      "համայնքը": 7854,
      "ուշադիր": 7855,
      "զինվորների": 7856,
      "առաջնորդը": 7857,
      "օպերատոր": 7858,
      "մակարդակում": 7859,
      "բացառում": 7860,
      "գրասենյակը": 7861,
      "բյուջեն": 7862,
      "մուտքը": 7863,
      "պարբերական": 7864,
      "բրիտանիան": 7865,
      "աֆր": 7866,
      "փաթեթը": 7867,
      "տպավորություն": 7868,
      "ագրեսիվ": 7869,
      "վաշինգտոնի": 7870,
      "սարքավորումների": 7871,
      "հարսանի": 7872,
      "կիպրոսի": 7873,
      "##phone": 7874,
      "մերսեդ": 7875,
      "բդխ": 7876,
      "կնպաստի": 7877,
      "գանգ": 7878,
      "եատմ": 7879,
      "հդ": 7880,
      "հաք": 7881,
      "ճո": 7882,
      "ջրամ": 7883,
      "փուլի": 7884,
      "ֆորում": 7885,
      "##լետ": 7886,
      "##գիայի": 7887,
      "##ևն": 7888,
      "##անվ": 7889,
      "##ողներից": 7890,
      "քաղաքից": 7891,
      "արտերկր": 7892,
      "ժամանակաշրջ": 7893,
      "նորքի": 7894,
      "հայտարարություններ": 7895,
      "##ոմետ": 7896,
      "հրավ": 7897,
      "նախարարությունում": 7898,
      "դատավարության": 7899,
      "ոստիկաններին": 7900,
      "ծառայել": 7901,
      "ընտրատարած": 7902,
      "խորհրդատվ": 7903,
      "եկող": 7904,
      "բարձրացրել": 7905,
      "պահանջելով": 7906,
      "չափերի": 7907,
      "գումարտ": 7908,
      "տղամարդիկ": 7909,
      "դատավորը": 7910,
      "կգա": 7911,
      "պլատ": 7912,
      "միջնորդություն": 7913,
      "կուսակցական": 7914,
      "թաղամասի": 7915,
      "բալաս": 7916,
      "##բերգը": 7917,
      "հարազատներին": 7918,
      "պողոտայի": 7919,
      "թշնամ": 7920,
      "##ֆորնի": 7921,
      "արվեստի": 7922,
      "արտասահմանյան": 7923,
      "մովսես": 7924,
      "շրջափակման": 7925,
      "օլիմպիական": 7926,
      "ճարտարապետ": 7927,
      "մշակում": 7928,
      "86": 7929,
      "96": 7930,
      "daily": 7931,
      "զատ": 7932,
      "թավ": 7933,
      "յան": 7934,
      "շնչ": 7935,
      "ռադ": 7936,
      "քն": 7937,
      "##նե": 7938,
      "##խու": 7939,
      "##ինգային": 7940,
      "##ապայման": 7941,
      "անսպաս": 7942,
      "##ստեր": 7943,
      "##աքն": 7944,
      "մասամբ": 7945,
      "պատուհ": 7946,
      "##անցիների": 7947,
      "##րամասն": 7948,
      "ընդառաջ": 7949,
      "##րդով": 7950,
      "##ուղղ": 7951,
      "կամուրջ": 7952,
      "բնակվում": 7953,
      "բնակարանի": 7954,
      "հիշատակի": 7955,
      "##աժողովին": 7956,
      "տնտեսագետ": 7957,
      "ինքնորոշման": 7958,
      "##իաների": 7959,
      "վնասել": 7960,
      "կոչվող": 7961,
      "##ռնման": 7962,
      "շնորհավորում": 7963,
      "օգտագործվում": 7964,
      "արգելքը": 7965,
      "խախտելու": 7966,
      "հաղթահարել": 7967,
      "մեղադրանքը": 7968,
      "դիրքերը": 7969,
      "գումարները": 7970,
      "##ork": 7971,
      "բյուջետային": 7972,
      "բրիտանիայում": 7973,
      "նկարահան": 7974,
      "ճապոնական": 7975,
      "պայմանագրային": 7976,
      "միտված": 7977,
      "քննադատել": 7978,
      "պարզաբանեց": 7979,
      "կոալիցիայի": 7980,
      "հոգեբանական": 7981,
      "վենետ": 7982,
      "քիմիական": 7983,
      "շահագրգռված": 7984,
      "ռեկտոր": 7985,
      "փոստանջ": 7986,
      "բրիտանացի": 7987,
      "մոտավորապես": 7988,
      "սեդրակ": 7989,
      "դեֆ": 7990,
      "խճ": 7991,
      "կծ": 7992,
      "մազ": 7993,
      "չես": 7994,
      "ռոստ": 7995,
      "օն": 7996,
      "օսկ": 7997,
      "ֆիքս": 7998,
      "##մին": 7999,
      "##անյանն": 8000,
      "##անենգ": 8001,
      "##ատրանսպորտային": 8002,
      "##ապի": 8003,
      "համահայկական": 8004,
      "երուս": 8005,
      "միությունը": 8006,
      "նախանշ": 8007,
      "##աբաց": 8008,
      "ները": 8009,
      "##ոտր": 8010,
      "օրհ": 8011,
      "##անքներ": 8012,
      "##ոկի": 8013,
      "եղեգն": 8014,
      "իսկական": 8015,
      "##վաճ": 8016,
      "միջոցը": 8017,
      "փորձարկ": 8018,
      "իշխանափոխ": 8019,
      "պետականության": 8020,
      "գիտեք": 8021,
      "ինքնաձիգ": 8022,
      "##ոբիլ": 8023,
      "մամեդ": 8024,
      "աշխարհին": 8025,
      "##ահարույց": 8026,
      "տնօրին": 8027,
      "կնշ": 8028,
      "ընտանիքներին": 8029,
      "կասկածում": 8030,
      "բացառվում": 8031,
      "ամուսինը": 8032,
      "աշոտյանը": 8033,
      "կբարձ": 8034,
      "հակառակորդը": 8035,
      "համագործակցել": 8036,
      "գաղափարը": 8037,
      "գիշերային": 8038,
      "սրբազ": 8039,
      "վարչակազմը": 8040,
      "փարիզի": 8041,
      "ռեկորդային": 8042,
      "արվեստ": 8043,
      "անկարայի": 8044,
      "քարոզարշավի": 8045,
      "մաղթում": 8046,
      "աբդուլ": 8047,
      "##soci": 8048,
      "շվեդիայի": 8049,
      "կկազմի": 8050,
      "պատրիարք": 8051,
      "երուսաղ": 8052,
      "iphone": 8053,
      "թր": 8054,
      "հաշտ": 8055,
      "ճյուղ": 8056,
      "նեթ": 8057,
      "տիպի": 8058,
      "##սան": 8059,
      "##20": 8060,
      "##ուփ": 8061,
      "##ահետ": 8062,
      "##աղի": 8063,
      "տարաձայն": 8064,
      "տարօրինակ": 8065,
      "արտացոլ": 8066,
      "նախարարությանը": 8067,
      "խոսքերը": 8068,
      "կրծ": 8069,
      "կապան": 8070,
      "ամենօրյա": 8071,
      "##նելուց": 8072,
      "փաստով": 8073,
      "ընկերություն": 8074,
      "հնարավորության": 8075,
      "ծրագրին": 8076,
      "ոլորտը": 8077,
      "փողոցները": 8078,
      "վարորդի": 8079,
      "կատարելագործ": 8080,
      "հյուսիսում": 8081,
      "օգոստոսին": 8082,
      "հիվանդանոցից": 8083,
      "աղջիկը": 8084,
      "աշխատավարձը": 8085,
      "զեկույցը": 8086,
      "լուրերը": 8087,
      "բարեկամության": 8088,
      "դանիել": 8089,
      "պղնձ": 8090,
      "լատվի": 8091,
      "ֆրանկոֆոնիայի": 8092,
      "ֆյուչերս": 8093,
      "անսպասելի": 8094,
      "թոռ": 8095,
      "մադ": 8096,
      "ոռ": 8097,
      "չխ": 8098,
      "սեւան": 8099,
      "##av": 8100,
      "##լանտ": 8101,
      "##»,": 8102,
      "##արվ": 8103,
      "##ելիս": 8104,
      "##իներում": 8105,
      "##ատերը": 8106,
      "համամասնական": 8107,
      "##աշենի": 8108,
      "վերամշակ": 8109,
      "ասեմ": 8110,
      "##սկում": 8111,
      "ոստիկանությանը": 8112,
      "կայց": 8113,
      "կայք": 8114,
      "արդյունքը": 8115,
      "վերաբերմունքի": 8116,
      "դիմումը": 8117,
      "մտերիմ": 8118,
      "ավտոտ": 8119,
      "համաձայնություն": 8120,
      "միայնակ": 8121,
      "ձեռքի": 8122,
      "անդրեյ": 8123,
      "լրագրողի": 8124,
      "##ահարմար": 8125,
      "վայրը": 8126,
      "ծանուց": 8127,
      "անցկացվող": 8128,
      "առաջարկվում": 8129,
      "գնահատվում": 8130,
      "սկզբից": 8131,
      "տրամադրվել": 8132,
      "շարժումը": 8133,
      "թողնել": 8134,
      "բախումների": 8135,
      "նախագծով": 8136,
      "դատապարտում": 8137,
      "էդգար": 8138,
      "նամակում": 8139,
      "պաշտոնյաները": 8140,
      "իրադարձությունները": 8141,
      "բանտում": 8142,
      "լարվածությունը": 8143,
      "ակնկալվում": 8144,
      "օբամայի": 8145,
      "2010թ": 8146,
      "երաժշտական": 8147,
      "կկարողանա": 8148,
      "ներխուժել": 8149,
      "պաշարների": 8150,
      "associ": 8151,
      "ֆեդեր": 8152,
      "տաջիկ": 8153,
      "yout": 8154,
      "իռ": 8155,
      "խփ": 8156,
      "շեյ": 8157,
      "չփ": 8158,
      "ռի": 8159,
      "վրդով": 8160,
      "##կային": 8161,
      "##ուա": 8162,
      "##արյանն": 8163,
      "##ատորի": 8164,
      "##ասկ": 8165,
      "համագում": 8166,
      "ինֆորմ": 8167,
      "երախտ": 8168,
      "միանալ": 8169,
      "##աստիկ": 8170,
      "կարտ": 8171,
      "առաջացած": 8172,
      "այդուհ": 8173,
      "իրավաբան": 8174,
      "պահպանում": 8175,
      "հավաստ": 8176,
      "բոլորն": 8177,
      "բոլորովին": 8178,
      "իրականացրած": 8179,
      "իշխանությունն": 8180,
      "ուժով": 8181,
      "պայմանական": 8182,
      "համակարգչային": 8183,
      "անկարան": 8184,
      "մամուլում": 8185,
      "ժողովրդավար": 8186,
      "տեղափոխելու": 8187,
      "ավտոմատ": 8188,
      "ելույթի": 8189,
      "խաչի": 8190,
      "հասարակությանը": 8191,
      "արագությամբ": 8192,
      "2006": 8193,
      "ճանաչելու": 8194,
      "տեխնիկայի": 8195,
      "սկզբանե": 8196,
      "դժվարանցանելի": 8197,
      "պնդել": 8198,
      "հեռախոսահամ": 8199,
      "հորիզ": 8200,
      "ֆիլմի": 8201,
      "##ill": 8202,
      "հետեւանքները": 8203,
      "քրգործ": 8204,
      "պատվաստանյութ": 8205,
      "անգլ": 8206,
      "մեդվեդ": 8207,
      "##berg": 8208,
      "ճեպազրույց": 8209,
      "##ախումբը": 8210,
      "լեյտենանտ": 8211,
      "կայցելի": 8212,
      "84": 8213,
      "լև": 8214,
      "շաքար": 8215,
      "##կառ": 8216,
      "##րանի": 8217,
      "##պագ": 8218,
      "##ատեւ": 8219,
      "##ենպաստ": 8220,
      "հարկեր": 8221,
      "այդմ": 8222,
      "##անքները": 8223,
      "##յալները": 8224,
      "կրակի": 8225,
      "բոլորիս": 8226,
      "վերաբերմունք": 8227,
      "երբեւէ": 8228,
      "մտքեր": 8229,
      "սկսվում": 8230,
      "շահում": 8231,
      "պարտքը": 8232,
      "կիրակ": 8233,
      "աբով": 8234,
      "կառուցողական": 8235,
      "կմնա": 8236,
      "նահանգները": 8237,
      "փոքրամասն": 8238,
      "պլան": 8239,
      "պլանավոր": 8240,
      "հաղորդագրություն": 8241,
      "առաքելական": 8242,
      "ռեժիմով": 8243,
      "ջանքերի": 8244,
      "հյուրընկալ": 8245,
      "կրճատել": 8246,
      "իսլամ": 8247,
      "վաշինգ": 8248,
      "երաժիշտ": 8249,
      "##ընտիր": 8250,
      "հիշատակին": 8251,
      "համաժողովին": 8252,
      "ռեսուրսների": 8253,
      "ատոմային": 8254,
      "ապրիլյան": 8255,
      "ջրամատակարար": 8256,
      "այդուհանդերձ": 8257,
      "le": 8258,
      "բրի": 8259,
      "էյ": 8260,
      "թադ": 8261,
      "մուհամ": 8262,
      "օջախ": 8263,
      "ֆոն": 8264,
      "##րեցին": 8265,
      "##մն": 8266,
      "##մադ": 8267,
      "##oc": 8268,
      "##21": 8269,
      "##արով": 8270,
      "##ականներ": 8271,
      "##ենիկ": 8272,
      "հայերին": 8273,
      "##ստամբ": 8274,
      "առել": 8275,
      "առհասարակ": 8276,
      "##ույնն": 8277,
      "ասենք": 8278,
      "նորընտիր": 8279,
      "գտած": 8280,
      "հնարավորությունների": 8281,
      "##ուժական": 8282,
      "ցանկը": 8283,
      "դարձնելու": 8284,
      "հրապարակման": 8285,
      "զբաղված": 8286,
      "գործունեությանը": 8287,
      "երիտասարդության": 8288,
      "հատվածից": 8289,
      "բժշկ": 8290,
      "կանգնել": 8291,
      "##ated": 8292,
      "վատթար": 8293,
      "ուղարկելու": 8294,
      "աղջիկ": 8295,
      "կալանավորումը": 8296,
      "հրազդանի": 8297,
      "երաշխավոր": 8298,
      "##ատունը": 8299,
      "գործարքների": 8300,
      "ծրագիրն": 8301,
      "հակասում": 8302,
      "գասպարյանը": 8303,
      "այլընտրանք": 8304,
      "շենգավիթ": 8305,
      "##ational": 8306,
      "##բուրգում": 8307,
      "զրուցակիցները": 8308,
      "bloom": 8309,
      "սարսափելի": 8310,
      "պոտենցիալ": 8311,
      "հավասարակշռ": 8312,
      "%,": 8313,
      "71": 8314,
      "87": 8315,
      "pl": 8316,
      "գայան": 8317,
      "խաթ": 8318,
      "կոս": 8319,
      "հուղարկ": 8320,
      "վաչ": 8321,
      "օձ": 8322,
      "##գետն": 8323,
      "##ok": 8324,
      "##ուդի": 8325,
      "##անյանին": 8326,
      "##ադաշտ": 8327,
      "##ադրված": 8328,
      "օրվանից": 8329,
      "պաշտպանում": 8330,
      "մոտակա": 8331,
      "փորձագիտական": 8332,
      "հանձնվել": 8333,
      "պահանջներին": 8334,
      "անկում": 8335,
      "եվրոպան": 8336,
      "շահառու": 8337,
      "պարտքի": 8338,
      "բռնաբար": 8339,
      "հարկի": 8340,
      "երիտասարդները": 8341,
      "կիրառումը": 8342,
      "ականների": 8343,
      "հարուցել": 8344,
      "գրասենյակից": 8345,
      "ապագան": 8346,
      "իտառ": 8347,
      "առջև": 8348,
      "տավուշում": 8349,
      "գերազանցում": 8350,
      "պատրաստակամությունը": 8351,
      "շվեյցարիայի": 8352,
      "մաքուր": 8353,
      "մատնանշ": 8354,
      "կլիմայի": 8355,
      "##ակենդան": 8356,
      "bloomberg": 8357,
      "##գետնյա": 8358,
      "post": 8359,
      "բակ": 8360,
      "բուդ": 8361,
      "ժն": 8362,
      "կգործ": 8363,
      "նվաճ": 8364,
      "սարի": 8365,
      "տներ": 8366,
      "տանել": 8367,
      "##վորի": 8368,
      "##ֆալ": 8369,
      "##ասել": 8370,
      "##ավարար": 8371,
      "արյան": 8372,
      "անակն": 8373,
      "վերակենդան": 8374,
      "երկուսը": 8375,
      "##ոլլահ": 8376,
      "քաղաքների": 8377,
      "վարչություն": 8378,
      "մոտենում": 8379,
      "ընթացքին": 8380,
      "ղեկավարն": 8381,
      "անձին": 8382,
      "վերաբերմունքը": 8383,
      "ընկերություններ": 8384,
      "դրամը": 8385,
      "բարձրացնելու": 8386,
      "մահը": 8387,
      "ռազմագ": 8388,
      "ընդունելով": 8389,
      "##յուզ": 8390,
      "հաստատությունների": 8391,
      "կոմպ": 8392,
      "##art": 8393,
      "վերահսկողություն": 8394,
      "պլանային": 8395,
      "հետախուզվող": 8396,
      "ուսումնասիրության": 8397,
      "փախչ": 8398,
      "դիրքորոշում": 8399,
      "ոտն": 8400,
      "2021թ": 8401,
      "ամփոփել": 8402,
      "հանրահավաքի": 8403,
      "սառը": 8404,
      "ստորաբաժանումները": 8405,
      "տաքսի": 8406,
      "դուստր": 8407,
      "տեղահանված": 8408,
      "սննդամթերքի": 8409,
      "անկանխ": 8410,
      "չեմպիոն": 8411,
      "շախմ": 8412,
      "ոնց": 8413,
      "ջոր": 8414,
      "սվ": 8415,
      "քու": 8416,
      "##ram": 8417,
      "##պահ": 8418,
      "##էմ": 8419,
      "##երան": 8420,
      "##երների": 8421,
      "##ասյանն": 8422,
      "##առությունը": 8423,
      "ինֆ": 8424,
      "առնել": 8425,
      "հանելու": 8426,
      "ներգ": 8427,
      "##իչով": 8428,
      "ապստամբ": 8429,
      "##արիան": 8430,
      "շրջանց": 8431,
      "ամենից": 8432,
      "ընտրությունը": 8433,
      "տնից": 8434,
      "##ոգր": 8435,
      "անվանակ": 8436,
      "ժողովը": 8437,
      "զինուժ": 8438,
      "194": 8439,
      "ռազմաբազ": 8440,
      "նիստից": 8441,
      "դարձնում": 8442,
      "պաշտպանություն": 8443,
      "բնութ": 8444,
      "ձեւավորվել": 8445,
      "կառուցելու": 8446,
      "կանխիկ": 8447,
      "արդարության": 8448,
      "դասագր": 8449,
      "արտադրությունը": 8450,
      "հանգեցնել": 8451,
      "առեւտ": 8452,
      "գողություն": 8453,
      "ջրամբ": 8454,
      "մեքենաներ": 8455,
      "սարքեր": 8456,
      "ռեժիս": 8457,
      "գյումրու": 8458,
      "1990": 8459,
      "մաքսատուր": 8460,
      "հողամաս": 8461,
      "հողատարած": 8462,
      "##օգնություն": 8463,
      "թագավորության": 8464,
      "արեւմուտքի": 8465,
      "առավելագույնը": 8466,
      "կաթողիկոս": 8467,
      "ամպրոպ": 8468,
      "բաժանմունքում": 8469,
      "ոմանք": 8470,
      "փոթոր": 8471,
      "afp": 8472,
      "բի": 8473,
      "գետի": 8474,
      "դոկ": 8475,
      "խայտ": 8476,
      "վիգ": 8477,
      "##այլի": 8478,
      "##ողն": 8479,
      "##ողներն": 8480,
      "հայեր": 8481,
      "անզգ": 8482,
      "##ազյանը": 8483,
      "պահը": 8484,
      "գրվել": 8485,
      "որոշմանը": 8486,
      "հավակ": 8487,
      "կրելու": 8488,
      "##ընկ": 8489,
      "հնար": 8490,
      "նույնը": 8491,
      "բարելի": 8492,
      "դիտարկել": 8493,
      "թողարկ": 8494,
      "պահպանելու": 8495,
      "փակվել": 8496,
      "համալսարանում": 8497,
      "իտալական": 8498,
      "ճապոնիայում": 8499,
      "լուսանկարներ": 8500,
      "ընդլայնել": 8501,
      "զարմ": 8502,
      "գնդակ": 8503,
      "հավանականությունը": 8504,
      "inter": 8505,
      "բռնել": 8506,
      "բացատրություն": 8507,
      "քննիչի": 8508,
      "գրառում": 8509,
      "սեղանի": 8510,
      "ձեւաչափով": 8511,
      "թաթոյանը": 8512,
      "##ube": 8513,
      "սուբյեկտ": 8514,
      "արևմտյան": 8515,
      "թալիբ": 8516,
      "հոսանքազրկ": 8517,
      "նեթանյ": 8518,
      "youtube": 8519,
      "դուբ": 8520,
      "խար": 8521,
      "սմ": 8522,
      "##բյուջ": 8523,
      "##ելին": 8524,
      "##աման": 8525,
      "իրանցի": 8526,
      "##աշարի": 8527,
      "պետբյուջ": 8528,
      "նախարարություն": 8529,
      "իրականացմանը": 8530,
      "կատարի": 8531,
      "ամենախ": 8532,
      "անձեռն": 8533,
      "եկամտ": 8534,
      "ցանկացել": 8535,
      "դեռահաս": 8536,
      "##կանալի": 8537,
      "հիվանդությունների": 8538,
      "քանաք": 8539,
      "շնորհավորական": 8540,
      "2004": 8541,
      "ձեւավոր": 8542,
      "ավարտից": 8543,
      "խախտումներ": 8544,
      "բախման": 8545,
      "նյութերը": 8546,
      "մեքենաները": 8547,
      "ջերմուկ": 8548,
      "հանդիսավոր": 8549,
      "նկարահ": 8550,
      "երեխային": 8551,
      "ֆեյսբու": 8552,
      "եղանակը": 8553,
      "լոռիում": 8554,
      "բնակարանային": 8555,
      "թշնամին": 8556,
      "վառելիքի": 8557,
      "ջուրը": 8558,
      "անտառային": 8559,
      "կներկայացնի": 8560,
      "մետաղների": 8561,
      "ղուկասյանը": 8562,
      "կմասնակցեն": 8563,
      "զբաղեցրած": 8564,
      "սլով": 8565,
      "վերակառուցման": 8566,
      "անհասկանալի": 8567,
      "կրտսեր": 8568,
      "հիասթափ": 8569,
      "գեորգի": 8570,
      "op": 8571,
      "գերիների": 8572,
      "կօգ": 8573,
      "շերտ": 8574,
      "չավուշ": 8575,
      "##սմ": 8576,
      "##մխ": 8577,
      "##ացության": 8578,
      "արած": 8579,
      "##եւանի": 8580,
      "համընդ": 8581,
      "վերապահ": 8582,
      "վերացնելու": 8583,
      "վարույթի": 8584,
      "##նակարգ": 8585,
      "պարս": 8586,
      "պարենային": 8587,
      "ղեկավարում": 8588,
      "##իստների": 8589,
      "##հանուր": 8590,
      "գնվում": 8591,
      "պատճառներով": 8592,
      "աղոթ": 8593,
      "բերդ": 8594,
      "ցուցմուն": 8595,
      "գերակայ": 8596,
      "բանն": 8597,
      "շահերին": 8598,
      "լուծումը": 8599,
      "շարունակվող": 8600,
      "ուշագրավ": 8601,
      "##թերթի": 8602,
      "նահանգներում": 8603,
      "երկիրն": 8604,
      "բողոքում": 8605,
      "##all": 8606,
      "հանգամանքներում": 8607,
      "դադարեցման": 8608,
      "վերադարձնել": 8609,
      "խաչատրյան": 8610,
      "ալեքսեյ": 8611,
      "մոտեցումը": 8612,
      "մտահոգություն": 8613,
      "աստիճանով": 8614,
      "թեմի": 8615,
      "հարձակումների": 8616,
      "վերածվել": 8617,
      "վարակման": 8618,
      "բարելավման": 8619,
      "ստամբուլում": 8620,
      "հայրապետյանը": 8621,
      "սեղմ": 8622,
      "գոհունակ": 8623,
      "մելք": 8624,
      "զարգացումները": 8625,
      "##ամշակութային": 8626,
      "նախազգուշացրել": 8627,
      "մարիխու": 8628,
      "միգրանտների": 8629,
      "ռոբոտ": 8630,
      "սուպերմ": 8631,
      "##ատեխնիկական": 8632,
      "ցամաքային": 8633,
      "associated": 8634,
      "քանաքեռ": 8635,
      "73": 8636,
      "ատեստ": 8637,
      "իդ": 8638,
      "լիճ": 8639,
      "սոչ": 8640,
      "սանձ": 8641,
      "տև": 8642,
      "քամին": 8643,
      "քամու": 8644,
      "##նվի": 8645,
      "##կինի": 8646,
      "##og": 8647,
      "##ge": 8648,
      "համազգ": 8649,
      "##ազարդ": 8650,
      "միասն": 8651,
      "պետը": 8652,
      "##ադրում": 8653,
      "մեկտեղ": 8654,
      "ավելացնելով": 8655,
      "տնային": 8656,
      "փորձելով": 8657,
      "գնա": 8658,
      "կազմակերպությունները": 8659,
      "գիտենք": 8660,
      "մասնակցի": 8661,
      "մշակույթ": 8662,
      "հանձնաժողովների": 8663,
      "130": 8664,
      "գնահատմամբ": 8665,
      "բնության": 8666,
      "դասի": 8667,
      "օրենսգրքում": 8668,
      "մանկավարժ": 8669,
      "համոզմունք": 8670,
      "շուկա": 8671,
      "ծեծել": 8672,
      "արարատյան": 8673,
      "հարգանքի": 8674,
      "2017թ": 8675,
      "##ակտոր": 8676,
      "զբոսաշրջիկների": 8677,
      "ինքնաթիռի": 8678,
      "մեքենայով": 8679,
      "օբյեկտների": 8680,
      "ապացուցել": 8681,
      "յորքի": 8682,
      "կապիտալի": 8683,
      "մեկուսացվել": 8684,
      "էջմիածնի": 8685,
      "հիմնախնդր": 8686,
      "եռամսյակում": 8687,
      "նստաշրջանի": 8688,
      "ֆորմ": 8689,
      "հակառակը": 8690,
      "կարգապահական": 8691,
      "տասնամյակ": 8692,
      "մերսեդես": 8693,
      "դեւ": 8694,
      "կիմ": 8695,
      "նգ": 8696,
      "պացի": 8697,
      "##եոն": 8698,
      "##ոդի": 8699,
      "##քաղաք": 8700,
      "##շական": 8701,
      "##up": 8702,
      "արզում": 8703,
      "միս": 8704,
      "մասշտաբ": 8705,
      "տարվում": 8706,
      "##այնքով": 8707,
      "երկայնքով": 8708,
      "##իտիմ": 8709,
      "վարակի": 8710,
      "##րիպ": 8711,
      "արտարժ": 8712,
      "##ընթացի": 8713,
      "մեծի": 8714,
      "##ակիցների": 8715,
      "ուղղել": 8716,
      "գտնելու": 8717,
      "աղվան": 8718,
      "համակարգին": 8719,
      "բաներ": 8720,
      "ճանապարհատրանսպորտային": 8721,
      "քննարկումը": 8722,
      "##արանին": 8723,
      "վիճաբանության": 8724,
      "հոգու": 8725,
      "վստահեցրել": 8726,
      "գործընկերները": 8727,
      "վարորդներին": 8728,
      "##շիռ": 8729,
      "վերահսկման": 8730,
      "ռոման": 8731,
      "կուսակցությունից": 8732,
      "օրակարգը": 8733,
      "լարս": 8734,
      "թանկացել": 8735,
      "##ագծի": 8736,
      "եվրամիությունը": 8737,
      "##iss": 8738,
      "հարեւանությամբ": 8739,
      "եղբայրը": 8740,
      "օրաթերթի": 8741,
      "յորքում": 8742,
      "ակադեմիական": 8743,
      "շուշիի": 8744,
      "քանակությամբ": 8745,
      "հանգստյան": 8746,
      "նրբանց": 8747,
      "ձգձ": 8748,
      "##ահամալիր": 8749,
      "կօգնի": 8750,
      "bm": 8751,
      "լք": 8752,
      "ջան": 8753,
      "սուդ": 8754,
      "վրե": 8755,
      "##ie": 8756,
      "##news": 8757,
      "##ացմամբ": 8758,
      "համազգային": 8759,
      "##ույնի": 8760,
      "մարիա": 8761,
      "##ադրություն": 8762,
      "ապաքին": 8763,
      "պահվող": 8764,
      "պահուստ": 8765,
      "##ոմետր": 8766,
      "տարածքներ": 8767,
      "ոստիկանությունն": 8768,
      "կայացնել": 8769,
      "դրվել": 8770,
      "##ույթներ": 8771,
      "արցախից": 8772,
      "ռազմավարության": 8773,
      "դատարանն": 8774,
      "նպատակահարմար": 8775,
      "զարգացնել": 8776,
      "սերնդ": 8777,
      "նվագ": 8778,
      "հովիտ": 8779,
      "պատերազմական": 8780,
      "##ank": 8781,
      "մյուսը": 8782,
      "ստանալով": 8783,
      "սեփականության": 8784,
      "լեռնանց": 8785,
      "հանդիպմանն": 8786,
      "պուտինին": 8787,
      "օդանավի": 8788,
      "ծավալները": 8789,
      "նախաքննական": 8790,
      "մոտեցում": 8791,
      "հնչում": 8792,
      "գրավել": 8793,
      "ընդլայնման": 8794,
      "ինքնաթիռը": 8795,
      "ողջունելով": 8796,
      "լեզու": 8797,
      "մայոր": 8798,
      "ղրղզ": 8799,
      "ապրանքանիշ": 8800,
      "օրինագծի": 8801,
      "առանձնահատկ": 8802,
      "աշտարակ": 8803,
      "վաղարշ": 8804,
      "ոռոգման": 8805,
      "անգլերեն": 8806,
      "անձեռնմխ": 8807,
      "ժիր": 8808,
      "իգոր": 8809,
      "նաս": 8810,
      "պոպ": 8811,
      "տաքս": 8812,
      "տոնը": 8813,
      "##եվար": 8814,
      "##վանդ": 8815,
      "##կով": 8816,
      "##ps": 8817,
      "##ec": 8818,
      "երթի": 8819,
      "##աշատ": 8820,
      "պատարագ": 8821,
      "կարանտ": 8822,
      "##ամբլե": 8823,
      "ներում": 8824,
      "ժամերին": 8825,
      "ավինյանը": 8826,
      "հայտարարելով": 8827,
      "կարողանան": 8828,
      "որոշեց": 8829,
      "անհավ": 8830,
      "տեսլ": 8831,
      "անվեր": 8832,
      "##ապատի": 8833,
      "դրամաշնորհ": 8834,
      "խմբավոր": 8835,
      "անվտանգային": 8836,
      "ընդունելու": 8837,
      "պահանջների": 8838,
      "հաստատեց": 8839,
      "հանդերձ": 8840,
      "սպասել": 8841,
      "բանակցություններին": 8842,
      "նավահանգ": 8843,
      "վստահությունը": 8844,
      "պահպանվող": 8845,
      "առաջնորդի": 8846,
[...]
