{
  "version": "1.0",
  "truncation": null,
  "padding": null,
  "added_tokens": [
    {
      "id": 0,
      "content": "[UNK]",
      "single_word": false,
      "lstrip": false,
      "rstrip": false,
      "normalized": false,
      "special": true
    },
    {
      "id": 1,
      "content": "[CLS]",
      "single_word": false,
      "lstrip": false,
      "rstrip": false,
      "normalized": false,
      "special": true
    },
    {
      "id": 2,
      "content": "[SEP]",
      "single_word": false,
      "lstrip": false,
      "rstrip": false,
      "normalized": false,
      "special": true
    },
    {
      "id": 3,
      "content": "[PAD]",
      "single_word": false,
      "lstrip": false,
      "rstrip": false,
      "normalized": false,
      "special": true
    },
    {
      "id": 4,
      "content": "[MASK]",
      "single_word": false,
      "lstrip": false,
      "rstrip": false,
      "normalized": false,
      "special": true
    }
  ],
  "normalizer": {
    "type": "Sequence",
    "normalizers": [
      {
        "type": "NFD"
      },
      {
        "type": "StripAccents"
      }
    ]
  },
  "pre_tokenizer": {
    "type": "Whitespace"
  },
  "post_processor": {
    "type": "TemplateProcessing",
    "single": [
      {
        "SpecialToken": {
          "id": "[CLS]",
          "type_id": 0
        }
      },
      {
        "Sequence": {
          "id": "A",
          "type_id": 0
        }
      },
      {
        "SpecialToken": {
          "id": "[SEP]",
          "type_id": 0
        }
      }
    ],
    "pair": [
      {
        "SpecialToken": {
          "id": "[CLS]",
          "type_id": 0
        }
      },
      {
        "Sequence": {
          "id": "A",
          "type_id": 0
        }
      },
      {
        "SpecialToken": {
          "id": "[SEP]",
          "type_id": 0
        }
      },
      {
        "Sequence": {
          "id": "B",
          "type_id": 1
        }
      },
      {
        "SpecialToken": {
          "id": "[SEP]",
          "type_id": 1
        }
      }
    ],
    "special_tokens": {
      "[CLS]": {
        "id": "[CLS]",
        "ids": [
          1
        ],
        "tokens": [
          "[CLS]"
        ]
      },
      "[SEP]": {
        "id": "[SEP]",
        "ids": [
          2
        ],
        "tokens": [
          "[SEP]"
        ]
      }
    }
  },
  "decoder": {
    "type": "WordPiece",
    "prefix": "##",
    "cleanup": true
  },
  "model": {
    "type": "WordPiece",
    "unk_token": "[UNK]",
    "continuing_subword_prefix": "##",
    "max_input_chars_per_word": 100,
    "vocab": {
      "[UNK]": 0,
      "[CLS]": 1,
      "[SEP]": 2,
      "[PAD]": 3,
      "[MASK]": 4,
      "!": 5,
      "\"": 6,
      "#": 7,
      "%": 8,
      "'": 9,
      "(": 10,
      ")": 11,
      "+": 12,
      ",": 13,
      "-": 14,
      ".": 15,
      "/": 16,
      "0": 17,
      "1": 18,
      "2": 19,
      "3": 20,
      "4": 21,
      "5": 22,
      "6": 23,
      "7": 24,
      "8": 25,
      "9": 26,
      ":": 27,
      ";": 28,
      "<": 29,
      ">": 30,
      "?": 31,
      "@": 32,
      "A": 33,
      "B": 34,
      "C": 35,
      "D": 36,
      "E": 37,
      "F": 38,
      "G": 39,
      "H": 40,
      "I": 41,
      "J": 42,
      "K": 43,
      "L": 44,
      "M": 45,
      "N": 46,
      "O": 47,
      "P": 48,
      "Q": 49,
      "R": 50,
      "S": 51,
      "T": 52,
      "U": 53,
      "V": 54,
      "W": 55,
      "X": 56,
      "Y": 57,
      "Z": 58,
      "[": 59,
      "]": 60,
      "_": 61,
      "`": 62,
      "a": 63,
      "b": 64,
      "c": 65,
      "d": 66,
      "e": 67,
      "f": 68,
      "g": 69,
      "h": 70,
      "i": 71,
      "j": 72,
      "k": 73,
      "l": 74,
      "m": 75,
      "n": 76,
      "o": 77,
      "p": 78,
      "q": 79,
      "r": 80,
      "s": 81,
      "t": 82,
      "u": 83,
      "v": 84,
      "w": 85,
      "x": 86,
      "y": 87,
      "z": 88,
      "«": 89,
      "´": 90,
      "»": 91,
      "А": 92,
      "Б": 93,
      "В": 94,
      "Г": 95,
      "Д": 96,
      "Е": 97,
      "Ж": 98,
      "З": 99,
      "И": 100,
      "К": 101,
      "Л": 102,
      "М": 103,
      "Н": 104,
      "О": 105,
      "П": 106,
      "Р": 107,
      "С": 108,
      "Т": 109,
      "У": 110,
      "Ф": 111,
      "Х": 112,
      "Ц": 113,
      "Ч": 114,
      "Ш": 115,
      "Ъ": 116,
      "Ы": 117,
      "Ь": 118,
      "Э": 119,
      "Ю": 120,
      "Я": 121,
      "а": 122,
      "б": 123,
      "в": 124,
      "г": 125,
      "д": 126,
      "е": 127,
      "ж": 128,
      "з": 129,
      "и": 130,
      "к": 131,
      "л": 132,
      "м": 133,
      "н": 134,
      "о": 135,
      "п": 136,
      "р": 137,
      "с": 138,
      "т": 139,
      "у": 140,
      "ф": 141,
      "х": 142,
      "ц": 143,
      "ч": 144,
      "ш": 145,
      "щ": 146,
      "ъ": 147,
      "ы": 148,
      "ь": 149,
      "э": 150,
      "ю": 151,
      "я": 152,
      "Ա": 153,
      "Բ": 154,
      "Գ": 155,
      "Դ": 156,
      "Ե": 157,
      "Զ": 158,
      "Է": 159,
      "Ը": 160,
      "Թ": 161,
      "Ժ": 162,
      "Ի": 163,
      "Լ": 164,
      "Խ": 165,
      "Ծ": 166,
      "Կ": 167,
      "Հ": 168,
      "Ձ": 169,
      "Ղ": 170,
      "Ճ": 171,
      "Մ": 172,
      "Յ": 173,
      "Ն": 174,
      "Շ": 175,
      "Ո": 176,
      "Չ": 177,
      "Պ": 178,
      "Ջ": 179,
      "Ռ": 180,
      "Ս": 181,
      "Վ": 182,
      "Տ": 183,
      "Ր": 184,
      "Ց": 185,
      "Ւ": 186,
      "Փ": 187,
      "Ք": 188,
      "Օ": 189,
      "Ֆ": 190,
      "ՙ": 191,
      "՚": 192,
      "՛": 193,
      "՜": 194,
      "՝": 195,
      "՞": 196,
      "ա": 197,
      "բ": 198,
      "գ": 199,
      "դ": 200,
      "ե": 201,
      "զ": 202,
      "է": 203,
      "ը": 204,
      "թ": 205,
      "ժ": 206,
      "ի": 207,
      "լ": 208,
      "խ": 209,
      "ծ": 210,
      "կ": 211,
      "հ": 212,
      "ձ": 213,
      "ղ": 214,
      "ճ": 215,
      "մ": 216,
      "յ": 217,
      "ն": 218,
      "շ": 219,
      "ո": 220,
      "չ": 221,
      "պ": 222,
      "ջ": 223,
      "ռ": 224,
      "ս": 225,
      "վ": 226,
      "տ": 227,
      "ր": 228,
      "ց": 229,
      "ւ": 230,
      "փ": 231,
      "ք": 232,
      "օ": 233,
      "ֆ": 234,
      "և": 235,
      "—": 236,
      "•": 237,
      "…": 238,
      "##ր": 239,
      "##ո": 240,
      "##ն": 241,
      "##ղ": 242,
      "##ա": 243,
      "##փ": 244,
      "##կ": 245,
      "##չ": 246,
      "##ւ": 247,
      "##հ": 248,
      "##ը": 249,
      "##է": 250,
      "##տ": 251,
      "##ե": 252,
      "##զ": 253,
      "##ի": 254,
      "##p": 255,
      "##i": 256,
      "##t": 257,
      "##a": 258,
      "##u": 259,
      "##x": 260,
      "##ց": 261,
      "##թ": 262,
      "##գ": 263,
      "##դ": 264,
      "##վ": 265,
      "##ժ": 266,
      "##ք": 267,
      "##ծ": 268,
      "##յ": 269,
      "##լ": 270,
      "##շ": 271,
      "##ս": 272,
      "##մ": 273,
      "##խ": 274,
      "##բ": 275,
      "##պ": 276,
      "##ձ": 277,
      "##օ": 278,
      "##o": 279,
      "##E": 280,
      "##r": 281,
      "##e": 282,
      "##s": 283,
      "##6": 284,
      "##0": 285,
      "##5": 286,
      "##4": 287,
      "##2": 288,
      "##3": 289,
      "##7": 290,
      "##ջ": 291,
      "##ճ": 292,
      "##ռ": 293,
      "##n": 294,
      "##k": 295,
      "##ֆ": 296,
      "##A": 297,
      "##T": 298,
      "##O": 299,
      "##1": 300,
      "##9": 301,
      "##8": 302,
      "##c": 303,
      "##P": 304,
      "##S": 305,
      "##f": 306,
      "##l": 307,
      "##և": 308,
      "##y": 309,
      "##Ա": 310,
      "##Յ": 311,
      "##Տ": 312,
      "##Ր": 313,
      "##Ո": 314,
      "##Ւ": 315,
      "##Մ": 316,
      "##J": 317,
      "##h": 318,
      "##M": 319,
      "##C": 320,
      "##Ֆ": 321,
      "##N": 322,
      "##I": 323,
      "##F": 324,
      "##Վ": 325,
      "##Ե": 326,
      "##Կ": 327,
      "##»": 328,
      "##:": 329,
      "##b": 330,
      "##B": 331,
      "##H": 332,
      "##w": 333,
      "##m": 334,
      "##v": 335,
      "##Ս": 336,
      "##d": 337,
      "##V": 338,
      "##D": 339,
      "##L": 340,
      "##G": 341,
      "##K": 342,
      "##g": 343,
      "##Պ": 344,
      "##Ն": 345,
      "##Z": 346,
      "##Г": 347,
      "##А": 348,
      "##Ի": 349,
      "##Գ": 350,
      "##а": 351,
      "##н": 352,
      "##о": 353,
      "##•": 354,
      "##q": 355,
      "##Զ": 356,
      "##_": 357,
      "##j": 358,
      "##U": 359,
      "##W": 360,
      "##X": 361,
      "##Y": 362,
      "##R": 363,
      "##Ձ": 364,
      "##Լ": 365,
      "##р": 366,
      "##е": 367,
      "##з": 368,
      "##и": 369,
      "##д": 370,
      "##т": 371,
      "##Դ": 372,
      "##И": 373,
      "##М": 374,
      "##О": 375,
      "##z": 376,
      "##Հ": 377,
      "##Ժ": 378,
      "##Բ": 379,
      "##ы": 380,
      "##Ջ": 381,
      "##Ք": 382,
      "##Թ": 383,
      "##с": 384,
      "##к": 385,
      "##л": 386,
      "##ь": 387,
      "##б": 388,
      "##Խ": 389,
      "##в": 390,
      "##г": 391,
      "##՝": 392,
      "##Е": 393,
      "##Т": 394,
      "##Ղ": 395,
      "##Ց": 396,
      "##Ռ": 397,
      "##Է": 398,
      "##(": 399,
      "##…": 400,
      "##)": 401,
      "##ч": 402,
      "##м": 403,
      "##Q": 404,
      "##,": 405,
      "##-": 406,
      "##—": 407,
      "##Ծ": 408,
      "##ц": 409,
      "##я": 410,
      "##С": 411,
      "##Н": 412,
      "##у": 413,
      "##Շ": 414,
      "##Օ": 415,
      "##э": 416,
      "##Р": 417,
      "##Б": 418,
      "##Չ": 419,
      "##ж": 420,
      "##ш": 421,
      "##Ш": 422,
      "##.": 423,
      "##>": 424,
      "##<": 425,
      "##щ": 426,
      "##П": 427,
      "##Я": 428,
      "##`": 429,
      "##ю": 430,
      "##«": 431,
      "##В": 432,
      "##п": 433,
      "##Д": 434,
      "##Х": 435,
      "##Э": 436,
      "##Ф": 437,
      "##Ը": 438,
      "##Փ": 439,
      "##Ъ": 440,
      "##х": 441,
      "##ф": 442,
      "##Ճ": 443,
      "##К": 444,
      "##+": 445,
      "##'": 446,
      "##З": 447,
      "##ъ": 448,
      "##Ь": 449,
      "##!": 450,
      "##/": 451,
      "##@": 452,
      "##\"": 453,
      "##?": 454,
      "##Ц": 455,
      "###": 456,
      "##У": 457,
      "##՞": 458,
      "##Л": 459,
      "##]": 460,
      "##՚": 461,
      "##%": 462,
      "##Ч": 463,
      "##ՙ": 464,
      "##Ж": 465,
      "##;": 466,
      "##՜": 467,
      "##Ю": 468,
      "##Ы": 469,
      "##՛": 470,
      "##[": 471,
      "##ու": 472,
      "##ան": 473,
      "##ար": 474,
      "##եր": 475,
      "##ակ": 476,
      "##ել": 477,
      "##ում": 478,
      "##այ": 479,
      "##ին": 480,
      "##ութ": 481,
      "##ությ": 482,
      "##ներ": 483,
      "##որ": 484,
      "##ամ": 485,
      "##ուն": 486,
      "##ատ": 487,
      "##աս": 488,
      "##ական": 489,
      "##ավ": 490,
      "##են": 491,
      "##աց": 492,
      "##ություն": 493,
      "##ով": 494,
      "որ": 495,
      "##ետ": 496,
      "##ող": 497,
      "##RT": 498,
      "##LE": 499,
      "##LE_": 500,
      "##ության": 501,
      "##ած": 502,
      "##ների": 503,
      "##ահ": 504,
      "են": 505,
      "##ագ": 506,
      "##անի": 507,
      "##ախ": 508,
      "##ման": 509,
      "##ալ": 510,
      "ու": 511,
      "##վել": 512,
      "այ": 513,
      "##ապ": 514,
      "##ես": 515,
      "եւ": 516,
      "##առ": 517,
      "##եղ": 518,
      "##եւ": 519,
      "##ված": 520,
      "ան": 521,
      "##ազ": 522,
      "##աղ": 523,
      "##յան": 524,
      "համ": 525,
      "##ից": 526,
      "##ոն": 527,
      "##եկ": 528,
      "##աստ": 529,
      "ին": 530,
      "##ային": 531,
      "##EN": 532,
      "##IC": 533,
      "##END": 534,
      "##LE_END": 535,
      "ART": 536,
      "ARTIC": 537,
      "##IT": 538,
      "##TA": 539,
      "TIT": 540,
      "##TART": 541,
      "##START": 542,
      "##LE_START": 543,
      "><": 544,
      "##ները": 545,
      "##ստ": 546,
      "##ադ": 547,
      "մի": 548,
      "##եց": 549,
      "իր": 550,
      "##աք": 551,
      "##իր": 552,
      "##ավոր": 553,
      "ար": 554,
      "##աշ": 555,
      "առ": 556,
      "##աբ": 557,
      "հետ": 558,
      "##ուր": 559,
      "հայ": 560,
      "եր": 561,
      "##ործ": 562,
      "##երի": 563,
      "նախ": 564,
      "ըն": 565,
      "մաս": 566,
      "##իկ": 567,
      "##ույ": 568,
      "##ությունը": 569,
      "##արկ": 570,
      "##ելու": 571,
      "##քի": 572,
      "##արար": 573,
      "##րան": 574,
      "պատ": 575,
      "հայտ": 576,
      "##րա": 577,
      "##ոս": 578,
      "##այի": 579,
      "##անակ": 580,
      "##ուս": 581,
      "գործ": 582,
      "տար": 583,
      "Հայ": 584,
      "կար": 585,
      "հար": 586,
      "##ենք": 587,
      "##իս": 588,
      "հան": 589,
      "##ոց": 590,
      "##ամբ": 591,
      "##աջ": 592,
      "##եմ": 593,
      "##յանը": 594,
      "համար": 595,
      "տեղ": 596,
      "ARTICLE_END": 597,
      "##իմ": 598,
      "##շխ": 599,
      "TITLE_END": 600,
      "TITLE_START": 601,
      "##եռ": 602,
      "ARTICLE_START": 603,
      "վեր": 604,
      "##վում": 605,
      "##այն": 606,
      "մար": 607,
      "##ակց": 608,
      "##իտ": 609,
      "##որդ": 610,
      "ներ": 611,
      "ամ": 612,
      "##ոլ": 613,
      "##անում": 614,
      "Ար": 615,
      "նա": 616,
      "##նել": 617,
      "երկ": 618,
      "##աղաք": 619,
      "##ազմ": 620,
      "մասին": 621,
      "Այ": 622,
      "##ագր": 623,
      "##ուց": 624,
      "##ոխ": 625,
      "##տր": 626,
      "##ավար": 627,
      "միջ": 628,
      "Հայաստ": 629,
      "##ադր": 630,
      "##ոտ": 631,
      "մե": 632,
      "##ատար": 633,
      "առաջ": 634,
      "##արգ": 635,
      "քաղաք": 636,
      "##երը": 637,
      "ժամ": 638,
      "աս": 639,
      "##դր": 640,
      "պետ": 641,
      "##իվ": 642,
      "##նում": 643,
      "այս": 644,
      "##քում": 645,
      "##ությունների": 646,
      "օր": 647,
      "էր": 648,
      "ուն": 649,
      "##անց": 650,
      "ստ": 651,
      "##պես": 652,
      "##ապետ": 653,
      "##ներին": 654,
      "##պան": 655,
      "##կայ": 656,
      "##անք": 657,
      "աշխ": 658,
      "##ափ": 659,
      "##անգ": 660,
      "20": 661,
      "##նն": 662,
      "##րամ": 663,
      "##արտ": 664,
      "»,": 665,
      "##իչ": 666,
      "ինչ": 667,
      "##եպ": 668,
      "նշ": 669,
      "այդ": 670,
      "##րդ": 671,
      "##արձ": 672,
      "այն": 673,
      "##ոշ": 674,
      "##աշտ": 675,
      "##աժ": 676,
      "##եք": 677,
      "մեկ": 678,
      "նախագ": 679,
      "ապ": 680,
      "##աբեր": 681,
      "##սկ": 682,
      "##ությամբ": 683,
      "##օր": 684,
      "վար": 685,
      "ընդ": 686,
      "##րի": 687,
      "աշխատ": 688,
      "##յալ": 689,
      "##րջ": 690,
      "ՀՀ": 691,
      "##աթ": 692,
      "##րել": 693,
      "##նակ": 694,
      "##ողմ": 695,
      "##նդ": 696,
      "##լի": 697,
      "Այս": 698,
      "##արդ": 699,
      "##յանի": 700,
      "##նի": 701,
      "արդ": 702,
      "նախագահ": 703,
      "չի": 704,
      "Եր": 705,
      "թե": 706,
      "հարց": 707,
      "##ումը": 708,
      "##ներում": 709,
      "##անդ": 710,
      "»,-": 711,
      "պաշտ": 712,
      "##անկ": 713,
      "##որհ": 714,
      "##անը": 715,
      "ներկայ": 716,
      "##արի": 717,
      "##ողով": 718,
      "կողմ": 719,
      "ուղ": 720,
      "##ելով": 721,
      "փոխ": 722,
      "##թաց": 723,
      "ժամանակ": 724,
      "հայտարար": 725,
      "Հայաստանի": 726,
      "իրավ": 727,
      "##իշ": 728,
      "##քը": 729,
      "պահ": 730,
      "##ացել": 731,
      "նաեւ": 732,
      "ավ": 733,
      "##աձ": 734,
      "կարող": 735,
      "##ակի": 736,
      "ներկայաց": 737,
      "##ացի": 738,
      "##ուղ": 739,
      "##ոմ": 740,
      "##բեր": 741,
      "##ելի": 742,
      "##յուն": 743,
      "կառ": 744,
      "##ություններ": 745,
      "##եջ": 746,
      "արտ": 747,
      "##ագործ": 748,
      "ավել": 749,
      "##վի": 750,
      "հաս": 751,
      "ազ": 752,
      "քնն": 753,
      "##ույն": 754,
      "##իճ": 755,
      "##կեր": 756,
      "##արհ": 757,
      "##ությունները": 758,
      "##գային": 759,
      "##գամ": 760,
      "էլ": 761,
      "##ահման": 762,
      "մարդ": 763,
      "ոչ": 764,
      "##նական": 765,
      "տարած": 766,
      "այլ": 767,
      "##ույց": 768,
      "պետք": 769,
      "##խան": 770,
      "նախարար": 771,
      "կազմ": 772,
      "##առայ": 773,
      "»:": 774,
      "պայ": 775,
      "##ուկ": 776,
      "շար": 777,
      "շրջ": 778,
      "դեպ": 779,
      "մասն": 780,
      "##ենց": 781,
      "ենք": 782,
      "վարչ": 783,
      "մեր": 784,
      "##ոկ": 785,
      "##րանք": 786,
      "##իպ": 787,
      "##իկան": 788,
      "հր": 789,
      "##այում": 790,
      "##վող": 791,
      "##բեջ": 792,
      "նոր": 793,
      "##այր": 794,
      "##դրբեջ": 795,
      "հավ": 796,
      "##ապես": 797,
      "գր": 798,
      "##շտ": 799,
      "հիմ": 800,
      "օգ": 801,
      "##ուլ": 802,
      "որոն": 803,
      "##ստիկան": 804,
      "իրական": 805,
      "որոշ": 806,
      "երկր": 807,
      "##թի": 808,
      "##ըն": 809,
      "հանդ": 810,
      "##մամբ": 811,
      "մեջ": 812,
      "հաղ": 813,
      "##րանց": 814,
      "խոս": 815,
      "եղ": 816,
      "##աչ": 817,
      "##ուտ": 818,
      "տեղեկ": 819,
      "կատար": 820,
      "##յա": 821,
      "##ացման": 822,
      "##արակ": 823,
      "ունեց": 824,
      "մոտ": 825,
      "##երին": 826,
      "##ալի": 827,
      "կողմից": 828,
      "անց": 829,
      "ավելի": 830,
      "պար": 831,
      "դատ": 832,
      "##ոլոր": 833,
      "##երպ": 834,
      "##որհրդ": 835,
      "##րագր": 836,
      "հետո": 837,
      "##ներից": 838,
      "##ակցության": 839,
      "##ակարգ": 840,
      "##բերի": 841,
      "ակ": 842,
      "որը": 843,
      "##ճառ": 844,
      "եմ": 845,
      "կամ": 846,
      "ծառայ": 847,
      "սահման": 848,
      "##եռն": 849,
      "վրա": 850,
      "անհ": 851,
      "##րկ": 852,
      "##վա": 853,
      "##րաստ": 854,
      "ընթաց": 855,
      "##անր": 856,
      "##ինի": 857,
      "հն": 858,
      "201": 859,
      "հատ": 860,
      "##սի": 861,
      "ԱՄ": 862,
      "կապ": 863,
      "##ձն": 864,
      "##ոյ": 865,
      "ընտր": 866,
      "կան": 867,
      "##եմբերի": 868,
      "##որձ": 869,
      "##ներով": 870,
      "##քով": 871,
      "թվ": 872,
      "բաց": 873,
      "##ոգ": 874,
      "տես": 875,
      "##ասխան": 876,
      "այսօր": 877,
      "##քն": 878,
      "էին": 879,
      "##անական": 880,
      "##իսի": 881,
      "ԱՄՆ": 882,
      "բնակ": 883,
      "իսկ": 884,
      "##թե": 885,
      "տն": 886,
      "միջոց": 887,
      "Ռուս": 888,
      "##ոչ": 889,
      "##00": 890,
      "##ությանը": 891,
      "##մբ": 892,
      "կառավար": 893,
      "##նելու": 894,
      "սկ": 895,
      "ասել": 896,
      "անվ": 897,
      "##ինչ": 898,
      "րդ": 899,
      "պաշտոն": 900,
      "##ատակ": 901,
      "կայ": 902,
      "ամեն": 903,
      "Ադրբեջ": 904,
      "խորհրդ": 905,
      "##իստ": 906,
      "կեն": 907,
      "##տրոն": 908,
      "##շխան": 909,
      "անձ": 910,
      "բոլոր": 911,
      "##ոհ": 912,
      "փորձ": 913,
      "սպ": 914,
      "##ումների": 915,
      "հաղորդ": 916,
      "##արավոր": 917,
      "ղեկ": 918,
      "նկ": 919,
      "մարզ": 920,
      "##ակալ": 921,
      "ոստիկան": 922,
      "##ակերպ": 923,
      "##րե": 924,
      "վերջ": 925,
      "քանի": 926,
      "Ռուսաստ": 927,
      "##ունակ": 928,
      "ղեկավար": 929,
      "քաղաքական": 930,
      "իրենց": 931,
      "վերաբեր": 932,
      "##տանգ": 933,
      "տեղի": 934,
      "ուղղ": 935,
      "##ներն": 936,
      "##երթ": 937,
      "##ակից": 938,
      "Թուր": 939,
      "Ան": 940,
      "արդյուն": 941,
      "չեն": 942,
      "##աշին": 943,
      "ինչպես": 944,
      "##ությունն": 945,
      "##տն": 946,
      "##եղծ": 947,
      "իրականաց": 948,
      "##տես": 949,
      "##իջ": 950,
      "դեմ": 951,
      "##տի": 952,
      "չէ": 953,
      "ճան": 954,
      "թվական": 955,
      "հայտն": 956,
      "##իայի": 957,
      "##պանության": 958,
      "##րաժ": 959,
      "##րո": 960,
      "##ատվ": 961,
      "հեռ": 962,
      "դրամ": 963,
      "կր": 964,
      "Երեւ": 965,
      "որոնք": 966,
      "##ակայն": 967,
      "որպես": 968,
      "եղել": 969,
      "##եյ": 970,
      "հնարավոր": 971,
      "##ությունից": 972,
      "##գր": 973,
      "ընթացքում": 974,
      "##եւոր": 975,
      "##յուր": 976,
      "Ու": 977,
      "պայման": 978,
      "շատ": 979,
      "ժողով": 980,
      "am": 981,
      "##դամ": 982,
      "հայտնել": 983,
      "##ատես": 984,
      "##առն": 985,
      "դիմ": 986,
      "##ույթ": 987,
      "աշխատանք": 988,
      "##նչ": 989,
      "19": 990,
      "ուժ": 991,
      "##ապատ": 992,
      "հայտնում": 993,
      "##տեմբերի": 994,
      "գն": 995,
      "բարձ": 996,
      "##արկել": 997,
      "##ողջ": 998,
      "ընկեր": 999,
      "##աձայն": 1000,
      "իշխան": 1001,
      "գլ": 1002,
      "##հան": 1003,
      "զին": 1004,
      "##այց": 1005,
      "ասաց": 1006,
      "մեծ": 1007,
      "կազմակերպ": 1008,
      "Թուրքի": 1009,
      "##ցախ": 1010,
      "ենթ": 1011,
      "##իճակ": 1012,
      "մտ": 1013,
      "##ոստ": 1014,
      "Նա": 1015,
      "Եվ": 1016,
      "փաստ": 1017,
      "##ունք": 1018,
      "##յուղ": 1019,
      "երկու": 1020,
      "լին": 1021,
      "ավտ": 1022,
      "պատճառ": 1023,
      "NE": 1024,
      "նկատ": 1025,
      "##WS": 1026,
      "բաժ": 1027,
      "NEWS": 1028,
      "նպ": 1029,
      "##եզ": 1030,
      "##անջ": 1031,
      "##ասն": 1032,
      "նրա": 1033,
      "մինչ": 1034,
      "դր": 1035,
      "##ացած": 1036,
      "##ալու": 1037,
      "մեղ": 1038,
      "##կական": 1039,
      "##խավոր": 1040,
      "##նդիր": 1041,
      "մենք": 1042,
      "10": 1043,
      "հանր": 1044,
      "հանդիպ": 1045,
      "##ոք": 1046,
      "##ոդ": 1047,
      "երբ": 1048,
      "##տեղ": 1049,
      "##նաս": 1050,
      "նշել": 1051,
      "հայտարարել": 1052,
      "եկ": 1053,
      "հակ": 1054,
      "##ապարհ": 1055,
      "խմբ": 1056,
      "##ուցիչ": 1057,
      "Արցախ": 1058,
      "##ուժ": 1059,
      "##եցին": 1060,
      "գործըն": 1061,
      "գործող": 1062,
      "##ուշ": 1063,
      "##եփ": 1064,
      "##կին": 1065,
      "ունեն": 1066,
      "ում": 1067,
      "անդամ": 1068,
      "##աժողով": 1069,
      "##ազգային": 1070,
      "##այտ": 1071,
      "##ահատ": 1072,
      "##եշտ": 1073,
      "Հանր": 1074,
      "խնդիր": 1075,
      "##ապահ": 1076,
      "##աբան": 1077,
      "բեր": 1078,
      "համաձայն": 1079,
      "##ուծ": 1080,
      "##ուրջ": 1081,
      "հետեւ": 1082,
      "շարունակ": 1083,
      "արձ": 1084,
      "##ոցի": 1085,
      "##յուս": 1086,
      "##իլ": 1087,
      "կարգ": 1088,
      "պատասխան": 1089,
      "կենտրոն": 1090,
      "առաջին": 1091,
      "##իք": 1092,
      "##անից": 1093,
      "ից": 1094,
      "ազատ": 1095,
      "##քեր": 1096,
      "##կա": 1097,
      "ցուց": 1098,
      "##ափոխ": 1099,
      "պարզ": 1100,
      "##որտ": 1101,
      "##եխ": 1102,
      "միայն": 1103,
      "##կաց": 1104,
      "Հար": 1105,
      "##ողների": 1106,
      "դա": 1107,
      "գտն": 1108,
      "բարձր": 1109,
      "նույն": 1110,
      "##աճ": 1111,
      "##րեական": 1112,
      "##ազար": 1113,
      "##ումներ": 1114,
      "խաղ": 1115,
      "հանձն": 1116,
      "օգտ": 1117,
      "ամյա": 1118,
      "##շակ": 1119,
      "գյուղ": 1120,
      "##մանը": 1121,
      "##յանն": 1122,
      "##յանին": 1123,
      "##ապարակ": 1124,
      "բար": 1125,
      "ընդուն": 1126,
      "հաշ": 1127,
      "վարչապետ": 1128,
      "##աշրջ": 1129,
      "ստեղծ": 1130,
      "##ուրս": 1131,
      "նպատակ": 1132,
      "ռազմ": 1133,
      "Առ": 1134,
      "Իր": 1135,
      "Հանրապետ": 1136,
      "համակարգ": 1137,
      "միջազգային": 1138,
      "ծրագր": 1139,
      "սակայն": 1140,
      "##գամավոր": 1141,
      "տարբեր": 1142,
      "աղ": 1143,
      "##ացին": 1144,
      "մասնակց": 1145,
      "սկս": 1146,
      "նախկին": 1147,
      "մահ": 1148,
      "գլխավոր": 1149,
      "տարի": 1150,
      "Կար": 1151,
      "տնտես": 1152,
      "##իան": 1153,
      "##ակայ": 1154,
      "ունեցել": 1155,
      "##րույց": 1156,
      "տոկ": 1157,
      "տվ": 1158,
      "արդեն": 1159,
      "պետական": 1160,
      "Սարգ": 1161,
      "անգամ": 1162,
      "տոկոս": 1163,
      "նրանց": 1164,
      "դոլ": 1165,
      "զարգ": 1166,
      "բանակ": 1167,
      "ինքն": 1168,
      "##ագիր": 1169,
      "##աստատ": 1170,
      "անվտանգ": 1171,
      "պահանջ": 1172,
      "##ուլի": 1173,
      "##ուրդ": 1174,
      "##վելու": 1175,
      "##մեն": 1176,
      "ով": 1177,
      "դատար": 1178,
      "Փաշին": 1179,
      "վերջին": 1180,
      "բան": 1181,
      "քրեական": 1182,
      "բայց": 1183,
      "##ուհ": 1184,
      "հուն": 1185,
      "202": 1186,
      "պատգամավոր": 1187,
      "Նախ": 1188,
      "##ոբ": 1189,
      "##կան": 1190,
      "##երով": 1191,
      "##ետր": 1192,
      "##իզ": 1193,
      "գիտ": 1194,
      "##ագետ": 1195,
      "##ոփ": 1196,
      "հիմն": 1197,
      "##արան": 1198,
      "##երում": 1199,
      "Հայաստանում": 1200,
      "մլ": 1201,
      "##չական": 1202,
      "##ադիր": 1203,
      "##ինը": 1204,
      "##արանի": 1205,
      "Ադրբեջանի": 1206,
      "կուս": 1207,
      "»-": 1208,
      "վերաբերյալ": 1209,
      "մարմ": 1210,
      "##որեն": 1211,
      "կլ": 1212,
      "##ագույն": 1213,
      "Սարգս": 1214,
      "Այդ": 1215,
      "նման": 1216,
      "Մենք": 1217,
      "ճանապարհ": 1218,
      "ցանկ": 1219,
      "##ավել": 1220,
      "Հայաստան": 1221,
      "նվ": 1222,
      "##գն": 1223,
      "##ադարձ": 1224,
      "խոսքով": 1225,
      "##յու": 1226,
      "Մի": 1227,
      "օրեն": 1228,
      "##ուստ": 1229,
      "##յակ": 1230,
      "պատրաստ": 1231,
      "##աքնն": 1232,
      "քննարկ": 1233,
      "ժամը": 1234,
      "##րոպ": 1235,
      "15": 1236,
      "աջ": 1237,
      "նշանակ": 1238,
      "նկատմամբ": 1239,
      "մակ": 1240,
      "պարտ": 1241,
      "Ռուսաստանի": 1242,
      "##ումները": 1243,
      "##ոռ": 1244,
      "ներկայացուցիչ": 1245,
      "հաստատ": 1246,
      "հաղորդում": 1247,
      "եթե": 1248,
      "կարծ": 1249,
      "Ազ": 1250,
      "##կր": 1251,
      "##ացրել": 1252,
      "ամբ": 1253,
      "որի": 1254,
      "փող": 1255,
      "վնաս": 1256,
      "ուս": 1257,
      "##րաժեշտ": 1258,
      "##er": 1259,
      "նիստ": 1260,
      "ես": 1261,
      "##երմ": 1262,
      "հրապարակ": 1263,
      "նաև": 1264,
      "դուրս": 1265,
      "տվյալ": 1266,
      "##վե": 1267,
      "կոր": 1268,
      "##ավիր": 1269,
      "ոլ": 1270,
      "##նելով": 1271,
      "այց": 1272,
      "դեռ": 1273,
      "##ահով": 1274,
      "##իթ": 1275,
      "12": 1276,
      "##իշեց": 1277,
      "##անքով": 1278,
      "##ությունում": 1279,
      "արժ": 1280,
      "Նշ": 1281,
      "##ալով": 1282,
      "##աբար": 1283,
      "Ալ": 1284,
      "լր": 1285,
      "##երն": 1286,
      "հարաբեր": 1287,
      "##վար": 1288,
      "30": 1289,
      "##վեն": 1290,
      "ձեռ": 1291,
      "##ուզ": 1292,
      "վաղ": 1293,
      "հազար": 1294,
      "համագործ": 1295,
      "##նորհ": 1296,
      "զոհ": 1297,
      "ԱԺ": 1298,
      "##արժ": 1299,
      "##իվանդ": 1300,
      "մինչեւ": 1301,
      "##նենք": 1302,
      "Ինչ": 1303,
      "ունի": 1304,
      "##ենան": 1305,
      "փոխանց": 1306,
      "կոչ": 1307,
      "##քին": 1308,
      "դարձ": 1309,
      "##վարի": 1310,
      "անհրաժեշտ": 1311,
      "##րաին": 1312,
      "11": 1313,
      "մամ": 1314,
      "որտեղ": 1315,
      "պատմ": 1316,
      "ռուս": 1317,
      "00": 1318,
      "շրջանակ": 1319,
      "Նիկ": 1320,
      "##կրաին": 1321,
      "##եհ": 1322,
      "ժողովրդ": 1323,
      "##ախտ": 1324,
      "Արցախի": 1325,
      "հայտնաբեր": 1326,
      "##յութ": 1327,
      "##նորդ": 1328,
      "ապահով": 1329,
      "թվականի": 1330,
      "հիվանդ": 1331,
      "տեղափոխ": 1332,
      "##այլ": 1333,
      "##ռն": 1334,
      "##դան": 1335,
      "##զի": 1336,
      "շուրջ": 1337,
      "զբ": 1338,
      "ընդգ": 1339,
      "##ատր": 1340,
      "քան": 1341,
      "##վեց": 1342,
      "ձեր": 1343,
      "շահ": 1344,
      "ոստիկանության": 1345,
      "իրավունք": 1346,
      "##ություններին": 1347,
      "##ոդված": 1348,
      "##եծ": 1349,
      "Հանրապետության": 1350,
      "##ղթ": 1351,
      "վայր": 1352,
      "աճ": 1353,
      "մշակ": 1354,
      "##ոնի": 1355,
      "##երից": 1356,
      "դոլար": 1357,
      "##ինակ": 1358,
      "աշխարհ": 1359,
      "ահ": 1360,
      "մեկն": 1361,
      "համայն": 1362,
      "ստոր": 1363,
      "տալ": 1364,
      "16": 1365,
      "հաջ": 1366,
      "##ահար": 1367,
      "հոդված": 1368,
      "##արաբ": 1369,
      "##րույցում": 1370,
      "##ույլ": 1371,
      "Նիկոլ": 1372,
      "##անոց": 1373,
      "##պր": 1374,
      "##երազմ": 1375,
      "Թուրքիայի": 1376,
      "գեր": 1377,
      "անվտանգության": 1378,
      "##ոփոխ": 1379,
      "դեպքում": 1380,
      "բնակիչ": 1381,
      "լրագր": 1382,
      "Ավ": 1383,
      "##ագիտ": 1384,
      "նշեց": 1385,
      "ամբողջ": 1386,
      "##ենի": 1387,
      "գործընթաց": 1388,
      "##արաբաղ": 1389,
      "Ես": 1390,
      "Սեր": 1391,
      "արտահ": 1392,
      "##ոզ": 1393,
      "ավտոմ": 1394,
      "##քան": 1395,
      "##ավորման": 1396,
      "##ուգ": 1397,
      "անկ": 1398,
      "##եի": 1399,
      "տարվա": 1400,
      "##ումն": 1401,
      "լուծ": 1402,
      "գիշ": 1403,
      "##ամաս": 1404,
      "մամուլի": 1405,
      "##աժամ": 1406,
      "##եստ": 1407,
      "##նած": 1408,
      "##աշխ": 1409,
      "##անիշ": 1410,
      ".-": 1411,
      "Նրա": 1412,
      "##րց": 1413,
      "իմ": 1414,
      "խաղաղ": 1415,
      "##ացվել": 1416,
      "Իս": 1417,
      "##իա": 1418,
      "##իջոց": 1419,
      "նրան": 1420,
      "##ողական": 1421,
      "մն": 1422,
      "##ուբ": 1423,
      "պատճառով": 1424,
      "վիր": 1425,
      "տրամ": 1426,
      "քաղաքացին": 1427,
      "նախագահի": 1428,
      "առաջարկ": 1429,
      "լավ": 1430,
      "##հանուր": 1431,
      "##ուք": 1432,
      "երկրի": 1433,
      "##նախ": 1434,
      "##ավորված": 1435,
      "##անս": 1436,
      "17": 1437,
      "չափ": 1438,
      "##ոսի": 1439,
      "##տիվ": 1440,
      "փոփոխ": 1441,
      "հանց": 1442,
      "##զբ": 1443,
      "##քների": 1444,
      "##ավորապես": 1445,
      "օգտագործ": 1446,
      "պատերազմ": 1447,
      "գրում": 1448,
      "##անքի": 1449,
      "թիվ": 1450,
      "13": 1451,
      "##ունի": 1452,
      "##ացնել": 1453,
      "Նոր": 1454,
      "Ուկրաին": 1455,
      "պաշտպանության": 1456,
      "##գել": 1457,
      "հասց": 1458,
      "հանձնաժողով": 1459,
      "դես": 1460,
      "թույլ": 1461,
      "բազմ": 1462,
      "##ճար": 1463,
      "նախատես": 1464,
      "ոլորտ": 1465,
      "կիր": 1466,
      "18": 1467,
      "անցկաց": 1468,
      "##իգ": 1469,
      "մլն": 1470,
      "Երեւանի": 1471,
      "տղ": 1472,
      "կոմ": 1473,
      "ավտոմեք": 1474,
      "օրենս": 1475,
      "##ելը": 1476,
      "##եխն": 1477,
      "պաշտպան": 1478,
      "Հով": 1479,
      "14": 1480,
      "խն": 1481,
      "աջակց": 1482,
      "հաշվ": 1483,
      "կապված": 1484,
      "Ըստ": 1485,
      "ազգային": 1486,
      "շնորհ": 1487,
      "թվում": 1488,
      "Սա": 1489,
      "մարտ": 1490,
      "սպաս": 1491,
      "##an": 1492,
      "##եդ": 1493,
      "##ացնում": 1494,
      "միջեւ": 1495,
      "հերթ": 1496,
      "##ահանգ": 1497,
      "##արը": 1498,
      "##ԱԿ": 1499,
      "առանց": 1500,
      "քաղաքի": 1501,
      "##կած": 1502,
      "Ստ": 1503,
      "իրավիճակ": 1504,
      "##եւէ": 1505,
      "տնօր": 1506,
      "Արմեն": 1507,
      "կարեւոր": 1508,
      "հասարակ": 1509,
      "##ունե": 1510,
      "հավել": 1511,
      "երկրների": 1512,
      "կա": 1513,
      "համապատ": 1514,
      "որոնց": 1515,
      "մարդկ": 1516,
      "Հիշեց": 1517,
      "քայլ": 1518,
      "##ատեղ": 1519,
      "փրկ": 1520,
      "##նակից": 1521,
      "##ումբ": 1522,
      "հավաք": 1523,
      "մրց": 1524,
      "կառավարության": 1525,
      "գում": 1526,
      "##րանսի": 1527,
      "200": 1528,
      "բռն": 1529,
      "բանակց": 1530,
      "##ակը": 1531,
      "հայկական": 1532,
      "լի": 1533,
      "ընտ": 1534,
      "##ոթ": 1535,
      "Հիշեցնենք": 1536,
      "##արք": 1537,
      "Այն": 1538,
      "##րաժար": 1539,
      "##որի": 1540,
      "##ակում": 1541,
      "ընդգծ": 1542,
      "ձեռք": 1543,
      "##ատի": 1544,
      "##որոշ": 1545,
      "##ՀԿ": 1546,
      "զոր": 1547,
      "տնտեսական": 1548,
      "Մեր": 1549,
      "մեք": 1550,
      "##ախազ": 1551,
      "զարգացման": 1552,
      "##ացված": 1553,
      "ադրբեջ": 1554,
      "##ուրք": 1555,
      "ստացել": 1556,
      "կն": 1557,
      "25": 1558,
      "հոգ": 1559,
      "ապա": 1560,
      "##նող": 1561,
      "մեկը": 1562,
      "Նշենք": 1563,
      "գնահատ": 1564,
      "##երիկ": 1565,
      "զրույցում": 1566,
      "ուղղությամբ": 1567,
      "Ղարաբաղ": 1568,
      "ող": 1569,
      "տարածք": 1570,
      "Վրաստ": 1571,
      "պայք": 1572,
      "ՌԴ": 1573,
      "նրանք": 1574,
      "գործունե": 1575,
      "ձեռն": 1576,
      "կոն": 1577,
      "ստան": 1578,
      "հրաժար": 1579,
      "հարկ": 1580,
      "##բակալ": 1581,
      "բժ": 1582,
      "##րայ": 1583,
      "վիճակ": 1584,
      "##ինգ": 1585,
      "##կետ": 1586,
      "շարք": 1587,
      "միջոցառ": 1588,
      "ռազմական": 1589,
      "Ոստիկան": 1590,
      "ընդհանուր": 1591,
      "##իտաս": 1592,
      "21": 1593,
      "եւս": 1594,
      "ճանաչ": 1595,
      "գիշերը": 1596,
      "կմ": 1597,
      "պատվ": 1598,
      "դեսպան": 1599,
      "արդյունքում": 1600,
      "##ագահ": 1601,
      "##եկտ": 1602,
      "##ինանս": 1603,
      "##անին": 1604,
      "##իական": 1605,
      "##եգ": 1606,
      "Ավել": 1607,
      "սպան": 1608,
      "թեկ": 1609,
      "քաղաքապետ": 1610,
      "կաս": 1611,
      "որեւէ": 1612,
      "աշխատակից": 1613,
      "որպեսզի": 1614,
      "##ույթի": 1615,
      "բն": 1616,
      "##անել": 1617,
      "##պետ": 1618,
      "կյան": 1619,
      "ըստ": 1620,
      "կառուց": 1621,
      "կհ": 1622,
      "տարածաշրջ": 1623,
      "##դի": 1624,
      "քննչական": 1625,
      "ԱԳ": 1626,
      "մարզի": 1627,
      "ԵՄ": 1628,
      "Համ": 1629,
      "##ադար": 1630,
      "Աբ": 1631,
      "ավարտ": 1632,
      "համալ": 1633,
      "##ենը": 1634,
      "##ամարտ": 1635,
      "ման": 1636,
      "##անագր": 1637,
      "##աքին": 1638,
      "հատված": 1639,
      "զբաղ": 1640,
      "գտնվող": 1641,
      "տվել": 1642,
      "օրը": 1643,
      "##թեր": 1644,
      "դրա": 1645,
      "##աբեկ": 1646,
      "խախտ": 1647,
      "Վեր": 1648,
      "բավ": 1649,
      "ապրի": 1650,
      "Ազգային": 1651,
      "քարտ": 1652,
      "սկզբ": 1653,
      "##անա": 1654,
      "##ստահ": 1655,
      "ձեւ": 1656,
      "##սպ": 1657,
      "ձերբակալ": 1658,
      "##իսկ": 1659,
      "##իների": 1660,
      "զգ": 1661,
      "կանխ": 1662,
      "հետեւանքով": 1663,
      "թեկնած": 1664,
      "մեզ": 1665,
      "հատուկ": 1666,
      "տեխն": 1667,
      "առողջ": 1668,
      "##ոսկ": 1669,
      "##ադրել": 1670,
      "Եթե": 1671,
      "##վոր": 1672,
      "ընտանի": 1673,
      "##ամիջոց": 1674,
      ">«": 1675,
      "բող": 1676,
      "Բր": 1677,
      "##ևոր": 1678,
      "##ոպ": 1679,
      "ներդր": 1680,
      "միլի": 1681,
      "##աճառ": 1682,
      "Վարդ": 1683,
      "երեք": 1684,
      "Եվրոպ": 1685,
      "##իտասարդ": 1686,
      "##վածք": 1687,
      "##եխան": 1688,
      "օրենք": 1689,
      "Ամ": 1690,
      "##իծ": 1691,
      "եվ": 1692,
      "համապատասխան": 1693,
      "ենթարկ": 1694,
      "առան": 1695,
      "##ուլիսի": 1696,
      "##ակել": 1697,
      "համարում": 1698,
      "Երև": 1699,
      "հայտնի": 1700,
      "կուսակցության": 1701,
      "դիր": 1702,
      "##ադրանք": 1703,
      "եկել": 1704,
      "հեղ": 1705,
      "խնդր": 1706,
      "շրջան": 1707,
      "փողոց": 1708,
      "նպատակով": 1709,
      "ակտիվ": 1710,
      "թուրք": 1711,
      "սեպ": 1712,
      "##ապարտ": 1713,
      "ուշ": 1714,
      "դատախազ": 1715,
      "##ամարդ": 1716,
      "գործընկեր": 1717,
      "դպր": 1718,
      "գրել": 1719,
      "##ովը": 1720,
      "##դիմ": 1721,
      "##եկը": 1722,
      "իրեն": 1723,
      "նախաձ": 1724,
      "##զում": 1725,
      "##արյանը": 1726,
      "##անն": 1727,
      "որն": 1728,
      "դեպք": 1729,
      "դիտ": 1730,
      "Ֆրանսի": 1731,
      "ել": 1732,
      "##պեր": 1733,
      "24": 1734,
      "քաղաքացի": 1735,
      "կլինի": 1736,
      "մայր": 1737,
      "##եփական": 1738,
      "ֆինանս": 1739,
      "նվազ": 1740,
      "##եկան": 1741,
      "վարչության": 1742,
      "23": 1743,
      "շենք": 1744,
      "##շի": 1745,
      "##ոյի": 1746,
      "հոդվածի": 1747,
      "վկայ": 1748,
      "##պիսի": 1749,
      "հայր": 1750,
      "հարձ": 1751,
      "ցեր": 1752,
      "##ժմ": 1753,
      "հիմնական": 1754,
      "մայի": 1755,
      "գազ": 1756,
      "հաղթ": 1757,
      "##եղաս": 1758,
      "նավ": 1759,
      "բանկ": 1760,
      "արգել": 1761,
      "##եին": 1762,
      "Խաչ": 1763,
      "Դավ": 1764,
      "##ոջ": 1765,
      "22": 1766,
      "եք": 1767,
      "».": 1768,
      "կիրառ": 1769,
      "##ախոս": 1770,
      "սեփական": 1771,
      "երեխան": 1772,
      "##ոկտեմբերի": 1773,
      "##եքս": 1774,
      "ռուսական": 1775,
      "Հայաստանը": 1776,
      "##in": 1777,
      "կատարել": 1778,
      "##աքս": 1779,
      "##ադառն": 1780,
      "մարդկանց": 1781,
      "համագործակցության": 1782,
      "մանրամ": 1783,
      "հանցագործ": 1784,
      "ցերեկը": 1785,
      "նոյ": 1786,
      "կալ": 1787,
      "##en": 1788,
      "ներկայացրել": 1789,
      "ծառայության": 1790,
      "Ավելի": 1791,
      "##ագիրը": 1792,
      "##աբաթ": 1793,
      "##ուսի": 1794,
      "##ություններով": 1795,
      "լինի": 1796,
      "##es": 1797,
      "##րահ": 1798,
      "առաջնորդ": 1799,
      "կոմիտ": 1800,
      "մյուս": 1801,
      "Մոսկ": 1802,
      "##րիգ": 1803,
      "ստորագր": 1804,
      "խորհրդար": 1805,
      "արձանագր": 1806,
      "վիրավոր": 1807,
      "երիտասարդ": 1808,
      "Ինչպես": 1809,
      "թող": 1810,
      "որով": 1811,
      "փաստաթ": 1812,
      "##ուդ": 1813,
      "##եթ": 1814,
      "Իսկ": 1815,
      "օգն": 1816,
      "##չության": 1817,
      "##երթի": 1818,
      "տալիս": 1819,
      "վճար": 1820,
      "չեմ": 1821,
      "պահպան": 1822,
      "##տար": 1823,
      "##ետեւ": 1824,
      "հաջող": 1825,
      "նախաձեռն": 1826,
      "առավել": 1827,
      "շարժ": 1828,
      "##ընդ": 1829,
      "##լին": 1830,
      "տակ": 1831,
      "Ման": 1832,
      "##ումից": 1833,
      "##ենա": 1834,
      "Փաշինյանը": 1835,
      "##երս": 1836,
      "##ոշոր": 1837,
      "Պետ": 1838,
      "Սիր": 1839,
      "կրթ": 1840,
      "հարցը": 1841,
      "##գործ": 1842,
      "Իրանի": 1843,
      "##ոցիալ": 1844,
      "##ցի": 1845,
      "##ագիտական": 1846,
      "##եկտեմբերի": 1847,
      "Հակ": 1848,
      "արել": 1849,
      "ասում": 1850,
      "ամիս": 1851,
      "խորհրդի": 1852,
      "վաճառ": 1853,
      "##ակցությունը": 1854,
      "##ադատ": 1855,
      "Արտ": 1856,
      "վստահ": 1857,
      "##ույս": 1858,
      "##ահայտ": 1859,
      "լինելու": 1860,
      "հրամ": 1861,
      "երկրորդ": 1862,
      "վարորդ": 1863,
      "երկար": 1864,
      "անձանց": 1865,
      "թվականին": 1866,
      "ցույց": 1867,
      "ողջ": 1868,
      "Հարություն": 1869,
      "##on": 1870,
      "ունեցած": 1871,
      "):": 1872,
      "Սակայն": 1873,
      "դաս": 1874,
      "##ոնը": 1875,
      "դժ": 1876,
      "արտադր": 1877,
      "փրկարար": 1878,
      "##անման": 1879,
      "##ություններից": 1880,
      "մարտի": 1881,
      "տղամարդ": 1882,
      "Չին": 1883,
      "ծանր": 1884,
      "),": 1885,
      "գրանց": 1886,
      "##ացնելու": 1887,
      "արտաքին": 1888,
      "շաբաթ": 1889,
      "տուժ": 1890,
      "գաղ": 1891,
      "հիվանդանոց": 1892,
      "##եւս": 1893,
      "##վան": 1894,
      "տեղեկատվ": 1895,
      "տարածքում": 1896,
      "##երտ": 1897,
      "հանգ": 1898,
      "ծն": 1899,
      "Գրիգ": 1900,
      "##աքր": 1901,
      "անդր": 1902,
      "մարդու": 1903,
      "նախարարության": 1904,
      "մեղադր": 1905,
      "տնօրեն": 1906,
      "Մարտ": 1907,
      "մարմին": 1908,
      "##իկական": 1909,
      "##ովի": 1910,
      "ընդդիմ": 1911,
      "##բյուր": 1912,
      "զինվոր": 1913,
      "Պար": 1914,
      "ական": 1915,
      "երթ": 1916,
      "լրատվ": 1917,
      "ուսում": 1918,
      "##նես": 1919,
      "ինչը": 1920,
      "այցել": 1921,
      "կրկ": 1922,
      "##առակ": 1923,
      "եզ": 1924,
      "ունեցող": 1925,
      "իրավունքների": 1926,
      "ապրիլի": 1927,
      "##ասեն": 1928,
      "ժամկետ": 1929,
      "##ուպ": 1930,
      "##յուսիս": 1931,
      "մակարդ": 1932,
      "օպեր": 1933,
      "##ավետ": 1934,
      "վերահ": 1935,
      "##ակազմ": 1936,
      "դադար": 1937,
      "ընկերության": 1938,
      "ընդունել": 1939,
      "100": 1940,
      "##ծառայ": 1941,
      "##ատիվ": 1942,
      "##եռնային": 1943,
      "##կար": 1944,
      "տրամադր": 1945,
      "միջոցով": 1946,
      "##րեց": 1947,
      "սոցիալ": 1948,
      "##ներգ": 1949,
      "լինել": 1950,
      "զանգ": 1951,
      "մասնակից": 1952,
      "Սարգսյանը": 1953,
      "##ենքի": 1954,
      "Երեւան": 1955,
      "##ություններում": 1956,
      "Հովհան": 1957,
      "##ողները": 1958,
      "##ոլոգ": 1959,
      "##երթը": 1960,
      "##առավար": 1961,
      "կասկած": 1962,
      "աստ": 1963,
      "պաշտոնական": 1964,
      "հարձակ": 1965,
      "##իռ": 1966,
      "յուր": 1967,
      "մայիսի": 1968,
      "Սերժ": 1969,
      "գալ": 1970,
      "հակամարտ": 1971,
      "խոր": 1972,
      "##աստանի": 1973,
      "առեւ": 1974,
      "##աքաղաք": 1975,
      "##անյանը": 1976,
      "##այից": 1977,
      "հարուց": 1978,
      "խոշոր": 1979,
      "ահաբեկ": 1980,
      "##ատն": 1981,
      "##ապնդ": 1982,
      "Մար": 1983,
      "ուղղված": 1984,
      "սեպտեմբերի": 1985,
      "##րամփ": 1986,
      "նոյեմբերի": 1987,
      "Թրամփ": 1988,
      "Գրիգոր": 1989,
      "##իկայի": 1990,
      "Ընդ": 1991,
      "գտ": 1992,
      "հունիսի": 1993,
      "##ափակ": 1994,
      "մարդիկ": 1995,
      "վարկ": 1996,
      "##ություններն": 1997,
      "կետ": 1998,
      "չկա": 1999,
      "մասնավորապես": 2000,
      "մեղադրանք": 2001,
      "բախ": 2002,
      "բաժան": 2003,
      "ադրբեջանական": 2004,
      "##նախարար": 2005,
      "տարին": 2006,
      "նախագծ": 2007,
      "27": 2008,
      "##վեր": 2009,
      "թեկնածու": 2010,
      "հոկտեմբերի": 2011,
      "դիվ": 2012,
      "Իսրայ": 2013,
      "ցեղաս": 2014,
      "##շկական": 2015,
      "հիշ": 2016,
      "ազդ": 2017,
      "##անիայի": 2018,
      "սկսել": 2019,
      "փետր": 2020,
      "հատկ": 2021,
      "արդար": 2022,
      "երեկ": 2023,
      "Հր": 2024,
      "26": 2025,
      "Անդր": 2026,
      "դեկտեմբերի": 2027,
      "##ողության": 2028,
      "Հուն": 2029,
      "դրանք": 2030,
      "անում": 2031,
      "շրջանում": 2032,
      "##ավալ": 2033,
      "վտանգ": 2034,
      "դպրոց": 2035,
      "պահին": 2036,
      "գումար": 2037,
      "փակ": 2038,
      "հետև": 2039,
      "բացառ": 2040,
      "քարտուղ": 2041,
      "Սուր": 2042,
      "##ազոտ": 2043,
      "##իդ": 2044,
      "##եմբեր": 2045,
      "քվե": 2046,
      "ամս": 2047,
      "շտ": 2048,
      "գործով": 2049,
      "հենց": 2050,
      "օրենսգր": 2051,
      "նշված": 2052,
      "##անկար": 2053,
      "##ԱՏ": 2054,
      "կարծում": 2055,
      "ռե": 2056,
      "լրագրողների": 2057,
      "կերպ": 2058,
      "դատապարտ": 2059,
      "վարչական": 2060,
      "խմբակցության": 2061,
      "արդյունք": 2062,
      "մասնակցել": 2063,
      "հարաբերությունների": 2064,
      "համատեղ": 2065,
      "շրջանակներում": 2066,
      "##ադեպ": 2067,
      "##ակցությամբ": 2068,
      "##ter": 2069,
      "զինծառայ": 2070,
      "Լեռնային": 2071,
      "հիմա": 2072,
      "##աթիվ": 2073,
      "Վար": 2074,
      "##որտի": 2075,
      "սպառ": 2076,
      "տեղափոխվել": 2077,
      "##ինական": 2078,
      "##ողի": 2079,
      "նախագահը": 2080,
      "ակն": 2081,
      "##ավեր": 2082,
      "կարելի": 2083,
      "##ակատար": 2084,
      "հանրապետ": 2085,
      "տան": 2086,
      "հանձնաժողովի": 2087,
      "երկիր": 2088,
      "Որ": 2089,
      "ձեռնարկ": 2090,
      "սպառն": 2091,
      "այսօրվա": 2092,
      "հնարավորություն": 2093,
      "##ոսյանը": 2094,
      "որոշում": 2095,
      "արագ": 2096,
      "անուն": 2097,
      "էջ": 2098,
      "##դանավ": 2099,
      "հարցում": 2100,
      "##ավայր": 2101,
      "Այսօր": 2102,
      "##աշխարհ": 2103,
      "մակնի": 2104,
      "##or": 2105,
      "դիմել": 2106,
      "կառավարման": 2107,
      "փոք": 2108,
      "##ադրամ": 2109,
      "նյութ": 2110,
      "դարձել": 2111,
      "Արթ": 2112,
      "ՄԱԿ": 2113,
      "խոստ": 2114,
      "կանգ": 2115,
      "չուն": 2116,
      "##գրես": 2117,
      "##ce": 2118,
      "##իրակ": 2119,
      "խմբի": 2120,
      "Ին": 2121,
      "որում": 2122,
      "հուլիսի": 2123,
      "Ժողով": 2124,
      "դիրք": 2125,
      "##al": 2126,
      "##ումով": 2127,
      "վնասվածք": 2128,
      "խումբ": 2129,
      "ՀՀԿ": 2130,
      "կազմել": 2131,
      "##անավոր": 2132,
      "Արար": 2133,
      "Մեծ": 2134,
      "##արժեք": 2135,
      "դադարեց": 2136,
      "պայմանավորված": 2137,
      "դրանց": 2138,
      "գտնվում": 2139,
      "28": 2140,
      "Գյ": 2141,
      "Երեւանում": 2142,
      "##ենտ": 2143,
      "##աշխարհային": 2144,
      "##ենտրոն": 2145,
      "##աչափ": 2146,
      "հաճ": 2147,
      "առաջադր": 2148,
      "հետախ": 2149,
      "##ոստոսի": 2150,
      "##իճակի": 2151,
      "ուժերի": 2152,
      "մակնիշի": 2153,
      "##ագրի": 2154,
      "հանգամ": 2155,
      "նահանգ": 2156,
      "Արդ": 2157,
      "ամերիկ": 2158,
      "ընկ": 2159,
      "##ազոր": 2160,
      "հունվարի": 2161,
      "##աֆ": 2162,
      "սոցիալական": 2163,
      "Հակոբ": 2164,
      "Գերմ": 2165,
      "##ատու": 2166,
      "ապօր": 2167,
      "##եւել": 2168,
      "մահացել": 2169,
      "թղթ": 2170,
      "գործակալ": 2171,
      "Վահ": 2172,
      "##րած": 2173,
      "գործում": 2174,
      "պատժ": 2175,
      "հանդիպման": 2176,
      "##աստան": 2177,
      "##իլի": 2178,
      "ուզում": 2179,
      "##աքել": 2180,
      "##ողներին": 2181,
      "կատարելու": 2182,
      "Հայոց": 2183,
      "անկախ": 2184,
      "լուս": 2185,
      "բացահայտ": 2186,
      "##երձ": 2187,
      "ավտոմեքենան": 2188,
      "ոլորտում": 2189,
      "Ուկրաինայի": 2190,
      "##անչ": 2191,
      "կտր": 2192,
      "##րանսպ": 2193,
      "##ar": 2194,
      "վերահսկ": 2195,
      "ծառայությունից": 2196,
      "դատարանի": 2197,
      "##անալ": 2198,
      "օդանավ": 2199,
      "##ատակարար": 2200,
      "##անային": 2201,
      "բուժ": 2202,
      "##ստեղ": 2203,
      "Դա": 2204,
      "##գտ": 2205,
      "Սահման": 2206,
      "ընդգծել": 2207,
      "սա": 2208,
      "##յուջ": 2209,
      "##մի": 2210,
      "սիր": 2211,
      "առկա": 2212,
      "##ագայում": 2213,
      "հարված": 2214,
      "##ակոչ": 2215,
      "##իգրան": 2216,
      "Վրաստանի": 2217,
      "միլիոն": 2218,
      "50": 2219,
      "չենք": 2220,
      "դատավոր": 2221,
      "Պուտ": 2222,
      "դիմաց": 2223,
      "վերական": 2224,
      "##յունի": 2225,
      "##ավարական": 2226,
      "##oo": 2227,
      "##իկա": 2228,
      "Տիգրան": 2229,
      "##ոնավիր": 2230,
      "##աքրք": 2231,
      "հեռուստ": 2232,
      "տարեկան": 2233,
      "##նասիր": 2234,
      "Բայց": 2235,
      "հրաման": 2236,
      "##ագն": 2237,
      "ժողովրդի": 2238,
      "հայտնաբերվել": 2239,
      "##անտ": 2240,
      "##ացում": 2241,
      "կուն": 2242,
      "##չապետ": 2243,
      "գրասեն": 2244,
      "##եբ": 2245,
      "##աշն": 2246,
      "արձագ": 2247,
      "ծրագրի": 2248,
      "աղբյուր": 2249,
      "##րորդ": 2250,
      "31": 2251,
      "##ոյանը": 2252,
      "Վերջ": 2253,
      "##րբ": 2254,
      "պայթ": 2255,
      "##անցի": 2256,
      "բազմաթիվ": 2257,
      "##եւան": 2258,
      "շարունակում": 2259,
      "Նով": 2260,
      "իշխանությունները": 2261,
      "Պատ": 2262,
      "նախատեսված": 2263,
      "##եմատ": 2264,
      "երկրում": 2265,
      "ինքը": 2266,
      "փետրվարի": 2267,
      "##ացումը": 2268,
      "տր": 2269,
      "##անապարհ": 2270,
      "դեպքի": 2271,
      "##մար": 2272,
      "##ագա": 2273,
      "##որս": 2274,
      "##րդեհ": 2275,
      "##ստակ": 2276,
      "բերել": 2277,
      "##ունքի": 2278,
      "Արթուր": 2279,
      "##ԱՍ": 2280,
      "կազմում": 2281,
      "29": 2282,
      "արժեք": 2283,
      "նվիր": 2284,
      "հետախուզ": 2285,
      "նստ": 2286,
      "բողո": 2287,
      "##ակցի": 2288,
      "հանդես": 2289,
      "ԱԳՆ": 2290,
      "առանձն": 2291,
      "Քաղաք": 2292,
      "աշխատանքի": 2293,
      "##ադրական": 2294,
      "դիվան": 2295,
      "անմ": 2296,
      "վերադարձ": 2297,
      "սահմաններում": 2298,
      "ովքեր": 2299,
      "Երկ": 2300,
      "կապակցությամբ": 2301,
      "կանոն": 2302,
      "ցանկանում": 2303,
      "##իճան": 2304,
      "Առաջ": 2305,
      "լուրջ": 2306,
      "կտ": 2307,
      "##it": 2308,
      "միաս": 2309,
      "մանրամասն": 2310,
      "ներառ": 2311,
      "Մին": 2312,
      "Ներ": 2313,
      "199": 2314,
      "##արյանի": 2315,
      "որդ": 2316,
      "##ԻԱ": 2317,
      "մշտ": 2318,
      "բժշկական": 2319,
      "օրենսգրքի": 2320,
      "##լադ": 2321,
      "##եցրել": 2322,
      "Էդ": 2323,
      "ասվում": 2324,
      "շին": 2325,
      "##ոճ": 2326,
      "պայքար": 2327,
      "##at": 2328,
      "##ալիք": 2329,
      "հաղորդագր": 2330,
      "ծր": 2331,
      "նախորդ": 2332,
      "համալս": 2333,
      "Ղարաբաղի": 2334,
      "հեր": 2335,
      "մլրդ": 2336,
      "Մոսկվ": 2337,
      "քար": 2338,
      "##գրավ": 2339,
      "40": 2340,
      "ստացվել": 2341,
      "##ազանգ": 2342,
      "հանգամանք": 2343,
      "##գի": 2344,
      "փոքր": 2345,
      "ինձ": 2346,
      "հարցերի": 2347,
      "բաժնի": 2348,
      "ԼՂ": 2349,
      "##ռչ": 2350,
      "թերթի": 2351,
      "թուրքական": 2352,
      "##տրական": 2353,
      "##եղեց": 2354,
      "թիվը": 2355,
      "ԱԻ": 2356,
      "##ացող": 2357,
      "Կառավար": 2358,
      "հետազոտ": 2359,
      "Քոչ": 2360,
      "##վազ": 2361,
      "հաճախ": 2362,
      "##յակի": 2363,
      "փուլ": 2364,
      "հայտարարեց": 2365,
      "դատական": 2366,
      "##գնաժամ": 2367,
      "##եւի": 2368,
      "հի": 2369,
      "Աս": 2370,
      "Խաչատր": 2371,
      "Ոստիկանության": 2372,
      "հետաքրք": 2373,
      "ապօրինի": 2374,
      "կոմիտեի": 2375,
      "##րակ": 2376,
      "հստակ": 2377,
      "ուսումնասիր": 2378,
      "ռեժ": 2379,
      "Դավիթ": 2380,
      "ծախ": 2381,
      "մեքենան": 2382,
      "կառույց": 2383,
      "վերաբերում": 2384,
      "փաստաթղթ": 2385,
      "արդյունավետ": 2386,
      "տեղակալ": 2387,
      "մասի": 2388,
      "Փաշինյանի": 2389,
      "##աքանչ": 2390,
      "##իկի": 2391,
      "քննարկել": 2392,
      "իշխանության": 2393,
      "որովհ": 2394,
      "չէր": 2395,
      "կլին": 2396,
      "##աքանչյուր": 2397,
      "ինտ": 2398,
      "##ադրության": 2399,
      "կորոնավիր": 2400,
      "##անելի": 2401,
      "##ովոր": 2402,
      "շրջանակում": 2403,
      "դեպի": 2404,
      "##et": 2405,
      "000": 2406,
      "##ավորում": 2407,
      "##ահակ": 2408,
      "Բրիտ": 2409,
      "իրենք": 2410,
      "գույ": 2411,
      "հրավիր": 2412,
      "##սկի": 2413,
      "չունի": 2414,
      "##ականի": 2415,
      "##ադի": 2416,
      "##ակա": 2417,
      "Սարգսյանի": 2418,
      "էլեկ": 2419,
      "օպերատիվ": 2420,
      "##el": 2421,
      "նչ": 2422,
      "##թիվ": 2423,
      "##թար": 2424,
      "պլ": 2425,
      "##իշտ": 2426,
      "Օր": 2427,
      "խորհրդարանական": 2428,
      "ապրանք": 2429,
      "Ալեքս": 2430,
      "փոխանցում": 2431,
      "գործողությունների": 2432,
      "կայուն": 2433,
      "##նիս": 2434,
      "2020": 2435,
      "Բացի": 2436,
      "պատասխանատվ": 2437,
      "պնդ": 2438,
      "ինչի": 2439,
      "ավագ": 2440,
      "տոկոսով": 2441,
      "##ավային": 2442,
      "Հայր": 2443,
      "Էրդ": 2444,
      "Վլադ": 2445,
      "պատերազմի": 2446,
      "հոս": 2447,
      "Պետր": 2448,
      "հյուր": 2449,
      "ծախս": 2450,
      "մուտ": 2451,
      "Վան": 2452,
      "##ականը": 2453,
      "##նեն": 2454,
      "##իբ": 2455,
      "հաջորդ": 2456,
      "կառավարությունը": 2457,
      "կուսակց": 2458,
      "մեկի": 2459,
      "արձագանք": 2460,
      "##ոյան": 2461,
      "առեւտր": 2462,
      "Փաստ": 2463,
      "##ազատ": 2464,
      "Էրդող": 2465,
      "քարտուղար": 2466,
      "##ազրկ": 2467,
      "բարեկ": 2468,
      "Հովհաննիս": 2469,
      "##նայ": 2470,
      "մասով": 2471,
      "Ֆրանսիայի": 2472,
      "Դեպ": 2473,
      "լիազոր": 2474,
      "բյուջ": 2475,
      "տոն": 2476,
      "հանրային": 2477,
      "կարծի": 2478,
      "կարևոր": 2479,
      "ամր": 2480,
      "հիմնադրամ": 2481,
      "օգոստոսի": 2482,
      "##անշ": 2483,
      "Նրանք": 2484,
      "բավարար": 2485,
      "Ըն": 2486,
      "Կենտրոն": 2487,
      "գյուղի": 2488,
      "ակց": 2489,
      "համաշխարհային": 2490,
      "քաղաքում": 2491,
      "##ատուց": 2492,
      "##այել": 2493,
      "երեխ": 2494,
      "##անան": 2495,
      "##եւմ": 2496,
      "վերց": 2497,
      "այժմ": 2498,
      "##նակի": 2499,
      "Իրան": 2500,
      "##աթիռ": 2501,
      "պարտավոր": 2502,
      "Թուրքիան": 2503,
      "վատ": 2504,
      "##ԱՀԿ": 2505,
      "Բաք": 2506,
      "##պիտ": 2507,
      "Ստեփ": 2508,
      "##իծը": 2509,
      "Գյում": 2510,
      "մասը": 2511,
      "մեկնել": 2512,
      "մարտական": 2513,
      "դառն": 2514,
      "փորձում": 2515,
      "փոխար": 2516,
      "##կոն": 2517,
      "ՆԱՏ": 2518,
      "##չի": 2519,
      "զինված": 2520,
      "տեխնոլոգ": 2521,
      "տրանսպ": 2522,
      "ուղեւոր": 2523,
      "ՆԱՏՕ": 2524,
      "հանդիս": 2525,
      "պատվիրակ": 2526,
      "##om": 2527,
      "##ութային": 2528,
      "Ալի": 2529,
      "օրինակ": 2530,
      "ծան": 2531,
      "Բել": 2532,
      "գող": 2533,
      "##ագծ": 2534,
      "##որհուրդ": 2535,
      "##կալ": 2536,
      "այնպես": 2537,
      "վարչապետի": 2538,
      "օրենքի": 2539,
      "տվյալներով": 2540,
      "##քից": 2541,
      "նախարարի": 2542,
      "##մունք": 2543,
      "Ռո": 2544,
      "մայրաքաղաք": 2545,
      "դժվար": 2546,
      "Գագ": 2547,
      "գործերի": 2548,
      "Սահակ": 2549,
      "համակարգի": 2550,
      "2018": 2551,
      "##իմիր": 2552,
      "Միջ": 2553,
      "##ազգ": 2554,
      "##թն": 2555,
      "փախ": 2556,
      "հեռախոս": 2557,
      "իրավիճակը": 2558,
      "գործի": 2559,
      "ելույթ": 2560,
      "ջանք": 2561,
      "ծավալ": 2562,
      "##արկի": 2563,
      "Վարդան": 2564,
      "Կոր": 2565,
      "հղ": 2566,
      "զինվորական": 2567,
      "Աղ": 2568,
      "##ացույց": 2569,
      "հայտնվել": 2570,
      "##ինքն": 2571,
      "Ադրբեջանը": 2572,
      "##ավոտ": 2573,
      "օրվա": 2574,
      "##եյս": 2575,
      "օրակարգ": 2576,
      "ապր": 2577,
      "##ակառ": 2578,
      "զոհվել": 2579,
      "թերթը": 2580,
      "թաղ": 2581,
      "##նշ": 2582,
      "##աբանական": 2583,
      "Վլադիմիր": 2584,
      "##տնի": 2585,
      "ստիպ": 2586,
      "գործունեության": 2587,
      "միջնորդ": 2588,
      "ԵԱՀԿ": 2589,
      "##իի": 2590,
      "կրակ": 2591,
      "հերթական": 2592,
      "ՌԻԱ": 2593,
      "որոշումը": 2594,
      "##ահավ": 2595,
      "##ահատված": 2596,
      "դոլարի": 2597,
      "աշխարհի": 2598,
      "Նովոստ": 2599,
      "ջր": 2600,
      "աշխատանքային": 2601,
      "Առավել": 2602,
      "ռեժիմ": 2603,
      "##եներ": 2604,
      "էներգ": 2605,
      "ժողովուրդ": 2606,
      "համայնքի": 2607,
      "Արմ": 2608,
      "##ապատրաստ": 2609,
      "Հիմ": 2610,
      "##քերի": 2611,
      "Վերջին": 2612,
      "##ատեր": 2613,
      "էջում": 2614,
      "##ասխ": 2615,
      "##ակետ": 2616,
      "հեղինակ": 2617,
      "պետության": 2618,
      "##աբթի": 2619,
      "վկայակոչ": 2620,
      "ուղարկ": 2621,
      "տուն": 2622,
      "##ատոր": 2623,
      "առթիվ": 2624,
      "կեղծ": 2625,
      "Աշ": 2626,
      "գոտ": 2627,
      "ընտրությունների": 2628,
      "յուրաքանչյուր": 2629,
      "##ստիտ": 2630,
      "առնչ": 2631,
      "ենթարկել": 2632,
      "##իայում": 2633,
      "բավական": 2634,
      "##լայն": 2635,
      "ընկերությունը": 2636,
      "##աշեն": 2637,
      "դաշին": 2638,
      "քաղաքացիական": 2639,
      "անել": 2640,
      "արդյ": 2641,
      "##եփոխ": 2642,
      "##ոնալ": 2643,
      "ցանկացած": 2644,
      "սր": 2645,
      "զենք": 2646,
      "ահազանգ": 2647,
      "##իզնես": 2648,
      "##այով": 2649,
      "##ելուց": 2650,
      "առաջն": 2651,
      "գծ": 2652,
      "կարգավորման": 2653,
      "##ովին": 2654,
      "տեղեկացրել": 2655,
      "Կարեն": 2656,
      "քաղաքացիների": 2657,
      "##ացիայի": 2658,
      "ճգնաժամ": 2659,
      "##առանգ": 2660,
      "կո": 2661,
      "35": 2662,
      "##րախ": 2663,
      "##ադառնալով": 2664,
      "ունենք": 2665,
      "##ավորել": 2666,
      "ինստիտ": 2667,
      "ամերիկյան": 2668,
      "հուշ": 2669,
      "բարեփոխ": 2670,
      "եվրոպ": 2671,
      "##կայում": 2672,
      "նույնպես": 2673,
      "##աքննության": 2674,
      "##քային": 2675,
      "մեկնաբան": 2676,
      "##արանում": 2677,
      "ատ": 2678,
      "##ստանի": 2679,
      "Սյունի": 2680,
      "##իսին": 2681,
      "հաշվարկ": 2682,
      "##անալու": 2683,
      "##ինք": 2684,
      "ամուս": 2685,
      "դրան": 2686,
      "##ոճանապարհ": 2687,
      "Կարապետ": 2688,
      "##ենայի": 2689,
      "հարցին": 2690,
      "մատակարար": 2691,
      "##անյութ": 2692,
      "կնոջ": 2693,
      "տեղեկացնում": 2694,
      "օդ": 2695,
      "կենս": 2696,
      "չհ": 2697,
      "շփ": 2698,
      "ավտոճանապարհ": 2699,
      "իշխանությունների": 2700,
      "##աժամանակ": 2701,
      "##ազանց": 2702,
      "ինք": 2703,
      "Արամ": 2704,
      "##նայած": 2705,
      "##եւը": 2706,
      "վկայակոչելով": 2707,
      "##..": 2708,
      "##այրի": 2709,
      "Գագիկ": 2710,
      "ՀԱ": 2711,
      "քիչ": 2712,
      "հակառակ": 2713,
      "որից": 2714,
      "հաշվի": 2715,
      "տասն": 2716,
      "ազդեց": 2717,
      "##բերտ": 2718,
      "հերթին": 2719,
      "Իմ": 2720,
      "Սամ": 2721,
      "հասարակական": 2722,
      "ջերմ": 2723,
      "##եցնել": 2724,
      "խորհուրդ": 2725,
      "##ադատության": 2726,
      "մանկ": 2727,
      "նշում": 2728,
      "լս": 2729,
      "սարք": 2730,
      "հարցեր": 2731,
      "այնտեղ": 2732,
      "նույնիսկ": 2733,
      "համեմատ": 2734,
      "արար": 2735,
      "##յուսիսային": 2736,
      "Ռուսաստանը": 2737,
      "Քնն": 2738,
      "Լուս": 2739,
      "##am": 2740,
      "դրամով": 2741,
      "հայտնաբերել": 2742,
      "նկար": 2743,
      "պարբեր": 2744,
      "աշխատում": 2745,
      "Տար": 2746,
      "կազմակերպության": 2747,
      "Գեղ": 2748,
      "Մասն": 2749,
      "արտահայտ": 2750,
      "##շն": 2751,
      "կդ": 2752,
      "##եմբերին": 2753,
      "դատարան": 2754,
      "արձակ": 2755,
      "սովոր": 2756,
      "Մինչ": 2757,
      "##շաբթի": 2758,
      "ֆոտ": 2759,
      "դեր": 2760,
      "զեկ": 2761,
      "Ժողովուրդ": 2762,
      "Բաղ": 2763,
      "##իշկ": 2764,
      "կենտրոնի": 2765,
      "մարզում": 2766,
      "հատկապես": 2767,
      "##եթե": 2768,
      "այստեղ": 2769,
      "##ավի": 2770,
      "##ահայ": 2771,
      "լրատվամիջոց": 2772,
      "Գեւոր": 2773,
      "ձայն": 2774,
      "##ողը": 2775,
      "բաժին": 2776,
      "##he": 2777,
      "մասնագետ": 2778,
      "հրդեհ": 2779,
      "եղբ": 2780,
      "բերման": 2781,
      "##ատական": 2782,
      "##ատնտես": 2783,
      "##անակը": 2784,
      "##ունդ": 2785,
      "ԱԻՆ": 2786,
      "նախարարը": 2787,
      "դեռեւս": 2788,
      "իրավական": 2789,
      "Պաշտ": 2790,
      "##թիռ": 2791,
      "##ճատ": 2792,
      "այցելել": 2793,
      "##քերը": 2794,
      "նպաստ": 2795,
      "հակամարտության": 2796,
      "Գյումրի": 2797,
      "պաշտոնյան": 2798,
      "լրաց": 2799,
      "բիզնես": 2800,
      "##պանի": 2801,
      "##աժողովի": 2802,
      "հույս": 2803,
      "համոզ": 2804,
      "փորձագետ": 2805,
      "ստուգ": 2806,
      "մաքս": 2807,
      "Դեպքի": 2808,
      "կկ": 2809,
      "հնչ": 2810,
      "##աշարժ": 2811,
      "մոտեց": 2812,
      "Բար": 2813,
      "Կան": 2814,
      "անվան": 2815,
      "##ոռուպ": 2816,
      "##ակով": 2817,
      "բողոքի": 2818,
      "շենքի": 2819,
      "Գեւորգ": 2820,
      "զբոս": 2821,
      "եռ": 2822,
      "##ացյալ": 2823,
      "##որտային": 2824,
      "դիրքորոշ": 2825,
      "##ահոգ": 2826,
      "##ԱՍՍ": 2827,
      "եկամ": 2828,
      "կին": 2829,
      "կես": 2830,
      "##կաս": 2831,
      "առաքել": 2832,
      "ՏԱՍՍ": 2833,
      "##իները": 2834,
      "ֆինանսական": 2835,
      "##le": 2836,
      "հիշեց": 2837,
      "խմ": 2838,
      "Ապ": 2839,
      "##ասյանը": 2840,
      "##աղթ": 2841,
      "%-": 2842,
      "##ամական": 2843,
      "##սեն": 2844,
      "որոշակի": 2845,
      "ներգրավ": 2846,
      "որոշել": 2847,
      "որովհետեւ": 2848,
      "ներկա": 2849,
      "ներքին": 2850,
      "ինստիտուտ": 2851,
      "միջին": 2852,
      "Արաբ": 2853,
      "ենթարկվել": 2854,
      "##այք": 2855,
      "մինչև": 2856,
      "##անդիպ": 2857,
      "Մարդ": 2858,
      "ԲՀԿ": 2859,
      "##արմ": 2860,
      "Շիր": 2861,
      "թափ": 2862,
      "##ապահության": 2863,
      "հայտարարության": 2864,
      "փոխանցմամբ": 2865,
      "աղջ": 2866,
      "ենթադր": 2867,
      "Հարավային": 2868,
      "ցեղասպանության": 2869,
      "ՊՆ": 2870,
      "պայմաններում": 2871,
      "բախվել": 2872,
      "թիմ": 2873,
      "սխ": 2874,
      "##արկում": 2875,
      "##ելիք": 2876,
      "քաղաքականության": 2877,
      "իրականացման": 2878,
      "լայն": 2879,
      "##ացավ": 2880,
      "##վեցին": 2881,
      "##աբաժ": 2882,
      "կրկին": 2883,
      "հարակից": 2884,
      "ստեղծել": 2885,
      "վիճակը": 2886,
      "ժողովի": 2887,
      "ազգ": 2888,
      "դատարանը": 2889,
      "##ընթաց": 2890,
      "##ստի": 2891,
      "##անդակ": 2892,
      "Երևանի": 2893,
      "##ակազմի": 2894,
      "առումով": 2895,
      "կունենա": 2896,
      "թմ": 2897,
      "զանգված": 2898,
      "Ռուբ": 2899,
      "հասել": 2900,
      "ներք": 2901,
      "հազ": 2902,
      "Հետ": 2903,
      "գազի": 2904,
      "շուկ": 2905,
      "2016": 2906,
      "ժամանակահատված": 2907,
      "հայրեն": 2908,
      "փողոցի": 2909,
      "արտակարգ": 2910,
      "Սյունիքի": 2911,
      "##ուխ": 2912,
      "տուժած": 2913,
      "Հայկ": 2914,
      "Ավետ": 2915,
      "տոկոսը": 2916,
      "նախարարությունը": 2917,
      "կգ": 2918,
      "կալանավոր": 2919,
      "##երկր": 2920,
      "հետաքրքր": 2921,
      "Կոն": 2922,
      "##հարկ": 2923,
      "Աշոտ": 2924,
      "##անձ": 2925,
      "ծեծ": 2926,
      "խորհրդարանի": 2927,
      "Նախագահ": 2928,
      "շրջանի": 2929,
      "պատժամիջոց": 2930,
      "ունենալ": 2931,
      "կատարված": 2932,
      "##անակի": 2933,
      "կյանքի": 2934,
      "հանդիպել": 2935,
      "պահանջում": 2936,
      "հրամանատար": 2937,
      "անդրադարձ": 2938,
      "Հարց": 2939,
      "պատկեր": 2940,
      "Կոտ": 2941,
      "##ացու": 2942,
      "##ինե": 2943,
      "երրորդ": 2944,
      "##այքի": 2945,
      "##ետի": 2946,
      "##ՈՒ": 2947,
      "իս": 2948,
      "օրերին": 2949,
      "##ամենը": 2950,
      "արդյոք": 2951,
      "առնելով": 2952,
      "2015": 2953,
      "##խոս": 2954,
      "ընդլայն": 2955,
      "Ժամ": 2956,
      "հեռուստա": 2957,
      "կող": 2958,
      "##ուհի": 2959,
      "ճնշ": 2960,
      "##լանդ": 2961,
      "նշանակում": 2962,
      "##ՊՀ": 2963,
      "##ուսափ": 2964,
      "գործիչ": 2965,
      "բնական": 2966,
      "մտած": 2967,
      "ԱԱ": 2968,
      "նիստում": 2969,
      "##խտ": 2970,
      "##ավուշ": 2971,
      "##ur": 2972,
      "##ew": 2973,
      "##ակների": 2974,
      "անձնական": 2975,
      "Սուրբ": 2976,
      "հաստատել": 2977,
      "առն": 2978,
      "սահմանափակ": 2979,
      "Ամեն": 2980,
      "##եյսբ": 2981,
      "առավոտ": 2982,
      "հետագա": 2983,
      "ծառայությունը": 2984,
      "գալիս": 2985,
      "եվրոպական": 2986,
      "##լուծ": 2987,
      "գնում": 2988,
      "գոյ": 2989,
      "մարզպետ": 2990,
      "Եղ": 2991,
      "##ոնական": 2992,
      "հանձ": 2993,
      "ծնված": 2994,
      "աշխատել": 2995,
      "փորձել": 2996,
      "խնդիրը": 2997,
      "տարածքային": 2998,
      "2017": 2999,
      "##րահամ": 3000,
      "##ականների": 3001,
      "միջադեպ": 3002,
      "ձերբակալվել": 3003,
      "հող": 3004,
      "ուժեղ": 3005,
      "գրեթե": 3006,
      "տեղում": 3007,
      "հարցերով": 3008,
      "կրթության": 3009,
      "քվեարկ": 3010,
      "Ռոբերտ": 3011,
      "##հարկե": 3012,
      "ցուցաբեր": 3013,
      "...": 3014,
      "Իսրայելի": 3015,
      "հինգ": 3016,
      "մերժ": 3017,
      "առջ": 3018,
      "անմիջ": 3019,
      "##il": 3020,
      "ամրապնդ": 3021,
      "##պատ": 3022,
      "##կի": 3023,
      "սար": 3024,
      "հավելել": 3025,
      "շարունակվում": 3026,
      "##ace": 3027,
      "Ազատ": 3028,
      "Սերգ": 3029,
      "##միր": 3030,
      "2019": 3031,
      "խաղաղության": 3032,
      "Գործ": 3033,
      "ճիշտ": 3034,
      "##հայտ": 3035,
      "ձև": 3036,
      "##ազրույց": 3037,
      "բողոք": 3038,
      "##ասար": 3039,
      "##ազան": 3040,
      "իրավապահ": 3041,
      "##ագած": 3042,
      "##իկը": 3043,
      "##եքստ": 3044,
      "##արձակ": 3045,
      "ավանդ": 3046,
      "ոչնչ": 3047,
      "Re": 3048,
      "##ավարձ": 3049,
      "ցուցանիշ": 3050,
      "բնակարան": 3051,
      "հարաբերությունները": 3052,
      "հրաժարվել": 3053,
      "օտար": 3054,
      "##ևէ": 3055,
      "օրին": 3056,
      "աճել": 3057,
      "միության": 3058,
      "հրթիռ": 3059,
      "եկեղեց": 3060,
      "տեղեկություններով": 3061,
      "աշխարհում": 3062,
      "մարմնական": 3063,
      "Ծառ": 3064,
      "սպանության": 3065,
      "##ահան": 3066,
      "մտահոգ": 3067,
      "շնորհիվ": 3068,
      "դրս": 3069,
      "ընդհ": 3070,
      "սեր": 3071,
      "որին": 3072,
      "քարոզ": 3073,
      "պալ": 3074,
      "Աբրահամ": 3075,
      "երեխաների": 3076,
      "դրական": 3077,
      "եզրակ": 3078,
      "խնդիրներ": 3079,
      "##քել": 3080,
      "Հայկական": 3081,
      "Հարությունյանը": 3082,
      "կարգավոր": 3083,
      "գործարար": 3084,
      "##ահր": 3085,
      "ազատազրկ": 3086,
      "արժան": 3087,
      "Ալեքսան": 3088,
      "խոսել": 3089,
      "ընդամենը": 3090,
      "Տեղ": 3091,
      "##ակր": 3092,
      "իրականացնել": 3093,
      "օդանավակայ": 3094,
      "##կանում": 3095,
      "##արանը": 3096,
      "##ակողմ": 3097,
      "կատարվել": 3098,
      "Չինաստանի": 3099,
      "հիման": 3100,
      "##եցնում": 3101,
      "հարուցվել": 3102,
      "##st": 3103,
      "ՆԳ": 3104,
      "կստ": 3105,
      "որոշման": 3106,
      "խնդիրների": 3107,
      "հանձնարար": 3108,
      "##ունքը": 3109,
      "Վարչապետ": 3110,
      "փաթ": 3111,
      "անձի": 3112,
      "օրենսդր": 3113,
      "ընդդիմադիր": 3114,
      "Բաբ": 3115,
      "##անու": 3116,
      "Ամերիկ": 3117,
      "##աշվի": 3118,
      "հատվածում": 3119,
      "##թարի": 3120,
      "##ահավաք": 3121,
      "Ծառուկ": 3122,
      "##աքննություն": 3123,
      "##զմ": 3124,
      "վարույթ": 3125,
      "Պարզ": 3126,
      "դաշտ": 3127,
      "##ակառուց": 3128,
      "բժիշկ": 3129,
      "##ընկեր": 3130,
      "##իտի": 3131,
      "առանձ": 3132,
      "վերականգն": 3133,
      "պրո": 3134,
      "նամ": 3135,
      "Արարատ": 3136,
      "##եական": 3137,
      "մտադիր": 3138,
      "վճ": 3139,
      "ցանց": 3140,
      "մարզային": 3141,
      "Հյուսիսային": 3142,
      "ալ": 3143,
      "պայքարի": 3144,
      "թանկ": 3145,
      "##արկման": 3146,
      "##աստի": 3147,
      "մահվան": 3148,
      "կարծիքով": 3149,
      "Արմավիր": 3150,
      "աշխատավարձ": 3151,
      "##ավորվել": 3152,
      "տեղական": 3153,
      "վերան": 3154,
      "աշխատանքները": 3155,
      "Եվրոպայի": 3156,
      "հարթ": 3157,
      "դեպքեր": 3158,
      "Թուրք": 3159,
      "ուսան": 3160,
      "Գլ": 3161,
      "հասկան": 3162,
      "բնակչության": 3163,
      "առաջադրվել": 3164,
      "##ակատ": 3165,
      "##րանից": 3166,
      "##բյ": 3167,
      "միջոցառումների": 3168,
      "բր": 3169,
      "սահմանված": 3170,
      "Մարգ": 3171,
      "##ամտ": 3172,
      "##վազն": 3173,
      "##իղ": 3174,
      "ղեկավարը": 3175,
      "շեշտ": 3176,
      "հայտնեց": 3177,
      "կրճատ": 3178,
      "##ոնդ": 3179,
      "փրկարարական": 3180,
      "փաստաբան": 3181,
      "Աշխ": 3182,
      "զր": 3183,
      "կենտրոնում": 3184,
      "2021": 3185,
      "կախ": 3186,
      "միշտ": 3187,
      "##րիստ": 3188,
      "իրադարձ": 3189,
      "տարածաշրջանում": 3190,
      "գնդ": 3191,
      "գործընթացը": 3192,
      "հսկ": 3193,
      "իրավաս": 3194,
      "տեսակի": 3195,
      "##գործնախարար": 3196,
      "մշտական": 3197,
      "Աստ": 3198,
      "թեմ": 3199,
      "սկսվել": 3200,
      "պող": 3201,
      "շինարար": 3202,
      "նախապատրաստ": 3203,
      "բեռն": 3204,
      "կիս": 3205,
      "##որում": 3206,
      "Աֆ": 3207,
      "##եսի": 3208,
      "անցել": 3209,
      "կարգավ": 3210,
      "գաղափ": 3211,
      "Լոռ": 3212,
      "ներկայացնում": 3213,
      "այնքան": 3214,
      "ուժի": 3215,
      "միջև": 3216,
      "գրանցվել": 3217,
      "##եֆ": 3218,
      "##ոլի": 3219,
      "##կայաց": 3220,
      "Լեւ": 3221,
      "անձինք": 3222,
      "Երկր": 3223,
      "##ուկային": 3224,
      "Ակ": 3225,
      "##իաների": 3226,
      "ԼՂՀ": 3227,
      "տեղադր": 3228,
      "Հանդիպ": 3229,
      "##ակն": 3230,
      "##րամի": 3231,
      "##ook": 3232,
      "նորմ": 3233,
      "##աների": 3234,
      "##որը": 3235,
      "##իչը": 3236,
      "նշելով": 3237,
      "32": 3238,
      "##ախմբ": 3239,
      "համան": 3240,
      "շնորհակալ": 3241,
      "դուք": 3242,
      "##ԵԿ": 3243,
      "##ադրան": 3244,
      "գործը": 3245,
      "ստանալ": 3246,
      "տիր": 3247,
      "##տյան": 3248,
      "##ic": 3249,
      "փոխարժեք": 3250,
      "կշ": 3251,
      "##օգն": 3252,
      "Երևան": 3253,
      "ընդգրկ": 3254,
      "սպասվում": 3255,
      "Սերգեյ": 3256,
      "Կոտայքի": 3257,
      "էինք": 3258,
      "Գերմանիայի": 3259,
      "##իկների": 3260,
      "##ուքյան": 3261,
      "##ամեն": 3262,
      "##րաձ": 3263,
      "նախկինում": 3264,
      "հանդիպում": 3265,
      "##նա": 3266,
      "աշխատանքների": 3267,
      "##ենային": 3268,
      "Կր": 3269,
      "երեւ": 3270,
      "Եվր": 3271,
      "ընտանիքի": 3272,
      "վիճակում": 3273,
      "մշակութային": 3274,
      "##ողություն": 3275,
      "##եռներում": 3276,
      "դիմում": 3277,
      "##կողմ": 3278,
      "խնդիրները": 3279,
      "սկզբունք": 3280,
      "Տավուշ": 3281,
      "եզրակաց": 3282,
      "##ենդ": 3283,
      "##ացական": 3284,
      "Սամվել": 3285,
      "որևէ": 3286,
      "պարզել": 3287,
      "Հրապարակ": 3288,
      "չգ": 3289,
      "##ագաթ": 3290,
      "զոհերի": 3291,
      "օբյ": 3292,
      "դի": 3293,
      "Նրանց": 3294,
      "Վանաձ": 3295,
      "խափ": 3296,
      "պարզվել": 3297,
      "բաժանորդ": 3298,
      "##ատրել": 3299,
      "ծրագրերի": 3300,
      "45": 3301,
      "գագաթ": 3302,
      "##ովկաս": 3303,
      "համագործակց": 3304,
      "##ացիոն": 3305,
      "##ահաս": 3306,
      "նվիրված": 3307,
      "Արագած": 3308,
      "2022": 3309,
      "համայնք": 3310,
      "թղթակցի": 3311,
      "##ավառ": 3312,
      "դրամի": 3313,
      "Թուրքիայում": 3314,
      "Մեկ": 3315,
      "լար": 3316,
      "##իկայում": 3317,
      "նախնական": 3318,
      "խումբը": 3319,
      "հանդեպ": 3320,
      "իրավիճակի": 3321,
      "ղեկավարի": 3322,
      "կայան": 3323,
      "Միացյալ": 3324,
      "կարիք": 3325,
      "գիտնական": 3326,
      "##այդ": 3327,
      "մնալ": 3328,
      "Մանուկ": 3329,
      "Ճապ": 3330,
      "վիճ": 3331,
      "##համ": 3332,
      "##ակար": 3333,
      "պատրաստվում": 3334,
      "տեղափոխել": 3335,
      "##ավարության": 3336,
      "տվյալների": 3337,
      "գործել": 3338,
      "կայացած": 3339,
      "պատկան": 3340,
      "հրապարակել": 3341,
      "մշակույթի": 3342,
      "##ավաճ": 3343,
      "միջոցներ": 3344,
      "Մասնավորապես": 3345,
      "Եվրամի": 3346,
      "Կատար": 3347,
      "խուսափ": 3348,
      "փոփոխություններ": 3349,
      "մարմինների": 3350,
      "##ակո": 3351,
      "Նախարար": 3352,
      "տեսնում": 3353,
      "եկամուտ": 3354,
      "##կրետ": 3355,
      "##զոր": 3356,
      "հատկաց": 3357,
      "Թրամփը": 3358,
      "2014": 3359,
      "Ձեր": 3360,
      "##book": 3361,
      "Դաշն": 3362,
      "##նախագահ": 3363,
      "հասարակության": 3364,
      "հարազատ": 3365,
      "գյուղատնտես": 3366,
      "ցավ": 3367,
      "##ասիր": 3368,
      "Չինաստ": 3369,
      "##բերգ": 3370,
      "առանձին": 3371,
      "ինքնաթիռ": 3372,
      "Բելառ": 3373,
      "կենդան": 3374,
      "սխալ": 3375,
      "##acebook": 3376,
      "աշխատանքը": 3377,
      "այդպես": 3378,
      "որքան": 3379,
      "առնվազն": 3380,
      "Երբ": 3381,
      "շու": 3382,
      "համալիր": 3383,
      "##փոփ": 3384,
      "նշվում": 3385,
      "ներկայացվել": 3386,
      "ծրագիրը": 3387,
      "զբոսաշրջ": 3388,
      "34": 3389,
      "Արցախում": 3390,
      "Կորե": 3391,
      "ֆեյսբ": 3392,
      "##ազդ": 3393,
      "միջոցների": 3394,
      "Դատ": 3395,
      "ներկայացուցիչների": 3396,
      "կողմը": 3397,
      "աշխատանքներ": 3398,
      "շուտ": 3399,
      "ԱԱԾ": 3400,
      "երկկողմ": 3401,
      "լուսանկար": 3402,
      "առավոտյան": 3403,
      "զգալի": 3404,
      "60": 3405,
      "վերլուծ": 3406,
      "մասնակցելու": 3407,
      "##աձգ": 3408,
      "գլխ": 3409,
      "բարդ": 3410,
      "##ահեղ": 3411,
      "բացի": 3412,
      "2023": 3413,
      "նվազել": 3414,
      "ՀՅ": 3415,
      "ունենում": 3416,
      "Եվրոպական": 3417,
      "Սիմ": 3418,
      "վարձ": 3419,
      "փոխնախագահ": 3420,
      "համալսարանի": 3421,
      "չորս": 3422,
      "Լավ": 3423,
      "զեկույց": 3424,
      "հավանական": 3425,
      "##ասպ": 3426,
      "ոլորտի": 3427,
      "խաչ": 3428,
      "ծառայությունների": 3429,
      "կանց": 3430,
      "հետապնդ": 3431,
      "տեղակայ": 3432,
      "առաջարկել": 3433,
      "ֆոտո": 3434,
      "Facebook": 3435,
      "մնացել": 3436,
      "միլիարդ": 3437,
      "ընթ": 3438,
      "##վելով": 3439,
      "Միր": 3440,
      "դրությամբ": 3441,
      "ՀՅԴ": 3442,
      "բանակի": 3443,
      "ներկայացված": 3444,
      "իշխ": 3445,
      "ինչու": 3446,
      "տարածաշրջանային": 3447,
      "ստորաբաժ": 3448,
      "Հաս": 3449,
      "##ters": 3450,
      "երեկոյան": 3451,
      "դիվանագիտական": 3452,
      "տեսանյութ": 3453,
      "բանկի": 3454,
      "վախ": 3455,
      "թաղամաս": 3456,
      "##ro": 3457,
      "տարիներին": 3458,
      "երկիրը": 3459,
      "##անձն": 3460,
      "կոնկրետ": 3461,
      "կատարած": 3462,
      "կանանց": 3463,
      "Սիրիայի": 3464,
      "ամուսն": 3465,
      "##տում": 3466,
      "##ոսյանի": 3467,
      "արտգործնախարար": 3468,
      "Լեւոն": 3469,
      "կապերի": 3470,
      "##ենս": 3471,
      "միջուկային": 3472,
      "ուղղակի": 3473,
      "խոսում": 3474,
      "վարչապետը": 3475,
      "աստիճան": 3476,
      "գեներ": 3477,
      "փոխհ": 3478,
      "քննարկման": 3479,
      "Գազ": 3480,
      "ոստիկանությունը": 3481,
      "տնտեսության": 3482,
      "պատասխանել": 3483,
      "##ացմանը": 3484,
      "պատմության": 3485,
      "##ագրական": 3486,
      "գաղտնի": 3487,
      "ծառ": 3488,
      "նախագահական": 3489,
      "ստանալու": 3490,
      "##ent": 3491,
      "The": 3492,
      "Ղազ": 3493,
      "##ակային": 3494,
      "վարակ": 3495,
      "2013": 3496,
      "##ախագահ": 3497,
      "Զոհ": 3498,
      "##վածների": 3499,
      "Գերմանի": 3500,
      "##ոնին": 3501,
      "##ուրգ": 3502,
      "Reu": 3503,
      "տուգ": 3504,
      "ասված": 3505,
      "##եցինք": 3506,
      "ուշադր": 3507,
      "հետևանքով": 3508,
      "չկան": 3509,
      "##ՊԿ": 3510,
      "առարկ": 3511,
      "հայց": 3512,
      "ցեղասպան": 3513,
      "շտաբ": 3514,
      "##ամթեր": 3515,
      "ընտրական": 3516,
      "հետեւանք": 3517,
      "##որդի": 3518,
      "ժամանակահատվածում": 3519,
      "տալու": 3520,
      "##sh": 3521,
      "եղանակ": 3522,
      "198": 3523,
      "աջակցության": 3524,
      "Reuters": 3525,
      "բարել": 3526,
      "կազմակերպությունների": 3527,
      "այնպիսի": 3528,
      ".)": 3529,
      "##ալից": 3530,
      "Լիբ": 3531,
      "##առնում": 3532,
      "պատասխանատու": 3533,
      "##արշ": 3534,
      "մեխ": 3535,
      "Արսեն": 3536,
      "ֆեյսբուքյան": 3537,
      "մանրամաս": 3538,
      "ձեզ": 3539,
      "##ննդ": 3540,
      "լավագույն": 3541,
      "ստիպված": 3542,
      "դեղ": 3543,
      "##ույթը": 3544,
      "Գիտ": 3545,
      "հով": 3546,
      "##անիկ": 3547,
      "##ընդոտ": 3548,
      "##ews": 3549,
      "##ատուն": 3550,
      "իրավունքի": 3551,
      "##եւելյան": 3552,
      "##րին": 3553,
      "##ացուց": 3554,
      "##ոտնի": 3555,
      "ուղարկել": 3556,
      "այլեւ": 3557,
      "ստեղծված": 3558,
      "ամբողջությամբ": 3559,
      "##ոչընդոտ": 3560,
      "միասին": 3561,
      "թշն": 3562,
      "##երեն": 3563,
      "հարգ": 3564,
      "Նման": 3565,
      "##փակ": 3566,
      "մետ": 3567,
      "##այիս": 3568,
      "##օրյա": 3569,
      "ՔԿ": 3570,
      "կորց": 3571,
      "հայերի": 3572,
      "##ավայրի": 3573,
      "ՆԳՆ": 3574,
      "իշխանությունը": 3575,
      "Խորհրդ": 3576,
      "Կառավարության": 3577,
      "չափով": 3578,
      "հավան": 3579,
      "փոխարեն": 3580,
      "##ացրեց": 3581,
      "##ուրի": 3582,
      "երկխոս": 3583,
      "Կենտրոնական": 3584,
      "արդյունքները": 3585,
      "Ռուբեն": 3586,
      "##ավան": 3587,
      "կորոնավիրուսի": 3588,
      "ցած": 3589,
      "անհայտ": 3590,
      "##եշ": 3591,
      "2012": 3592,
      "##եւեկ": 3593,
      "##ազրույցում": 3594,
      "եղբայր": 3595,
      "Սեւ": 3596,
      "##օդ": 3597,
      "աշխատակիցները": 3598,
      "##ավարժ": 3599,
      "մեկում": 3600,
      "##յուռ": 3601,
      "դրանից": 3602,
      "նախատեսվում": 3603,
      "Հնդ": 3604,
      "առջեւ": 3605,
      "առաջիկա": 3606,
      "կաթ": 3607,
      "հրապարակում": 3608,
      "հիմնականում": 3609,
      "չվ": 3610,
      "իրականացնում": 3611,
      "անընդ": 3612,
      "աշխատակիցների": 3613,
      "օրինական": 3614,
      "չար": 3615,
      "##ոմս": 3616,
      "փոխանակ": 3617,
      "քաղ": 3618,
      "հավատ": 3619,
      "ուժերը": 3620,
      "Վաշին": 3621,
      "ներկայացնել": 3622,
      "##այման": 3623,
      "հոր": 3624,
      "նշանակվել": 3625,
      "ևս": 3626,
      "հում": 3627,
      "##ոնիայի": 3628,
      "արտահերթ": 3629,
      "##ավորության": 3630,
      "##ոֆ": 3631,
      "##եւն": 3632,
      "հավելելով": 3633,
      "ամբողջական": 3634,
      "##շեջ": 3635,
      "##ed": 3636,
      "խիստ": 3637,
      "ֆիլ": 3638,
      "հարցով": 3639,
      "գործողությունները": 3640,
      "##ցիոն": 3641,
      "չունեն": 3642,
      "Գեր": 3643,
      "ստորագրել": 3644,
      "##իներ": 3645,
      "կերպով": 3646,
      "33": 3647,
      "փողոցում": 3648,
      "Ավետիս": 3649,
      "##աշար": 3650,
      "անհետ": 3651,
      "##ահամ": 3652,
      "պնդում": 3653,
      "առիթ": 3654,
      "բաժնում": 3655,
      "ամենամ": 3656,
      "երթեւեկ": 3657,
      "Մոսկվայի": 3658,
      "Հովհաննիսյանը": 3659,
      "##երծ": 3660,
      "կանխատես": 3661,
      "38": 3662,
      "In": 3663,
      "թռ": 3664,
      "Իշխան": 3665,
      "բանակցությունների": 3666,
      "տրանսպորտային": 3667,
      "հիմնադրամի": 3668,
      "Խոս": 3669,
      "Գրիգորյանը": 3670,
      "300": 3671,
      "ագրես": 3672,
      "օգտագործել": 3673,
      "գրասենյակ": 3674,
      "500": 3675,
      "վարորդը": 3676,
      "հասնել": 3677,
      "Առաջին": 3678,
      "##ol": 3679,
      "##պետք": 3680,
      "զինծառայող": 3681,
      "լուր": 3682,
      "անդամների": 3683,
      "##անների": 3684,
      "բռ": 3685,
      "երկրներում": 3686,
      "ունենալու": 3687,
      "մարմնի": 3688,
      "##վեդ": 3689,
      "կլինեն": 3690,
      "կբ": 3691,
      "##վածության": 3692,
      "ներկ": 3693,
      "բարեկամ": 3694,
      "ներկայացուցիչները": 3695,
      "նախըն": 3696,
      "Շիրակի": 3697,
      "##իչների": 3698,
      "զրկ": 3699,
      "ոսկ": 3700,
      "մոդ": 3701,
      "վառ": 3702,
      "իրականացնելու": 3703,
      "ավագանու": 3704,
      "հայտարարություն": 3705,
      "##փյուռ": 3706,
      "գտել": 3707,
      "շտապ": 3708,
      "քննադատ": 3709,
      "##ոնալդ": 3710,
      "պողոտ": 3711,
      "ճակատ": 3712,
      "անցյալ": 3713,
      "մեղավոր": 3714,
      "Ալեքսանդր": 3715,
      "ջոկ": 3716,
      "##եկց": 3717,
      "Հիմա": 3718,
      "##մուծ": 3719,
      "##եգր": 3720,
      "պետությունների": 3721,
      "2011": 3722,
      "շրջանառ": 3723,
      "փաթեթ": 3724,
      "քննարկվել": 3725,
      "հարցի": 3726,
      "երբեք": 3727,
      "կենտրոնական": 3728,
      "com": 3729,
      "##ահմ": 3730,
      "լրացուցիչ": 3731,
      "մետր": 3732,
      "այլն": 3733,
      "կոռուպ": 3734,
      "##ստր": 3735,
      "Արագածոտնի": 3736,
      "Արարատի": 3737,
      "44": 3738,
      "##ենգ": 3739,
      "գործունեությունը": 3740,
      "նավթի": 3741,
      "չնայած": 3742,
      "##ղզ": 3743,
      "բաղ": 3744,
      "դար": 3745,
      "Թրամփի": 3746,
      "ակնհայտ": 3747,
      "մեխանի": 3748,
      "Մաս": 3749,
      "հարեւան": 3750,
      "ափ": 3751,
      "մասնակի": 3752,
      "անցած": 3753,
      "սակ": 3754,
      "քաշ": 3755,
      "##ակաս": 3756,
      "ներմուծ": 3757,
      "պատմական": 3758,
      "##աչու": 3759,
      "կներ": 3760,
      "##սում": 3761,
      "##ատան": 3762,
      "Սիմոն": 3763,
      "միասնական": 3764,
      "Բայդ": 3765,
      "ՀԱՊԿ": 3766,
      "##ատը": 3767,
      "36": 3768,
      "թեր": 3769,
      "խոչընդոտ": 3770,
      "ապահովել": 3771,
      "ապահովման": 3772,
      "պարգ": 3773,
      "##ումներին": 3774,
      "միակ": 3775,
      "կինը": 3776,
      "##իոն": 3777,
      "խոսքը": 3778,
      "հզոր": 3779,
      "մասնավոր": 3780,
      "համակարգը": 3781,
      "նիստը": 3782,
      "Գեղարք": 3783,
      "ֆիզ": 3784,
      "գրավ": 3785,
      "Աթ": 3786,
      "ծայր": 3787,
      "##ոկր": 3788,
      "Շահ": 3789,
      "##կարող": 3790,
      "համանախագահ": 3791,
      "##վարդ": 3792,
      "##անումը": 3793,
      "խոսնակ": 3794,
      "##այական": 3795,
      "##ատուր": 3796,
      "##ուհետեւ": 3797,
      "ընկերությունների": 3798,
      "տասնյակ": 3799,
      "Գոր": 3800,
      "տեխնիկական": 3801,
      "##տոր": 3802,
      "տեղեկություններ": 3803,
      "հասցե": 3804,
      "բնակչ": 3805,
      "ապացույց": 3806,
      "ճանապարհի": 3807,
      "Նույն": 3808,
      "Պուտինը": 3809,
      "բացակայ": 3810,
      "պատճառը": 3811,
      "##ուսը": 3812,
      "ժողովրդին": 3813,
      "Պող": 3814,
      "բացել": 3815,
      "ծով": 3816,
      "հասանելի": 3817,
      "մասնագիտական": 3818,
      "լեզ": 3819,
      "Այսինքն": 3820,
      "իրականացվում": 3821,
      "համագործակցությունը": 3822,
      "Վայ": 3823,
      "Իտ": 3824,
      "այր": 3825,
      "շարունակել": 3826,
      "##եւմտյան": 3827,
      "լինեն": 3828,
      "##ra": 3829,
      "Իրավ": 3830,
      "հանրապետության": 3831,
      "էներգետ": 3832,
      "տված": 3833,
      "Մալ": 3834,
      "##անիտար": 3835,
      "##առատ": 3836,
      "գյուղում": 3837,
      "նիստի": 3838,
      "չպետք": 3839,
      "##ումներով": 3840,
      "ՀԱԿ": 3841,
      "##ողությունը": 3842,
      "Անց": 3843,
      "##ուսով": 3844,
      "միավոր": 3845,
      "զորամաս": 3846,
      "##ահարել": 3847,
      "ՍԴ": 3848,
      "սահմանադրական": 3849,
      "ուր": 3850,
      "հիշատակ": 3851,
      "թռչ": 3852,
      "ներկայացուց": 3853,
      "շնորհակալություն": 3854,
      "հեղափոխ": 3855,
      "բանաձ": 3856,
      "Նար": 3857,
      "հանրության": 3858,
      "##արգել": 3859,
      "Գեղարքունի": 3860,
      "##եցի": 3861,
      "հաղորդագրության": 3862,
      "Դոնալդ": 3863,
      "այսպես": 3864,
      "##արձր": 3865,
      "պր": 3866,
      "աշխատակազմի": 3867,
      "Թե": 3868,
      "Հնդկ": 3869,
      "##բր": 3870,
      "##ակներ": 3871,
      "նախագիծը": 3872,
      "երգ": 3873,
      "իրականացվել": 3874,
      "բռնկ": 3875,
      "ապրում": 3876,
      "րոպ": 3877,
      "գեներալ": 3878,
      "գերազանց": 3879,
      "ամփոփ": 3880,
      "Իրաք": 3881,
      "կարծիք": 3882,
      "##ճի": 3883,
      "արդարադատության": 3884,
      "փոխնախարար": 3885,
      "մասնակցում": 3886,
      "ավի": 3887,
      "առողջապահության": 3888,
      "37": 3889,
      "ընկել": 3890,
      "##իսով": 3891,
      "##որոգ": 3892,
      "ընտրություններին": 3893,
      "##նց": 3894,
      "չեղ": 3895,
      "պատմել": 3896,
      "##ացիան": 3897,
      "Ոչ": 3898,
      "մատուց": 3899,
      "հայտարարությունը": 3900,
      "Ղազախ": 3901,
      "ոչինչ": 3902,
      "Ահ": 3903,
      "##ագում": 3904,
      "Տեր": 3905,
      "կաշ": 3906,
      "70": 3907,
      "օգնություն": 3908,
      "Հայաստանին": 3909,
      "Մինսկի": 3910,
      "պայմանագր": 3911,
      "ապահովելու": 3912,
      "##ուղթ": 3913,
      "##անյանի": 3914,
      "##ակները": 3915,
      "միջանց": 3916,
      "գործողություններ": 3917,
      "ալի": 3918,
      "իրականացնող": 3919,
      "##ովյան": 3920,
      "ներդրում": 3921,
      "##պե": 3922,
      "կտա": 3923,
      "կարճ": 3924,
      "ղարաբաղ": 3925,
      "##աղորդ": 3926,
      "##օրեին": 3927,
      "նախագծի": 3928,
      "##անյան": 3929,
      "իրականացվող": 3930,
      "Բոլոր": 3931,
      "##ոնում": 3932,
      "առմամբ": 3933,
      "վերականգ": 3934,
      "ցածր": 3935,
      "պակաս": 3936,
      "կողմի": 3937,
      "##ասական": 3938,
      "կշար": 3939,
      "Կովկաս": 3940,
      "կազմակերպել": 3941,
      "##us": 3942,
      "տարածել": 3943,
      "##ակամ": 3944,
      "կրակոց": 3945,
      "անձն": 3946,
      "ստանում": 3947,
      "##ֆոր": 3948,
      "որոնցից": 3949,
      "վերած": 3950,
      "հանդիպումը": 3951,
      "##ԱԶ": 3952,
      "միտ": 3953,
      "հարյուր": 3954,
      "##այթ": 3955,
      "հորդ": 3956,
      "##ուլիս": 3957,
      "Ռուսաստանում": 3958,
      "##ակայքում": 3959,
      "անտ": 3960,
      "ընկած": 3961,
      "թշնամ": 3962,
      "գործադր": 3963,
      "Բաղդ": 3964,
      "Արման": 3965,
      "առեւտրի": 3966,
      "կախված": 3967,
      "##ընտ": 3968,
      "ստորաբաժանում": 3969,
      "##անութ": 3970,
      "##իչի": 3971,
      "պարզաբան": 3972,
      "օգնության": 3973,
      "Նովոստի": 3974,
      "Գար": 3975,
      "թաք": 3976,
      "ներկայում": 3977,
      "##արտուղ": 3978,
      "վր": 3979,
      "գործակալությունը": 3980,
      "##լամական": 3981,
      "իջ": 3982,
      "զանգվածային": 3983,
      "տվյալները": 3984,
      "Հակոբյանը": 3985,
      "Դանի": 3986,
      "իրականացրել": 3987,
      "պարտադիր": 3988,
      "հաջողվել": 3989,
      "սպառնալի": 3990,
      "ծանոթ": 3991,
      "Խաչատրյանը": 3992,
      "բացատր": 3993,
      "պահանջել": 3994,
      "խնդրել": 3995,
      "Դուք": 3996,
      "հարավ": 3997,
      "հարցերը": 3998,
      "##ԲԸ": 3999,
      "##ռչակ": 4000,
      "աչ": 4001,
      "կուսակցությունը": 4002,
      "ներքո": 4003,
      "Գր": 4004,
      "կպ": 4005,
      "մնում": 4006,
      "Անկ": 4007,
      "մնացած": 4008,
      "անմիջապես": 4009,
      "##սը": 4010,
      "վերադառն": 4011,
      "Միրզ": 4012,
      "անդամները": 4013,
      "տեղեկատվական": 4014,
      "##իպտ": 4015,
      "թանգ": 4016,
      "օրա": 4017,
      "ոլորտներում": 4018,
      "Նաիր": 4019,
      "##որդը": 4020,
      "ենթակառուց": 4021,
      "փուլում": 4022,
      "##BC": 4023,
      "Վայոց": 4024,
      "սպառնալիք": 4025,
      "Սպիտ": 4026,
      "գերատես": 4027,
      "ռուբ": 4028,
      "##նակազմ": 4029,
      "ձեռքբեր": 4030,
      "##յալների": 4031,
      "այցի": 4032,
      "ՍՊ": 4033,
      "ուղիղ": 4034,
      "##գիպտ": 4035,
      "հայրենի": 4036,
      "ճանապարհով": 4037,
      "կործ": 4038,
      "համեր": 4039,
      "կարողանում": 4040,
      "դու": 4041,
      "պարզապես": 4042,
      "դաշն": 4043,
      "Մկր": 4044,
      "##ion": 4045,
      "##պիսով": 4046,
      "որոշմամբ": 4047,
      "2010": 4048,
      "խափանման": 4049,
      "այգ": 4050,
      "ռազմավարական": 4051,
      "անդրադառնալով": 4052,
      "զուգ": 4053,
      "##ուտբ": 4054,
      "վտանգավոր": 4055,
      "ռես": 4056,
      "վերջնական": 4057,
      "պատշ": 4058,
      "ընտրություններում": 4059,
      "##մանն": 4060,
      "Պետք": 4061,
      "հատկանիշ": 4062,
      "Կապ": 4063,
      "##ալը": 4064,
      "իրավասության": 4065,
      "Դրա": 4066,
      "խոստով": 4067,
      "##ացվում": 4068,
      "##ասխանում": 4069,
      "առաջարկում": 4070,
      "##ուդյան": 4071,
      "ճանաչել": 4072,
      "##ոյանի": 4073,
      "հարկային": 4074,
      "##գոհ": 4075,
      "##ադեմ": 4076,
      "եվր": 4077,
      "կարողացել": 4078,
      "պաշտոնում": 4079,
      "##վարչապետ": 4080,
      "ավտոբ": 4081,
      "Սահմանադրական": 4082,
      "քննարկում": 4083,
      "տեղեկատվության": 4084,
      "##աժամկետ": 4085,
      "լրագրողներին": 4086,
      "##ացնելով": 4087,
      "Նահանգ": 4088,
      "թվով": 4089,
      "բաժն": 4090,
      "ակնկալ": 4091,
      "##գար": 4092,
      "ուղեկց": 4093,
      "շահագործ": 4094,
      "զենքի": 4095,
      "գրառ": 4096,
      "##ացնի": 4097,
      "Գալ": 4098,
      "դաշինքի": 4099,
      "##ադադ": 4100,
      "##րաստիճան": 4101,
      "թագ": 4102,
      "պայմանագիր": 4103,
      "Պարզվել": 4104,
      "##տրոնային": 4105,
      "պարտական": 4106,
      "ընթանում": 4107,
      "##ույր": 4108,
      "գիտության": 4109,
      "Մել": 4110,
      "գործընթացի": 4111,
      "Քրեական": 4112,
      "##անգստ": 4113,
      "գաղափար": 4114,
      "անդրադարձել": 4115,
      "Մարդու": 4116,
      "##րաբ": 4117,
      "կապի": 4118,
      "Էրդողանը": 4119,
      "##ing": 4120,
      "##im": 4121,
      "##ցիայի": 4122,
      "Բագր": 4123,
      "տարել": 4124,
      "ընտանիք": 4125,
      "ժամանել": 4126,
      "դժգոհ": 4127,
      "##բամ": 4128,
      "Թուրքական": 4129,
      "արդյունաբեր": 4130,
      "Գլխավոր": 4131,
      "բարեփոխումների": 4132,
      "ընդգծեց": 4133,
      "##ատեքստ": 4134,
      "ուկրաին": 4135,
      "շուկայում": 4136,
      "տանը": 4137,
      "##աստիճ": 4138,
      "շարժման": 4139,
      "Կի": 4140,
      "##az": 4141,
      "խնդրի": 4142,
      "գույքի": 4143,
      "Արայ": 4144,
      "Օհան": 4145,
      "Ադրբեջանում": 4146,
      "քայլը": 4147,
      "հերոս": 4148,
      "կարգավիճակ": 4149,
      "80": 4150,
      "Էլ": 4151,
      "էի": 4152,
      "##եմն": 4153,
      "հեռանկար": 4154,
      "ողջուն": 4155,
      "օրենքով": 4156,
      "ՔՊ": 4157,
      "##ակցություն": 4158,
      "Հարցին": 4159,
      "վիրավորվել": 4160,
      "պատասխանատվության": 4161,
      "օտարերկր": 4162,
      "##եզեր": 4163,
      "##եցված": 4164,
      "նիստին": 4165,
      "Մայր": 4166,
      "տպ": 4167,
      "աջակցություն": 4168,
      "ձերբակալել": 4169,
      "##ir": 4170,
      "Քոչարյանի": 4171,
      "թռիչ": 4172,
      "ապրանքների": 4173,
      "վճռ": 4174,
      "##աքննությունը": 4175,
      "հագ": 4176,
      "##իժ": 4177,
      "հանրահավաք": 4178,
      "ճանապարհին": 4179,
      "տարիների": 4180,
      "առողջական": 4181,
      "Կարապետյանը": 4182,
      "Բրիտանիայի": 4183,
      "Անն": 4184,
      "քայլեր": 4185,
      "ծայրահեղ": 4186,
      "փակել": 4187,
      "##ot": 4188,
      "##ոնե": 4189,
      "##սկս": 4190,
      "պաշտոնը": 4191,
      "##եսը": 4192,
      "ձախ": 4193,
      "կատարվում": 4194,
      "վկայում": 4195,
      "նահանգի": 4196,
      "ԵԽ": 4197,
      "##անքը": 4198,
      "արձանագրվել": 4199,
      "տեղեկանում": 4200,
      "ՀԿ": 4201,
      "իբր": 4202,
      "##թափ": 4203,
      "բարելավ": 4204,
      "Մարտիր": 4205,
      "##ապաշտ": 4206,
      "գրասենյակի": 4207,
      "ծրագիր": 4208,
      "Տավուշի": 4209,
      "խանութ": 4210,
      "հյուսիս": 4211,
      "քննություն": 4212,
      "Իտալի": 4213,
      "##ուի": 4214,
      "այլեւս": 4215,
      "Որոշ": 4216,
      "##ետև": 4217,
      "ուղերձ": 4218,
      "հրշեջ": 4219,
      "հասցրել": 4220,
      "սեղ": 4221,
      "##տեմբերին": 4222,
      "գտնվել": 4223,
      "պիտի": 4224,
      "երկրաշարժ": 4225,
      "ընդհանր": 4226,
      "Հայրապետ": 4227,
      "բեռնատար": 4228,
      "Հովհաննես": 4229,
      "Միք": 4230,
      "բերված": 4231,
      "պատկանող": 4232,
      "սնն": 4233,
      "##ելյան": 4234,
      "##ամասն": 4235,
      "մասնակցությամբ": 4236,
      "ավտոմեքենայի": 4237,
      "արտադրության": 4238,
      "Զին": 4239,
      "ԿԳ": 4240,
      "##իրախ": 4241,
      "##ողներ": 4242,
      "բնակավայր": 4243,
      "հանձնել": 4244,
      "իհարկե": 4245,
      "##ղան": 4246,
      "ախտ": 4247,
      "##ia": 4248,
      "որակ": 4249,
      "Շատ": 4250,
      "հրավիրել": 4251,
      "ոստիկանները": 4252,
      "Նյու": 4253,
      "հարձակման": 4254,
      "պրոֆ": 4255,
      "փոխարժեքը": 4256,
      "ծնող": 4257,
      "##իկին": 4258,
      "այդպիսի": 4259,
      "##ալբ": 4260,
      "բանտ": 4261,
      "Մկրտ": 4262,
      "##րկարար": 4263,
      "##քերով": 4264,
      "կվեր": 4265,
      "##յանց": 4266,
      "փոփոխությունների": 4267,
      "բանից": 4268,
      "ընտրությունները": 4269,
      "Ժառանգ": 4270,
      "հարցազրույցում": 4271,
      "ռիսկ": 4272,
      "մեխանիզմ": 4273,
      "##ուհին": 4274,
      "Սահակյանը": 4275,
      "բավականին": 4276,
      "ռադի": 4277,
      "Ստեփանակ": 4278,
      "Պապ": 4279,
      "բռնության": 4280,
      "տրամադրել": 4281,
      "կանխարգել": 4282,
      "##եւմուտ": 4283,
      "##is": 4284,
      "համարվում": 4285,
      "Հայաստանն": 4286,
      "սպասում": 4287,
      "տեխնոլոգիաների": 4288,
      "փոխհատուց": 4289,
      "արտաս": 4290,
      "մահացած": 4291,
      "բրիտ": 4292,
      "Արայիկ": 4293,
      "գնահատել": 4294,
      "Մոսկվայում": 4295,
      "չկ": 4296,
      "մակարդակի": 4297,
      "գործադիր": 4298,
      "դպրոցի": 4299,
      "##ուչ": 4300,
      "կանչ": 4301,
      "##աթոշ": 4302,
      "կրթական": 4303,
      "##եստի": 4304,
      "պաշտոնակատար": 4305,
      "դեպքերի": 4306,
      "աստիճ": 4307,
      "պայթյուն": 4308,
      "պահել": 4309,
      "##ազարյանը": 4310,
      "Միաժամանակ": 4311,
      "##վտանգ": 4312,
      "այսինքն": 4313,
      "ժամանակավոր": 4314,
      "ունենալով": 4315,
      "վեց": 4316,
      "տղամարդը": 4317,
      "Արա": 4318,
      "##ակիր": 4319,
      "բարձրաստիճան": 4320,
      "##ծում": 4321,
      "րոպե": 4322,
      "բառ": 4323,
      "##իչները": 4324,
      "առավելագույն": 4325,
      "Մարտի": 4326,
      "##սկայ": 4327,
      "վայրում": 4328,
      "##յակում": 4329,
      "Վաշինգտ": 4330,
      "վնասվածքներ": 4331,
      "ՄԻ": 4332,
      "##եցնելու": 4333,
      "մանդ": 4334,
      "դանակ": 4335,
      "##ինա": 4336,
      "Գեղարքունիքի": 4337,
      "##ահերթ": 4338,
      "քննության": 4339,
      "իրականացված": 4340,
      "##աբանության": 4341,
      "գործընկերների": 4342,
      "երաժ": 4343,
      "Իսրայել": 4344,
      "ժառանգ": 4345,
      "լուծման": 4346,
      "Շուշ": 4347,
      "սեռ": 4348,
      "միաժամանակ": 4349,
      "Ստամբ": 4350,
      "գումարը": 4351,
      "Կոմ": 4352,
      "##ևս": 4353,
      "##ատարած": 4354,
      "դին": 4355,
      "##չափ": 4356,
      "ունեմ": 4357,
      "գործակալության": 4358,
      "գինը": 4359,
      "թիրախ": 4360,
      "սեն": 4361,
      "##սին": 4362,
      "ջերմաստիճ": 4363,
      "ռեսուրս": 4364,
      "Նալբ": 4365,
      "դատարանում": 4366,
      "քաղաքացիներին": 4367,
      "մարտահր": 4368,
      "զրուց": 4369,
      "հավատար": 4370,
      "պարագայում": 4371,
      "արհ": 4372,
      "մեկին": 4373,
      "41": 4374,
      "կուտ": 4375,
      "չոր": 4376,
      "Նալբանդ": 4377,
      "վիճակի": 4378,
      "հասկանում": 4379,
      "նախատեսում": 4380,
      "ղարաբաղյան": 4381,
      "##մեր": 4382,
      "գրոհ": 4383,
      "##արում": 4384,
      "թուն": 4385,
      "գործար": 4386,
      "Պետական": 4387,
      "դրսեւոր": 4388,
      "պատշաճ": 4389,
      "ստացված": 4390,
      "հանցագործության": 4391,
      "Հայտ": 4392,
      "հոսպիտ": 4393,
      "Կատարվում": 4394,
      "տեղեկություն": 4395,
      "գալու": 4396,
      "փլ": 4397,
      "ուսումնական": 4398,
      "Լավր": 4399,
      "բջ": 4400,
      "հրազ": 4401,
      "հաց": 4402,
      "ֆուտբ": 4403,
      "գիշեր": 4404,
      "պահպանման": 4405,
      "Սիրիայում": 4406,
      "ru": 4407,
      "անվանել": 4408,
      "Արմավիրի": 4409,
      "կանգնած": 4410,
      "նախագահին": 4411,
      "##դեռ": 4412,
      "ճանապարհը": 4413,
      "բնակիչների": 4414,
      "Նովոստին": 4415,
      "ընտրվել": 4416,
      "պատրաստակամ": 4417,
      "ուղարկվել": 4418,
      "անձնակազմ": 4419,
      "Մարի": 4420,
      "տարածաշրջանի": 4421,
      "Արդյուն": 4422,
      "Ղր": 4423,
      "Սպ": 4424,
      "Սեյ": 4425,
      "ձգտ": 4426,
      "Օբամ": 4427,
      "նետ": 4428,
      "##ոսը": 4429,
      "##ավորական": 4430,
      "39": 4431,
      "##ագիտության": 4432,
      "կդառն": 4433,
      "ինստիտուտի": 4434,
      "Միքայել": 4435,
      "սուր": 4436,
      "վթարի": 4437,
      "##մունքի": 4438,
      "##որդների": 4439,
      "Բրիտանի": 4440,
      "կոտր": 4441,
      "ոք": 4442,
      "երկրները": 4443,
      "հակաս": 4444,
      "Լեհ": 4445,
      "արվ": 4446,
      "կց": 4447,
      "միջամտ": 4448,
      "քաղաքականությունը": 4449,
      "քրե": 4450,
      "##ay": 4451,
      "ոտ": 4452,
      "մարզերում": 4453,
      "##ացիական": 4454,
      "եկեղեցու": 4455,
      "Զոհրաբ": 4456,
      "48": 4457,
      "սառ": 4458,
      "բերվել": 4459,
      "Պետրոսյանը": 4460,
      "թմրամ": 4461,
      "Փարի": 4462,
      "ազատազրկման": 4463,
      "55": 4464,
      "օրենքում": 4465,
      "Ադրբեջանին": 4466,
      "Սաուդյան": 4467,
      "##րանտ": 4468,
      "##ադադարի": 4469,
      "կփ": 4470,
      "ներառյալ": 4471,
      "դառնալ": 4472,
      "Բալ": 4473,
      "դառնում": 4474,
      "##րանս": 4475,
      "##աստանյան": 4476,
      "հեռուստաալի": 4477,
      "Իլ": 4478,
      "##ելյանը": 4479,
      "##ագիծը": 4480,
      "ներկայացուցիչը": 4481,
      "42": 4482,
      "մեն": 4483,
      "քաղաքացիները": 4484,
      "նկատել": 4485,
      "հետեւյալ": 4486,
      "անձը": 4487,
      "սպանել": 4488,
      "##un": 4489,
      "ստացած": 4490,
      "Մն": 4491,
      "Ղարաբաղում": 4492,
      "էլեկտրոնային": 4493,
      "Կոնգրես": 4494,
      "հետագայում": 4495,
      "գործառ": 4496,
      "բնապահ": 4497,
      "##ինն": 4498,
      "վերջերս": 4499,
      "օգտին": 4500,
      "##վեյ": 4501,
      "հանրաք": 4502,
      "ակումբ": 4503,
      "վնասվածքներով": 4504,
      "##ֆի": 4505,
      "խաղաղապահ": 4506,
      "##արյան": 4507,
      "ապագ": 4508,
      "մտել": 4509,
      "##ասիական": 4510,
      "##ստանում": 4511,
      "##րիշ": 4512,
      "գնացել": 4513,
      "2008": 4514,
      "քաղաքապետարանի": 4515,
      "##ենզ": 4516,
      "նախալ": 4517,
      "շրջանների": 4518,
      "##ենում": 4519,
      "երկաթ": 4520,
      "ցուցարար": 4521,
      "Սաֆ": 4522,
      "##աշխավոր": 4523,
      "հավասար": 4524,
      "որդին": 4525,
      "##պիսին": 4526,
      "##ատեքստում": 4527,
      "Հատ": 4528,
      "##էներգ": 4529,
      "##ցանց": 4530,
      "##ասպան": 4531,
      "Լոռու": 4532,
      "ԱՊՀ": 4533,
      "իրար": 4534,
      "ապացուց": 4535,
      "Հովիկ": 4536,
      "մեկնարկ": 4537,
      "##եղեցին": 4538,
      "Մեղ": 4539,
      "Բագրատ": 4540,
      "Արտակ": 4541,
      "##թնոլոր": 4542,
      "##օգնության": 4543,
      "պարունակ": 4544,
      "պաշտպանական": 4545,
      "Միջազգային": 4546,
      "Մամ": 4547,
      "միջոցառումներ": 4548,
      "Անդրադառնալով": 4549,
      "##նդր": 4550,
      "##ասի": 4551,
      "##նիշխան": 4552,
      "Սպիտակ": 4553,
      "##անգամ": 4554,
      "##այժմ": 4555,
      "##ապար": 4556,
      "մուտք": 4557,
      "տուժել": 4558,
      "Գասպ": 4559,
      "գործիք": 4560,
      "հաղորդել": 4561,
      "ՊԵԿ": 4562,
      "ակցիան": 4563,
      "հղում": 4564,
      "##իկն": 4565,
      "ավարտվել": 4566,
      "հետախուզական": 4567,
      "բյուջեի": 4568,
      "նորից": 4569,
      "կարգով": 4570,
      "եվրո": 4571,
      "կատարում": 4572,
      "բացասական": 4573,
      "Սուրեն": 4574,
      "ծաղ": 4575,
      "ջրի": 4576,
      "##yan": 4577,
      "պետքարտուղ": 4578,
      "Աֆղան": 4579,
      "Նոյ": 4580,
      "Իրանը": 4581,
      "ընդհանրապես": 4582,
      "ճշ": 4583,
      "ֆրանսի": 4584,
      "թվականից": 4585,
      "վերջինիս": 4586,
      "գոյություն": 4587,
      "մարտահրավեր": 4588,
      "պալատի": 4589,
      "##եւնույն": 4590,
      "Փորձ": 4591,
      "հանդիպմանը": 4592,
      "հանցագործությունների": 4593,
      "դիտարկ": 4594,
      "կետով": 4595,
      "##օրինական": 4596,
      "հավելեց": 4597,
      "ժողովուրդը": 4598,
      "մրցույթ": 4599,
      "հիմք": 4600,
      "ընդունվել": 4601,
      "Առաքել": 4602,
      "##եկտրա": 4603,
      "##ետն": 4604,
      "##արդյուն": 4605,
      "սահմանին": 4606,
      "##ess": 4607,
      "##ակին": 4608,
      "կնք": 4609,
      "##ասիրական": 4610,
      "հրաժարական": 4611,
      "փաստաթուղթ": 4612,
      "ամսվա": 4613,
      "արժեքը": 4614,
      "ներկայիս": 4615,
      "Ապրի": 4616,
      "առաջընթաց": 4617,
      "##ոմի": 4618,
      "տեսակետ": 4619,
      "ապրել": 4620,
      "համաձայնագրի": 4621,
      "անտառ": 4622,
      "Եգիպտ": 4623,
      "Օս": 4624,
      "##ագծի": 4625,
      "ղեկավարների": 4626,
      "լրատվական": 4627,
      "մաքսային": 4628,
      "##վանից": 4629,
      "##ատիպ": 4630,
      "##եկտիվ": 4631,
      "կտրուկ": 4632,
      "ձայ": 4633,
      "տաք": 4634,
      "##աղեստ": 4635,
      "փախստ": 4636,
      "դաշ": 4637,
      "ինքնիշխան": 4638,
      "Մուր": 4639,
      "աշակ": 4640,
      "տեղեկությունների": 4641,
      "մեծամասն": 4642,
      "մթնոլոր": 4643,
      "անհն": 4644,
      "կապիտ": 4645,
      "Ժամանակ": 4646,
      "##անոցի": 4647,
      "երաշխավոր": 4648,
      "Ստեփան": 4649,
      "Կորեայի": 4650,
      "Ել": 4651,
      "համատեքստում": 4652,
      "լինում": 4653,
      "Սարգսյանն": 4654,
      "պայքարում": 4655,
      "սպառնում": 4656,
      "Բեր": 4657,
      "հանուն": 4658,
      "խորհրդարանում": 4659,
      "փոխվարչապետ": 4660,
      "կազմակերպված": 4661,
      "օբյեկտ": 4662,
      "Մեզ": 4663,
      "##ահանդ": 4664,
      "##ch": 4665,
      "ասած": 4666,
      "պատգամավորը": 4667,
      "վերահսկողության": 4668,
      "լույս": 4669,
      "Հայաստանից": 4670,
      "##վտանգության": 4671,
      "400": 4672,
      "90": 4673,
      "մղ": 4674,
      "##արին": 4675,
      "##րեբ": 4676,
      "Դավթ": 4677,
      "պատասխանեց": 4678,
      "ՍՊԸ": 4679,
      "ջուր": 4680,
      "անհանգստ": 4681,
      "ունենա": 4682,
      "##ջային": 4683,
      "պետի": 4684,
      "նավթ": 4685,
      "##ազին": 4686,
      "##այնիվ": 4687,
      "Կամ": 4688,
      "լարված": 4689,
      "օժ": 4690,
      "##ոլդ": 4691,
      "առաջատար": 4692,
      "##ուամեն": 4693,
      "պաշտոնից": 4694,
      "գիտական": 4695,
      "##րիկ": 4696,
      "Բաբայ": 4697,
      "Դրանից": 4698,
      "պատվիրակության": 4699,
      "փն": 4700,
      "ժամանակակից": 4701,
      "տեսել": 4702,
      "ռեժիմի": 4703,
      "Բրյուս": 4704,
      "##ացվի": 4705,
      "խթ": 4706,
      "##իում": 4707,
      "##քս": 4708,
      "##վածքների": 4709,
      "ողբերգ": 4710,
      "##ուամենայնիվ": 4711,
      "կորուստ": 4712,
      "ավարտին": 4713,
      "Արդար": 4714,
      "Նշվում": 4715,
      "շրջաններում": 4716,
      "Պուտինի": 4717,
      "չգիտ": 4718,
      "##ներս": 4719,
      "հունվար": 4720,
      "կաշառ": 4721,
      "Փրկարար": 4722,
      "##ձավոր": 4723,
      "օգնել": 4724,
      "##ոսյան": 4725,
      "##արանական": 4726,
      "զոհված": 4727,
      "առնչությամբ": 4728,
      "արցախ": 4729,
      "գնահատական": 4730,
      "Պաշտպանության": 4731,
      "Այժմ": 4732,
      "վերաբերող": 4733,
      "վճարել": 4734,
      "Բելառուսի": 4735,
      "ծննդ": 4736,
      "##իեզեր": 4737,
      "գտնել": 4738,
      "Աննա": 4739,
      "ինտերն": 4740,
      "սն": 4741,
      "փորձի": 4742,
      "նպատակն": 4743,
      "լուծում": 4744,
      "տուր": 4745,
      "անշ": 4746,
      "հայտարարում": 4747,
      "չէին": 4748,
      "##wit": 4749,
      "##աժողովը": 4750,
      "աճի": 4751,
      "##ail": 4752,
      "Ընկեր": 4753,
      "##ադրանքի": 4754,
      "Ջոն": 4755,
      "Վալ": 4756,
      "##ուլում": 4757,
      "կայքում": 4758,
      "իշխող": 4759,
      "նախընտրական": 4760,
      "քաղաքապետի": 4761,
      "հատկանիշներով": 4762,
      "համարել": 4763,
      "##տեր": 4764,
      "##pp": 4765,
      "զինծառայողների": 4766,
      "ամենը": 4767,
      "##տը": 4768,
      "պատահ": 4769,
      "ընդդիմության": 4770,
      "զարգաց": 4771,
      "##եստական": 4772,
      "լուծել": 4773,
      "անունը": 4774,
      "2024": 4775,
      "##եցման": 4776,
      "շարունակելու": 4777,
      "##տվ": 4778,
      "ժաման": 4779,
      "ստեղծվել": 4780,
      "երեխայի": 4781,
      "##արիայի": 4782,
      "աջակցել": 4783,
      "Երկրորդ": 4784,
      "ֆիզիկական": 4785,
      "գները": 4786,
      "բոլորը": 4787,
      "Փաշինյանն": 4788,
      "Էրեբ": 4789,
      "Յոր": 4790,
      "##ատների": 4791,
      "զորքերի": 4792,
      "թեման": 4793,
      "##սկին": 4794,
      "##ացան": 4795,
      "առկայ": 4796,
      "պայմանագրի": 4797,
      "##ինս": 4798,
      "##աժան": 4799,
      "Վահե": 4800,
      "Երկու": 4801,
      "արտոն": 4802,
      "նպատակը": 4803,
      "հոգեբ": 4804,
      "43": 4805,
      "բազ": 4806,
      "չտ": 4807,
      "ծառայություն": 4808,
      "ահաբեկչական": 4809,
      "տարիներ": 4810,
      "վթար": 4811,
      "կարգի": 4812,
      "նախալեռներում": 4813,
      "սահմ": 4814,
      "գերման": 4815,
      "խախտում": 4816,
      "պահպանել": 4817,
      "Կարծում": 4818,
      "նշանակություն": 4819,
      "փոխանցել": 4820,
      "իշխանություններին": 4821,
      "##կոնոմ": 4822,
      "Եկ": 4823,
      "երեխա": 4824,
      "##witter": 4825,
      "հանձնաժողովը": 4826,
      "Եվրամիության": 4827,
      "##մեդ": 4828,
      "անհրաժեշտության": 4829,
      "գնել": 4830,
      "պարգեւ": 4831,
      "անօրինական": 4832,
      "##ագրգ": 4833,
      "փոխել": 4834,
      "հումանիտար": 4835,
      "ներկայումս": 4836,
      "կներկայաց": 4837,
      "նախօրեին": 4838,
      "ազատության": 4839,
      "##անշանակ": 4840,
      "բջջային": 4841,
      "Քրիստ": 4842,
      "##եկտրաէներգ": 4843,
      "##ագրության": 4844,
      "##ափշտ": 4845,
      "փաստացի": 4846,
      "ավտով": 4847,
      "իրավունքը": 4848,
      "ձեռնարկել": 4849,
      "Մկրտչ": 4850,
      "տարում": 4851,
      "Երեկ": 4852,
      "վաղը": 4853,
      "կյանքը": 4854,
      "տեղակայված": 4855,
      "##օղ": 4856,
      "սուբ": 4857,
      "##իմն": 4858,
      "Հանրային": 4859,
      "ստեղծելու": 4860,
      "դատախազության": 4861,
      "հոսպիտալ": 4862,
      "առաջիկայում": 4863,
      "հարմար": 4864,
      "սկսած": 4865,
      "ինչն": 4866,
      "##re": 4867,
      "##ահլի": 4868,
      "Վրաստանում": 4869,
      "News": 4870,
      "աշխատանքից": 4871,
      "բանակցությունները": 4872,
      "կոալից": 4873,
      "ֆիլմ": 4874,
      "##ակոծ": 4875,
      "քաղաքացու": 4876,
      "օգտագործման": 4877,
      "հարվածել": 4878,
      "Աշխատ": 4879,
      "##ժան": 4880,
      "հավաստի": 4881,
      "նշանակության": 4882,
      "վիրահատ": 4883,
      "կառույցների": 4884,
      "գնալ": 4885,
      "ակտիվիստ": 4886,
      "##ուցե": 4887,
      "դեմոկր": 4888,
      "լից": 4889,
      "մասնակիցները": 4890,
      "##ագրված": 4891,
      "ստեղծման": 4892,
      "լրագրող": 4893,
      "մշտապես": 4894,
      "Հանդիպման": 4895,
      "##առու": 4896,
      "##անիշի": 4897,
      "նյութեր": 4898,
      "առաջնահերթ": 4899,
      "հնարավորությունը": 4900,
      "197": 4901,
      "ճանապարհային": 4902,
      "ներկայացուցիչներ": 4903,
      "հուշարձ": 4904,
      "փնտր": 4905,
      "աշակերտ": 4906,
      "բալ": 4907,
      "հանել": 4908,
      "անձամբ": 4909,
      "Ցեղաս": 4910,
      "կք": 4911,
      "հազարավոր": 4912,
      "Չնայած": 4913,
      "Սար": 4914,
      "արք": 4915,
      "47": 4916,
      "ձորի": 4917,
      "##եքի": 4918,
      "միջոցները": 4919,
      "պաշտոնատար": 4920,
      "ֆուն": 4921,
      "##ապաղ": 4922,
      "Խաչատուր": 4923,
      "դարձավ": 4924,
      "պաշտոնապես": 4925,
      "հափշտ": 4926,
      "##տու": 4927,
      "անօդ": 4928,
      "անչափ": 4929,
      "շահագրգ": 4930,
      "անցկացնել": 4931,
      "տղամարդու": 4932,
      "##ինգի": 4933,
      "Մայի": 4934,
      "մատ": 4935,
      "տվեց": 4936,
      "վերջինս": 4937,
      "անբ": 4938,
      "վերանորոգ": 4939,
      "##ավորումը": 4940,
      "Քոչարյանը": 4941,
      "իրականում": 4942,
      "Ռուսաստան": 4943,
      "տա": 4944,
      "պետություն": 4945,
      "մեկուս": 4946,
      "արտահանման": 4947,
      "դիվանագետ": 4948,
      "դրել": 4949,
      "##ասարակ": 4950,
      "մետաղ": 4951,
      "փոխգործ": 4952,
      "ներկայացնելու": 4953,
      "ուրախ": 4954,
      "իմաստ": 4955,
      "առեւտրային": 4956,
      "Լուսավոր": 4957,
      "էական": 4958,
      "հրադադարի": 4959,
      "կալան": 4960,
      "Հռ": 4961,
      "վավեր": 4962,
      "տարածքի": 4963,
      "##լու": 4964,
      "պարոն": 4965,
      "##ամի": 4966,
      "##եճ": 4967,
      "Արդյունքում": 4968,
      "ոգ": 4969,
      "##ամփ": 4970,
      "ժողովրդավարական": 4971,
      "##եգործ": 4972,
      "զգուշ": 4973,
      "արմ": 4974,
      "մտց": 4975,
      "օրաթ": 4976,
      "դաշնակից": 4977,
      "հայտնեցին": 4978,
      "##եյն": 4979,
      "աջակցությունը": 4980,
      "##անկյուն": 4981,
      "##ասուն": 4982,
      "##ովանդակ": 4983,
      "մեքենայի": 4984,
      "»՝": 4985,
      "##ասյանի": 4986,
      "##պանական": 4987,
      "շտաբի": 4988,
      "##ուել": 4989,
      "հարցերին": 4990,
      "Անվտանգության": 4991,
      "##րդական": 4992,
      "սահմանել": 4993,
      "##արանների": 4994,
      "փոխարին": 4995,
      "##ազգուշ": 4996,
      "##ազերծ": 4997,
      "Արծ": 4998,
      "Անկար": 4999,
      "քանակ": 5000,
      "անցկացրել": 5001,
      "տնօրենի": 5002,
      "##բիլ": 5003,
      "##արն": 5004,
      "Քննչական": 5005,
      "##ԼՄ": 5006,
      "հանցավոր": 5007,
      "կոշ": 5008,
      "համապատասխանում": 5009,
      "բանակցային": 5010,
      "կիրառել": 5011,
      "տրանսպորտի": 5012,
      "Խաղ": 5013,
      "ՓԲԸ": 5014,
      "կամավոր": 5015,
      "##ակատարողական": 5016,
      "հանրապետական": 5017,
      "հեռու": 5018,
      "տապ": 5019,
      "##իներին": 5020,
      "անելու": 5021,
      "##աշնորհ": 5022,
      "բացառապես": 5023,
      "##յաց": 5024,
      "##ադրությունը": 5025,
      "չարաշ": 5026,
      "##արման": 5027,
      "##արկվել": 5028,
      "հաշվետ": 5029,
      "լիարժեք": 5030,
      "##ետային": 5031,
      "ասուլիս": 5032,
      "տարածքը": 5033,
      "կայացրել": 5034,
      "Իսլամական": 5035,
      "Ուկրաինայում": 5036,
      "##իցս": 5037,
      "մեթ": 5038,
      "փաստը": 5039,
      "ահաբեկչության": 5040,
      "հին": 5041,
      "##պարտ": 5042,
      "##իկներ": 5043,
      "##կոնոմիկայի": 5044,
      "##եստոր": 5045,
      "կանցկաց": 5046,
      "Twitter": 5047,
      "##իրի": 5048,
      "տվյալներ": 5049,
      "խոստացել": 5050,
      "եզրա": 5051,
      "ԵՏ": 5052,
      "ԶԼՄ": 5053,
      "Լոնդ": 5054,
      "դոլարով": 5055,
      "քվեարկել": 5056,
      "զավ": 5057,
      "խստ": 5058,
      "##ենցի": 5059,
      "համակարգում": 5060,
      "Դեմ": 5061,
      "##օրինակ": 5062,
      "անօդաչու": 5063,
      "իսրայ": 5064,
      "ռեկ": 5065,
      "##ասը": 5066,
      "ւմ": 5067,
      "Քաղաքացիական": 5068,
      "Սեն": 5069,
      "նախազգուշ": 5070,
      "դիրքորոշումը": 5071,
      "##անքների": 5072,
      "պարզելու": 5073,
      "մոտակայքում": 5074,
      "Կանադ": 5075,
      "սերտ": 5076,
      "սեւ": 5077,
      "բերելու": 5078,
      "##ացիների": 5079,
      "մեքեն": 5080,
      "ամենա": 5081,
      "Էրդողանի": 5082,
      "Փոխ": 5083,
      "խորհուրդը": 5084,
      "##ացանց": 5085,
      "կենսաթոշ": 5086,
      "Նարեկ": 5087,
      "հռչակ": 5088,
      "##թթ": 5089,
      "##ահլիճ": 5090,
      "միջավայրի": 5091,
      "էլեկտրաէներգ": 5092,
      "##ine": 5093,
      "Թբիլ": 5094,
      "##ամին": 5095,
      "հաստատվել": 5096,
      "Ներկայում": 5097,
      "առնչվող": 5098,
      "գնահատում": 5099,
      "մեդ": 5100,
      "Աբրահամյանը": 5101,
      "ձեւաչափ": 5102,
      "Հարությունյանի": 5103,
      "##աքար": 5104,
      "հիմնադիր": 5105,
      "Վաղ": 5106,
      "##ախց": 5107,
      "ակադեմ": 5108,
      "պատգամավորների": 5109,
      "2009": 5110,
      "ադրբեջանց": 5111,
      "ամենամեծ": 5112,
      "##ag": 5113,
      "պահելու": 5114,
      "կոնգրես": 5115,
      "առանձնապես": 5116,
      "բնակիչները": 5117,
      "ներգրավված": 5118,
      "գյուղատնտեսության": 5119,
      "##րանյութ": 5120,
      "##ակիցը": 5121,
      "եկեղեցին": 5122,
      "##ուստի": 5123,
      "մակարդակով": 5124,
      "##ագրել": 5125,
      "##ուղու": 5126,
      "65": 5127,
      "75": 5128,
      "##յալի": 5129,
      "կորած": 5130,
      "##as": 5131,
      "շփման": 5132,
      "Հոկտեմբերի": 5133,
      "##ագրում": 5134,
      "##արգավաճ": 5135,
      "Արցախը": 5136,
      "խնդրում": 5137,
      "Սեյրան": 5138,
      "վրաերթի": 5139,
      "զարգացմանը": 5140,
      "մոր": 5141,
      "երկրներ": 5142,
      "բանակցություններ": 5143,
      "օտարերկրյա": 5144,
      "իսրայել": 5145,
      "կռ": 5146,
      "քմ": 5147,
      "##լիմ": 5148,
      "##ri": 5149,
      "տեսանկյուն": 5150,
      "հարձակում": 5151,
      "Եվրասիական": 5152,
      "էդ": 5153,
      "##ut": 5154,
      "##աբանում": 5155,
      "կայացել": 5156,
      "օրենքը": 5157,
      "կայանալիք": 5158,
      "իսկապես": 5159,
      "մեղադրել": 5160,
      "ուշադրություն": 5161,
      "##ինյանը": 5162,
      "ավազ": 5163,
      "Նախկին": 5164,
      "ընթացիկ": 5165,
      "ֆինանսների": 5166,
      "##մերուկ": 5167,
      "##քները": 5168,
      "էության": 5169,
      "ավելին": 5170,
      "մատն": 5171,
      "##ոյում": 5172,
      "ընտրություններ": 5173,
      "##ասան": 5174,
      "էլեկտր": 5175,
      "տոննա": 5176,
      "զիջ": 5177,
      "Անհ": 5178,
      "##վեյց": 5179,
      "չմ": 5180,
      "միմ": 5181,
      "##ընտրանք": 5182,
      "կադր": 5183,
      "##ամս": 5184,
      "##ոնյան": 5185,
      "աճը": 5186,
      "##ci": 5187,
      "տեւ": 5188,
      "մրցանակ": 5189,
      "Բաքվի": 5190,
      "լց": 5191,
      "խուզ": 5192,
      "##իկները": 5193,
      "շարունակական": 5194,
      "անկախության": 5195,
      "թատր": 5196,
      "ուրիշ": 5197,
      "ուսուց": 5198,
      "##ունը": 5199,
      "մասնակիցների": 5200,
      "տեղյակ": 5201,
      "##անցիկ": 5202,
      "պարբերաբար": 5203,
      "միմյանց": 5204,
      "մանր": 5205,
      "քաղաքացիներ": 5206,
      "##eta": 5207,
      "ուստի": 5208,
      "անհապաղ": 5209,
      "բարձրագույն": 5210,
      "ենթադրում": 5211,
      "կողմերը": 5212,
      "ջոկատ": 5213,
      "կկարող": 5214,
      "տիեզեր": 5215,
      "##խուժ": 5216,
      "##ham": 5217,
      "##ավը": 5218,
      "##ովմ": 5219,
      "Այստեղ": 5220,
      "##ակողմանի": 5221,
      "52": 5222,
      "##էջ": 5223,
      "##աքաղաքական": 5224,
      "46": 5225,
      "բովանդակ": 5226,
      "արարող": 5227,
      "##եսկ": 5228,
      "խորհրդական": 5229,
      "Տես": 5230,
      "դրոշ": 5231,
      "երաժշտ": 5232,
      "ավտոճանապարհի": 5233,
      "Թեհ": 5234,
      "Հաջ": 5235,
      "##ապաշտպան": 5236,
      "տեսանկյունից": 5237,
      "Սեպ": 5238,
      "թեստ": 5239,
      "խոց": 5240,
      "##վագ": 5241,
      "ընդունում": 5242,
      "տեղեկատվություն": 5243,
      "Գիտնական": 5244,
      "Օգ": 5245,
      "Արև": 5246,
      "արեւմտյան": 5247,
      "ենթակա": 5248,
      "այդքան": 5249,
      "կողմնակից": 5250,
      "ինքնությունը": 5251,
      "բյուջե": 5252,
      "##ամշակ": 5253,
      "ծրագրերը": 5254,
      "թույլտվ": 5255,
      "##ինին": 5256,
      "նորմալ": 5257,
      "անցնում": 5258,
      "կոչված": 5259,
      "ծխ": 5260,
      "Ավստր": 5261,
      "##ատիր": 5262,
      "հետաձգ": 5263,
      "ոստիկանների": 5264,
      "սեռական": 5265,
      "անձր": 5266,
      "##ԱՆ": 5267,
      "##առաջ": 5268,
      "ներխուժ": 5269,
      "գների": 5270,
      "ռեստոր": 5271,
      "##ժի": 5272,
      "գործնական": 5273,
      "նախաձեռնության": 5274,
      "վաճառքի": 5275,
      "Արտաշ": 5276,
      "իման": 5277,
      "##ևեկ": 5278,
      "հյուրանոց": 5279,
      "Սան": 5280,
      "ամենայն": 5281,
      "##ացիները": 5282,
      "դատապարտել": 5283,
      "##միած": 5284,
      "Խաչատրյանի": 5285,
      "Այսպիսով": 5286,
      "##ույթների": 5287,
      "##աներ": 5288,
      "հասնելու": 5289,
      "##ակցական": 5290,
      "Էդվարդ": 5291,
      "քր": 5292,
      "##ad": 5293,
      "ժամանակով": 5294,
      "համայնքների": 5295,
      "Ընդհանուր": 5296,
      "դեկտ": 5297,
      "ավտոմեքեն": 5298,
      "ժամանակին": 5299,
      "Ազատության": 5300,
      "Էջ": 5301,
      "##դեմ": 5302,
      "##աբանը": 5303,
      "Ar": 5304,
      "ապագա": 5305,
      "Սահմանադրության": 5306,
      "հանրաքվե": 5307,
      "կողմերի": 5308,
      "ստեղծում": 5309,
      "##ԽՎ": 5310,
      "##ուարդ": 5311,
      "##անալով": 5312,
      "փլուզ": 5313,
      "##բան": 5314,
      "##ապահական": 5315,
      "անելով": 5316,
      "առև": 5317,
      "արդյունքների": 5318,
      "երթևեկ": 5319,
      "##աբոր": 5320,
      "մարդկային": 5321,
      "դադարեցնել": 5322,
      "Իհարկե": 5323,
      "##արտար": 5324,
      "ինչո": 5325,
      "հարուցված": 5326,
      "##ավանդ": 5327,
      "իրանական": 5328,
      "հաշվին": 5329,
      "զբաղվում": 5330,
      "վերցրել": 5331,
      "կդառնա": 5332,
      "Վեն": 5333,
      "հաղթանակ": 5334,
      "##աբնակ": 5335,
      "գնաճ": 5336,
      "խաչմերուկ": 5337,
      "հնարավորությունները": 5338,
      "01": 5339,
      "##ողիկ": 5340,
      "##ազեկ": 5341,
      "##ապետը": 5342,
      "##ապետի": 5343,
      "ինչպիսի": 5344,
      "օգնական": 5345,
      "լրատվամիջոցների": 5346,
      "##խիթ": 5347,
      "թմրանյութ": 5348,
      "օրենսդրական": 5349,
      "Մայիսի": 5350,
      "գլխավորությամբ": 5351,
      "##երտի": 5352,
      "խնդ": 5353,
      "##ումներից": 5354,
      "առայժմ": 5355,
      "կողմն": 5356,
      "##ուլտ": 5357,
      "##ոյական": 5358,
      "Որպես": 5359,
      "կանգն": 5360,
      "տրվել": 5361,
      "##ովան": 5362,
      "մակարդակը": 5363,
      "Ալեն": 5364,
      "կղզ": 5365,
      "##վածքի": 5366,
      "ջանքերը": 5367,
      "Դատար": 5368,
      "150": 5369,
      "ծագ": 5370,
      "##ադուլ": 5371,
      "##իստական": 5372,
      "##ation": 5373,
      "ինտեգր": 5374,
      "միջավայր": 5375,
      "անվտանգությունը": 5376,
      "մարմինը": 5377,
      "չափազանց": 5378,
      "ահաբեկչ": 5379,
      "ինքնակ": 5380,
      "դահլիճ": 5381,
      "ժամկետով": 5382,
      "նահանգում": 5383,
      "ներսում": 5384,
      "##ոբալ": 5385,
      "բազմիցս": 5386,
      "Հունիսի": 5387,
      "##ակրթ": 5388,
      "Լիբան": 5389,
      "Բոր": 5390,
      "արձանագրել": 5391,
      "արտասահման": 5392,
      "Էջմիած": 5393,
      "Մեդ": 5394,
      "##րաֆ": 5395,
      "մարդասիրական": 5396,
      "գիտակց": 5397,
      "բնագ": 5398,
      "կողքին": 5399,
      "##ուշտ": 5400,
      "բրիտանական": 5401,
      "##միտ": 5402,
      "##ոսին": 5403,
      "արձակել": 5404,
      "ազատվել": 5405,
      "պատերազմը": 5406,
      "աստղ": 5407,
      "Էդուարդ": 5408,
      "Ասի": 5409,
      "ների": 5410,
      "դարձնել": 5411,
      "##ընկերության": 5412,
      "51": 5413,
      "BBC": 5414,
      "##ՄՍ": 5415,
      "Հանրապետական": 5416,
      "Ամերիկայի": 5417,
      "Ձեզ": 5418,
      "եղած": 5419,
      "ընթացակարգ": 5420,
      "նվազագույն": 5421,
      "ներդրումային": 5422,
      "St": 5423,
      "##անե": 5424,
      "բանակը": 5425,
      "կասկածանքով": 5426,
      "անչափահաս": 5427,
      "53": 5428,
      "հայաստանյան": 5429,
      "ընդունված": 5430,
      "հանգստ": 5431,
      "սահմանի": 5432,
      "տեղամաս": 5433,
      "փորձը": 5434,
      "այցը": 5435,
      "դաժան": 5436,
      "թուլ": 5437,
      "ոտն": 5438,
      "իրագործ": 5439,
      "դավաճ": 5440,
      "##պանում": 5441,
      "##եւին": 5442,
      "համաձայնության": 5443,
      "հիվանդանոցում": 5444,
      "հետեւում": 5445,
      "ծրագրեր": 5446,
      "սակագ": 5447,
      "Այլ": 5448,
      "Երևանում": 5449,
      "կշարունակ": 5450,
      "ԵԽԽՎ": 5451,
      "##քներ": 5452,
      "##ահեռ": 5453,
      "##րանում": 5454,
      "ասուլիսի": 5455,
      "հանգամանքները": 5456,
      "մեթոդ": 5457,
      "##azeta": 5458,
      "թմրամիջոց": 5459,
      "պետությունը": 5460,
      "ունեցավ": 5461,
      "էլեկտրական": 5462,
      "ծառայողները": 5463,
      "նրանցից": 5464,
      "ուսուցիչ": 5465,
      "ելնելով": 5466,
      "Էրեբունի": 5467,
      "բնագավառ": 5468,
      "##եցնի": 5469,
      "Եվրոպայում": 5470,
      "էկ": 5471,
      "##օգ": 5472,
      "սկզբին": 5473,
      "Վահագն": 5474,
      "ծանո": 5475,
      "ԵՏՄ": 5476,
      "կիլ": 5477,
      "հրահանգ": 5478,
      "ներուժ": 5479,
      "ավիա": 5480,
      "մասնակցության": 5481,
      "ճգնաժամի": 5482,
      "պես": 5483,
      "##եղի": 5484,
      "անգ": 5485,
      "քաղաքային": 5486,
      "անհրաժեշտությունը": 5487,
      "իրավիճակների": 5488,
      "##թերց": 5489,
      "քրեակատարողական": 5490,
      "տապալ": 5491,
      "ցուցադր": 5492,
      "դեպքերում": 5493,
      "ուկրաինական": 5494,
      "բլ": 5495,
      "##ավարտ": 5496,
      "փոխադարձ": 5497,
      "Կարմիր": 5498,
      "հաշվառ": 5499,
      "ուղղաթիռ": 5500,
      "միանգամ": 5501,
      "ժամկետը": 5502,
      "##անեկան": 5503,
      "##աքննիչ": 5504,
      "դիտավոր": 5505,
      "##hamsh": 5506,
      "գով": 5507,
      "##արդար": 5508,
      "ցուցահանդ": 5509,
      "Առողջ": 5510,
      "կոմիտե": 5511,
      "ԿԳՄՍ": 5512,
      "օգտատեր": 5513,
      "սպանվել": 5514,
      "CO": 5515,
      "##ian": 5516,
      "##աններ": 5517,
      "Սու": 5518,
      "տառ": 5519,
      "ներկր": 5520,
      "Օրինակ": 5521,
      "Թովմ": 5522,
      "##ածկ": 5523,
      "##ախության": 5524,
      "նախագահն": 5525,
      "Վահան": 5526,
      "գծով": 5527,
      "Ճապոնիայի": 5528,
      "համաժողով": 5529,
      "մեղադրանքով": 5530,
      "երաշխ": 5531,
      "թեեւ": 5532,
      "վերականգնման": 5533,
      "##ակտ": 5534,
      "##անկարը": 5535,
      "հայրենակից": 5536,
      "ավտովթար": 5537,
      "##hamshyan": 5538,
      "գին": 5539,
      "##ԸՀ": 5540,
      "##ումներն": 5541,
      "##ախախտ": 5542,
      "ցուցմունք": 5543,
      "##պետական": 5544,
      "##ացիա": 5545,
      "կրում": 5546,
      "Բարս": 5547,
      "պատժամիջոցների": 5548,
      "կքնն": 5549,
      "Քար": 5550,
      "ճանաչում": 5551,
      "Մանուկյանը": 5552,
      "Ավելին": 5553,
      "Գրիգորյանի": 5554,
      "Սկ": 5555,
      "երկրներից": 5556,
      "հեշտ": 5557,
      "փրկարարների": 5558,
      "գիտնականները": 5559,
      "ՀՔ": 5560,
      "Մահ": 5561,
      "դե": 5562,
      "##ress": 5563,
      "հետաքննություն": 5564,
      "Զել": 5565,
      "Չար": 5566,
      "մեջբեր": 5567,
      "Արմենիա": 5568,
      "ամիսներին": 5569,
      "Ապրիլի": 5570,
      "##ենն": 5571,
      "##իկյանը": 5572,
      "կատարման": 5573,
      "Մանվել": 5574,
      "Ինձ": 5575,
      "բանի": 5576,
      "լեռներում": 5577,
      "##ՈԱԿ": 5578,
      "գերատեսչ": 5579,
      "Դմիտ": 5580,
      "քառ": 5581,
      "անհամ": 5582,
      "ցնց": 5583,
      "##յակից": 5584,
      "##ռված": 5585,
      "սահմանը": 5586,
      "##ատում": 5587,
      "##ացնող": 5588,
      "մասնագիտ": 5589,
      "կազմակերպման": 5590,
      "Գյումրիում": 5591,
      "##սկայական": 5592,
      "գլխավորած": 5593,
      "երեխաներին": 5594,
      "Գաբ": 5595,
      "Ռազմ": 5596,
      "##հատ": 5597,
      "##ct": 5598,
      "տեղը": 5599,
      "Երկրի": 5600,
      "դրված": 5601,
      "փոփոխություն": 5602,
      "օրակարգում": 5603,
      "մաղթ": 5604,
      "##աջող": 5605,
      "աստիճանի": 5606,
      "Հրդեհ": 5607,
      "##արյանին": 5608,
      "##ոնների": 5609,
      "Հանրապետությունում": 5610,
      "խանգ": 5611,
      "Շարմ": 5612,
      "նախարարների": 5613,
      "Թուրքիա": 5614,
      "մայրաքաղաքում": 5615,
      "ընդգրկված": 5616,
      "բարձրացման": 5617,
      "տեր": 5618,
      "##ովս": 5619,
      "հանք": 5620,
      "պահի": 5621,
      "հոգի": 5622,
      "Բաղրամ": 5623,
      "բխ": 5624,
      "##ik": 5625,
      "պաշտպանի": 5626,
      "Դաշնության": 5627,
      "Ավստրալի": 5628,
      "Արեւմուտ": 5629,
      "##իպր": 5630,
      "Տարոն": 5631,
      "Գյումրիի": 5632,
      "##ունակի": 5633,
      "Փաշինյանին": 5634,
      "աջակցությամբ": 5635,
      "երկխոսության": 5636,
      "գործընթացում": 5637,
      "օրաթերթը": 5638,
      "Թբիլիսի": 5639,
      "ԲԿ": 5640,
      "Րաֆ": 5641,
      "համավար": 5642,
      "տեղաշարժ": 5643,
      "շահերի": 5644,
      "##վածքը": 5645,
      "Արգ": 5646,
      "մարմն": 5647,
      "օգտագործում": 5648,
      "լռ": 5649,
      "պահպանության": 5650,
      "պահեստ": 5651,
      "կառուցման": 5652,
      "Տն": 5653,
      "մոլոր": 5654,
      "արդիական": 5655,
      "հանգիստ": 5656,
      "մեղադրվում": 5657,
      "ֆոնին": 5658,
      "աջակցում": 5659,
      "բնույթի": 5660,
      "դրանով": 5661,
      "##փյուռքի": 5662,
      "օրում": 5663,
      "գողության": 5664,
      "սոց": 5665,
      "թողել": 5666,
      "բաժնետ": 5667,
      "Գալստ": 5668,
      "ծանոթաց": 5669,
      "Շնորհ": 5670,
      "Ղուկ": 5671,
      "##ագրով": 5672,
      "հարցազրույց": 5673,
      "չարաշահ": 5674,
      "Լար": 5675,
      "ՊԲ": 5676,
      "Սարգսյանին": 5677,
      "գործընկերության": 5678,
      "Ռուսաստանին": 5679,
      "անցկացնելու": 5680,
      "Վազգ": 5681,
      "Արեւելյան": 5682,
      "աղետ": 5683,
      "բացահայտվել": 5684,
      "##օղլ": 5685,
      "բեռ": 5686,
      "##ակցին": 5687,
      "ավելացել": 5688,
      "##րբաթ": 5689,
      "Հավ": 5690,
      "կոնֆ": 5691,
      "##ողությամբ": 5692,
      "##ածավալ": 5693,
      "շենքեր": 5694,
      "Վիկ": 5695,
      "##ber": 5696,
      "քարոզարշ": 5697,
      "Gazeta": 5698,
      "##բուրգ": 5699,
      "ոստիկանություն": 5700,
      "կորպ": 5701,
      "##անները": 5702,
      "##ավախ": 5703,
      "զինամթեր": 5704,
      "ընթերց": 5705,
      "գնաց": 5706,
      "Միխ": 5707,
      "Վարդանյանը": 5708,
      "##ժշկական": 5709,
      "##պտ": 5710,
      "անջ": 5711,
      "Նորք": 5712,
      "Անդրանիկ": 5713,
      "պապ": 5714,
      "տեսնել": 5715,
      "ամերիկացի": 5716,
      "գողացել": 5717,
      "App": 5718,
      "Մաքս": 5719,
      "ապագայում": 5720,
      "##յալը": 5721,
      "նախաձեռնությամբ": 5722,
      "անդամներին": 5723,
      "ենթարկված": 5724,
      "շենքը": 5725,
      "եկամուտների": 5726,
      "ախտորոշ": 5727,
      "ֆուտբոլ": 5728,
      "ուներ": 5729,
      "մարդը": 5730,
      "ցուցաբերել": 5731,
      "Գարեգ": 5732,
      "49": 5733,
      "փառատ": 5734,
      "օրն": 5735,
      "զորավարժ": 5736,
      "հանդիսանում": 5737,
      "Բաղդաս": 5738,
      "հսկայական": 5739,
      "աշխատակազմ": 5740,
      "իրավիճակում": 5741,
      "լիազորությունները": 5742,
      "Նավ": 5743,
      "Ռոս": 5744,
      "պաշտպանել": 5745,
      "առողջության": 5746,
      "բանկային": 5747,
      "շուկայի": 5748,
      "##ախմբի": 5749,
      "հոկ": 5750,
      "պաշար": 5751,
      "196": 5752,
      "խմբակց": 5753,
      "օգնությունը": 5754,
      "##ԱՏՄ": 5755,
      "Tim": 5756,
      "Դմիտրի": 5757,
      "Լուկ": 5758,
      "##առլ": 5759,
      "ընտրության": 5760,
      "գերեզ": 5761,
      "ծեծի": 5762,
      "դաշնային": 5763,
      "ջերմաստիճանը": 5764,
      "Մուրադ": 5765,
      "էժան": 5766,
      "հավաքել": 5767,
      "ենթակառուցվածքների": 5768,
      "հա": 5769,
      "##ID": 5770,
      "հոգեւոր": 5771,
      "ակնկալում": 5772,
      "Նրան": 5773,
      "տանի": 5774,
      "արյուն": 5775,
      "աշխատող": 5776,
      "ծախսերը": 5777,
      "Միջոց": 5778,
      "առանձնահատ": 5779,
      "թաքց": 5780,
      "Վի": 5781,
      "##ավորումների": 5782,
      "այցով": 5783,
      "կաշառք": 5784,
      "Աբդ": 5785,
      "պաշտոնյաների": 5786,
      "կկազմ": 5787,
      "ԿԸՀ": 5788,
      "պատկանում": 5789,
      "##եքշաբթի": 5790,
      "կալանքի": 5791,
      "խուզարկ": 5792,
      "եթ": 5793,
      "թվի": 5794,
      "դեպարտ": 5795,
      "կայացվել": 5796,
      "ձեւավոր": 5797,
      "բուհ": 5798,
      "վարել": 5799,
      "Մելիք": 5800,
      "կրել": 5801,
      "##կանց": 5802,
      "մերժել": 5803,
      "Խաղաղ": 5804,
      "Հաղորդ": 5805,
      "Սրբ": 5806,
      "կեր": 5807,
      "Ռուսական": 5808,
      "Մովս": 5809,
      "համաձայնագիրը": 5810,
      "##աճյուղ": 5811,
      "կրկն": 5812,
      "Սև": 5813,
      "##անանք": 5814,
      "մանրամասներ": 5815,
      "##ավճ": 5816,
      "##եմի": 5817,
      "պայքարը": 5818,
      "մաքր": 5819,
      "անխ": 5820,
      "##մարթ": 5821,
      "56": 5822,
      "ամսական": 5823,
      "օդային": 5824,
      "Աշխարհ": 5825,
      "Շվեդ": 5826,
      "##ահանջ": 5827,
      "##անքները": 5828,
      "##յակը": 5829,
      "իրավունքները": 5830,
      "սպառազին": 5831,
      "խել": 5832,
      "նրանից": 5833,
      "##այիլ": 5834,
      "վերսկս": 5835,
      "անցկ": 5836,
      "կառավարությանը": 5837,
      "նամակ": 5838,
      "Հայտարար": 5839,
      "ԱՀ": 5840,
      "##ագրման": 5841,
      "Ոստիկանությունը": 5842,
      "ներդրումների": 5843,
      "ազդեցություն": 5844,
      "գոտում": 5845,
      "##ադրանքը": 5846,
      "օժանդակ": 5847,
      "Սեպտեմբերի": 5848,
      "արվել": 5849,
      "##ուհետ": 5850,
      "հարձակվել": 5851,
      "Վանաձորի": 5852,
      "Գարեգին": 5853,
      "քանդ": 5854,
      "երազ": 5855,
      "սահմանային": 5856,
      "բռնկվել": 5857,
      "Շարմազան": 5858,
      "դերը": 5859,
      "հրաձ": 5860,
      "##մուն": 5861,
      "մեքենա": 5862,
      "էներգետիկ": 5863,
      "Ղազախստանի": 5864,
      "յոթ": 5865,
      "##լավ": 5866,
      "ծառայողների": 5867,
      "Մնացական": 5868,
      "Համաշխարհային": 5869,
      "Արդեն": 5870,
      "ընկալ": 5871,
      "էս": 5872,
      "##ագրերի": 5873,
      "վերջո": 5874,
      "լսել": 5875,
      ".,": 5876,
      "պատասխ": 5877,
      "այնուհետեւ": 5878,
      "09": 5879,
      "Դրանք": 5880,
      "ստեղծագործ": 5881,
      "արշ": 5882,
      "կրոնական": 5883,
      "հարաբերություններ": 5884,
      "մեքենաների": 5885,
      "Աստված": 5886,
      "ՔԿՀ": 5887,
      "Նոյեմբերի": 5888,
      "##ունելի": 5889,
      "աղբյուրը": 5890,
      "առաքելության": 5891,
      "##ատրելի": 5892,
      "ձերբակալված": 5893,
      "հակառակորդի": 5894,
      "արև": 5895,
      "54": 5896,
      "գոհ": 5897,
      "չվերթ": 5898,
      "թեթ": 5899,
      "լքել": 5900,
      "##ՆԱ": 5901,
      "արեւել": 5902,
      "աճուրդ": 5903,
      "մայրաքաղաքի": 5904,
      "Ակն": 5905,
      "Մխիթ": 5906,
      "Արեւել": 5907,
      "Են": 5908,
      "թթ": 5909,
      "Ստեփանակերտ": 5910,
      "##արանից": 5911,
      "գործողության": 5912,
      "##ուհու": 5913,
      "կմասն": 5914,
      "խոստովանել": 5915,
      "##ամաք": 5916,
      "կանայք": 5917,
      "անցկացվել": 5918,
      "կնոջը": 5919,
      "տեղադրված": 5920,
      "Զար": 5921,
      "փոխվել": 5922,
      "հատվածի": 5923,
      "մասնաճյուղ": 5924,
      "մեկնարկել": 5925,
      "Մոսկվա": 5926,
      "Բաց": 5927,
      "Թոր": 5928,
      "Շենգ": 5929,
      "նախագիծ": 5930,
      "հայտարարվել": 5931,
      "Թագ": 5932,
      "հասցնել": 5933,
      "աջակցելու": 5934,
      "օգնությամբ": 5935,
      "Տեղեկ": 5936,
      "գագաթն": 5937,
      "Պողոսյանը": 5938,
      "հակա": 5939,
      "տղան": 5940,
      "ատր": 5941,
      "քրիստ": 5942,
      "հնարավորինս": 5943,
      "##ուբար": 5944,
      "տեխնոլոգիական": 5945,
      "Թայի": 5946,
      "Քանի": 5947,
      "##so": 5948,
      "##ափն": 5949,
      "անվճար": 5950,
      "Թուրքիային": 5951,
      "հաղթահար": 5952,
      "ներկայացել": 5953,
      "Ռեջ": 5954,
      "##ստիկ": 5955,
      "##աշխատ": 5956,
      "շուտով": 5957,
      "##սեփ": 5958,
      "##ակարգի": 5959,
      "հրապարակված": 5960,
      "ադրբեջանցի": 5961,
      "Արդարադատության": 5962,
      "##ացմամբ": 5963,
      "մարմինները": 5964,
      "կանոնները": 5965,
      "անմիջական": 5966,
      "ճարտար": 5967,
      "Ռուսաստանից": 5968,
      "հանրությանը": 5969,
      "գոնե": 5970,
      "մոն": 5971,
      "Մերձավոր": 5972,
      "վերադառնալ": 5973,
      "խեղ": 5974,
      "պաշտոնեական": 5975,
      "Հովսեփ": 5976,
      "սրահ": 5977,
      "##ավարությունը": 5978,
      "Ուկրաինային": 5979,
      "2015թ": 5980,
      "##ովն": 5981,
      "զարգացում": 5982,
      "բաղադր": 5983,
      "կանխարգելման": 5984,
      "Թայիփ": 5985,
      "ՎԱԶ": 5986,
      "##ԷԿ": 5987,
      "##ագետները": 5988,
      "Դատախազ": 5989,
      "ներդ": 5990,
      "այլընտրանք": 5991,
      "##ենկ": 5992,
      "տոկոսի": 5993,
      "մակեր": 5994,
      "ճանաչվել": 5995,
      "մանդատ": 5996,
      "Մակ": 5997,
      "ղեկավարության": 5998,
      "բռնի": 5999,
      "վրացական": 6000,
      "զուգահեռ": 6001,
      "Վազգեն": 6002,
      "58": 6003,
      "##ուների": 6004,
      "բնույթ": 6005,
      "##ապարտեզ": 6006,
      "փաստաթղթերի": 6007,
      "համոզված": 6008,
      "Չինաստանը": 6009,
      "վճռական": 6010,
      "պետքարտուղար": 6011,
      "ասուլիսում": 6012,
      "կոպ": 6013,
      "չլին": 6014,
      "գլոբալ": 6015,
      "կազմակերպելու": 6016,
      "նշանակել": 6017,
      "զբաղվել": 6018,
      "երթուղ": 6019,
      "Ճանապարհ": 6020,
      "##ցեն": 6021,
      "Իրաքի": 6022,
      "Կիր": 6023,
      "անպ": 6024,
      "համախմբ": 6025,
      "գլուխ": 6026,
      "Պետրոսյանի": 6027,
      "հավանականությամբ": 6028,
      "տարածքների": 6029,
      "պայմանները": 6030,
      "հիմնված": 6031,
      "ճանաչման": 6032,
      "տեղեկությունը": 6033,
      "շաբաթվա": 6034,
      "տունը": 6035,
      "շուկան": 6036,
      "##ագրությունը": 6037,
      "քաղաքագետ": 6038,
      "շահերը": 6039,
      "գումարի": 6040,
      "մասնագետների": 6041,
      "Վիկտոր": 6042,
      "Ռեջեփ": 6043,
      "ՓԾ": 6044,
      "չինական": 6045,
      "շրջակա": 6046,
      "Ուկրաինան": 6047,
      "չունենք": 6048,
      "Apple": 6049,
      "##ամենտ": 6050,
      "շեշտել": 6051,
      "Շվեյց": 6052,
      "Սալ": 6053,
      "փողոցների": 6054,
      "##մարթֆ": 6055,
      "##Ու": 6056,
      "##ոնշ": 6057,
      "##աստանում": 6058,
      "Անդրե": 6059,
      "սովորական": 6060,
      ",-": 6061,
      "Ոսկ": 6062,
      "նշվել": 6063,
      "հետաքրքիր": 6064,
      "դերակատար": 6065,
      "Հն": 6066,
      "Հանձն": 6067,
      "##այնության": 6068,
      "անդամներ": 6069,
      "միջադեպի": 6070,
      "վիզ": 6071,
      "վարչությունից": 6072,
      "աղբ": 6073,
      "գործընթացին": 6074,
      "ցեղասպանությունը": 6075,
      "Րաֆֆի": 6076,
      "Համբ": 6077,
      "##լով": 6078,
      "##անքում": 6079,
      "վարած": 6080,
      "Ժամը": 6081,
      "##աղեստին": 6082,
      "մնաց": 6083,
      "Սիմոնյանը": 6084,
      "Օգոստոսի": 6085,
      "տարածած": 6086,
      "Աբովյան": 6087,
      "ժողովուրդների": 6088,
      "Ներկայումս": 6089,
      "Times": 6090,
      "Մեքս": 6091,
      "գետ": 6092,
      "Վանաձոր": 6093,
      "02": 6094,
      "փոխադր": 6095,
      "ժողովրդական": 6096,
      "##աննա": 6097,
      "վաճառել": 6098,
      "Հաշվի": 6099,
      "##ավական": 6100,
      "##ստրի": 6101,
      "պատիժ": 6102,
      "հանդիպումներ": 6103,
      "ինքնասպան": 6104,
      "հայտնաբերված": 6105,
      "ավտոմեքենաները": 6106,
      "կոռուպցիայի": 6107,
      "Դիմ": 6108,
      "բոլորին": 6109,
      "օգտվել": 6110,
      "ավտոմեքենա": 6111,
      "Ամերի": 6112,
      "կիրառման": 6113,
      "թեմայով": 6114,
      "առիթով": 6115,
      "ձմ": 6116,
      "հասկաց": 6117,
      "անցնել": 6118,
      "բոլորի": 6119,
      "պայմաններ": 6120,
      "վարկած": 6121,
      "Ամերիկյան": 6122,
      "Գյուղ": 6123,
      "Մհ": 6124,
      "առաջացրել": 6125,
      "սկանդ": 6126,
      "մեղմ": 6127,
      "հիմնավոր": 6128,
      "հանցագործություն": 6129,
      "կոմիտեն": 6130,
      "##եցվել": 6131,
      "պայմանների": 6132,
      "ռեկորդ": 6133,
      "ՊՈԱԿ": 6134,
      "հուս": 6135,
      "վարք": 6136,
      "ծրագրում": 6137,
      "հանրապետությունում": 6138,
      "##ամերձ": 6139,
      "##տրի": 6140,
      "արհեստական": 6141,
      "57": 6142,
      "ակցիա": 6143,
      "դնել": 6144,
      "##թոնի": 6145,
      "անփ": 6146,
      "##ոսում": 6147,
      "նկատեց": 6148,
      "հիշեցրել": 6149,
      "To": 6150,
      "Դեռ": 6151,
      "ստանձն": 6152,
      "քարտեզ": 6153,
      "ՄԻՊ": 6154,
      "զրույց": 6155,
      "նրբ": 6156,
      "##թող": 6157,
      "չափանիշ": 6158,
      "քվեարկության": 6159,
      "Հենց": 6160,
      "մասնակցությունը": 6161,
      "բացման": 6162,
      "##id": 6163,
      "##վենց": 6164,
      "##մանդամ": 6165,
      "##եռնարկ": 6166,
      "##իլիջ": 6167,
      "շահագործման": 6168,
      "Հեռ": 6169,
      "Մարկ": 6170,
      "##կել": 6171,
      "##լահ": 6172,
      "##ենդան": 6173,
      "##ոնն": 6174,
      "##ատարի": 6175,
      "ժողովում": 6176,
      "փոփոխության": 6177,
      "դաշտում": 6178,
      "Մարգարյանը": 6179,
      "Մակր": 6180,
      "վայրի": 6181,
      "##բեկ": 6182,
      "նկատի": 6183,
      "Սարգիս": 6184,
      "լուծելու": 6185,
      "հետախուզության": 6186,
      "զեկուց": 6187,
      "ավանդական": 6188,
      "հսկողության": 6189,
      "Սին": 6190,
      "##ղթի": 6191,
      "ընտրել": 6192,
      "մշակման": 6193,
      "ճշտ": 6194,
      "ներկայացնող": 6195,
      "մշակել": 6196,
      "ամրապնդման": 6197,
      "Նաիրա": 6198,
      "ԵՊՀ": 6199,
      "##ալյանը": 6200,
      "կենտրոնը": 6201,
      "Փաշինյան": 6202,
      "անընդհատ": 6203,
      "հաշվետվ": 6204,
      "երաշխիք": 6205,
      "##ձգ": 6206,
      "##որդները": 6207,
      "Ադրբեջան": 6208,
      "##ույթները": 6209,
      "սեփականատեր": 6210,
      "ձախող": 6211,
      "տարր": 6212,
      "աղմ": 6213,
      "զարգացումը": 6214,
      "##ig": 6215,
      "դեսպանը": 6216,
      "մեղադրում": 6217,
      "գործերով": 6218,
      "կրակել": 6219,
      "հայտնելով": 6220,
      "աշխատանքներին": 6221,
      "բռնություն": 6222,
      "գրանցված": 6223,
      "դատապարտվել": 6224,
      "ավտոբուս": 6225,
      "Իլհամ": 6226,
      "մերձ": 6227,
      "հրապարակվել": 6228,
      "անունից": 6229,
      "մոդել": 6230,
      "Բրյուսել": 6231,
      "Be": 6232,
      "Թում": 6233,
      "խարդ": 6234,
      "մոռ": 6235,
      "##երային": 6236,
      "##ողին": 6237,
      "անս": 6238,
      "նախաքնն": 6239,
      "մուտքի": 6240,
      "Բարձր": 6241,
      "Փետր": 6242,
      "##անուն": 6243,
      "համարանիշի": 6244,
      "##ագնաց": 6245,
      "եզրակացության": 6246,
      "59": 6247,
      "Տոն": 6248,
      "##ումի": 6249,
      "հաշիվ": 6250,
      "ժողովրդավարության": 6251,
      "զբաղեց": 6252,
      "դատախազի": 6253,
      "բացահայտել": 6254,
      "վերադարձել": 6255,
      "##ուստր": 6256,
      "մայրը": 6257,
      "եղանակով": 6258,
      "հրազենային": 6259,
      "Այո": 6260,
      "ցուցակում": 6261,
      "ակցիայի": 6262,
      "խնդրանք": 6263,
      "##ավաճառ": 6264,
      "Արշակ": 6265,
      "որովհետև": 6266,
      "սպորտի": 6267,
      "լինելով": 6268,
      "պարզաբանել": 6269,
      "Ժառանգություն": 6270,
      "##ասեր": 6271,
      "##ապատվ": 6272,
      "Ուղ": 6273,
      "Մարուք": 6274,
      "ֆրանսիական": 6275,
      "Դիլիջ": 6276,
      "խորհրդարան": 6277,
      "կառուցել": 6278,
      "արձագանքել": 6279,
      "մեկնաբանել": 6280,
      "##ահայկական": 6281,
      "անշարժ": 6282,
      "շնորհավորել": 6283,
      "պատվիրակությունը": 6284,
      "մանկապարտեզ": 6285,
      "2013թ": 6286,
      "Կիպր": 6287,
      "##եւում": 6288,
      "##ֆորմ": 6289,
      "(«": 6290,
      "62": 6291,
      "Բարգավաճ": 6292,
      "օրեր": 6293,
      "2000": 6294,
      "լրատվամիջոցները": 6295,
      "եզրափակ": 6296,
      "##ադրություն": 6297,
      "բացարձակ": 6298,
      "քննարկելու": 6299,
      "կիրական": 6300,
      "հավաքվել": 6301,
      "անունով": 6302,
      "բիզնեսի": 6303,
      "ատրճ": 6304,
      "պատգամավորները": 6305,
      "պտ": 6306,
      "տանում": 6307,
      "##օգտ": 6308,
      "փախուստի": 6309,
      "##ակներում": 6310,
      "##ավորություն": 6311,
      "##րաչ": 6312,
      "##աշվիլին": 6313,
      "էլեկտրաէներգիայի": 6314,
      "ՀՔԾ": 6315,
      "համացանց": 6316,
      "համայնքում": 6317,
      "խախտման": 6318,
      "Միջոցառ": 6319,
      "Վիր": 6320,
      "##խորհրդ": 6321,
      "պահանջները": 6322,
      "Բաքվում": 6323,
      "##ելիքի": 6324,
      "մինչդեռ": 6325,
      "բերում": 6326,
      "հայրը": 6327,
      "Մինասյանը": 6328,
      "Բադ": 6329,
      "Բակո": 6330,
      "հետեւել": 6331,
      "պատասխանելով": 6332,
      "##քերում": 6333,
      "հիմնախ": 6334,
      "արգելել": 6335,
      "խուսափելու": 6336,
      "հավատարմ": 6337,
      "##եթի": 6338,
      "հայոց": 6339,
      "ասելով": 6340,
      "օրս": 6341,
      "բարեգործ": 6342,
      "հասցեին": 6343,
      "խնամ": 6344,
      "Հուլիսի": 6345,
      "միկ": 6346,
      "կուտակ": 6347,
      "լաբոր": 6348,
      "տեսախց": 6349,
      "հասցնելու": 6350,
      "արգելափակ": 6351,
      "հետազոտությունների": 6352,
      "ազդեցության": 6353,
      "Միրզոյանը": 6354,
      "համերգ": 6355,
      "սննդի": 6356,
      "անջատ": 6357,
      "##իտակ": 6358,
      "կազմակերպությունը": 6359,
      "կունենան": 6360,
      "Անցած": 6361,
      "600": 6362,
      "խաբ": 6363,
      "միգ": 6364,
      "##որդներին": 6365,
      "ծառայողական": 6366,
      "ոստիկանական": 6367,
      "քաղաքականություն": 6368,
      "Այնուհետեւ": 6369,
      "որդու": 6370,
      "##enta": 6371,
      "տեքստ": 6372,
      "ծառայությունները": 6373,
      "Ցեղասպանության": 6374,
      "Հալ": 6375,
      "Այսպես": 6376,
      "շրջափակ": 6377,
      "Ուր": 6378,
      "##ուստամ": 6379,
      "COV": 6380,
      "անցկացման": 6381,
      "Հայտնի": 6382,
      "##աշրջանի": 6383,
      "Գորիս": 6384,
      "տեսքով": 6385,
      "210": 6386,
      "##eg": 6387,
      "##աշրջան": 6388,
      "ապրիլ": 6389,
      "ստանձ": 6390,
      "##աչափի": 6391,
      "մտածում": 6392,
      "Մյուս": 6393,
      "##բանկ": 6394,
      "բժշ": 6395,
      "Կառավարությունը": 6396,
      "իրադարձությունների": 6397,
      "08": 6398,
      "Թաթ": 6399,
      "լող": 6400,
      "##նջ": 6401,
      "##գան": 6402,
      "##դիր": 6403,
      "##երսի": 6404,
      "աննախ": 6405,
      "հակակ": 6406,
      "նյութերի": 6407,
      "կոլ": 6408,
      "##ոնյանը": 6409,
      "##աբժշկական": 6410,
      "կարդ": 6411,
      "օրյա": 6412,
      "Ֆրանսիան": 6413,
      "Արաբկ": 6414,
      "ժամանած": 6415,
      "Բաղրամյան": 6416,
      "Սե": 6417,
      "սմարթֆ": 6418,
      "Եւ": 6419,
      "բորս": 6420,
      "##մուշ": 6421,
      "##ապետական": 6422,
      "օդանավակայանում": 6423,
      "##տեմբեր": 6424,
      "##ևի": 6425,
      "հայտարարությամբ": 6426,
      "վարչությունում": 6427,
      "##րեյ": 6428,
      "Բեռ": 6429,
      "##աբաշխ": 6430,
      "Անտ": 6431,
      "արձակվել": 6432,
      "Ծրագր": 6433,
      "Հարկ": 6434,
      "զնն": 6435,
      "մթեր": 6436,
      "##գոր": 6437,
      "##իմի": 6438,
      "ամրագր": 6439,
      "պարտականությունները": 6440,
      "Առողջապահության": 6441,
      "Լի": 6442,
      "Մաշտ": 6443,
      "##ub": 6444,
      "##քերն": 6445,
      "հանգամանքը": 6446,
      "կայունության": 6447,
      "##ավճար": 6448,
      "հավելված": 6449,
      "հայրենիք": 6450,
      "##ականները": 6451,
      "հերքել": 6452,
      "կուսակցությունների": 6453,
      "լրացումներ": 6454,
      "##ոնշյալ": 6455,
      "Հունգ": 6456,
      "անընդունելի": 6457,
      "##ժեք": 6458,
      "թվականներին": 6459,
      "արդյունքներով": 6460,
      "Պատգամավոր": 6461,
      "Վերջինս": 6462,
      "ճգնաժամային": 6463,
      "85": 6464,
      "Անի": 6465,
      "##ադրույ": 6466,
      "2020թ": 6467,
      "Լրագր": 6468,
      "##սափ": 6469,
      "##պաստ": 6470,
      "օգոստ": 6471,
      "##աշինության": 6472,
      "դասախոս": 6473,
      "Հրաչ": 6474,
      "##ատակի": 6475,
      "##ագիծ": 6476,
      "##ալական": 6477,
      "դեռևս": 6478,
      "կորոնավիրուս": 6479,
      "ատել": 6480,
      "ձգտում": 6481,
      "##ոնտ": 6482,
      "ներկայացրած": 6483,
      "խորհրդարանը": 6484,
      "Պետրոս": 6485,
      "##եսոր": 6486,
      "առեր": 6487,
      "գործունեություն": 6488,
      "փետրվար": 6489,
      "գերեզման": 6490,
      "COVID": 6491,
      "աննախադեպ": 6492,
      "##ակիցները": 6493,
      "բնակիչներին": 6494,
      "Հունաստանի": 6495,
      "փաստաթղթերը": 6496,
      "եռամս": 6497,
      "Մարտիրոսյանը": 6498,
      "միկրո": 6499,
      "իրազեկ": 6500,
      "տեղադրել": 6501,
      "աշխատատեղ": 6502,
      "##ուլիսին": 6503,
      "նմանատիպ": 6504,
      "Ծառուկյանի": 6505,
      "հասկանալ": 6506,
      "Գաբրի": 6507,
      "արվում": 6508,
      "առաջադրված": 6509,
      "կալանավորվել": 6510,
      "բաժանորդները": 6511,
      "Բայդենը": 6512,
      "Պետեր": 6513,
      "2014թ": 6514,
      "Լուկաշեն": 6515,
      "Աջ": 6516,
      "Կաս": 6517,
      "Պակի": 6518,
      "զսպ": 6519,
      "##կն": 6520,
      "##ՏԱ": 6521,
      "փորձաքննության": 6522,
      "բաժանորդներ": 6523,
      "Միլ": 6524,
      "ճեպ": 6525,
      "օղ": 6526,
      "##անվել": 6527,
      "Ալավեր": 6528,
      "կիրակի": 6529,
      "աղբյուրները": 6530,
      "Հնդկաստանի": 6531,
      "Նուբար": 6532,
      "էկոնոմիկայի": 6533,
      "##պար": 6534,
      "##ասկան": 6535,
      "##ահուն": 6536,
      "սատար": 6537,
      "վաստ": 6538,
      "##ռը": 6539,
      "##ամյակ": 6540,
      "տեղահան": 6541,
      "Լաչ": 6542,
      "կանաչ": 6543,
      "սպասարկման": 6544,
      "խախտել": 6545,
      "արդյունաբերության": 6546,
      "կտեղ": 6547,
      "չբ": 6548,
      "##վկ": 6549,
      "##ուղարկ": 6550,
      "դիմակայ": 6551,
      "ԱՆ": 6552,
      "դրդ": 6553,
      "##լամ": 6554,
      "Նախնական": 6555,
      "հանդիսացող": 6556,
      "##անթ": 6557,
      "##եմպ": 6558,
      "ականատես": 6559,
      "պրոց": 6560,
      "Զանգ": 6561,
      "մայ": 6562,
      "##միկ": 6563,
      "հրապարակային": 6564,
      "չափերով": 6565,
      "Ֆրանսիայում": 6566,
      "փաստաթղթեր": 6567,
      "ծախսերի": 6568,
      "##ոկայ": 6569,
      "անցակետ": 6570,
      "հոդվածով": 6571,
      "պատերազմում": 6572,
      "Համաձայն": 6573,
      "խուսափել": 6574,
      "կորցրել": 6575,
      "հասցեում": 6576,
      "դռ": 6577,
      "ինչից": 6578,
      "##դամթեր": 6579,
      "##յուպատ": 6580,
      "Ավագ": 6581,
      "օբյեկտիվ": 6582,
      "թռչող": 6583,
      "##ականության": 6584,
      "գործարք": 6585,
      "հաստատված": 6586,
      "զբաղվող": 6587,
      "կորոնավիրուսով": 6588,
      "հորդոր": 6589,
      "Չեխ": 6590,
      "հնարավորություններ": 6591,
      "##քերից": 6592,
      "սկսում": 6593,
      "Պետդ": 6594,
      "##րաձայն": 6595,
      "Press": 6596,
      "հրաժարականի": 6597,
      "Դեկտեմբերի": 6598,
      "Ջերմ": 6599,
      "##oog": 6600,
      "շրջանառության": 6601,
      "գործոն": 6602,
      "առաջացել": 6603,
      "կենդանիների": 6604,
      "Մհեր": 6605,
      "բարի": 6606,
      "##յո": 6607,
      "միջպետական": 6608,
      "իրավաբանական": 6609,
      "քննիչ": 6610,
      "ԶՈՒ": 6611,
      "Ցուց": 6612,
      "ամառ": 6613,
      "խնդիրն": 6614,
      "կարծես": 6615,
      "փոփոխությունները": 6616,
      "հատվածը": 6617,
      "շենքերը": 6618,
      "2018թ": 6619,
      "ռեժիմը": 6620,
      "նեղ": 6621,
      "ընդդեմ": 6622,
      "Հունվարի": 6623,
      "##եմին": 6624,
      "համարժեք": 6625,
      "պատգամավորի": 6626,
      "առանցքային": 6627,
      "պարբերականը": 6628,
      "Shamshyan": 6629,
      "Վոլ": 6630,
      "##um": 6631,
      "##ինդ": 6632,
      "##ալին": 6633,
      "ուրբաթ": 6634,
      "##եյթ": 6635,
      "վաղուց": 6636,
      "Գերագույն": 6637,
      "##լինի": 6638,
      "տարբերություն": 6639,
      "Իսրայելը": 6640,
      "անհնար": 6641,
      "առգրավ": 6642,
      "տարածքներում": 6643,
      "կետի": 6644,
      "եռակողմ": 6645,
      "հետապնդում": 6646,
      "Իտալիայի": 6647,
      "##սեր": 6648,
      "ղեկավարները": 6649,
      "1000": 6650,
      "##վկիան": 6651,
      "##oogle": 6652,
      "ժամանակը": 6653,
      "դրամական": 6654,
      "սեպտեմբերին": 6655,
      "հղել": 6656,
      "հավանաբար": 6657,
      "##վածքով": 6658,
      "հարստ": 6659,
      "հեռացել": 6660,
      "մտնում": 6661,
      "Միեւնույն": 6662,
      "##ոռուպցիոն": 6663,
      "##առության": 6664,
      "ձեւակերպ": 6665,
      "առեւանգ": 6666,
      "Հիմն": 6667,
      "64": 6668,
      "ՀՆԱ": 6669,
      "##ջախ": 6670,
      "անցնելու": 6671,
      "կարեւորել": 6672,
      "երեխաները": 6673,
      "Ինտեր": 6674,
      "թափանցիկ": 6675,
      "Կաթ": 6676,
      "հեն": 6677,
      "##լա": 6678,
      "պարեկ": 6679,
      "191": 6680,
      "Ոստիկանությունից": 6681,
      "կլիներ": 6682,
      "Նախագահի": 6683,
      "բացակայության": 6684,
      "Փետրվարի": 6685,
      "Դիտ": 6686,
      "ընթացող": 6687,
      "ընթացքը": 6688,
      "ընտրողների": 6689,
      "ամենաբ": 6690,
      "Ինչո": 6691,
      "վայրէջ": 6692,
      "Լավրովը": 6693,
      "Դես": 6694,
      "##անքներ": 6695,
      "դեպքը": 6696,
      "պատվաստ": 6697,
      "դեպքերը": 6698,
      "կփոխ": 6699,
      "AP": 6700,
      "բենզ": 6701,
      "##ափակել": 6702,
      "պատասխանատվություն": 6703,
      "ծավալը": 6704,
      "ներկայացուցչի": 6705,
      "03": 6706,
      "Սի": 6707,
      "հայտարարությունները": 6708,
      "երկուշաբթի": 6709,
      "համակարգերի": 6710,
      "Տղ": 6711,
      "էթն": 6712,
      "լրջ": 6713,
      "ռեկտ": 6714,
      "##աստանը": 6715,
      "կարմիր": 6716,
      "քայլերը": 6717,
      "05": 6718,
      "ԿԲ": 6719,
      "Սասուն": 6720,
      "թերթ": 6721,
      "Օբաման": 6722,
      "Ջր": 6723,
      "##ամար": 6724,
      "ներառում": 6725,
      "Տնտես": 6726,
      "Ցավ": 6727,
      "փամփ": 6728,
      "##թույլ": 6729,
      "##լե": 6730,
      "##ran": 6731,
      "որս": 6732,
      "##եյտ": 6733,
      "Սարգսյան": 6734,
      "մեղադրական": 6735,
      "կոշտ": 6736,
      "CN": 6737,
      "##ak": 6738,
      "##ուրժ": 6739,
      "նախապես": 6740,
      "իրավապաշտպան": 6741,
      "Google": 6742,
      "լեգ": 6743,
      "որակի": 6744,
      "մեղադրյալ": 6745,
      "տիկին": 6746,
      "կարի": 6747,
      "քննարկումների": 6748,
      "խողով": 6749,
      "##ամադր": 6750,
      "##ամյա": 6751,
      "բացատրել": 6752,
      "##ոյին": 6753,
      "Ռուսաստանն": 6754,
      "Կրեմ": 6755,
      "գյուղատնտեսական": 6756,
      "ԵԱՏՄ": 6757,
      "Զաք": 6758,
      "սահմանվել": 6759,
      "Անջ": 6760,
      "կենտրոնից": 6761,
      "տարբերակը": 6762,
      "խոշորագույն": 6763,
      "Ջո": 6764,
      "##կերը": 6765,
      "##ոտի": 6766,
      "Վարդեն": 6767,
      "վարկանիշ": 6768,
      "Հռոմի": 6769,
      "##ատներ": 6770,
      "##րամաս": 6771,
      "գտնվելու": 6772,
      "Բանկ": 6773,
      "ջարդ": 6774,
      "պահում": 6775,
      "ավելացրել": 6776,
      "փոխգործակցության": 6777,
      "Բրազ": 6778,
      "Ընտր": 6779,
      "շինարարության": 6780,
      "զորամասի": 6781,
      "տները": 6782,
      "##ուլղ": 6783,
      "պարզվում": 6784,
      "հավանություն": 6785,
      "##չին": 6786,
      "երկարաժամկետ": 6787,
      "պողոտայում": 6788,
      "63": 6789,
      "համաձայնագիր": 6790,
      "պայթյունի": 6791,
      "##ացնեն": 6792,
      "ազատել": 6793,
      "ձեւով": 6794,
      "Արաբիայի": 6795,
      "օրինագիծը": 6796,
      "տառապ": 6797,
      "ցանցի": 6798,
      "##երիների": 6799,
      "հերթապահ": 6800,
      "տնօրենը": 6801,
      "Ող": 6802,
      "կից": 6803,
      "ակտ": 6804,
      "120": 6805,
      "ընտանիքների": 6806,
      "փրկարարները": 6807,
      "լրատվության": 6808,
      "էներգետիկայի": 6809,
      "գերմանական": 6810,
      "բակում": 6811,
      "դեսպանատան": 6812,
      "թիմի": 6813,
      "##լիմպ": 6814,
      "աշխատելու": 6815,
      "դատավճ": 6816,
      "ավարտել": 6817,
      "ինտերնետ": 6818,
      "An": 6819,
      "Կալ": 6820,
      "##ենկոն": 6821,
      "պայմանավորվել": 6822,
      "կրկնակի": 6823,
      "Մինչեւ": 6824,
      "Օհանյանը": 6825,
      "ԻՊ": 6826,
      "Մոլդ": 6827,
      "##որթ": 6828,
      "##ամետ": 6829,
      "ներկայացրեց": 6830,
      "տեխնոլոգիան": 6831,
      "հեռախոսազրույց": 6832,
      "Սաղ": 6833,
      "##եո": 6834,
      "##ուլյ": 6835,
      "սահմանապահ": 6836,
      "գրոհային": 6837,
      "##որմ": 6838,
      "##ապատասխան": 6839,
      "լիներ": 6840,
      "տրված": 6841,
      "շտապօգնության": 6842,
      "արված": 6843,
      "պատանդ": 6844,
      "ընտրություններից": 6845,
      "կարգը": 6846,
      "պաշտպանելու": 6847,
      "Գազայի": 6848,
      "հայրենիքի": 6849,
      "Ռաֆ": 6850,
      "հյուպատ": 6851,
      "առաջարկը": 6852,
      "աշխատակիցներին": 6853,
      "սուբյ": 6854,
      "Դրանց": 6855,
      "##լեր": 6856,
      "ամուր": 6857,
      "ինչպիսին": 6858,
      "Ադրբեջանական": 6859,
      "հաշմանդամ": 6860,
      "լիովին": 6861,
      "դատախազությունը": 6862,
      "72": 6863,
      "Ցանկ": 6864,
      "##ուռ": 6865,
      "պայմանագիրը": 6866,
      "Գերմանիայում": 6867,
      "91": 6868,
      "ընկերությունները": 6869,
      "սպանված": 6870,
      "բարեկամական": 6871,
      "Գեղամ": 6872,
      "արժանացել": 6873,
      "նշան": 6874,
      "##ուկը": 6875,
      "մտնել": 6876,
      "դերասան": 6877,
      "Ավետիսյանը": 6878,
      "Լաչինի": 6879,
      "Հրանտ": 6880,
      "##ոյանն": 6881,
      "անտես": 6882,
      "ստաց": 6883,
      "##լիի": 6884,
      "հաղորդմամբ": 6885,
      "տարբերակ": 6886,
      "մասնակիցներին": 6887,
      "ուսումնասիրել": 6888,
      "հանձնարարել": 6889,
      "շինարարական": 6890,
      "Գերմանիան": 6891,
      "##տային": 6892,
      "##շռ": 6893,
      "Անահ": 6894,
      "բացառիկ": 6895,
      "Աթոռ": 6896,
      "Էն": 6897,
      "##կռ": 6898,
      "##ost": 6899,
      "##ՀՄ": 6900,
      "##րանկ": 6901,
      "երկրներին": 6902,
      "տնտեսվար": 6903,
      "զբաղեցնում": 6904,
      "##իսկոպ": 6905,
      "նախաձեռնությունը": 6906,
      "Sp": 6907,
      "դուստր": 6908,
      "ծավ": 6909,
      "##աբլ": 6910,
      "ուղղություններով": 6911,
      "ցուցանիշը": 6912,
      "վիճաբան": 6913,
      "կալանավորված": 6914,
      "Bl": 6915,
      "ինչպե": 6916,
      "շատերը": 6917,
      "բնակելի": 6918,
      "ղեկավարությունը": 6919,
      "անձնակազմի": 6920,
      "Գևոր": 6921,
      "Մրց": 6922,
      "թարմ": 6923,
      "սրբ": 6924,
      "##կյան": 6925,
      "##ուրը": 6926,
      "անկարգ": 6927,
      "##one": 6928,
      "Միխայիլ": 6929,
      "թեթեւ": 6930,
      "Աշտ": 6931,
      "խրախ": 6932,
      "հմ": 6933,
      "##անաք": 6934,
      "Ուստի": 6935,
      "մասնագետները": 6936,
      "սերունդ": 6937,
      "##իսը": 6938,
      "սահմանների": 6939,
      "կանխելու": 6940,
      "ուշադրության": 6941,
      "##անիչ": 6942,
      "պայթուց": 6943,
      "Անահիտ": 6944,
      "##ատիկ": 6945,
      "##ագրավ": 6946,
      "նախարարությունից": 6947,
      "բնակվող": 6948,
      "զգում": 6949,
      "լաբորատոր": 6950,
      "61": 6951,
      "Կոլ": 6952,
      "ամպ": 6953,
      "ամենակար": 6954,
      "կյանքում": 6955,
      "ճշգր": 6956,
      "քաղաքներում": 6957,
      "հասնում": 6958,
      "վարչակազմ": 6959,
      "միջոցներով": 6960,
      "195": 6961,
      "նպաստել": 6962,
      "երեւում": 6963,
      "վերականգնել": 6964,
      "դնում": 6965,
      "կխ": 6966,
      "տաղ": 6967,
      "վարչապետին": 6968,
      "արտահոս": 6969,
      "##իլիպ": 6970,
      "իսրայելական": 6971,
      "Բաղդասարյանը": 6972,
      "Ախ": 6973,
      "Յուրի": 6974,
      "##նձ": 6975,
      "հասնելով": 6976,
      "բացվել": 6977,
      "##րախորհրդ": 6978,
      "բժիշկները": 6979,
      "Փրկարարները": 6980,
      "Ֆին": 6981,
      "չեք": 6982,
      "##մահ": 6983,
      "անհատական": 6984,
      "պատմությունը": 6985,
      "Մոսկվան": 6986,
      "մտածել": 6987,
      "դիտավորությամբ": 6988,
      "»)": 6989,
      "##ականներ": 6990,
      "##ուսն": 6991,
      "Նշված": 6992,
      "դատի": 6993,
      "պատմեց": 6994,
      "չափը": 6995,
      "հովանավոր": 6996,
      "բանտարկ": 6997,
      "Նազար": 6998,
      "##ունու": 6999,
      "ուժգն": 7000,
      "շենքերի": 7001,
      "խմբերի": 7002,
      "Տուժ": 7003,
      "պղ": 7004,
      "##աթի": 7005,
      "ավեր": 7006,
      "թվային": 7007,
      "բարձրաձայն": 7008,
      "Ավտ": 7009,
      "##որոշման": 7010,
      "սպառնալիքի": 7011,
      "##օղլուն": 7012,
      "##ուրույն": 7013,
      "##ուսական": 7014,
      "##ուղի": 7015,
      "պահանջով": 7016,
      "##ՈՒՆ": 7017,
      "Իրական": 7018,
      "Ալիեւը": 7019,
      "As": 7020,
      "Lenta": 7021,
      "թալ": 7022,
      "ութ": 7023,
      "##ադիտ": 7024,
      "ծանոթացել": 7025,
      "եթերում": 7026,
      "հաստ": 7027,
      "##լիկ": 7028,
      "##մունքը": 7029,
      "մասում": 7030,
      "##որդական": 7031,
      "օրական": 7032,
      "##ափակում": 7033,
      "թվականը": 7034,
      "վայրերում": 7035,
      "իրավիճակին": 7036,
      "##սպաս": 7037,
      "Գևորգ": 7038,
      "Հեր": 7039,
      "հայտարարությանը": 7040,
      "բարձրացնել": 7041,
      "Մելք": 7042,
      "դեկտեմբերին": 7043,
      "տարհան": 7044,
      "խախտումների": 7045,
      "##ենտին": 7046,
      "Ծառուկյանը": 7047,
      "դավաճան": 7048,
      "պաղեստին": 7049,
      "քամ": 7050,
      "բանկը": 7051,
      "Կոնգրեսի": 7052,
      "##արկը": 7053,
      "խնդիրներին": 7054,
      "հաստատելու": 7055,
      "հավաքական": 7056,
      "Ներկայաց": 7057,
      "անձրեւ": 7058,
      "##ույգ": 7059,
      "##որդին": 7060,
      "հրդեհի": 7061,
      "Mer": 7062,
      "Լիտ": 7063,
      "##ազն": 7064,
      "երկրից": 7065,
      "Վրաստան": 7066,
      "##րակտ": 7067,
      "եղբոր": 7068,
      "Կողմ": 7069,
      "Յուր": 7070,
      "##անդարտ": 7071,
      "իրավախախտ": 7072,
      "իրականացումը": 7073,
      "եկավ": 7074,
      "պարզաբանում": 7075,
      "փախստականների": 7076,
      "Էր": 7077,
      "##վաճառ": 7078,
      "փրկել": 7079,
      "սարսափ": 7080,
      "ծննդյան": 7081,
      "##քատ": 7082,
      "փայտ": 7083,
      "իշխանություն": 7084,
      "ենթարկելու": 7085,
      "##ահամալ": 7086,
      "##նեմ": 7087,
      "գործողություն": 7088,
      "հարաբերություններում": 7089,
      "Խոսքը": 7090,
      "Հատուկ": 7091,
      "կատարելով": 7092,
      "ինքնուրույն": 7093,
      "ապահովում": 7094,
      "էթնիկ": 7095,
      "դիզ": 7096,
      "կկայ": 7097,
      "ընտրված": 7098,
      "Ադրբեջանն": 7099,
      "##ափոխադր": 7100,
      "որտեղից": 7101,
      "Ալիեւի": 7102,
      "հափշտակ": 7103,
      "Բրազիլի": 7104,
      "06": 7105,
      "Պր": 7106,
      "##մոն": 7107,
      "Երիտասարդ": 7108,
      "տրամադրելու": 7109,
      "հնչել": 7110,
      "Բայդենի": 7111,
      "գանձ": 7112,
      "հակառ": 7113,
      "Վարչապետը": 7114,
      "տեղումների": 7115,
      "Միայն": 7116,
      "երթեւեկելի": 7117,
      "փամփուշտ": 7118,
      "##արյանն": 7119,
      "անվանում": 7120,
      "ընտանիքը": 7121,
      "վտանգի": 7122,
      "ավտոմեքենաների": 7123,
      "2016թ": 7124,
      "հավատում": 7125,
      "միգր": 7126,
      "##իմիական": 7127,
      "կլիմ": 7128,
      "Ավստրի": 7129,
      "##լանդիայի": 7130,
      "##օգտագործ": 7131,
      "ժամանակավորապես": 7132,
      "փորձաքննություն": 7133,
      "անդամակցության": 7134,
      "պատասխանատվությունը": 7135,
      "Ամենայն": 7136,
      "Մաշտոցի": 7137,
      "Քեր": 7138,
      "##ատապ": 7139,
      "համաժողովի": 7140,
      "##ոտենցի": 7141,
      "##ուկի": 7142,
      "##ոկի": 7143,
      "##շտաբ": 7144,
      "անդամակց": 7145,
      "տոկոսադրույ": 7146,
      "Նախորդ": 7147,
      "ամբաստան": 7148,
      "Տարած": 7149,
      "Չի": 7150,
      "##ուրաբ": 7151,
      "տրամաչափի": 7152,
      "պատերազմից": 7153,
      "դպրոցում": 7154,
      "տանող": 7155,
      "գց": 7156,
      "##ացրած": 7157,
      "շրջապատ": 7158,
      "հրետ": 7159,
      "Ավան": 7160,
      "Ներքին": 7161,
      "Հայրեն": 7162,
      "Հովհաննիսյանի": 7163,
      "##ոմսերի": 7164,
      "##aily": 7165,
      "Եվրախորհրդ": 7166,
      "ապագայի": 7167,
      "2007": 7168,
      "կմեկ": 7169,
      "##est": 7170,
      "ճնշում": 7171,
      "թաղամասի": 7172,
      "Կովկասում": 7173,
      "լեռն": 7174,
      "կվ": 7175,
      "##կացած": 7176,
      "##սր": 7177,
      "միացել": 7178,
      "Իսպ": 7179,
      "անցկացնում": 7180,
      "Նալբանդյանը": 7181,
      "սցեն": 7182,
      "այսպիսի": 7183,
      "կամրջ": 7184,
      "հիվանդության": 7185,
      "ատոմ": 7186,
      "ռուբլու": 7187,
      "ժառանգության": 7188,
      "Arm": 7189,
      "Մեդվեդ": 7190,
      "##զմի": 7191,
      "##ովայի": 7192,
      "տեսակ": 7193,
      "կառավարությունն": 7194,
      "Միշ": 7195,
      "չկարող": 7196,
      "կայքի": 7197,
      "##եզոք": 7198,
      "##ակայանի": 7199,
      "խաղաղություն": 7200,
      "ելույթում": 7201,
      "Բարսեղ": 7202,
      "Իջ": 7203,
      "##արգման": 7204,
      "վարում": 7205,
      "պաշտոնավար": 7206,
      "##ard": 7207,
      "դառնալու": 7208,
      "գնդապետ": 7209,
      "հարցն": 7210,
      "սահմանում": 7211,
      "կքննարկ": 7212,
      "թոշ": 7213,
      "տարածված": 7214,
      "բարձրացել": 7215,
      "դիտարկում": 7216,
      "կիլոմ": 7217,
      "անկեղծ": 7218,
      "Մարաշ": 7219,
      "միջնորդությունը": 7220,
      "Չինաստանում": 7221,
      "իշխանական": 7222,
      "քաղց": 7223,
      "ստորաբաժանումների": 7224,
      "սննդամթեր": 7225,
      "Լեհաստանի": 7226,
      "քո": 7227,
      "##ենին": 7228,
      "համագում": 7229,
      "հանդիպումից": 7230,
      "խմբավորման": 7231,
      "ընդգծելով": 7232,
      "միջոցառումները": 7233,
      "տիրող": 7234,
      "վարձակալ": 7235,
      "Մեղրի": 7236,
      "Զելեն": 7237,
      "iP": 7238,
      "##եչ": 7239,
      "##անյ": 7240,
      "վերոնշյալ": 7241,
      "անցկացվում": 7242,
      "հարվածներ": 7243,
      "Իրանում": 7244,
      "կշարունակի": 7245,
      "Զինված": 7246,
      "Պեսկ": 7247,
      "պոտենցի": 7248,
      "##աիր": 7249,
      "պահանջը": 7250,
      "արվեստի": 7251,
      "հյուպատոս": 7252,
      "Ch": 7253,
      "քանակը": 7254,
      "##վին": 7255,
      "##արակի": 7256,
      "##ունց": 7257,
      "##ախմ": 7258,
      "պատահար": 7259,
      "##ատեսակ": 7260,
      "##յուչ": 7261,
      "հրաժարվում": 7262,
      "արձագանքեց": 7263,
      "ողբերգական": 7264,
      "տարածման": 7265,
      "հիմքով": 7266,
      "նախագծերի": 7267,
      "հիշում": 7268,
      "Ինտերֆ": 7269,
      "##ced": 7270,
      "շարքում": 7271,
      "##ոգման": 7272,
      "Հարավ": 7273,
      "քարտուղարի": 7274,
      "անմեղ": 7275,
      "Չեմ": 7276,
      "ընտանեկան": 7277,
      "Գյուլ": 7278,
      "07": 7279,
      "կաց": 7280,
      "պրակտ": 7281,
      "##ագի": 7282,
      "առաջադրել": 7283,
      "գնով": 7284,
      "Արտակարգ": 7285,
      "դասընթաց": 7286,
      "ծնվել": 7287,
      "բաժանմունքի": 7288,
      "Միջադեպ": 7289,
      "Զուրաբ": 7290,
      "հպարտ": 7291,
      "եղավ": 7292,
      "սկզբում": 7293,
      "Հակոբյանի": 7294,
      "Կիմ": 7295,
      "##պահ": 7296,
      "##աբանի": 7297,
      "հայեց": 7298,
      "##ոհամ": 7299,
      "##ոստանջ": 7300,
      "բնակիչներ": 7301,
      "զորակոչ": 7302,
      "ակտիվորեն": 7303,
      "կոռուպցիոն": 7304,
      "Ղազար": 7305,
      "հետաքննության": 7306,
      "համայնքային": 7307,
      "թեկնածուն": 7308,
      "##eline": 7309,
      "բաղկացած": 7310,
      "Զոհրաբյանը": 7311,
      "Մկրտչյանը": 7312,
      "Գիտնականները": 7313,
      "Դոլ": 7314,
      "Կոստ": 7315,
      "Ռուստամ": 7316,
      "##եսթ": 7317,
      "նախաքննության": 7318,
      "կառավարական": 7319,
      "հատվածներում": 7320,
      "վարկային": 7321,
      "67": 7322,
      "Օդի": 7323,
      "##ունքով": 7324,
      "##ադաշտ": 7325,
      "##նդի": 7326,
      "հակամարտությունը": 7327,
      "մուտքը": 7328,
      "ապրող": 7329,
      "տարելից": 7330,
      "միանգամից": 7331,
      "սուտ": 7332,
      "հայհ": 7333,
      "Այվազ": 7334,
      "##ենցաղ": 7335,
      "անհրաժեշտություն": 7336,
      "Ոստիկանները": 7337,
      "##պրոց": 7338,
      "երիտասարդների": 7339,
      "ուսանողների": 7340,
      "համավարակի": 7341,
      "##բլ": 7342,
      "այնուամենայնիվ": 7343,
      "##եդեր": 7344,
      "մրցույթի": 7345,
      "ամիսների": 7346,
      "Մալաթ": 7347,
      "##թոնը": 7348,
      "վարժ": 7349,
      "##եխնիկական": 7350,
      "գրանցել": 7351,
      "վերահաստատ": 7352,
      "արժեքների": 7353,
      "տիրապետ": 7354,
      "կանչել": 7355,
      "Ադ": 7356,
      "Ներս": 7357,
      "խուլի": 7358,
      "##մա": 7359,
      "ասոցի": 7360,
      "փաստաբանը": 7361,
      "հիմնադր": 7362,
      "Վահրամ": 7363,
      "կտրամադր": 7364,
      "դառնա": 7365,
      "լայնածավալ": 7366,
      "Ստամբուլի": 7367,
      "երդ": 7368,
      "168": 7369,
      "##ավայրում": 7370,
      "գուցե": 7371,
      "չեզոք": 7372,
      "ունակ": 7373,
      "ստանդարտ": 7374,
      "##աձգել": 7375,
      "տեղեկությունները": 7376,
      "օգտագործելով": 7377,
      "մեկնաբանելով": 7378,
      "Եգիպտոսի": 7379,
      "ուժային": 7380,
      "##ահարույց": 7381,
      "դեսպանի": 7382,
      "պատվիր": 7383,
      "2012թ": 7384,
      "միջանցքի": 7385,
      "հոսպիտալացվել": 7386,
      "ՄՏ": 7387,
      "Սիսի": 7388,
      "Վր": 7389,
      "Վթարի": 7390,
      "ձգ": 7391,
      "արաբ": 7392,
      "##աթափ": 7393,
      "խրախուս": 7394,
      "լվ": 7395,
      "մագն": 7396,
      "##լը": 7397,
      "##բուր": 7398,
      "##արվ": 7399,
      "արեւելյան": 7400,
      "հետեւողական": 7401,
      "մայիսին": 7402,
      "խց": 7403,
      "քննարկումներ": 7404,
      "տղամարդկանց": 7405,
      "տեղեկատվությունը": 7406,
      "աղբյուրների": 7407,
      "Ուկրաինա": 7408,
      "Քաղաքական": 7409,
      "Մայք": 7410,
      "ժխտ": 7411,
      "##երորդ": 7412,
      "##ացուն": 7413,
      "ամերի": 7414,
      "##ուղղ": 7415,
      "կանխել": 7416,
      "մարմիններին": 7417,
      "Բախ": 7418,
      "գա": 7419,
      "##ցիների": 7420,
      "##ույժ": 7421,
      "օրերս": 7422,
      "միջոցառման": 7423,
      "նոյեմբերին": 7424,
      "հիշյալ": 7425,
      "հեռուստատես": 7426,
      "պլան": 7427,
      "արժանապատվ": 7428,
      "ուշադրությունը": 7429,
      "Վալերի": 7430,
      "Air": 7431,
      "Հոլ": 7432,
      "դարի": 7433,
      "##սն": 7434,
      "երև": 7435,
      "վստահության": 7436,
      "վեճ": 7437,
      "##բին": 7438,
      "##յանների": 7439,
      "վերապատրաստ": 7440,
      "նախագահների": 7441,
      "գրավոր": 7442,
      "արժանի": 7443,
      "հաղթել": 7444,
      "չունեց": 7445,
      "##աստանյութ": 7446,
      "խլ": 7447,
      "կընդ": 7448,
      "##os": 7449,
      "տարեց": 7450,
      "թեժ": 7451,
      "դատաբժշկական": 7452,
      "խորհրդակց": 7453,
      "Հանրապետություն": 7454,
      "բյուր": 7455,
      "##աձոր": 7456,
      "կարողանա": 7457,
      "համակարգող": 7458,
      "հետևյալ": 7459,
      "արձակուրդ": 7460,
      "փոխհատուցում": 7461,
      "հեռուստաալիքը": 7462,
      "66": 7463,
      "Ֆլ": 7464,
      "##ահաղորդ": 7465,
      "առցանց": 7466,
      "պրոֆեսոր": 7467,
      "պատասխանը": 7468,
      "Վիլ": 7469,
      "գեղեց": 7470,
      "##20": 7471,
      "##ամիտ": 7472,
      "գործն": 7473,
      "անդամի": 7474,
      "սիրում": 7475,
      "կարգավիճակի": 7476,
      "բարեգործական": 7477,
      "##cedes": 7478,
      "ԱԽ": 7479,
      "Թայ": 7480,
      "խոհ": 7481,
      "ներողություն": 7482,
      "##ոշտանգ": 7483,
      "##ուտի": 7484,
      "թղթակիցը": 7485,
      "Բաքուն": 7486,
      "պատժամիջոցներ": 7487,
      "Անցյալ": 7488,
      "Սասն": 7489,
      "լճի": 7490,
      "մաք": 7491,
      "##iv": 7492,
      "օրենսդիր": 7493,
      "##ոջը": 7494,
      "լիազորությունների": 7495,
      "սրտի": 7496,
      "Ճապոնի": 7497,
      "Համբարձ": 7498,
      "Beeline": 7499,
      "Ինտերֆաքս": 7500,
      "For": 7501,
      "##ատարակ": 7502,
      "##րիպ": 7503,
      "##ընկալ": 7504,
      "տեղեկացրեց": 7505,
      "կայքը": 7506,
      "Սերբ": 7507,
      "ժամկետային": 7508,
      "##իսկոպոս": 7509,
      "պայթուցիկ": 7510,
      "Ֆիլիպ": 7511,
      "զերծ": 7512,
      "հարուստ": 7513,
      "արտադրանքի": 7514,
      "այլև": 7515,
      "##ուհանդ": 7516,
      "քննարկվում": 7517,
      "Նախարարը": 7518,
      "Ջեյ": 7519,
      "##մարտ": 7520,
      "բարոյական": 7521,
      "ծեծկռ": 7522,
      "Հաջորդ": 7523,
      "Mercedes": 7524,
      "սադրանք": 7525,
      "քույր": 7526,
      "##սից": 7527,
      "##այտն": 7528,
      "ազատամարտ": 7529,
      "պատրաստված": 7530,
      "զանգահարել": 7531,
      "Գեւորգյանը": 7532,
      "առարկա": 7533,
      "շահագրգռված": 7534,
      "հաստատման": 7535,
      "մեղադրվող": 7536,
      "հիմնադրամը": 7537,
      "Բաբայանը": 7538,
      "Բրյուսելում": 7539,
      "Կա": 7540,
      "Նիդ": 7541,
      "##սան": 7542,
      "##սել": 7543,
      "##ումային": 7544,
      "առաջացնում": 7545,
      "##ելիության": 7546,
      "հանգեցրել": 7547,
      "ջոկատից": 7548,
      "Կազմ": 7549,
      "##ow": 7550,
      "##ալց": 7551,
      "ինժ": 7552,
      "##գրավել": 7553,
      "ենթադրյալ": 7554,
      "օրգ": 7555,
      "ներկայացնելով": 7556,
      "Պարոն": 7557,
      "դատավորի": 7558,
      "##ապարփակ": 7559,
      "73": 7560,
      "Ղազարյանը": 7561,
      "##ահետ": 7562,
      "տարեկ": 7563,
      "ցանկություն": 7564,
      "Շարմազանովը": 7565,
      "Ձեռնարկ": 7566,
      "ճամբ": 7567,
      "##զգ": 7568,
      "##ov": 7569,
      "աճում": 7570,
      "առաքելությունը": 7571,
      "2017թ": 7572,
      "հագուստ": 7573,
      "##ուհանդերձ": 7574,
      "Մուս": 7575,
      "##այանը": 7576,
      "խորհրդատվ": 7577,
      "հանրությունը": 7578,
      "եկած": 7579,
      "գործողություններին": 7580,
      "##ումբը": 7581,
      "հիշեցնում": 7582,
      "##արդյունաբեր": 7583,
      "##ատվի": 7584,
      "նախաքննություն": 7585,
      "##իտոր": 7586,
      "ինչքան": 7587,
      "կենդ": 7588,
      "04": 7589,
      "Մոտ": 7590,
      "օկ": 7591,
      "սպիտակ": 7592,
      "##եինք": 7593,
      "օրինագծ": 7594,
      "Աման": 7595,
      "##ասյան": 7596,
      "##ացումն": 7597,
      "հայերը": 7598,
      "ընձ": 7599,
      "##րամասն": 7600,
      "խոսք": 7601,
      "կառուցողական": 7602,
      "Կովկասի": 7603,
      "Դեսպան": 7604,
      "##արել": 7605,
      "##ստանը": 7606,
      "պատգամավորներ": 7607,
      "աչքի": 7608,
      "թանգարան": 7609,
      "##ram": 7610,
      "գործադրել": 7611,
      "##ոլիտ": 7612,
      "##իվա": 7613,
      "վարչակազմի": 7614,
      "լրիվ": 7615,
      "Սասնա": 7616,
      "դիպ": 7617,
      "տեմպ": 7618,
      "հաստատությունների": 7619,
      "հասարակայնության": 7620,
      "արգելված": 7621,
      "գծում": 7622,
      "ատյանի": 7623,
      "հարյուրավոր": 7624,
      "տներից": 7625,
      "##իզբ": 7626,
      "կստեղծ": 7627,
      "մեջբերում": 7628,
      "##կոհ": 7629,
      "##SA": 7630,
      "##ուա": 7631,
      "Աղբյուր": 7632,
      "##այլի": 7633,
      "անհիմն": 7634,
      "##աբանների": 7635,
      "##ամասնական": 7636,
      "ծնվ": 7637,
      "տրվում": 7638,
      "կուսակցություն": 7639,
      "Տղամարդ": 7640,
      "էլի": 7641,
      "ֆյուչ": 7642,
      "##արկմանը": 7643,
      "գործարանի": 7644,
      "ապրիլին": 7645,
      "ներդրումներ": 7646,
      "ֆինանսավորման": 7647,
      "տրամադրված": 7648,
      "հղի": 7649,
      "առաջնային": 7650,
      "հետաքրքրություն": 7651,
      "##ենսիվ": 7652,
      "կենցաղ": 7653,
      "հաշվով": 7654,
      "պատվաստանյութ": 7655,
      "թեկնածուների": 7656,
      "սիրիական": 7657,
      "կանոնակարգ": 7658,
      "հարազատները": 7659,
      "զեկույցում": 7660,
      "2011թ": 7661,
      "հավատարիմ": 7662,
      "800": 7663,
      "երիտասարդական": 7664,
      "թղթակցին": 7665,
      "գրասենյակից": 7666,
      "գույք": 7667,
      "ամենաբարձր": 7668,
      "74": 7669,
      "##ոյանին": 7670,
      "կազմված": 7671,
      "աղքատ": 7672,
      "երեխաներ": 7673,
      "Կարապետյանի": 7674,
      "ընդլայնման": 7675,
      "բնականաբար": 7676,
      "օդանավակայանի": 7677,
      "տաճ": 7678,
      "ժամկետում": 7679,
      "այրվել": 7680,
      "հյուսիսային": 7681,
      "գնալու": 7682,
      "Անկարայի": 7683,
      "68": 7684,
      "ած": 7685,
      "ուղևոր": 7686,
      "##իպի": 7687,
      "հեռավորության": 7688,
      "կազմակերպվել": 7689,
      "գյուղը": 7690,
      "տնտեսությունը": 7691,
      "քայլերի": 7692,
      "դադարեցնելու": 7693,
      "ազդեցությունը": 7694,
      "ատրճանակ": 7695,
      "##ագրվել": 7696,
      "հրատապ": 7697,
      "Հանդիպմանը": 7698,
      "ավտոմեքենայով": 7699,
      "##ացնենք": 7700,
      "Այր": 7701,
      "##ամասում": 7702,
      "կոմուն": 7703,
      "Այնուամենայնիվ": 7704,
      "Վրաստանը": 7705,
      "սրտ": 7706,
      "Հետազոտ": 7707,
      "համայնքապետ": 7708,
      "գեղ": 7709,
      "##ադաս": 7710,
      "հետաքնն": 7711,
      "գրվել": 7712,
      "հիմքում": 7713,
      "բնապահպանական": 7714,
      "հոկտեմբերին": 7715,
      "Զախ": 7716,
      "ծածկ": 7717,
      "գործելու": 7718,
      "##վաճ": 7719,
      "տեսանելի": 7720,
      "գործընկերներին": 7721,
      "ընդդիմությունը": 7722,
      "թագավոր": 7723,
      "of": 7724,
      "##գիայի": 7725,
      "անհատ": 7726,
      "միջոցը": 7727,
      "պահանջելով": 7728,
      "կյանքին": 7729,
      "գոտի": 7730,
      "օրենսդրության": 7731,
      "##ներիս": 7732,
      "քաղաքը": 7733,
      "կազմի": 7734,
      "վերաբերվում": 7735,
      "համաձայնել": 7736,
      "ծրագրով": 7737,
      "մահապատ": 7738,
      "վնասվել": 7739,
      "թիմը": 7740,
      "ստանձնել": 7741,
      "Քլին": 7742,
      "##վայի": 7743,
      "կառույցի": 7744,
      "օրակարգի": 7745,
      "ինչպիսիք": 7746,
      "Բուլղ": 7747,
      "Նիստ": 7748,
      "##ացր": 7749,
      "##եցվի": 7750,
      "Ընդդիմ": 7751,
      "չունեմ": 7752,
      "կգա": 7753,
      "պատժամիջոցները": 7754,
      "լեզվ": 7755,
      "ռուբլի": 7756,
      "Նահանգների": 7757,
      "Daily": 7758,
      "պորտ": 7759,
      "կրծ": 7760,
      "ցուցակը": 7761,
      "կոնվենց": 7762,
      "որդուն": 7763,
      "աղջիկ": 7764,
      "Բժ": 7765,
      "Զոր": 7766,
      "Հարգ": 7767,
      "Շրջ": 7768,
      "հայտնաբերելու": 7769,
      "95": 7770,
      "##ութի": 7771,
      "##ոլիկ": 7772,
      "##աղաքական": 7773,
      "հարցաքնն": 7774,
      "դրամը": 7775,
      "Եվրո": 7776,
      "աշխարհաքաղաքական": 7777,
      "հարկի": 7778,
      "սիրի": 7779,
      "Լիբանանի": 7780,
      "##մունքում": 7781,
      "700": 7782,
      "Գայ": 7783,
      "տարաձայն": 7784,
      "հավաստ": 7785,
      "104": 7786,
      "խաղում": 7787,
      "կարեւորությունը": 7788,
      "հերքում": 7789,
      "երեխային": 7790,
      "Անկարան": 7791,
      "պրոֆեսի": 7792,
      "արարողությանը": 7793,
      "Համբարձում": 7794,
      "##աշենի": 7795,
      "Հայտն": 7796,
      "##եպորտ": 7797,
      "##անդի": 7798,
      "պաշտոնի": 7799,
      "դրության": 7800,
      "շահերից": 7801,
      "տրամաբան": 7802,
      "250": 7803,
      "համալր": 7804,
      "հիշեցրեց": 7805,
      "գրասենյակը": 7806,
      "հորդորում": 7807,
      "նետել": 7808,
      "Շվեդիայի": 7809,
      "Սաղաթ": 7810,
      "ՄՏՍ": 7811,
      "ոճ": 7812,
      "##em": 7813,
      "այո": 7814,
      "հայաց": 7815,
      "##աժողովին": 7816,
      "ներկայացուցիչներին": 7817,
      "կնքել": 7818,
      "զգալիորեն": 7819,
      "հեղափոխության": 7820,
      "Ելք": 7821,
      "Հաղթ": 7822,
      "##նիկ": 7823,
      "ընդունման": 7824,
      "ճգնաժամը": 7825,
      "գերատեսչության": 7826,
      "Լյու": 7827,
      "Վստահ": 7828,
      "ըմբ": 7829,
      "հուզ": 7830,
      "##երիմ": 7831,
      "համալիրի": 7832,
      "պարունակում": 7833,
      "արքայ": 7834,
      "77": 7835,
      "##ուռն": 7836,
      "##ապայման": 7837,
      "առաջացած": 7838,
      "օգնում": 7839,
      "որոշումների": 7840,
      "ծառայությունում": 7841,
      "շենքում": 7842,
      "փաստաթղթի": 7843,
      "դպրոցների": 7844,
      "Մաքսային": 7845,
      "##եպորտաժ": 7846,
      "ԽՍ": 7847,
      "ձկն": 7848,
      "##արական": 7849,
      "##աշրջանում": 7850,
      "տարածքից": 7851,
      "ձայների": 7852,
      "##ևան": 7853,
      "##ուճ": 7854,
      "##րիարք": 7855,
      "խոսքում": 7856,
      "պատճառները": 7857,
      "օգտակար": 7858,
      "հիմնարար": 7859,
      "ինտենսիվ": 7860,
      "հրթիռային": 7861,
      "Վարչապետի": 7862,
      "78": 7863,
      "էն": 7864,
      "հիմնարկ": 7865,
      "Նորքի": 7866,
      "հրամանով": 7867,
      "Երկիր": 7868,
      "Ամբ": 7869,
      "##ob": 7870,
      "##ետիկ": 7871,
      "համաձայնագր": 7872,
      "լուծումներ": 7873,
      "գտնում": 7874,
      "սարքերի": 7875,
      "ձայնը": 7876,
      "աղջկա": 7877,
      "##պատասխան": 7878,
      "խնդրանքով": 7879,
      "ամերիկաց": 7880,
      "սույն": 7881,
      "##կային": 7882,
      "##ածին": 7883,
      "սպասարկ": 7884,
      "կյանք": 7885,
      "դաշինքը": 7886,
      "փոխանակման": 7887,
      "CNN": 7888,
      "ԲԴ": 7889,
      "ծովի": 7890,
      "բռնաբար": 7891,
      "խորը": 7892,
      "կարծիքը": 7893,
      "##օդային": 7894,
      "աշն": 7895,
      "օրերի": 7896,
      "##անկտ": 7897,
      "առաջարկվում": 7898,
      "մատակարարման": 7899,
      "մանրամասները": 7900,
      "ԲԴԽ": 7901,
      "ծառայություններ": 7902,
      "ուժը": 7903,
      "պատճառաբան": 7904,
      "բաժանմունք": 7905,
      "դադարեցվել": 7906,
      "պարբերական": 7907,
      "նպաստում": 7908,
      "գործառույթ": 7909,
      "Գոռ": 7910,
      "##ելիս": 7911,
      "##անդաղ": 7912,
      "տարածվել": 7913,
      "հրաշ": 7914,
      "##ալիֆոր": 7915,
      "բնակարանի": 7916,
      "դիմակ": 7917,
      "##իզմի": 7918,
      "ալկոհ": 7919,
      "##ամենտի": 7920,
      "սոցցանց": 7921,
      "76": 7922,
      "վայել": 7923,
      "##hone": 7924,
      "##անաչ": 7925,
      "խոսակց": 7926,
      "վերաբերմունք": 7927,
      "հավաքված": 7928,
      "Մերկ": 7929,
      "թեկնածությունը": 7930,
      "նյութական": 7931,
      "Փորձագետ": 7932,
      "Նախկինում": 7933,
      "ցուցահանդես": 7934,
      "Ատ": 7935,
      "##վենք": 7936,
      "##ագրային": 7937,
      "որոշումներ": 7938,
      "սահմանազատ": 7939,
      "նիստերի": 7940,
      "ռուսաստ": 7941,
      "ավտոճանապարհին": 7942,
      "կդադար": 7943,
      "հանձնակ": 7944,
      "հարավային": 7945,
      "երբեմն": 7946,
      "##յակին": 7947,
      "դատավորների": 7948,
      "կանոնների": 7949,
      "երեւույթ": 7950,
      "ակումբի": 7951,
      "Իսպանիայի": 7952,
      "##ալիֆորնի": 7953,
      "քեզ": 7954,
      "##ou": 7955,
      "անասն": 7956,
      "օրոք": 7957,
      "բոլորս": 7958,
      "իշխանություններն": 7959,
      "հաղթանակի": 7960,
      "օպերատոր": 7961,
      "գույքը": 7962,
      "դուռը": 7963,
      "դեպարտամենտ": 7964,
      "Դի": 7965,
      "ԻՏԱ": 7966,
      "##իչներ": 7967,
      "##սկու": 7968,
      "հայտարարությունում": 7969,
      "նախարարին": 7970,
      "Ամիր": 7971,
      "##all": 7972,
      "ագրեսիվ": 7973,
      "ագրեսիայի": 7974,
      "ուրեմն": 7975,
      "նմուշ": 7976,
      "##ահանման": 7977,
      "##ակցային": 7978,
      "##ացիներին": 7979,
      "թիվն": 7980,
      "հետազոտության": 7981,
      "պարտավորությունները": 7982,
      "արարողությունը": 7983,
      "Մինչդեռ": 7984,
      "թեմի": 7985,
      "Նուբարաշեն": 7986,
      "պատիվ": 7987,
      "##եռնել": 7988,
      "պետությանը": 7989,
      "հաստատում": 7990,
      "օգտագործելու": 7991,
      "արձանագրված": 7992,
      "վաճառվել": 7993,
      "գումարները": 7994,
      "բուժման": 7995,
      "նախընտր": 7996,
      "թաքն": 7997,
      "աթ": 7998,
      "##պրոմ": 7999,
      "Աբրահամյանի": 8000,
      "քննադատել": 8001,
      "Tel": 8002,
      "Հյուսիս": 8003,
      "զարման": 8004,
      "##երների": 8005,
      "##ույնն": 8006,
      "##ուսաղ": 8007,
      "ուժերին": 8008,
      "##ուհետև": 8009,
      "2019թ": 8010,
      "դրսևոր": 8011,
      "խթան": 8012,
      "կիլոմետր": 8013,
      "Al": 8014,
      "գիր": 8015,
      "իտ": 8016,
      "##իայից": 8017,
      "##յում": 8018,
      "##ողներից": 8019,
      "##ույզ": 8020,
      "հաղորդվում": 8021,
      "##ատուների": 8022,
      "գերազանցում": 8023,
      "Ենթ": 8024,
      "##մանի": 8025,
      "կամուրջ": 8026,
      "ընկերությանը": 8027,
      "ընդունելության": 8028,
      "Ժողովրդ": 8029,
      "պայքարել": 8030,
      "Իվ": 8031,
      "Սանկտ": 8032,
      "դստ": 8033,
      "քաջ": 8034,
      "##աններում": 8035,
      "քաղաքից": 8036,
      "վարչությունը": 8037,
      "##րանսպորտային": 8038,
      "օդաչու": 8039,
      "դինամ": 8040,
      "ֆյուչերս": 8041,
      "Բնակ": 8042,
      "##եգն": 8043,
      "Երուսաղ": 8044,
      "դատավարության": 8045,
      "տնօրին": 8046,
      "Բարաք": 8047,
      "Աֆր": 8048,
      "Գալու": 8049,
      "Էմ": 8050,
      "բաշխ": 8051,
      "կայց": 8052,
      "կհաս": 8053,
      "սկզբից": 8054,
      "##վերջ": 8055,
      "Վանեց": 8056,
      "տուժածներ": 8057,
      "լիցք": 8058,
      "ԻՏԱՌ": 8059,
      "հողի": 8060,
      "ֆոնդ": 8061,
      "##ուան": 8062,
      "միեւնույն": 8063,
      "##ուհամ": 8064,
      "Հրայր": 8065,
      "գրված": 8066,
      "Շնորհակալ": 8067,
      "ինժեներ": 8068,
      "հնդ": 8069,
      "##ուցիչների": 8070,
      "Առաջիկա": 8071,
      "միգրանտ": 8072,
      "Եռ": 8073,
      "Մոն": 8074,
      "Պեկ": 8075,
      "##5թ": 8076,
      "##եսուել": 8077,
      "##նումը": 8078,
      "փոքրիկ": 8079,
      "գծի": 8080,
      "հացադուլ": 8081,
      "Բոլ": 8082,
      "Շամ": 8083,
      "ուտ": 8084,
      "Արեւմտյան": 8085,
      "պատրաստել": 8086,
      "արտահան": 8087,
      "հաղթահարել": 8088,
      "էներգիայի": 8089,
      "գլխին": 8090,
      "ինքնակառավար": 8091,
      "##ամաքային": 8092,
      "օկուպ": 8093,
      "Օլ": 8094,
      "ծռ": 8095,
      "հաշտ": 8096,
      "##ադրում": 8097,
      "##յալները": 8098,
      "ջանքերի": 8099,
      "մանկական": 8100,
      "գովազդ": 8101,
      "կկայանա": 8102,
      "վեհ": 8103,
      "##ex": 8104,
      "##ողն": 8105,
      "հրավ": 8106,
      "հետեւաբար": 8107,
      "##ակայության": 8108,
      "նվազում": 8109,
      "հաղորդագրությունում": 8110,
      "Հայրենի": 8111,
      "երջ": 8112,
      "գործարան": 8113,
      "սկսելու": 8114,
      "այցելու": 8115,
      "##դանշ": 8116,
      "երեքշաբթի": 8117,
      "եզր": 8118,
      "դատապարտված": 8119,
      "վերցնել": 8120,
      "##բուրգում": 8121,
      "Սթ": 8122,
      "խոշտանգ": 8123,
      "մարտին": 8124,
      "Դատարանը": 8125,
      "անպայման": 8126,
      "Դոն": 8127,
      "տալով": 8128,
      "##ակալի": 8129,
      "##ացվեն": 8130,
      "նորանշանակ": 8131,
      "հեռարձակ": 8132,
      "բնակիչը": 8133,
      "սպասել": 8134,
      "Ղարաբաղը": 8135,
      "տարածքները": 8136,
      "կանգնել": 8137,
      "Ընկերությունը": 8138,
      "շեղ": 8139,
      "ներգ": 8140,
      "այսուհետ": 8141,
      "հավասարակ": 8142,
      "իրականությանը": 8143,
      "կարեւորագույն": 8144,
      "առաջնորդների": 8145,
      "դիվերսի": 8146,
      "գործիչների": 8147,
      "Դանիել": 8148,
      "խաչմերուկում": 8149,
      "շնչ": 8150,
      "##ակենդան": 8151,
      "համաճ": 8152,
      "##իսյանը": 8153,
      "որոշումն": 8154,
      "վերաբերմունքի": 8155,
      "ինքնորոշման": 8156,
      "դարձնելու": 8157,
      "հոդվածում": 8158,
      "Սահմանադր": 8159,
      "բժիշկների": 8160,
      "Բելառուս": 8161,
      "ներմուծման": 8162,
      "պատրաստակամություն": 8163,
      "##թույլատրելի": 8164,
      "Ժիր": 8165,
      "##yet": 8166,
      "##ավարար": 8167,
      "##ադառնում": 8168,
      "ստացվում": 8169,
      "գնահատման": 8170,
      "հարկավոր": 8171,
      "խմբեր": 8172,
      "Կրթ": 8173,
      "ողջունել": 8174,
      "##ԻՄ": 8175,
      "##երան": 8176,
      "երկն": 8177,
      "նորարար": 8178,
      "Հանրապետությունը": 8179,
      "գործընթացների": 8180,
      "թեկնածուի": 8181,
      "ստիպել": 8182,
      "Դավթյանը": 8183,
      "Անջել": 8184,
      "##ac": 8185,
      "##ուներ": 8186,
      "##անենգ": 8187,
      "##ատերը": 8188,
      "##աղի": 8189,
      "##ոսով": 8190,
      "Եվրահ": 8191,
      "հանձնվել": 8192,
      "Inter": 8193,
      "արտասահմանյան": 8194,
      "կսկ": 8195,
      "վիդ": 8196,
      "##ոտն": 8197,
      "ընթացքի": 8198,
      "ծանուց": 8199,
      "փորձագետը": 8200,
      "երթեւեկության": 8201,
      "Ստեփանակերտի": 8202,
      "69": 8203,
      "Լոս": 8204,
      "ոման": 8205,
      "##ադը": 8206,
      "միանշանակ": 8207,
      "կողմերին": 8208,
      "ֆինանսավոր": 8209,
      "##իռը": 8210,
      "ապօրին": 8211,
      "կստանա": 8212,
      "աշխատավարձի": 8213,
      "Յորքի": 8214,
      "Լոնդոնի": 8215,
      "Լուկաշենկոն": 8216,
      "Կայ": 8217,
      "Չոր": 8218,
      "նվաճ": 8219,
      "##եվերջ": 8220,
      "##ացոլ": 8221,
      "##աքն": 8222,
      "Արփ": 8223,
      "ճշմարտ": 8224,
      "##եցության": 8225,
      "խոսքի": 8226,
      "հեռանալ": 8227,
      "վիրավորում": 8228,
      "երիտասարդը": 8229,
      "հաջողությամբ": 8230,
      "շարժումը": 8231,
      "քարտուղարը": 8232,
      "փուլը": 8233,
      "Աշոտյանը": 8234,
      "հիշատակին": 8235,
      "հանրաքվեի": 8236,
      "Մարուքյանը": 8237,
      "##աիրավական": 8238,
      "Զվար": 8239,
      "Չեն": 8240,
      "##լան": 8241,
      "##ավիթ": 8242,
      "փորձաքնն": 8243,
      "դարձնում": 8244,
      "բացառում": 8245,
      "ՀԱՄ": 8246,
      "համերաշխ": 8247,
      "տներ": 8248,
      "քրդ": 8249,
      "սկիզբ": 8250,
      "զինվորականների": 8251,
      "կողոպ": 8252,
      "##ֆիկ": 8253,
      "անդ": 8254,
      "դոլարը": 8255,
      "Վերաքննիչ": 8256,
      "տղամարդուն": 8257,
      "##ատնտեսական": 8258,
      "պաշտոնյաները": 8259,
      "բարելավման": 8260,
      "Մադ": 8261,
      "##od": 8262,
      "##աշվ": 8263,
      "հրաժարականը": 8264,
      "##oom": 8265,
      "միջադեպը": 8266,
      "լարվածության": 8267,
      "տուգանք": 8268,
      "հմտ": 8269,
      "##որգի": 8270,
      "բանակում": 8271,
      "չկատար": 8272,
      "ձմեռ": 8273,
      "բորսայում": 8274,
      "Սեւան": 8275,
      "խփ": 8276,
      "ֆեդեր": 8277,
      "##եցրեց": 8278,
      "ոլորտը": 8279,
      "չորեքշաբթի": 8280,
      "առկայության": 8281,
      "Պեսկովը": 8282,
      "Մես": 8283,
      "նռ": 8284,
      "##րուց": 8285,
      "##ոնա": 8286,
      "իրացման": 8287,
      "գիտությունների": 8288,
      "##տոտ": 8289,
      "միանալ": 8290,
      "շահերին": 8291,
      "բանկերի": 8292,
      "կոտրել": 8293,
      "երկաթուղ": 8294,
      "կորպոր": 8295,
      "համացանցում": 8296,
      "##արագ": 8297,
      "կայսր": 8298,
      "հանգեցնել": 8299,
      "ջանքեր": 8300,
      "բխում": 8301,
      "99": 8302,
      "««": 8303,
      "ոստիկանապետ": 8304,
      "ուժեր": 8305,
      "ունենան": 8306,
      "##ապահով": 8307,
      "ծնողների": 8308,
      "Ծրագրի": 8309,
      "տանկ": 8310,
      "##խազ": 8311,
      "##ևը": 8312,
      "##ադրված": 8313,
      "մտավախ": 8314,
      "նշանակված": 8315,
      "օգտագործվել": 8316,
      "Էդմոն": 8317,
      "##օգնություն": 8318,
      "Եվրահանձն": 8319,
      "Շար": 8320,
      "դանդաղ": 8321,
      "##ևն": 8322,
      "##ողներն": 8323,
      "անցկացված": 8324,
      "ստորագրվել": 8325,
      "եվրոյի": 8326,
      "Հայրապետյանը": 8327,
      "Աֆղանստանում": 8328,
      "փետրվարին": 8329,
      "Դե": 8330,
      "մմ": 8331,
      "ֆակ": 8332,
      "##կը": 8333,
      "##ագրություն": 8334,
      "##ափորձ": 8335,
      "տեսչական": 8336,
      "պատճառված": 8337,
      "Առավոտ": 8338,
      "աշխարհը": 8339,
      "ազդել": 8340,
      "փորձագետների": 8341,
      "ստորաբաժանումները": 8342,
      "Արգենտին": 8343,
      "##կոտ": 8344,
      "##ԵՍ": 8345,
      "##ԵԴ": 8346,
      "##իկյան": 8347,
      "##արկետ": 8348,
      "տարեվերջ": 8349,
      "մարզերի": 8350,
      "ընկերություն": 8351,
      "նավահանգ": 8352,
      "կործանիչ": 8353,
      "վերանորոգման": 8354,
      "իմաստով": 8355,
      "##աջիկ": 8356,
      "##ավարություն": 8357,
      "վստահություն": 8358,
      "Ինքն": 8359,
      "գողություն": 8360,
      "իրադարձությունները": 8361,
      "պողոտայի": 8362,
      "զարմ": 8363,
      "հռ": 8364,
      "##ft": 8365,
      "դիմումը": 8366,
      "վնասի": 8367,
      "կառուցված": 8368,
      "աշխատավարձը": 8369,
      "բնագավառում": 8370,
      "Հայտնաբեր": 8371,
      "Զվարթն": 8372,
      "խառն": 8373,
      "չին": 8374,
      "##ժամ": 8375,
      "##եյր": 8376,
      "գյուղապետ": 8377,
      "թողնել": 8378,
      "փոքրամասն": 8379,
      "տո": 8380,
      "##ամուտ": 8381,
      "կարտ": 8382,
      "##նակալ": 8383,
      "առաջինը": 8384,
      "աղոթ": 8385,
      "Նիկոլայ": 8386,
      "Եվրոպա": 8387,
      "նախապատրաստվում": 8388,
      "համայնքներում": 8389,
      "փաթեթը": 8390,
      "Լիլի": 8391,
      "Ծաղ": 8392,
      "բեկ": 8393,
      "##մանյան": 8394,
      "քաղաքապետը": 8395,
      "##ոլոգիական": 8396,
      "Գասպարյանը": 8397,
      "71": 8398,
      "Սեբ": 8399,
      "գրամ": 8400,
      "##ատեւ": 8401,
      "անի": 8402,
      "արեց": 8403,
      "##ընտր": 8404,
      "հոգեկան": 8405,
      "Կոմիտաս": 8406,
      "թատրոնի": 8407,
      "##ելն": 8408,
      "Երրորդ": 8409,
      "##ունակության": 8410,
      "զբաղված": 8411,
      "2021թ": 8412,
      "անբար": 8413,
      "##հասարակ": 8414,
      "##անետ": 8415,
      "ազդանշ": 8416,
      "տարածքով": 8417,
      "աշխատակիցներ": 8418,
      "բողոքը": 8419,
      "հոսանք": 8420,
      "հինգշաբթի": 8421,
      "զբոսաշրջության": 8422,
      "ամենամյա": 8423,
      "միտված": 8424,
      "բեմ": 8425,
      "խճ": 8426,
      "նայ": 8427,
      "քայլի": 8428,
      "##րու": 8429,
      "##ափառ": 8430,
      "հեռավոր": 8431,
      "վաճառվում": 8432,
      "սենատոր": 8433,
      "##ational": 8434,
      "կկազմի": 8435,
      "Զարուհի": 8436,
      "##ասկանալի": 8437,
      "Օդ": 8438,
      "Ֆինանս": 8439,
      "կգործ": 8440,
      "##մն": 8441,
      "##ոլով": 8442,
      "հարցերում": 8443,
      "##ալուծ": 8444,
      "Հալեպ": 8445,
      "##»,": 8446,
      "##ատանը": 8447,
      "ժամանակի": 8448,
      "հրատարակ": 8449,
      "ընտրատեղ": 8450,
      "պնդել": 8451,
      "ծնողները": 8452,
      "Գալուստ": 8453,
      "ոստիկ": 8454,
      "առաք": 8455,
      "գնա": 8456,
      "Արցախյան": 8457,
      "##կարծ": 8458,
      "Փաստի": 8459,
      "գարն": 8460,
      "##ավազ": 8461,
      "պետը": 8462,
      "արժողությամբ": 8463,
      "ամբողջովին": 8464,
      "ընտանիքին": 8465,
      "դադարեցրել": 8466,
      "կրակոցներ": 8467,
      "հոդվածը": 8468,
      "Իսպանի": 8469,
      "հեղաշրջ": 8470,
      "փակվել": 8471,
      "իրականացմանը": 8472,
      "Փարիզում": 8473,
      "սփյուռքի": 8474,
      "##ԴՀ": 8475,
      "դրվագ": 8476,
      "պահանջներին": 8477,
      "դատախազը": 8478,
      "հարուցել": 8479,
      "սկզբունքների": 8480,
      "արմատական": 8481,
      "Դատական": 8482,
      "Ֆրանկ": 8483,
      "հայեր": 8484,
      "##եմը": 8485,
      "Արկ": 8486,
      "վերջն": 8487,
      "զորքերը": 8488,
      "բաժանմունքում": 8489,
      "դպրոցներում": 8490,
      "##ատակարարումը": 8491,
      "արդյո": 8492,
      "տասնամյակ": 8493,
      "հոգեբանական": 8494,
      "խուլիգան": 8495,
      "Կազմակերպ": 8496,
      "ճյուղ": 8497,
      "##ru": 8498,
      "հանդիպումների": 8499,
      "հունիսին": 8500,
      "նիստից": 8501,
      "կհր": 8502,
      "##անտին": 8503,
      "մոտեցել": 8504,
      "ծեծել": 8505,
      "գրառում": 8506,
      "զրուցել": 8507,
      "փաստաթուղթը": 8508,
      "չգիտեմ": 8509,
      "Կաթողիկ": 8510,
      "iPhone": 8511,
      "աթոռ": 8512,
      "ինքնակառավարման": 8513,
      "Գե": 8514,
      "Պենտ": 8515,
      "##յարդ": 8516,
      "փաստի": 8517,
      "ծանրության": 8518,
      "Ճանապարհային": 8519,
      "82": 8520,
      "Բեգ": 8521,
      "հանկարծ": 8522,
      "հրամանագր": 8523,
      "հյուրընկալ": 8524,
      "գերազանցել": 8525,
      "ապագան": 8526,
      "Ցավոք": 8527,
      "AF": 8528,
      "##ստան": 8529,
      "արտացոլ": 8530,
      "անունները": 8531,
      "ազատազրկում": 8532,
      "Տեղի": 8533,
      "Տավուշում": 8534,
      "գործարքի": 8535,
      "Բրիտանիան": 8536,
      "մեծամասնությունը": 8537,
      "պարգեւատր": 8538,
      "Բորիս": 8539,
      "առանձնահատկ": 8540,
      "Op": 8541,
      "շղթ": 8542,
      "##աբաց": 8543,
      "ահա": 8544,
      "կալանավորումը": 8545,
      "Վենեսուել": 8546,
      "##ասրահ": 8547,
      "կառաջ": 8548,
      "նախարարություն": 8549,
      "##նելուց": 8550,
      "շարքային": 8551,
      "զինծառայողի": 8552,
      "##գնաժամային": 8553,
      "ծովում": 8554,
      "2010թ": 8555,
      "Արծվ": 8556,
      "հրաձգ": 8557,
      "Զրուց": 8558,
      "Մուհամ": 8559,
      "Սլով": 8560,
      "##ավանի": 8561,
      "կապերը": 8562,
      "Անգ": 8563,
      "մարդկության": 8564,
      "Պարբեր": 8565,
      "կստանան": 8566,
      "արվեստ": 8567,
      "ճարտարապետ": 8568,
      "ռեկորդային": 8569,
      "ֆակուլտ": 8570,
      "Պենտագ": 8571,
      "Գուրգ": 8572,
      "տոնի": 8573,
      "օվկիան": 8574,
      "շրջվել": 8575,
      "Հրազ": 8576,
      "##անտարկ": 8577,
      "հրավիրված": 8578,
      "հեռախոսահամ": 8579,
      "Հարգելի": 8580,
      "Հեղ": 8581,
      "դոկ": 8582,
      "զույգ": 8583,
      "խայտ": 8584,
      "ջրամ": 8585,
      "սթափ": 8586,
      "##ասպանության": 8587,
      "##իրական": 8588,
      "մոտակա": 8589,
      "բարձրացրել": 8590,
      "փոխանցվել": 8591,
      "պատմում": 8592,
      "##ահարմար": 8593,
      "ընտանիքներին": 8594,
      "ռեսուրսների": 8595,
      "Անհրաժեշտ": 8596,
      "Հաղորդվում": 8597,
      "կենցաղային": 8598,
      "Հեն": 8599,
      "ՅՈՒՆ": 8600,
      "վկան": 8601,
      "քն": 8602,
      "##ոզի": 8603,
      "##կինի": 8604,
      "օրհ": 8605,
      "կառավարություն": 8606,
      "փաստով": 8607,
      "պատմություն": 8608,
      "գնահատվում": 8609,
      "ձեռնպահ": 8610,
      "ճնշման": 8611,
      "ցավոք": 8612,
      "բռնել": 8613,
      "ծովային": 8614,
      "չեղյալ": 8615,
      "ճապ": 8616,
      "##ովային": 8617,
      "բարելի": 8618,
      "հարազատներին": 8619,
      "փնտրում": 8620,
      "Լր": 8621,
      "##իդր": 8622,
      "##ենպաստ": 8623,
      "##ակցված": 8624,
      "անձին": 8625,
      "##րոջ": 8626,
      "բնորոշ": 8627,
      "Բրիտանիայում": 8628,
      "ցուցարարների": 8629,
      "Թադ": 8630,
      "##ուալ": 8631,
      "##աշատ": 8632,
      "հայերին": 8633,
      "ուղղել": 8634,
      "բանավ": 8635,
      "մարզպետի": 8636,
      "պոտենցիալ": 8637,
      "Բժիշկ": 8638,
      "88": 8639,
      "ԳԱ": 8640,
      "##ետը": 8641,
      "արեւմուտ": 8642,
      "մարվել": 8643,
      "##եքենան": 8644,
      "ղեկավարն": 8645,
      "շնորհավոր": 8646,
      "հասարակությունը": 8647,
      "##ոթոր": 8648,
      "զբաղեցրել": 8649,
      "մանկավարժ": 8650,
      "վայրէջք": 8651,
      "Ռամ": 8652,
      "Սող": 8653,
      "##րուն": 8654,
      "արբան": 8655,
      "իրականացրած": 8656,
      "կատարելագործ": 8657,
      "##ատունը": 8658,
      "փուլի": 8659,
      "նվեր": 8660,
      "չափերի": 8661,
      "սպանությունը": 8662,
      "սկզբանե": 8663,
      "կիրառվել": 8664,
      "Օրին": 8665,
      "Դատավոր": 8666,
      "հափշտակել": 8667,
      "քանակությամբ": 8668,
      "##եյտենան": 8669,
      "Ողջ": 8670,
      "Զվարթնոց": 8671,
      "պարկ": 8672,
      "ցմահ": 8673,
      "ֆորում": 8674,
      "ինչին": 8675,
      "հավակ": 8676,
      "կնպ": 8677,
      "ներդրման": 8678,
      "կտան": 8679,
      "Էդգար": 8680,
      "Նահանգները": 8681,
      "Աբդուլ": 8682,
      "Կիպրոսի": 8683,
      "Մոր": 8684,
      "ՔՕ": 8685,
      "ՕԵԿ": 8686,
      "աֆ": 8687,
      "##րանա": 8688,
      "կողմին": 8689,
      "##իգի": 8690,
      "ավարտից": 8691,
      "առաջնորդը": 8692,
      "զինվորների": 8693,
      "դատապարտում": 8694,
      "կմասնակցի": 8695,
      "##soci": 8696,
      "Սեդր": 8697,
      "փոխելու": 8698,
      "գրավել": 8699,
      "ծրագրին": 8700,
      "մտահոգություն": 8701,
      "Ծառուկյան": 8702,
      "հունվարին": 8703,
      "ծխախ": 8704,
      "Ներկայացուցիչների": 8705,
      "##ահամալիր": 8706,
      "ՀԱՄԱՍ": 8707,
      "դեֆ": 8708,
      "կսկս": 8709,
      "կօգ": 8710,
      "տանել": 8711,
      "##աները": 8712,
      "արեւելքում": 8713,
      "պրոֆեսիոնալ": 8714,
      "կնպաստի": 8715,
      "Թուն": 8716,
      "Սիլ": 8717,
      "##ագլ": 8718,
      "աղետի": 8719,
      "բացառվում": 8720,
      "արագությամբ": 8721,
      "Պատասխան": 8722,
      "հեռուստաընկեր": 8723,
      "2022թ": 8724,
      "Թեեւ": 8725,
      "Սաֆարյանը": 8726,
      "Կանադայի": 8727,
      "79": 8728,
      "Վիվա": 8729,
      "շք": 8730,
      "##աբազ": 8731,
      "նախարարությունում": 8732,
      "մրցակցության": 8733,
      "գաղտն": 8734,
      "պայմանավորվածություն": 8735,
      "ներքաղաքական": 8736,
      "Ղրղզ": 8737,
      "ատելության": 8738,
      "մայոր": 8739,
      "Բան": 8740,
      "կոկ": 8741,
      "##աստառ": 8742,
      "##աձեւ": 8743,
      "##աբանները": 8744,
      "սպառնացել": 8745,
      "նստել": 8746,
      "ապացույցների": 8747,
      "բանաձեւ": 8748,
      "քրիստոն": 8749,
      "ԱՀԿ": 8750,
      "##լն": 8751,
      "##ալիստ": 8752,
      "գիտելիք": 8753,
      "Անդրեյ": 8754,
      "շեշտեց": 8755,
      "չորրորդ": 8756,
      "անգլ": 8757,
      "տեղահանված": 8758,
      "Շտ": 8759,
      "գետի": 8760,
      "քիմիական": 8761,
      "քննությունը": 8762,
      "գերագույն": 8763,
      "նրանով": 8764,
      "Նորվե": 8765,
      "Արաբական": 8766,
      "սերնդի": 8767,
      "ԽՍՀՄ": 8768,
      "Հիլ": 8769,
      "լիտ": 8770,
      "ոռ": 8771,
      "##չությունը": 8772,
      "##ցիան": 8773,
      "##ելուն": 8774,
      "վերջում": 8775,
      "ցանկացել": 8776,
      "պահպանելու": 8777,
      "1991": 8778,
      "Վարդանյանի": 8779,
      "բնականոն": 8780,
      "վառելիքի": 8781,
      "օգոստոսին": 8782,
      "Associ": 8783,
      "##գծ": 8784,
      "անթույլատրելի": 8785,
      "սահմանները": 8786,
      "մնալու": 8787,
      "երկարաձգ": 8788,
      "կենդանի": 8789,
      "Թամ": 8790,
      "գար": 8791,
      "գերի": 8792,
      "##եժ": 8793,
      "##յայի": 8794,
      "երկուսը": 8795,
      "Երեք": 8796,
      "մարդուն": 8797,
      "խմբագիր": 8798,
      "տրամադրում": 8799,
      "##առավարական": 8800,
      "Հրդեհը": 8801,
      "##բուրգի": 8802,
      "Նեթ": 8803,
      "կղ": 8804,
      "համապարփակ": 8805,
      "##աքանակ": 8806,
      "պաշտպանում": 8807,
      "սահմանամերձ": 8808,
      "դիրքորոշում": 8809,
      "##op": 8810,
      "ընկերների": 8811,
      "երբեւէ": 8812,
      "Պատերազմ": 8813,
      "հանգամանքներում": 8814,
      "քամու": 8815,
      "Վիգ": 8816,
      "լեյտենան": 8817,
      "տուրք": 8818,
      "հայերեն": 8819,
      "ամյակի": 8820,
      "ավելացնել": 8821,
      "Մերս": 8822,
      "հանգուց": 8823,
      "1990": 8824,
      "վատթար": 8825,
      "2023թ": 8826,
      "հետեւանքների": 8827,
      "կցանկ": 8828,
      "Սայ": 8829,
      "ռմբ": 8830,
      "վրդ": 8831,
      "##ձակ": 8832,
      "այդմ": 8833,
      "խորհրդային": 8834,
      "Նախատես": 8835,
      "հիվանդանոցի": 8836,
      "շահառու": 8837,
      "կառուցելու": 8838,
      "հարձակումը": 8839,
      "ընկնում": 8840,
      "դեմոկրատական": 8841,
      "Տնտեսական": 8842,
      "Բեն": 8843,
      "##li": 8844,
      "Այգ": 8845,
      "կրակի": 8846,
      "հիվանդանոցից": 8847,
      "ավտոճանապարհը": 8848,
      "Նախագահը": 8849,
      "լուրերը": 8850,
      "Հնարավոր": 8851,
      "Post": 8852,
      "կավարտ": 8853,
      "միակողմանի": 8854,
      "##ակցեն": 8855,
      "##ակիցների": 8856,
      "մտերիմ": 8857,
      "գործունեությանը": 8858,
      "հիաս": 8859,
      "հորիզ": 8860,
      "կոպիտ": 8861,
      "ՀԴ": 8862,
      "##ab": 8863,
      "##յար": 8864,
      "##բանտարկ": 8865,
      "##ուցի": 8866,
      "հայտարարություններ": 8867,
      "194": 8868,
      "սկսվում": 8869,
      "վայրից": 8870,
      "կմնա": 8871,
      "դեսպանին": 8872,
      "տեխնիկայի": 8873,
      "կասկածում": 8874,
      "վախենում": 8875,
      "Փարիզի": 8876,
      "Պահ": 8877,
      "Տաջիկ": 8878,
      "##ությանն": 8879,
      "ուզ": 8880,
      "հաղորդվել": 8881,
      "մեղադրանքը": 8882,
      "համայնքը": 8883,
      "բնութ": 8884,
      "հաղորդագրություն": 8885,
      "ինքնաթիռը": 8886,
      "Փոստանջ": 8887,
      "թիկն": 8888,
      "կատ": 8889,
      "##արկումը": 8890,
      "ցանկում": 8891,
      "կիրառելու": 8892,
      "համալսարանում": 8893,
      "ռեժիմով": 8894,
      "համագործակցել": 8895,
      "ողջունում": 8896,
      "##berg": 8897,
      "AFP": 8898,
      "կօգնի": 8899,
      "##բա": 8900,
      "##ատները": 8901,
      "Նախիջ": 8902,
      "Արտաքին": 8903,
      "կրճատվել": 8904,
      "աստիճանաբար": 8905,
      "Նկ": 8906,
      "Ֆրանս": 8907,
      "կծ": 8908,
      "##21": 8909,
      "##ապի": 8910,
      "##աղբյուր": 8911,
      "գործուղ": 8912,
      "տարով": 8913,
      "ընդառաջ": 8914,
      "##ընկ": 8915,
      "տնային": 8916,
      "համակարգչ": 8917,
      "թույլատր": 8918,
      "վերադարձնել": 8919,
      "ներառված": 8920,
      "Սուքի": 8921,
      "խարդախության": 8922,
      "ամենակարեւոր": 8923,
      "96": 8924,
      "Էս": 8925,
      "##նից": 8926,
      "##կության": 8927,
      "##արների": 8928,
      "##ակտիվ": 8929,
      "անցնող": 8930,
      "մնա": 8931,
      "ճանաչված": 8932,
      "չեմպ": 8933,
      "Հակառակ": 8934,
      "Լուսանկարը": 8935,
      "Նրանցից": 8936,
      "Գորիսի": 8937,
      "Հրաչյա": 8938,
[...]
