{
  "version": "1.0",
  "truncation": null,
  "padding": null,
  "added_tokens": [
    {
      "id": 0,
      "content": "[UNK]",
      "single_word": false,
      "lstrip": false,
      "rstrip": false,
      "normalized": false,
      "special": true
    },
    {
      "id": 1,
      "content": "[CLS]",
      "single_word": false,
      "lstrip": false,
      "rstrip": false,
      "normalized": false,
      "special": true
    },
    {
      "id": 2,
      "content": "[SEP]",
      "single_word": false,
      "lstrip": false,
      "rstrip": false,
      "normalized": false,
      "special": true
    },
    {
      "id": 3,
      "content": "[PAD]",
      "single_word": false,
      "lstrip": false,
      "rstrip": false,
      "normalized": false,
      "special": true
    },
    {
      "id": 4,
      "content": "[MASK]",
      "single_word": false,
      "lstrip": false,
      "rstrip": false,
      "normalized": false,
      "special": true
    }
  ],
  "normalizer": {
    "type": "Sequence",
    "normalizers": [
      {
        "type": "NFD"
      },
      {
        "type": "StripAccents"
      }
    ]
  },
  "pre_tokenizer": {
    "type": "Whitespace"
  },
  "post_processor": {
    "type": "TemplateProcessing",
    "single": [
      {
        "SpecialToken": {
          "id": "[CLS]",
          "type_id": 0
        }
      },
      {
        "Sequence": {
          "id": "A",
          "type_id": 0
        }
      },
      {
        "SpecialToken": {
          "id": "[SEP]",
          "type_id": 0
        }
      }
    ],
    "pair": [
      {
        "SpecialToken": {
          "id": "[CLS]",
          "type_id": 0
        }
      },
      {
        "Sequence": {
          "id": "A",
          "type_id": 0
        }
      },
      {
        "SpecialToken": {
          "id": "[SEP]",
          "type_id": 0
        }
      },
      {
        "Sequence": {
          "id": "B",
          "type_id": 1
        }
      },
      {
        "SpecialToken": {
          "id": "[SEP]",
          "type_id": 1
        }
      }
    ],
    "special_tokens": {
      "[CLS]": {
        "id": "[CLS]",
        "ids": [
          1
        ],
        "tokens": [
          "[CLS]"
        ]
      },
      "[SEP]": {
        "id": "[SEP]",
        "ids": [
          2
        ],
        "tokens": [
          "[SEP]"
        ]
      }
    }
  },
  "decoder": {
    "type": "WordPiece",
    "prefix": "##",
    "cleanup": true
  },
  "model": {
    "type": "WordPiece",
    "unk_token": "[UNK]",
    "continuing_subword_prefix": "##",
    "max_input_chars_per_word": 100,
    "vocab": {
      "[UNK]": 0,
      "[CLS]": 1,
      "[SEP]": 2,
      "[PAD]": 3,
      "[MASK]": 4,
      "!": 5,
      "\"": 6,
      "#": 7,
      "%": 8,
      "&": 9,
      "'": 10,
      "(": 11,
      ")": 12,
      "*": 13,
      "+": 14,
      ",": 15,
      "-": 16,
      ".": 17,
      "/": 18,
      "0": 19,
      "1": 20,
      "2": 21,
      "3": 22,
      "4": 23,
      "5": 24,
      "6": 25,
      "7": 26,
      "8": 27,
      "9": 28,
      ":": 29,
      ";": 30,
      "<": 31,
      ">": 32,
      "?": 33,
      "@": 34,
      "A": 35,
      "B": 36,
      "C": 37,
      "D": 38,
      "E": 39,
      "F": 40,
      "G": 41,
      "H": 42,
      "I": 43,
      "J": 44,
      "K": 45,
      "L": 46,
      "M": 47,
      "N": 48,
      "O": 49,
      "P": 50,
      "Q": 51,
      "R": 52,
      "S": 53,
      "T": 54,
      "U": 55,
      "V": 56,
      "W": 57,
      "X": 58,
      "Y": 59,
      "Z": 60,
      "[": 61,
      "]": 62,
      "_": 63,
      "`": 64,
      "a": 65,
      "b": 66,
      "c": 67,
      "d": 68,
      "e": 69,
      "f": 70,
      "g": 71,
      "h": 72,
      "i": 73,
      "j": 74,
      "k": 75,
      "l": 76,
      "m": 77,
      "n": 78,
      "o": 79,
      "p": 80,
      "q": 81,
      "r": 82,
      "s": 83,
      "t": 84,
      "u": 85,
      "v": 86,
      "w": 87,
      "x": 88,
      "y": 89,
      "z": 90,
      "«": 91,
      "¬": 92,
      "´": 93,
      "»": 94,
      "А": 95,
      "Б": 96,
      "В": 97,
      "Г": 98,
      "Д": 99,
      "Е": 100,
      "Ж": 101,
      "З": 102,
      "И": 103,
      "К": 104,
      "Л": 105,
      "М": 106,
      "Н": 107,
      "О": 108,
      "П": 109,
      "Р": 110,
      "С": 111,
      "Т": 112,
      "У": 113,
      "Ф": 114,
      "Х": 115,
      "Ц": 116,
      "Ч": 117,
      "Ш": 118,
      "Щ": 119,
      "Ъ": 120,
      "Ы": 121,
      "Ь": 122,
      "Э": 123,
      "Ю": 124,
      "Я": 125,
      "а": 126,
      "б": 127,
      "в": 128,
      "г": 129,
      "д": 130,
      "е": 131,
      "ж": 132,
      "з": 133,
      "и": 134,
      "к": 135,
      "л": 136,
      "м": 137,
      "н": 138,
      "о": 139,
      "п": 140,
      "р": 141,
      "с": 142,
      "т": 143,
      "у": 144,
      "ф": 145,
      "х": 146,
      "ц": 147,
      "ч": 148,
      "ш": 149,
      "щ": 150,
      "ъ": 151,
      "ы": 152,
      "ь": 153,
      "э": 154,
      "ю": 155,
      "я": 156,
      "Ա": 157,
      "Բ": 158,
      "Գ": 159,
      "Դ": 160,
      "Ե": 161,
      "Զ": 162,
      "Է": 163,
      "Ը": 164,
      "Թ": 165,
      "Ժ": 166,
      "Ի": 167,
      "Լ": 168,
      "Խ": 169,
      "Ծ": 170,
      "Կ": 171,
      "Հ": 172,
      "Ձ": 173,
      "Ղ": 174,
      "Ճ": 175,
      "Մ": 176,
      "Յ": 177,
      "Ն": 178,
      "Շ": 179,
      "Ո": 180,
      "Չ": 181,
      "Պ": 182,
      "Ջ": 183,
      "Ռ": 184,
      "Ս": 185,
      "Վ": 186,
      "Տ": 187,
      "Ր": 188,
      "Ց": 189,
      "Ւ": 190,
      "Փ": 191,
      "Ք": 192,
      "Օ": 193,
      "Ֆ": 194,
      "ՙ": 195,
      "՚": 196,
      "՛": 197,
      "՜": 198,
      "՝": 199,
      "՞": 200,
      "ա": 201,
      "բ": 202,
      "գ": 203,
      "դ": 204,
      "ե": 205,
      "զ": 206,
      "է": 207,
      "ը": 208,
      "թ": 209,
      "ժ": 210,
      "ի": 211,
      "լ": 212,
      "խ": 213,
      "ծ": 214,
      "կ": 215,
      "հ": 216,
      "ձ": 217,
      "ղ": 218,
      "ճ": 219,
      "մ": 220,
      "յ": 221,
      "ն": 222,
      "շ": 223,
      "ո": 224,
      "չ": 225,
      "պ": 226,
      "ջ": 227,
      "ռ": 228,
      "ս": 229,
      "վ": 230,
      "տ": 231,
      "ր": 232,
      "ց": 233,
      "ւ": 234,
      "փ": 235,
      "ք": 236,
      "օ": 237,
      "ֆ": 238,
      "և": 239,
      "—": 240,
      "’": 241,
      "“": 242,
      "”": 243,
      "„": 244,
      "•": 245,
      "…": 246,
      "##ա": 247,
      "##ն": 248,
      "##ջ": 249,
      "##վ": 250,
      "##ե": 251,
      "##մ": 252,
      "##ւ": 253,
      "##ղ": 254,
      "##ո": 255,
      "##ր": 256,
      "##ը": 257,
      "##պ": 258,
      "##հ": 259,
      "##շ": 260,
      "##ի": 261,
      "##ք": 262,
      "##i": 263,
      "##t": 264,
      "##a": 265,
      "##z": 266,
      "##o": 267,
      "##գ": 268,
      "##կ": 269,
      "##ց": 270,
      "##յ": 271,
      "##դ": 272,
      "##չ": 273,
      "##թ": 274,
      "##լ": 275,
      "##e": 276,
      "##r": 277,
      "##b": 278,
      "##y": 279,
      "##s": 280,
      "##ս": 281,
      "##Р": 282,
      "##տ": 283,
      "##ձ": 284,
      "##A": 285,
      "##8": 286,
      "##ծ": 287,
      "##E": 288,
      "##S": 289,
      "##L": 290,
      "##խ": 291,
      "##ֆ": 292,
      "##բ": 293,
      "##n": 294,
      "##Ե": 295,
      "##ռ": 296,
      "##ճ": 297,
      "##զ": 298,
      "##а": 299,
      "##к": 300,
      "##g": 301,
      "##w": 302,
      "##l": 303,
      "##d": 304,
      "##է": 305,
      "##Ո": 306,
      "##Ն": 307,
      "##Վ": 308,
      "##Ց": 309,
      "##Ի": 310,
      "##Ա": 311,
      "##Ր": 312,
      "##Գ": 313,
      "##Ս": 314,
      "##Ռ": 315,
      "##Ջ": 316,
      "##Դ": 317,
      "##u": 318,
      "##0": 319,
      "##7": 320,
      "##1": 321,
      "##4": 322,
      "##p": 323,
      "##m": 324,
      "##Տ": 325,
      "##փ": 326,
      "##օ": 327,
      "##h": 328,
      "##v": 329,
      "##5": 330,
      "##6": 331,
      "##ժ": 332,
      "##k": 333,
      "##о": 334,
      "##ш": 335,
      "##д": 336,
      "##ь": 337,
      "##м": 338,
      "##и": 339,
      "##G": 340,
      "##P": 341,
      "##н": 342,
      "##е": 343,
      "##р": 344,
      "##в": 345,
      "##Q": 346,
      "##9": 347,
      "##B": 348,
      "##T": 349,
      "##M": 350,
      "##3": 351,
      "##Է": 352,
      "##т": 353,
      "##x": 354,
      "##c": 355,
      "##և": 356,
      "##2": 357,
      "##V": 358,
      "##N": 359,
      "##Կ": 360,
      "##Լ": 361,
      "##Պ": 362,
      "##H": 363,
      "##K": 364,
      "##»": 365,
      "##՝": 366,
      "##F": 367,
      "##f": 368,
      "##л": 369,
      "##с": 370,
      "##Խ": 371,
      "##Մ": 372,
      "##D": 373,
      "##X": 374,
      "##Շ": 375,
      "##Ւ": 376,
      "##Թ": 377,
      "##Յ": 378,
      "##C": 379,
      "##Ք": 380,
      "##я": 381,
      "##Բ": 382,
      "##Y": 383,
      "##I": 384,
      "##W": 385,
      "##R": 386,
      "##Հ": 387,
      "##Զ": 388,
      "##Օ": 389,
      "##O": 390,
      "##ч": 391,
      "##J": 392,
      "##г": 393,
      "##Ը": 394,
      "##j": 395,
      "##U": 396,
      "##И": 397,
      "##П": 398,
      "##Ֆ": 399,
      "##б": 400,
      "##Н": 401,
      "##В": 402,
      "##Т": 403,
      "##У": 404,
      "##Ծ": 405,
      "##q": 406,
      "##,": 407,
      "##-": 408,
      "##п": 409,
      "##ы": 410,
      "##О": 411,
      "##С": 412,
      "##М": 413,
      "##Ձ": 414,
      "##у": 415,
      "##_": 416,
      "##З": 417,
      "##Z": 418,
      "##.": 419,
      "##:": 420,
      "##…": 421,
      "##К": 422,
      "##!": 423,
      "##+": 424,
      "##з": 425,
      "##А": 426,
      "##ц": 427,
      "##ՙ": 428,
      "##\"": 429,
      "###": 430,
      "##[": 431,
      "##)": 432,
      "##<": 433,
      "##/": 434,
      "##՛": 435,
      "##Ժ": 436,
      "##Е": 437,
      "##>": 438,
      "##ж": 439,
      "##Փ": 440,
      "##Ղ": 441,
      "##х": 442,
      "##Չ": 443,
      "##Д": 444,
      "##Ճ": 445,
      "##ю": 446,
      "##Ж": 447,
      "##щ": 448,
      "##—": 449,
      "##Х": 450,
      "##`": 451,
      "##ф": 452,
      "##’": 453,
      "##Б": 454,
      "##Ф": 455,
      "##*": 456,
      "##;": 457,
      "##]": 458,
      "##Ш": 459,
      "##«": 460,
      "##э": 461,
      "##՞": 462,
      "##Ч": 463,
      "##Ы": 464,
      "##Л": 465,
      "##Я": 466,
      "##(": 467,
      "##Г": 468,
      "##•": 469,
      "##Э": 470,
      "##%": 471,
      "##Ц": 472,
      "##?": 473,
      "##„": 474,
      "##¬": 475,
      "##@": 476,
      "##Ь": 477,
      "##ъ": 478,
      "##'": 479,
      "##”": 480,
      "##՜": 481,
      "##&": 482,
      "##Ю": 483,
      "##“": 484,
      "##Ъ": 485,
      "##՚": 486,
      "##´": 487,
      "##Щ": 488,
      "##ու": 489,
      "##ան": 490,
      "##ար": 491,
      "##եր": 492,
      "##ակ": 493,
      "##ել": 494,
      "##ում": 495,
      "##այ": 496,
      "##ին": 497,
      "##ութ": 498,
      "##ությ": 499,
      "##ներ": 500,
      "##որ": 501,
      "##ամ": 502,
      "##ուն": 503,
      "##ատ": 504,
      "##աս": 505,
      "##ական": 506,
      "##ավ": 507,
      "##են": 508,
      "##աց": 509,
      "##ություն": 510,
      "##ով": 511,
      "որ": 512,
      "##ետ": 513,
      "##ող": 514,
      "##RT": 515,
      "##LE": 516,
      "##LE_": 517,
      "##ության": 518,
      "##ած": 519,
      "##ահ": 520,
      "##ների": 521,
      "են": 522,
      "##ագ": 523,
      "##անի": 524,
      "##ախ": 525,
      "##ման": 526,
      "##ալ": 527,
      "ու": 528,
      "##վել": 529,
      "այ": 530,
      "##ապ": 531,
      "##ես": 532,
      "եւ": 533,
      "##առ": 534,
      "##եղ": 535,
      "##եւ": 536,
      "##աղ": 537,
      "##ված": 538,
      "ան": 539,
      "##ազ": 540,
      "##յան": 541,
      "համ": 542,
      "##ից": 543,
      "##ոն": 544,
      "##աստ": 545,
      "##եկ": 546,
      "ին": 547,
      "##ային": 548,
      "##EN": 549,
      "##IC": 550,
      "##END": 551,
      "##LE_END": 552,
      "ART": 553,
      "ARTIC": 554,
      "##IT": 555,
      "##TA": 556,
      "TIT": 557,
      "##STA": 558,
      "##LE_STA": 559,
      "##LE_START": 560,
      "><": 561,
      "##ները": 562,
      "##ստ": 563,
      "##եց": 564,
      "##ադ": 565,
      "մի": 566,
      "իր": 567,
      "##աք": 568,
      "##իր": 569,
      "##ավոր": 570,
      "ար": 571,
      "##աշ": 572,
      "առ": 573,
      "##աբ": 574,
      "##ուր": 575,
      "հետ": 576,
      "եր": 577,
      "հայ": 578,
      "##ործ": 579,
      "##երի": 580,
      "նախ": 581,
      "ըն": 582,
      "մաս": 583,
      "##իկ": 584,
      "##ույ": 585,
      "##ությունը": 586,
      "##ելու": 587,
      "##արկ": 588,
      "##քի": 589,
      "##արար": 590,
      "##րան": 591,
      "պատ": 592,
      "##րա": 593,
      "հայտ": 594,
      "##ոս": 595,
      "##այի": 596,
      "##անակ": 597,
      "##ուս": 598,
      "գործ": 599,
      "տար": 600,
      "Հայ": 601,
      "հար": 602,
      "կար": 603,
      "##ենք": 604,
      "##իս": 605,
      "հան": 606,
      "##ամբ": 607,
      "##ոց": 608,
      "##աջ": 609,
      "##եմ": 610,
      "տեղ": 611,
      "##յանը": 612,
      "համար": 613,
      "##շխ": 614,
      "ARTICLE_END": 615,
      "##իմ": 616,
      "TITLE_END": 617,
      "TITLE_START": 618,
      "ARTICLE_START": 619,
      "վեր": 620,
      "##վում": 621,
      "##եռ": 622,
      "##այն": 623,
      "մար": 624,
      "##ակց": 625,
      "##իտ": 626,
      "##որդ": 627,
      "ներ": 628,
      "ամ": 629,
      "##ոլ": 630,
      "##անում": 631,
      "Ար": 632,
      "##աղաք": 633,
      "նա": 634,
      "երկ": 635,
      "##նել": 636,
      "մասին": 637,
      "##ազմ": 638,
      "##ագր": 639,
      "Այ": 640,
      "##ուց": 641,
      "##ոխ": 642,
      "Հայաստ": 643,
      "##ավար": 644,
      "միջ": 645,
      "##ոտ": 646,
      "##ադր": 647,
      "##տր": 648,
      "քաղաք": 649,
      "##արգ": 650,
      "մե": 651,
      "##ատար": 652,
      "առաջ": 653,
      "##երը": 654,
      "##դր": 655,
      "ժամ": 656,
      "աս": 657,
      "##իվ": 658,
      "պետ": 659,
      "##նում": 660,
      "այս": 661,
      "ուն": 662,
      "##քում": 663,
      "օր": 664,
      "##ությունների": 665,
      "էր": 666,
      "ստ": 667,
      "##ապետ": 668,
      "##պես": 669,
      "##անց": 670,
      "##անք": 671,
      "##ներին": 672,
      "##կայ": 673,
      "##պան": 674,
      "աշխ": 675,
      "##ափ": 676,
      "20": 677,
      "##անգ": 678,
      "##նն": 679,
      "##արտ": 680,
      "##րամ": 681,
      "##իչ": 682,
      "»,": 683,
      "ինչ": 684,
      "նշ": 685,
      "##եպ": 686,
      "այդ": 687,
      "##արձ": 688,
      "##րդ": 689,
      "այն": 690,
      "##աշտ": 691,
      "##ոշ": 692,
      "##աժ": 693,
      "##աբեր": 694,
      "##եք": 695,
      "նախագ": 696,
      "##սկ": 697,
      "ապ": 698,
      "մեկ": 699,
      "##օր": 700,
      "##ությամբ": 701,
      "վար": 702,
      "ընդ": 703,
      "##րի": 704,
      "աշխատ": 705,
      "##րջ": 706,
      "##րել": 707,
      "##յալ": 708,
      "ՀՀ": 709,
      "##նակ": 710,
      "##ողմ": 711,
      "##աթ": 712,
      "##նդ": 713,
      "##արդ": 714,
      "Այս": 715,
      "##լի": 716,
      "արդ": 717,
      "##յանի": 718,
      "##նի": 719,
      "նախագահ": 720,
      "չի": 721,
      "հարց": 722,
      "Եր": 723,
      "##ումը": 724,
      "թե": 725,
      "պաշտ": 726,
      "##ներում": 727,
      "##անդ": 728,
      "»,-": 729,
      "##անկ": 730,
      "##անը": 731,
      "##որհ": 732,
      "##արի": 733,
      "ներկայ": 734,
      "##ողով": 735,
      "կողմ": 736,
      "ուղ": 737,
      "փոխ": 738,
      "##ելով": 739,
      "##թաց": 740,
      "Հայաստանի": 741,
      "ժամանակ": 742,
      "հայտարար": 743,
      "##իշ": 744,
      "իրավ": 745,
      "##ացել": 746,
      "##քը": 747,
      "պահ": 748,
      "նաեւ": 749,
      "ավ": 750,
      "##աձ": 751,
      "կարող": 752,
      "##ացի": 753,
      "##ակի": 754,
      "##ուղ": 755,
      "ներկայաց": 756,
      "##բեր": 757,
      "##յուն": 758,
      "##ելի": 759,
      "##ոմ": 760,
      "##եջ": 761,
      "կառ": 762,
      "արտ": 763,
      "##ություններ": 764,
      "ավել": 765,
      "##ագործ": 766,
      "ազ": 767,
      "##վի": 768,
      "հաս": 769,
      "##իճ": 770,
      "##ույն": 771,
      "քնն": 772,
      "##կեր": 773,
      "##ահման": 774,
      "##արհ": 775,
      "էլ": 776,
      "##ությունները": 777,
      "##գամ": 778,
      "ոչ": 779,
      "##գային": 780,
      "##նական": 781,
      "նախարար": 782,
      "տարած": 783,
      "մարդ": 784,
      "այլ": 785,
      "##ույց": 786,
      "##խան": 787,
      "##առայ": 788,
      "»:": 789,
      "պետք": 790,
      "շրջ": 791,
      "կազմ": 792,
      "պայ": 793,
      "ենք": 794,
      "##ենց": 795,
      "դեպ": 796,
      "մասն": 797,
      "շար": 798,
      "##իպ": 799,
      "մեր": 800,
      "վարչ": 801,
      "##րանք": 802,
      "##ուկ": 803,
      "##ոկ": 804,
      "##իկան": 805,
      "##բեջ": 806,
      "##դրբեջ": 807,
      "նոր": 808,
      "##այում": 809,
      "##վող": 810,
      "հր": 811,
      "##շտ": 812,
      "##այր": 813,
      "գր": 814,
      "հավ": 815,
      "##ապես": 816,
      "հիմ": 817,
      "օգ": 818,
      "որոն": 819,
      "##ուլ": 820,
      "որոշ": 821,
      "##ստիկան": 822,
      "իրական": 823,
      "##ըն": 824,
      "##մամբ": 825,
      "երկր": 826,
      "հանդ": 827,
      "մեջ": 828,
      "##թի": 829,
      "հաղ": 830,
      "եղ": 831,
      "խոս": 832,
      "##րանց": 833,
      "##ուտ": 834,
      "տեղեկ": 835,
      "ունեց": 836,
      "##ացման": 837,
      "##յա": 838,
      "կատար": 839,
      "##արակ": 840,
      "կողմից": 841,
      "##երին": 842,
      "##աչ": 843,
      "մոտ": 844,
      "անց": 845,
      "##ալի": 846,
      "դատ": 847,
      "ավելի": 848,
      "ակ": 849,
      "պար": 850,
      "##րագր": 851,
      "##ոլոր": 852,
      "##ներից": 853,
      "##որհրդ": 854,
      "##ակարգ": 855,
      "որը": 856,
      "##երպ": 857,
      "##ակցության": 858,
      "##բերի": 859,
      "հետո": 860,
      "##ճառ": 861,
      "վրա": 862,
      "սահման": 863,
      "ծառայ": 864,
      "##վա": 865,
      "կամ": 866,
      "եմ": 867,
      "##րկ": 868,
      "անհ": 869,
      "##րաստ": 870,
      "##ինի": 871,
      "##եռն": 872,
      "ընթաց": 873,
      "##անր": 874,
      "201": 875,
      "հն": 876,
      "##սի": 877,
      "ԱՄ": 878,
      "##ձն": 879,
      "##ներով": 880,
      "##եմբերի": 881,
      "կապ": 882,
      "##ոգ": 883,
      "##ոյ": 884,
      "կան": 885,
      "բաց": 886,
      "հատ": 887,
      "##որձ": 888,
      "թվ": 889,
      "##քով": 890,
      "##ասխան": 891,
      "տես": 892,
      "ընտր": 893,
      "բնակ": 894,
      "այսօր": 895,
      "տն": 896,
      "##անական": 897,
      "ԱՄՆ": 898,
      "##քն": 899,
      "##իսի": 900,
      "իսկ": 901,
      "միջոց": 902,
      "էին": 903,
      "##թե": 904,
      "##ությանը": 905,
      "կառավար": 906,
      "##ոչ": 907,
      "##նելու": 908,
      "րդ": 909,
      "##մբ": 910,
      "պաշտոն": 911,
      "##00": 912,
      "Ադրբեջ": 913,
      "Ռուս": 914,
      "##ինչ": 915,
      "կայ": 916,
      "անվ": 917,
      "սկ": 918,
      "ասել": 919,
      "ամեն": 920,
      "##ատակ": 921,
      "խորհրդ": 922,
      "##շխան": 923,
      "##ակում": 924,
      "##իստ": 925,
      "անձ": 926,
      "##տրոն": 927,
      "ղեկ": 928,
      "բոլոր": 929,
      "կեն": 930,
      "փորձ": 931,
      "հաղորդ": 932,
      "##արավոր": 933,
      "սպ": 934,
      "##ոհ": 935,
      "նկ": 936,
      "մարզ": 937,
      "ղեկավար": 938,
      "ոստիկան": 939,
      "##ակալ": 940,
      "տեղի": 941,
      "վերջ": 942,
      "քանի": 943,
      "##րե": 944,
      "քաղաքական": 945,
      "վերաբեր": 946,
      "##ակերպ": 947,
      "##ներն": 948,
      "##ակից": 949,
      "արդյուն": 950,
      "##երթ": 951,
      "##տանգ": 952,
      "իրենց": 953,
      "##տես": 954,
      "ուղղ": 955,
      "Ռուսաստ": 956,
      "Ան": 957,
      "##տն": 958,
      "##ությունն": 959,
      "ինչպես": 960,
      "##ումների": 961,
      "չեն": 962,
      "Թուր": 963,
      "##աշին": 964,
      "##եղծ": 965,
      "իրականաց": 966,
      "դեմ": 967,
      "չէ": 968,
      "կր": 969,
      "##տի": 970,
      "##իջ": 971,
      "ճան": 972,
      "թվական": 973,
      "##ատվ": 974,
      "##պանության": 975,
      "##ակայն": 976,
      "որպես": 977,
      "##րաժ": 978,
      "##րո": 979,
      "Երեւ": 980,
      "որոնք": 981,
      "##եյ": 982,
      "ընթացքում": 983,
      "հնարավոր": 984,
      "եղել": 985,
      "հայտն": 986,
      "դրամ": 987,
      "##իայի": 988,
      "##եւոր": 989,
      "##ությունից": 990,
      "հեռ": 991,
      "##գր": 992,
      "շատ": 993,
      "աշխատանք": 994,
      "##յուր": 995,
      "Ու": 996,
      "պայման": 997,
      "ժողով": 998,
      "##ատես": 999,
      "##դամ": 1000,
      "հայտնել": 1001,
      "am": 1002,
      "##ույթ": 1003,
      "դիմ": 1004,
      "##նչ": 1005,
      "բարձ": 1006,
      "##առն": 1007,
      "իշխան": 1008,
      "ուժ": 1009,
      "ընկեր": 1010,
      "զին": 1011,
      "##տեմբերի": 1012,
      "գն": 1013,
      "##այց": 1014,
      "##աձայն": 1015,
      "հայտնում": 1016,
      "19": 1017,
      "##արկել": 1018,
      "##ապատ": 1019,
      "##հան": 1020,
      "ասաց": 1021,
      "Եվ": 1022,
      "##ողջ": 1023,
      "մտ": 1024,
      "մեծ": 1025,
      "##ունք": 1026,
      "##ցախ": 1027,
      "գլ": 1028,
      "##յուղ": 1029,
      "##ոստ": 1030,
      "ենթ": 1031,
      "կազմակերպ": 1032,
      "բաժ": 1033,
      "Նա": 1034,
      "Թուրքի": 1035,
      "փաստ": 1036,
      "##եզ": 1037,
      "##ակը": 1038,
      "նպ": 1039,
      "նկատ": 1040,
      "երկու": 1041,
      "ավտ": 1042,
      "պատճառ": 1043,
      "դր": 1044,
      "լին": 1045,
      "NE": 1046,
      "##WS": 1047,
      "##նդիր": 1048,
      "NEWS": 1049,
      "##ալու": 1050,
      "նրա": 1051,
      "##ասն": 1052,
      "##անջ": 1053,
      "մեղ": 1054,
      "##ացած": 1055,
      "մինչ": 1056,
      "10": 1057,
      "##կական": 1058,
      "##ոք": 1059,
      "##ոդ": 1060,
      "հանդիպ": 1061,
      "մենք": 1062,
      "հանր": 1063,
      "##խավոր": 1064,
      "խմբ": 1065,
      "##ապարհ": 1066,
      "##նաս": 1067,
      "եկ": 1068,
      "##տեղ": 1069,
      "երբ": 1070,
      "##եցին": 1071,
      "##ուցիչ": 1072,
      "նշել": 1073,
      "հայտարարել": 1074,
      "Արցախ": 1075,
      "##ուժ": 1076,
      "##կին": 1077,
      "հակ": 1078,
      "##եփ": 1079,
      "ում": 1080,
      "գործըն": 1081,
      "գործող": 1082,
      "խնդիր": 1083,
      "##ուշ": 1084,
      "##աժողով": 1085,
      "ունեն": 1086,
      "արձ": 1087,
      "##եշտ": 1088,
      "##ահատ": 1089,
      "##այտ": 1090,
      "##ուծ": 1091,
      "##ունակ": 1092,
      "Հանր": 1093,
      "##ապահ": 1094,
      "##ազգային": 1095,
      "անդամ": 1096,
      "##երում": 1097,
      "կարգ": 1098,
      "##աբան": 1099,
      "համաձայն": 1100,
      "հետեւ": 1101,
      "##ոցի": 1102,
      "ազատ": 1103,
      "##իլ": 1104,
      "##յուս": 1105,
      "##ուրջ": 1106,
      "պատասխան": 1107,
      "##եխ": 1108,
      "առաջին": 1109,
      "բարձր": 1110,
      "ից": 1111,
      "##անից": 1112,
      "ցուց": 1113,
      "կենտրոն": 1114,
      "##կա": 1115,
      "##իք": 1116,
      "##կաց": 1117,
      "##որտ": 1118,
      "խաղ": 1119,
      "##ազար": 1120,
      "գտն": 1121,
      "դա": 1122,
      "միայն": 1123,
      "##ափոխ": 1124,
      "##յանին": 1125,
      "նույն": 1126,
      "հանձն": 1127,
      "պարզ": 1128,
      "Հար": 1129,
      "##րեական": 1130,
      "##ողների": 1131,
      "##երով": 1132,
      "գյուղ": 1133,
      "օգտ": 1134,
      "բար": 1135,
      "ամյա": 1136,
      "##մանը": 1137,
      "բեր": 1138,
      "##աճ": 1139,
      "##աշրջ": 1140,
      "վարչապետ": 1141,
      "##ապարակ": 1142,
      "ընդուն": 1143,
      "##յանն": 1144,
      "հաշ": 1145,
      "ստեղծ": 1146,
      "##ումներ": 1147,
      "ծրագր": 1148,
      "նպատակ": 1149,
      "Իր": 1150,
      "Հանրապետ": 1151,
      "սակայն": 1152,
      "ռազմ": 1153,
      "##ացին": 1154,
      "մասնակց": 1155,
      "համակարգ": 1156,
      "տարբեր": 1157,
      "##ուրս": 1158,
      "նախկին": 1159,
      "տնտես": 1160,
      "աղ": 1161,
      "Առ": 1162,
      "##գամավոր": 1163,
      "միջազգային": 1164,
      "##շակ": 1165,
      "ունեցել": 1166,
      "Կար": 1167,
      "տարի": 1168,
      "զարգ": 1169,
      "սկս": 1170,
      "մահ": 1171,
      "պետական": 1172,
      "##իան": 1173,
      "##րույց": 1174,
      "##ակայ": 1175,
      "##ուրդ": 1176,
      "արդեն": 1177,
      "գլխավոր": 1178,
      "տոկ": 1179,
      "դատար": 1180,
      "անգամ": 1181,
      "դոլ": 1182,
      "տվ": 1183,
      "Սարգ": 1184,
      "ով": 1185,
      "##աստատ": 1186,
      "##ագիր": 1187,
      "տոկոս": 1188,
      "##մեն": 1189,
      "անվտանգ": 1190,
      "##ուլի": 1191,
      "բան": 1192,
      "պահանջ": 1193,
      "##ուհ": 1194,
      "բայց": 1195,
      "նրանց": 1196,
      "բանակ": 1197,
      "ինքն": 1198,
      "քրեական": 1199,
      "վերջին": 1200,
      "հուն": 1201,
      "Փաշին": 1202,
      "Նախ": 1203,
      "Հայաստանում": 1204,
      "##ոփ": 1205,
      "պատգամավոր": 1206,
      "##վելու": 1207,
      "##իզ": 1208,
      "##ետր": 1209,
      "##ոբ": 1210,
      "202": 1211,
      "հիմն": 1212,
      "##կան": 1213,
      "##արան": 1214,
      "գիտ": 1215,
      "Ադրբեջանի": 1216,
      "կլ": 1217,
      "##ինը": 1218,
      "վերաբերյալ": 1219,
      "»-": 1220,
      "##արանի": 1221,
      "##չական": 1222,
      "##ագետ": 1223,
      "կուս": 1224,
      "##ագույն": 1225,
      "մլ": 1226,
      "##ադարձ": 1227,
      "մարմ": 1228,
      "Հայաստան": 1229,
      "նվ": 1230,
      "ճանապարհ": 1231,
      "Սարգս": 1232,
      "##ադիր": 1233,
      "##գն": 1234,
      "##որեն": 1235,
      "Մենք": 1236,
      "ցանկ": 1237,
      "Մի": 1238,
      "##յու": 1239,
      "##ավել": 1240,
      "նման": 1241,
      "պատրաստ": 1242,
      "Այդ": 1243,
      "խոսքով": 1244,
      "15": 1245,
      "օրեն": 1246,
      "քննարկ": 1247,
      "##ուստ": 1248,
      "##երն": 1249,
      "##րոպ": 1250,
      "աջ": 1251,
      "##ոռ": 1252,
      "նկատմամբ": 1253,
      "մակ": 1254,
      "ժամը": 1255,
      "##աքնն": 1256,
      "նշանակ": 1257,
      "##ացրել": 1258,
      "##կր": 1259,
      "պարտ": 1260,
      "հաստատ": 1261,
      "ներկայացուցիչ": 1262,
      "Ռուսաստանի": 1263,
      "ուս": 1264,
      "եթե": 1265,
      "հաղորդում": 1266,
      "նիստ": 1267,
      "կարծ": 1268,
      "##րաժեշտ": 1269,
      "ամբ": 1270,
      "##երմ": 1271,
      "նաև": 1272,
      "Ազ": 1273,
      "վիճ": 1274,
      "վնաս": 1275,
      "որի": 1276,
      "##er": 1277,
      "փող": 1278,
      "կոր": 1279,
      "հրապարակ": 1280,
      "ես": 1281,
      "##եհ": 1282,
      "դուրս": 1283,
      "ոլ": 1284,
      "հարաբեր": 1285,
      "##իթ": 1286,
      "այց": 1287,
      "##աբար": 1288,
      "տվյալ": 1289,
      "շարունակ": 1290,
      "##ավիր": 1291,
      "##ահով": 1292,
      "12": 1293,
      "##իշեց": 1294,
      "լր": 1295,
      "##նորհ": 1296,
      "##ալով": 1297,
      "##ությունում": 1298,
      "##ումները": 1299,
      "իրավիճ": 1300,
      "30": 1301,
      "##անքով": 1302,
      "##նելով": 1303,
      "##վար": 1304,
      "Ալ": 1305,
      "դեռ": 1306,
      "արժ": 1307,
      "##երից": 1308,
      "հազար": 1309,
      "Նշ": 1310,
      "ԱԺ": 1311,
      "11": 1312,
      "##զի": 1313,
      "ձեռ": 1314,
      "##քին": 1315,
      "վաղ": 1316,
      "##վարի": 1317,
      "համագործ": 1318,
      "##արժ": 1319,
      "##վեն": 1320,
      "##ենան": 1321,
      "դարձ": 1322,
      "ունի": 1323,
      "զոհ": 1324,
      "##նենք": 1325,
      "անհրաժեշտ": 1326,
      "00": 1327,
      "փոխանց": 1328,
      "մինչեւ": 1329,
      "##իվանդ": 1330,
      "Ինչ": 1331,
      "կոչ": 1332,
      "Նիկ": 1333,
      "##վե": 1334,
      "##րաին": 1335,
      "մամ": 1336,
      "պատմ": 1337,
      "շրջանակ": 1338,
      "##ախտ": 1339,
      "որտեղ": 1340,
      "ժողովրդ": 1341,
      "##կրաին": 1342,
      "##ուզ": 1343,
      "##յութ": 1344,
      "ապահով": 1345,
      "ռուս": 1346,
      "թվականի": 1347,
      "իրավունք": 1348,
      "##վեց": 1349,
      "զբ": 1350,
      "Արցախի": 1351,
      "##ոդված": 1352,
      "շահ": 1353,
      "ընդգ": 1354,
      "##նորդ": 1355,
      "##ռն": 1356,
      "հիվանդ": 1357,
      "##այլ": 1358,
      "տեղափոխ": 1359,
      "##ություններին": 1360,
      "ձեր": 1361,
      "Հանրապետության": 1362,
      "շուրջ": 1363,
      "քան": 1364,
      "հայտնաբեր": 1365,
      "ոստիկանության": 1366,
      "##ույլ": 1367,
      "աճ": 1368,
      "ստոր": 1369,
      "հոդված": 1370,
      "##ահար": 1371,
      "##ատր": 1372,
      "##դան": 1373,
      "բնակիչ": 1374,
      "##եծ": 1375,
      "դոլար": 1376,
      "տալ": 1377,
      "##ղթ": 1378,
      "համայն": 1379,
      "վայր": 1380,
      "հաջ": 1381,
      "Նիկոլ": 1382,
      "աշխարհ": 1383,
      "##րույցում": 1384,
      "գիշ": 1385,
      "մեկն": 1386,
      "##ոնի": 1387,
      "##պր": 1388,
      "գեր": 1389,
      "##անոց": 1390,
      "ահ": 1391,
      "##արաբ": 1392,
      "Թուրքիայի": 1393,
      "նշեց": 1394,
      "ամբողջ": 1395,
      "##երազմ": 1396,
      "լուծ": 1397,
      "անվտանգության": 1398,
      "##ավորման": 1399,
      "##ենի": 1400,
      "դեպքում": 1401,
      "##ոփոխ": 1402,
      "##քան": 1403,
      "16": 1404,
      "լրագր": 1405,
      "գործընթաց": 1406,
      "անկ": 1407,
      "##արաբաղ": 1408,
      "##ոզ": 1409,
      "ավտոմ": 1410,
      ".-": 1411,
      "Սեր": 1412,
      "##ուգ": 1413,
      "Ավ": 1414,
      "խաղաղ": 1415,
      "տարվա": 1416,
      "Ես": 1417,
      "երկրի": 1418,
      "##ացվել": 1419,
      "##նախ": 1420,
      "մամուլի": 1421,
      "##ագիտ": 1422,
      "##եի": 1423,
      "##իա": 1424,
      "տրամ": 1425,
      "արտահ": 1426,
      "##աժամ": 1427,
      "##քեր": 1428,
      "մշակ": 1429,
      "##անիշ": 1430,
      "##ողական": 1431,
      "քաղաքացին": 1432,
      "##անս": 1433,
      "##ամաս": 1434,
      "իմ": 1435,
      "մն": 1436,
      "##տիվ": 1437,
      "նրան": 1438,
      "##ինակ": 1439,
      "Իս": 1440,
      "##րց": 1441,
      "##ուբ": 1442,
      "##եստ": 1443,
      "լավ": 1444,
      "##իջոց": 1445,
      "##ուք": 1446,
      "Նրա": 1447,
      "##նած": 1448,
      "##հանուր": 1449,
      "##աշխ": 1450,
      "##ավորված": 1451,
      "նախագահի": 1452,
      "հաշվ": 1453,
      "##ոսի": 1454,
      "պատճառով": 1455,
      "17": 1456,
      "13": 1457,
      "##ումն": 1458,
      "գրում": 1459,
      "Նոր": 1460,
      "##անքի": 1461,
      "չափ": 1462,
      "հանց": 1463,
      "##գել": 1464,
      "պաշտպանության": 1465,
      "թիվ": 1466,
      "փոփոխ": 1467,
      "թույլ": 1468,
      "դես": 1469,
      "վիր": 1470,
      "պատերազմ": 1471,
      "հանձնաժողով": 1472,
      "օգտագործ": 1473,
      "չուն": 1474,
      "##եխն": 1475,
      "առաջարկ": 1476,
      "անցկաց": 1477,
      "Ուկրաին": 1478,
      "##ավորապես": 1479,
      "##ացնել": 1480,
      "հասց": 1481,
      "Երեւանի": 1482,
      "ոլորտ": 1483,
      "18": 1484,
      "14": 1485,
      "##զբ": 1486,
      "կոմ": 1487,
      "##քների": 1488,
      "##ճար": 1489,
      "շնորհ": 1490,
      "կիր": 1491,
      "պաշտպան": 1492,
      "ազգային": 1493,
      "##an": 1494,
      "օրենս": 1495,
      "նախատես": 1496,
      "մարտ": 1497,
      "##իգ": 1498,
      "խն": 1499,
      "աջակց": 1500,
      "Ըստ": 1501,
      "սպաս": 1502,
      "միջեւ": 1503,
      "ավտոմեք": 1504,
      "Հով": 1505,
      "##ելը": 1506,
      "Սա": 1507,
      "##ահանգ": 1508,
      "##ացնում": 1509,
      "##ԱԿ": 1510,
      "կապված": 1511,
      "կարեւոր": 1512,
      "##յակ": 1513,
      "մլն": 1514,
      "բազմ": 1515,
      "քաղաքի": 1516,
      "դեպք": 1517,
      "##եդ": 1518,
      "հերթ": 1519,
      "հասարակ": 1520,
      "առանց": 1521,
      "տնօր": 1522,
      "թվում": 1523,
      "երկրների": 1524,
      "համապատ": 1525,
      "##ատեղ": 1526,
      "Ստ": 1527,
      "կա": 1528,
      "կառավարության": 1529,
      "տղ": 1530,
      "##արը": 1531,
      "ձեռք": 1532,
      "##նակից": 1533,
      "##րանսի": 1534,
      "##կած": 1535,
      "Արմեն": 1536,
      "քայլ": 1537,
      "որոնց": 1538,
      "հավել": 1539,
      "##եւէ": 1540,
      "Հիշեց": 1541,
      "##ումբ": 1542,
      "##արք": 1543,
      "200": 1544,
      "փրկ": 1545,
      "տնտեսական": 1546,
      "հայկական": 1547,
      "զարգացման": 1548,
      "մարդկ": 1549,
      "մրց": 1550,
      "հավաք": 1551,
      "բռն": 1552,
      "##ոթ": 1553,
      "լի": 1554,
      "բանակց": 1555,
      "զոր": 1556,
      "ընտ": 1557,
      "գում": 1558,
      "ընդգծ": 1559,
      "##րաժար": 1560,
      "25": 1561,
      "գիշերը": 1562,
      "գնահատ": 1563,
      "Հիշեցնենք": 1564,
      "##ունե": 1565,
      "##ՀԿ": 1566,
      "Այն": 1567,
      "##ուրք": 1568,
      "##նող": 1569,
      "կոն": 1570,
      "Մեր": 1571,
      "##որի": 1572,
      "Վրաստ": 1573,
      "քաղաքապետ": 1574,
      "մեք": 1575,
      "կն": 1576,
      "##ատի": 1577,
      "ադրբեջ": 1578,
      "##եգ": 1579,
      "շարք": 1580,
      "ող": 1581,
      "##որոշ": 1582,
      "զրույցում": 1583,
      "##երիկ": 1584,
      "##անա": 1585,
      "մեկը": 1586,
      "կմ": 1587,
      "տարածք": 1588,
      "պատվ": 1589,
      "հոգ": 1590,
      "##ինգ": 1591,
      "նրանք": 1592,
      "դեսպան": 1593,
      "##ացված": 1594,
      "ապա": 1595,
      "ուղղությամբ": 1596,
      "##ախազ": 1597,
      "ԱԳ": 1598,
      "ստացել": 1599,
      "հրաժար": 1600,
      "##կետ": 1601,
      "ՌԴ": 1602,
      "բժ": 1603,
      "պայք": 1604,
      "Նշենք": 1605,
      "##իական": 1606,
      "Ղարաբաղ": 1607,
      "Ոստիկան": 1608,
      "##ագահ": 1609,
      "տարածաշրջ": 1610,
      "##ինանս": 1611,
      "##բակալ": 1612,
      "որպեսզի": 1613,
      "եւս": 1614,
      "##րայ": 1615,
      "##իտաս": 1616,
      "Ավել": 1617,
      "գործունե": 1618,
      "ընդհանուր": 1619,
      "միջոցառ": 1620,
      "ռազմական": 1621,
      "21": 1622,
      "հարկ": 1623,
      "##անին": 1624,
      "##աքին": 1625,
      "##անագր": 1626,
      "ճանաչ": 1627,
      "արդյունքում": 1628,
      "ձեռն": 1629,
      "ԵՄ": 1630,
      "##եկտ": 1631,
      "##անձն": 1632,
      "աշխատակից": 1633,
      "ըստ": 1634,
      "##ադար": 1635,
      "բն": 1636,
      "կհ": 1637,
      "ձեւ": 1638,
      "տվել": 1639,
      "կառուց": 1640,
      "##ամարտ": 1641,
      "##պետ": 1642,
      "##անել": 1643,
      "տեխն": 1644,
      "##ստահ": 1645,
      "կյան": 1646,
      "Աբ": 1647,
      "խախտ": 1648,
      "ման": 1649,
      "թեկ": 1650,
      "Համ": 1651,
      "##դի": 1652,
      "##ենը": 1653,
      "Վեր": 1654,
      "զբաղ": 1655,
      "կաս": 1656,
      "որեւէ": 1657,
      "##իսկ": 1658,
      "##սպ": 1659,
      "օրը": 1660,
      "##ամիջոց": 1661,
      "ապրի": 1662,
      "մարզի": 1663,
      "սպան": 1664,
      "Վարդ": 1665,
      "##իների": 1666,
      "##ույթի": 1667,
      "քարտ": 1668,
      "տրամադր": 1669,
      "դրա": 1670,
      "ավարտ": 1671,
      "##թեր": 1672,
      "##վոր": 1673,
      "բող": 1674,
      "համալ": 1675,
      "հատված": 1676,
      "հետեւանքով": 1677,
      "##եկը": 1678,
      "Բր": 1679,
      "քննչական": 1680,
      "ձերբակալ": 1681,
      "երեք": 1682,
      "##ապարտ": 1683,
      "Ամ": 1684,
      "գտնվող": 1685,
      ">«": 1686,
      "##աբեկ": 1687,
      "եվ": 1688,
      "Ազգային": 1689,
      "##անալ": 1690,
      "միլի": 1691,
      "ներդր": 1692,
      "բավ": 1693,
      "կանխ": 1694,
      "##աճառ": 1695,
      "ընտանի": 1696,
      "մեզ": 1697,
      "##վածք": 1698,
      "սկզբ": 1699,
      "զգ": 1700,
      "Եվրոպ": 1701,
      "ցեր": 1702,
      "հատուկ": 1703,
      "եկել": 1704,
      "համապատասխան": 1705,
      "##ոպ": 1706,
      "##իծ": 1707,
      "Եթե": 1708,
      "թեկնած": 1709,
      "##ակել": 1710,
      "ակտիվ": 1711,
      "համարում": 1712,
      "ուշ": 1713,
      "Երև": 1714,
      "դիր": 1715,
      "##ևոր": 1716,
      "##իտասարդ": 1717,
      "##ադրանք": 1718,
      "դիտ": 1719,
      "առողջ": 1720,
      "##դիմ": 1721,
      "խնդր": 1722,
      "որն": 1723,
      "նպատակով": 1724,
      "##ոսկ": 1725,
      "իրեն": 1726,
      "քաղաքացի": 1727,
      "դպր": 1728,
      "շրջան": 1729,
      "##եփական": 1730,
      "փողոց": 1731,
      "##ուլիսի": 1732,
      "կլինի": 1733,
      "հայտնի": 1734,
      "գրել": 1735,
      "մեղադր": 1736,
      "##եխան": 1737,
      "սեպ": 1738,
      "ֆինանս": 1739,
      "ենթարկ": 1740,
      "նվազ": 1741,
      "ել": 1742,
      "կուսակցության": 1743,
      "հեղ": 1744,
      "թուրք": 1745,
      "դատախազ": 1746,
      "ցերեկը": 1747,
      "##ժմ": 1748,
      "օրենք": 1749,
      "նախաձ": 1750,
      "Ֆրանսի": 1751,
      "բանկ": 1752,
      "##անն": 1753,
      "գործընկեր": 1754,
      "հոդվածի": 1755,
      "##եկան": 1756,
      "մայր": 1757,
      "23": 1758,
      "##ովը": 1759,
      "##պեր": 1760,
      "արգել": 1761,
      "հայր": 1762,
      "##այիսի": 1763,
      "24": 1764,
      "##զում": 1765,
      "սեփական": 1766,
      "##ոջ": 1767,
      "շենք": 1768,
      "##արյանը": 1769,
      "Հայաստանը": 1770,
      "##պիսի": 1771,
      "հիմնական": 1772,
      "##եին": 1773,
      "».": 1774,
      "կալ": 1775,
      "##in": 1776,
      "##ոյի": 1777,
      "եք": 1778,
      "##ամարդ": 1779,
      "##շի": 1780,
      "վկայ": 1781,
      "գազ": 1782,
      "կիրառ": 1783,
      "հարձ": 1784,
      "ստորագր": 1785,
      "##եղաս": 1786,
      "վարչության": 1787,
      "22": 1788,
      "արձանագր": 1789,
      "համագործակցության": 1790,
      "Դավ": 1791,
      "##ություններով": 1792,
      "ներկայացրել": 1793,
      "##րահ": 1794,
      "ծառայության": 1795,
      "մանրամ": 1796,
      "##en": 1797,
      "##ոկտեմբերի": 1798,
      "հաղթ": 1799,
      "##ադառն": 1800,
      "##գոր": 1801,
      "##եքս": 1802,
      "խորհրդար": 1803,
      "##es": 1804,
      "լինի": 1805,
      "որով": 1806,
      "Ավելի": 1807,
      "Խաչ": 1808,
      "կրթ": 1809,
      "հանցագործ": 1810,
      "կոմիտ": 1811,
      "##ախոս": 1812,
      "Իսկ": 1813,
      "երեխան": 1814,
      "մյուս": 1815,
      "նոյ": 1816,
      "մարդկանց": 1817,
      "##աբաթ": 1818,
      "կատարել": 1819,
      "##ագիրը": 1820,
      "##ուդ": 1821,
      "նավ": 1822,
      "##ընդ": 1823,
      "##տար": 1824,
      "օգն": 1825,
      "տալիս": 1826,
      "##անձ": 1827,
      "Ինչպես": 1828,
      "##ետեւ": 1829,
      "##երթի": 1830,
      "թող": 1831,
      "Գրի": 1832,
      "##ուսի": 1833,
      "ռուսական": 1834,
      "երիտասարդ": 1835,
      "##գործ": 1836,
      "##լին": 1837,
      "Արտ": 1838,
      "##աքս": 1839,
      "##ակցությունը": 1840,
      "վստահ": 1841,
      "փաստաթ": 1842,
      "չեմ": 1843,
      "նախաձեռն": 1844,
      "տակ": 1845,
      "Իրանի": 1846,
      "առավել": 1847,
      "##եկտեմբերի": 1848,
      "##չության": 1849,
      "Մոսկ": 1850,
      "##երս": 1851,
      "##եթ": 1852,
      "վիրավոր": 1853,
      "հաջող": 1854,
      "##ումից": 1855,
      "պահպան": 1856,
      "արտադր": 1857,
      "առաջնորդ": 1858,
      "վաճառ": 1859,
      "ամիս": 1860,
      "##ադատ": 1861,
      "##ահայտ": 1862,
      "վճար": 1863,
      "##ոցիալ": 1864,
      "##on": 1865,
      "ունեցած": 1866,
      "Սիր": 1867,
      "հարցը": 1868,
      "թվականին": 1869,
      "արտաքին": 1870,
      "##ենա": 1871,
      "շարժ": 1872,
      "##ույս": 1873,
      "երկար": 1874,
      "արել": 1875,
      "Փաշինյանը": 1876,
      "##ոշոր": 1877,
      "##ցի": 1878,
      "##ագիտական": 1879,
      "Հակ": 1880,
      "Պետ": 1881,
      "անձանց": 1882,
      "Ման": 1883,
      "ողջ": 1884,
      "խորհրդի": 1885,
      "մարտի": 1886,
      "Սակայն": 1887,
      "դաս": 1888,
      "):": 1889,
      "հրամ": 1890,
      "ցույց": 1891,
      "ական": 1892,
      "դժ": 1893,
      "գրանց": 1894,
      "անդր": 1895,
      "փրկարար": 1896,
      "ասում": 1897,
      "լինելու": 1898,
      "Չին": 1899,
      "տուժ": 1900,
      "վարորդ": 1901,
      "երկրորդ": 1902,
      "ծանր": 1903,
      "տեղեկատվ": 1904,
      "##ացնելու": 1905,
      "),": 1906,
      "Հարություն": 1907,
      "նախարարության": 1908,
      "##ություններից": 1909,
      "ընդդիմ": 1910,
      "մարդու": 1911,
      "զինվոր": 1912,
      "##անման": 1913,
      "իրավունքների": 1914,
      "շաբաթ": 1915,
      "հիվանդանոց": 1916,
      "##աքր": 1917,
      "մակարդ": 1918,
      "##ավետ": 1919,
      "տնօրեն": 1920,
      "##եւս": 1921,
      "##վան": 1922,
      "գաղ": 1923,
      "ունեցող": 1924,
      "##երտ": 1925,
      "հանգ": 1926,
      "Պար": 1927,
      "լրատվ": 1928,
      "տարածքում": 1929,
      "##ոնը": 1930,
      "##իկական": 1931,
      "##ովի": 1932,
      "##առավար": 1933,
      "տղամարդ": 1934,
      "##բյուր": 1935,
      "ուսում": 1936,
      "ընկերության": 1937,
      "եզ": 1938,
      "աստ": 1939,
      "Մարտ": 1940,
      "մարմին": 1941,
      "##անալու": 1942,
      "##ատիվ": 1943,
      "##նես": 1944,
      "ինչը": 1945,
      "դադար": 1946,
      "ծն": 1947,
      "այցել": 1948,
      "##ուպ": 1949,
      "ժամկետ": 1950,
      "##ոլոգ": 1951,
      "Սարգսյանը": 1952,
      "##ակազմ": 1953,
      "ապրիլի": 1954,
      "վերահ": 1955,
      "միջոցով": 1956,
      "ընդունել": 1957,
      "օպեր": 1958,
      "##ծառայ": 1959,
      "##կար": 1960,
      "##ներգ": 1961,
      "մասնակից": 1962,
      "100": 1963,
      "##յուսիս": 1964,
      "##եռնային": 1965,
      "պաշտոնական": 1966,
      "սոցիալ": 1967,
      "կրկ": 1968,
      "##րեց": 1969,
      "առաջադր": 1970,
      "##անյանը": 1971,
      "27": 1972,
      "##աստանի": 1973,
      "բաժան": 1974,
      "##ասեն": 1975,
      "երթ": 1976,
      "վարկ": 1977,
      "##երթը": 1978,
      "Սերժ": 1979,
      "Գրիգոր": 1980,
      "գալ": 1981,
      "Մար": 1982,
      "Հովհան": 1983,
      "##այից": 1984,
      "##աքաղաք": 1985,
      "##նախարար": 1986,
      "դիրք": 1987,
      "լինել": 1988,
      "##առակ": 1989,
      "կետ": 1990,
      "Հր": 1991,
      "մայիսի": 1992,
      "##րամփ": 1993,
      "##ենքի": 1994,
      "մեղադրանք": 1995,
      "Թրամփ": 1996,
      "արդար": 1997,
      "սեպտեմբերի": 1998,
      "յուր": 1999,
      "##անիայի": 2000,
      "Երեւան": 2001,
      "##իքի": 2002,
      "հակամարտ": 2003,
      "մարդիկ": 2004,
      "##ապնդ": 2005,
      "գտ": 2006,
      "ազդ": 2007,
      "ադրբեջանական": 2008,
      "փետր": 2009,
      "հարուց": 2010,
      "ուղղված": 2011,
      "զանգ": 2012,
      "չկա": 2013,
      "առեւ": 2014,
      "դրանք": 2015,
      "խոր": 2016,
      "##ատն": 2017,
      "##իռ": 2018,
      "##ողները": 2019,
      "##իկայի": 2020,
      "նախագծ": 2021,
      "##ություններում": 2022,
      "նոյեմբերի": 2023,
      "հոկտեմբերի": 2024,
      "##վեր": 2025,
      "մասնավորապես": 2026,
      "Անդր": 2027,
      "հունիսի": 2028,
      "տարին": 2029,
      "ահաբեկ": 2030,
      "բախ": 2031,
      "##ողության": 2032,
      "խոշոր": 2033,
      "կասկած": 2034,
      "26": 2035,
      "Հուն": 2036,
      "դեկտեմբերի": 2037,
      "դատապարտ": 2038,
      "Իսրայ": 2039,
      "պահին": 2040,
      "անում": 2041,
      "##ություններն": 2042,
      "դիվ": 2043,
      "հարաբերությունների": 2044,
      "շրջանում": 2045,
      "դպրոց": 2046,
      "նշված": 2047,
      "վտանգ": 2048,
      "ցեղաս": 2049,
      "հետև": 2050,
      "երեկ": 2051,
      "սկսել": 2052,
      "համատեղ": 2053,
      "հատկ": 2054,
      "բացառ": 2055,
      "##իդ": 2056,
      "արդյունք": 2057,
      "##շկական": 2058,
      "Ընդ": 2059,
      "##անկար": 2060,
      "##ունակում": 2061,
      "##եմբեր": 2062,
      "փակ": 2063,
      "վարչական": 2064,
      "հիշ": 2065,
      "Սուր": 2066,
      "գործով": 2067,
      "##ողի": 2068,
      "կարծում": 2069,
      "քարտուղ": 2070,
      "խմբակցության": 2071,
      "հանձնաժողովի": 2072,
      "էջ": 2073,
      "Վար": 2074,
      "գումար": 2075,
      "թեկնածու": 2076,
      "ակն": 2077,
      "ռե": 2078,
      "ամս": 2079,
      "##ինական": 2080,
      "օրենսգր": 2081,
      "շրջանակներում": 2082,
      "զինծառայ": 2083,
      "որոշում": 2084,
      "հենց": 2085,
      "##ավեր": 2086,
      "երկիր": 2087,
      "##իրակ": 2088,
      "շտ": 2089,
      "##ազոտ": 2090,
      "կարելի": 2091,
      "##ավալ": 2092,
      "դիմել": 2093,
      "կառավարման": 2094,
      "կերպ": 2095,
      "արագ": 2096,
      "դարձել": 2097,
      "հարցում": 2098,
      "Լեռնային": 2099,
      "լրագրողների": 2100,
      "Այսօր": 2101,
      "այսօրվա": 2102,
      "նյութ": 2103,
      "##or": 2104,
      "##ավայր": 2105,
      "ՄԱԿ": 2106,
      "##ce": 2107,
      "քվե": 2108,
      "##ոսյանը": 2109,
      "հիմա": 2110,
      "##ակցությամբ": 2111,
      "մասնակցել": 2112,
      "հնարավորություն": 2113,
      "խմբի": 2114,
      "##որտի": 2115,
      "Որ": 2116,
      "նախագահը": 2117,
      "##գրես": 2118,
      "անուն": 2119,
      "տեղափոխվել": 2120,
      "##եցրել": 2121,
      "հանրապետ": 2122,
      "փոք": 2123,
      "սպառ": 2124,
      "կազմել": 2125,
      "##ter": 2126,
      "Արթ": 2127,
      "գտնվում": 2128,
      "##ադեպ": 2129,
      "խումբ": 2130,
      "Ժողով": 2131,
      "28": 2132,
      "կանգ": 2133,
      "Գյ": 2134,
      "ձեռնարկ": 2135,
      "Արար": 2136,
      "տան": 2137,
      "##ակատար": 2138,
      "վնասվածք": 2139,
      "##անավոր": 2140,
      "Երեւանում": 2141,
      "որում": 2142,
      "սպառն": 2143,
      "##դանավ": 2144,
      "հունվարի": 2145,
      "մակնի": 2146,
      "##ենտրոն": 2147,
      "Մեծ": 2148,
      "պատժ": 2149,
      "##al": 2150,
      "##աթիվ": 2151,
      "##արժեք": 2152,
      "##աչափ": 2153,
      "հետախ": 2154,
      "ՀՀԿ": 2155,
      "Գերմ": 2156,
      "Ին": 2157,
      "Արդ": 2158,
      "անկախ": 2159,
      "պայմանավորված": 2160,
      "##ադրամ": 2161,
      "##ումով": 2162,
      "##ոստոսի": 2163,
      "խոստ": 2164,
      "##ԱՏ": 2165,
      "ուժերի": 2166,
      "##ագրի": 2167,
      "լուս": 2168,
      "ամերիկ": 2169,
      "##կալ": 2170,
      "հուլիսի": 2171,
      "##աստան": 2172,
      "##աշխարհ": 2173,
      "##անային": 2174,
      "հաճ": 2175,
      "դրանց": 2176,
      "բացահայտ": 2177,
      "##իլի": 2178,
      "##րած": 2179,
      "նահանգ": 2180,
      "##ազոր": 2181,
      "Հայոց": 2182,
      "հանգամ": 2183,
      "##րանսպ": 2184,
      "սա": 2185,
      "##ar": 2186,
      "սոցիալական": 2187,
      "ոլորտում": 2188,
      "##ողներին": 2189,
      "##երձ": 2190,
      "մակնիշի": 2191,
      "մահացել": 2192,
      "Սահման": 2193,
      "հանդիպման": 2194,
      "վերահսկ": 2195,
      "##աֆ": 2196,
      "##մի": 2197,
      "թղթ": 2198,
      "##եւել": 2199,
      "##ենտ": 2200,
      "ապօր": 2201,
      "##աշխարհային": 2202,
      "Հակոբ": 2203,
      "ծառայությունից": 2204,
      "##իկա": 2205,
      "գործակալ": 2206,
      "Ուկրաինայի": 2207,
      "Վրաստանի": 2208,
      "արձագ": 2209,
      "##աքել": 2210,
      "դատարանի": 2211,
      "ծրագրի": 2212,
      "գործում": 2213,
      "##անչ": 2214,
      "Դա": 2215,
      "դատավոր": 2216,
      "##գտ": 2217,
      "ավտոմեքենան": 2218,
      "##ատու": 2219,
      "Վահ": 2220,
      "##ստեղ": 2221,
      "##յուջ": 2222,
      "միլիոն": 2223,
      "հետագ": 2224,
      "ընդգծել": 2225,
      "կատարելու": 2226,
      "բուժ": 2227,
      "տարեկան": 2228,
      "Բայց": 2229,
      "##oo": 2230,
      "ուզում": 2231,
      "##նասիր": 2232,
      "##եմատ": 2233,
      "##ատակարար": 2234,
      "առկա": 2235,
      "կուն": 2236,
      "##րորդ": 2237,
      "##րդեհ": 2238,
      "##իգրան": 2239,
      "օդանավ": 2240,
      "##աշն": 2241,
      "##տրական": 2242,
      "##ոնավիր": 2243,
      "սիր": 2244,
      "Տիգրան": 2245,
      "ժողովրդի": 2246,
      "փետրվարի": 2247,
      "չենք": 2248,
      "պայթ": 2249,
      "##աքրք": 2250,
      "##ացում": 2251,
      "##ագն": 2252,
      "##ավարական": 2253,
      "Նով": 2254,
      "##չապետ": 2255,
      "Պուտ": 2256,
      "Վերջ": 2257,
      "##իբ": 2258,
      "50": 2259,
      "##ակոչ": 2260,
      "29": 2261,
      "նստ": 2262,
      "դիմաց": 2263,
      "##անտ": 2264,
      "հարված": 2265,
      "վերական": 2266,
      "ԱԳՆ": 2267,
      "##ացումը": 2268,
      "##ոյանը": 2269,
      "վերադարձ": 2270,
      "շարունակում": 2271,
      "բողո": 2272,
      "##եցնել": 2273,
      "##որս": 2274,
      "##ադրական": 2275,
      "##րբ": 2276,
      "Պատ": 2277,
      "հեռուստ": 2278,
      "երկրում": 2279,
      "նվիր": 2280,
      "Քաղաք": 2281,
      "աղբյուր": 2282,
      "##ստակ": 2283,
      "մշտ": 2284,
      "դատական": 2285,
      "Արթուր": 2286,
      "հետախուզ": 2287,
      "հրաման": 2288,
      "##եւան": 2289,
      "##ակման": 2290,
      "շին": 2291,
      "միաս": 2292,
      "աշխատանքի": 2293,
      "նախորդ": 2294,
      "նախատեսված": 2295,
      "իշխանությունները": 2296,
      "հայտնաբերվել": 2297,
      "##մար": 2298,
      "##եբ": 2299,
      "##անապարհ": 2300,
      "Երկ": 2301,
      "գրասեն": 2302,
      "հանդես": 2303,
      "##ակցի": 2304,
      "##it": 2305,
      "31": 2306,
      "մանրամասն": 2307,
      "տր": 2308,
      "ներառ": 2309,
      "բերել": 2310,
      "Ներ": 2311,
      "ինքը": 2312,
      "##իճան": 2313,
      "##ԱՍ": 2314,
      "հարցերի": 2315,
      "Առաջ": 2316,
      "դեպքի": 2317,
      "##ունքի": 2318,
      "կանոն": 2319,
      "կազմում": 2320,
      "սահմաններում": 2321,
      "##անցի": 2322,
      "Կառավար": 2323,
      "առանձն": 2324,
      "ովքեր": 2325,
      "Մին": 2326,
      "##ԻԱ": 2327,
      "դիվան": 2328,
      "40": 2329,
      "հաղորդագր": 2330,
      "ցանկանում": 2331,
      "ծր": 2332,
      "արժեք": 2333,
      "ասվում": 2334,
      "արդյունավետ": 2335,
      "ստացվել": 2336,
      "կտր": 2337,
      "Ղարաբաղի": 2338,
      "փուլ": 2339,
      "բժշկական": 2340,
      "Էդ": 2341,
      "կապակցությամբ": 2342,
      "բազմաթիվ": 2343,
      "անմ": 2344,
      "##յակի": 2345,
      "պայքար": 2346,
      "օրենսգրքի": 2347,
      "թերթի": 2348,
      "կտ": 2349,
      "որդ": 2350,
      "ԱԻ": 2351,
      "տեղակալ": 2352,
      "ինձ": 2353,
      "թուրքական": 2354,
      "մլրդ": 2355,
      "##արյանի": 2356,
      "##գնաժամ": 2357,
      "##ացող": 2358,
      "##at": 2359,
      "թիվը": 2360,
      "##եղեց": 2361,
      "էլեկ": 2362,
      "փոքր": 2363,
      "##վազ": 2364,
      "ԼՂ": 2365,
      "##ոճ": 2366,
      "##ադրության": 2367,
      "լուրջ": 2368,
      "##ալիք": 2369,
      "հանգամանք": 2370,
      "##եւի": 2371,
      "##գրավ": 2372,
      "##ազանգ": 2373,
      "##լադ": 2374,
      "ուսումնասիր": 2375,
      "հաճախ": 2376,
      "##իի": 2377,
      "մեքենան": 2378,
      "քար": 2379,
      "Բրիտ": 2380,
      "իշխանության": 2381,
      "հստակ": 2382,
      "Դավիթ": 2383,
      "199": 2384,
      "համալս": 2385,
      "ռեժ": 2386,
      "##անան": 2387,
      "##ռչ": 2388,
      "կառույց": 2389,
      "Ոստիկանության": 2390,
      "##ակների": 2391,
      "որովհ": 2392,
      "չէր": 2393,
      "քննարկել": 2394,
      "ավագ": 2395,
      "հետաքրք": 2396,
      "##գի": 2397,
      "հայտարարեց": 2398,
      "Քոչ": 2399,
      "Մոսկվ": 2400,
      "##րակ": 2401,
      "հեր": 2402,
      "##ովոր": 2403,
      "##աքանչ": 2404,
      "վերաբերում": 2405,
      "բաժնի": 2406,
      "կորոնավիր": 2407,
      "Փաշինյանի": 2408,
      "կլին": 2409,
      "Աս": 2410,
      "ապօրինի": 2411,
      "կոմիտեի": 2412,
      "##ահակ": 2413,
      "խորհրդարանական": 2414,
      "նչ": 2415,
      "##աքանչյուր": 2416,
      "##ազրկ": 2417,
      "ամր": 2418,
      "հետազոտ": 2419,
      "##et": 2420,
      "##ավորում": 2421,
      "պլ": 2422,
      "արձագանք": 2423,
      "պատասխանատվ": 2424,
      "օպերատիվ": 2425,
      "##իկի": 2426,
      "շրջանակում": 2427,
      "ծախ": 2428,
      "հի": 2429,
      "##ականի": 2430,
      "մուտ": 2431,
      "դեպի": 2432,
      "ինտ": 2433,
      "իրենք": 2434,
      "##ավային": 2435,
      "ինչի": 2436,
      "##ակա": 2437,
      "այժմ": 2438,
      "չունի": 2439,
      "##թիվ": 2440,
      "կայուն": 2441,
      "2020": 2442,
      "հաջորդ": 2443,
      "մասի": 2444,
      "փաստաթղթ": 2445,
      "պնդ": 2446,
      "##el": 2447,
      "բարեկ": 2448,
      "պատվիրակ": 2449,
      "Օր": 2450,
      "Հայր": 2451,
      "փոխանցում": 2452,
      "Սարգսյանի": 2453,
      "Ալեքս": 2454,
      "գույ": 2455,
      "##նիս": 2456,
      "##իշտ": 2457,
      "մարտական": 2458,
      "##անելի": 2459,
      "Խաչատր": 2460,
      "##ոյան": 2461,
      "##թար": 2462,
      "##նեն": 2463,
      "զինված": 2464,
      "Վան": 2465,
      "##նայ": 2466,
      "հյուր": 2467,
      "##նշ": 2468,
      "գործողությունների": 2469,
      "Նրանք": 2470,
      "Փաստ": 2471,
      "հոս": 2472,
      "լիազոր": 2473,
      "##անշ": 2474,
      "տեխնոլոգ": 2475,
      "մասով": 2476,
      "պատերազմի": 2477,
      "##ազատ": 2478,
      "դառն": 2479,
      "ակց": 2480,
      "օգոստոսի": 2481,
      "##ԱՀԿ": 2482,
      "ապրանք": 2483,
      "մեկի": 2484,
      "Կենտրոն": 2485,
      "կարևոր": 2486,
      "երեխ": 2487,
      "##ականը": 2488,
      "Հովհաննիս": 2489,
      "Բացի": 2490,
      "գործերի": 2491,
      "Էրդ": 2492,
      "բյուջ": 2493,
      "##նակի": 2494,
      "##պիտ": 2495,
      "քաղաքում": 2496,
      "Վլադ": 2497,
      "հանրային": 2498,
      "սահմանափ": 2499,
      "Ըն": 2500,
      "Իրան": 2501,
      "վերց": 2502,
      "փորձում": 2503,
      "վարչապետի": 2504,
      "##ակով": 2505,
      "փոխար": 2506,
      "Գյում": 2507,
      "կուսակց": 2508,
      "Ֆրանսիայի": 2509,
      "Սյուն": 2510,
      "քարտուղար": 2511,
      "##իծը": 2512,
      "000": 2513,
      "հիմնադրամ": 2514,
      "ծախս": 2515,
      "Էրդող": 2516,
      "օրվա": 2517,
      "նախարարի": 2518,
      "տոն": 2519,
      "ջանք": 2520,
      "տրանսպ": 2521,
      "##սկի": 2522,
      "կառավարությունը": 2523,
      "##om": 2524,
      "Դեպ": 2525,
      "բավարար": 2526,
      "Աղ": 2527,
      "##ադի": 2528,
      "##այել": 2529,
      "հրավիր": 2530,
      "Բաք": 2531,
      "ապր": 2532,
      "տոկոսով": 2533,
      "Ադրբեջանը": 2534,
      "էներգ": 2535,
      "##մունք": 2536,
      "##ագծ": 2537,
      "##կոն": 2538,
      "Բել": 2539,
      "Սահակ": 2540,
      "Ռո": 2541,
      "##եյս": 2542,
      "մեկնել": 2543,
      "պարտավոր": 2544,
      "տվյալներով": 2545,
      "օրենքի": 2546,
      "2018": 2547,
      "մասը": 2548,
      "առնչ": 2549,
      "##ակառ": 2550,
      "ընկ": 2551,
      "##որհուրդ": 2552,
      "հանդիս": 2553,
      "միջնորդ": 2554,
      "այնպես": 2555,
      "գյուղի": 2556,
      "զինվորական": 2557,
      "առեւտր": 2558,
      "իրավիճակը": 2559,
      "Պետր": 2560,
      "մայրաքաղաք": 2561,
      "աշխատանքային": 2562,
      "##եւմ": 2563,
      "հայտնվել": 2564,
      "Վարդան": 2565,
      "ընկերությունը": 2566,
      "Ստեփ": 2567,
      "Ալի": 2568,
      "որոշումը": 2569,
      "դժվար": 2570,
      "##ատուց": 2571,
      "ելույթ": 2572,
      "Արմ": 2573,
      "պետության": 2574,
      "##տնի": 2575,
      "թերթը": 2576,
      "քաղաքացիական": 2577,
      "ՌԻԱ": 2578,
      "Նովոստ": 2579,
      "##ահատված": 2580,
      "ապագ": 2581,
      "Գագ": 2582,
      "համաշխարհային": 2583,
      "##քից": 2584,
      "գոտ": 2585,
      "համայնքի": 2586,
      "էջում": 2587,
      "թաղ": 2588,
      "վատ": 2589,
      "##քերի": 2590,
      "##ութային": 2591,
      "ռեժիմ": 2592,
      "հղ": 2593,
      "ուղեւոր": 2594,
      "օրինակ": 2595,
      "ժողովուրդ": 2596,
      "##ահավ": 2597,
      "##ինքն": 2598,
      "##ոնալ": 2599,
      "ԵԱՀԿ": 2600,
      "ՀԱ": 2601,
      "փախ": 2602,
      "Թուրքիան": 2603,
      "ծան": 2604,
      "##չի": 2605,
      "Վերջին": 2606,
      "արդյ": 2607,
      "ուղարկ": 2608,
      "##ստիտ": 2609,
      "##աբթի": 2610,
      "##իմիր": 2611,
      "##ատեր": 2612,
      "##ացիայի": 2613,
      "Կոր": 2614,
      "օրակարգ": 2615,
      "հաշվարկ": 2616,
      "Առավել": 2617,
      "##աթիռ": 2618,
      "սր": 2619,
      "##լայն": 2620,
      "##ավոտ": 2621,
      "##թն": 2622,
      "համակարգի": 2623,
      "քաղաքացիների": 2624,
      "զոհվել": 2625,
      "ստիպ": 2626,
      "աշխարհի": 2627,
      "Միջ": 2628,
      "ջր": 2629,
      "դոլարի": 2630,
      "տեղեկացրել": 2631,
      "հերթական": 2632,
      "հեռախոս": 2633,
      "##ակետ": 2634,
      "##քային": 2635,
      "գծ": 2636,
      "ծավալ": 2637,
      "##ավորել": 2638,
      "##եներ": 2639,
      "առաջն": 2640,
      "գող": 2641,
      "##ացույց": 2642,
      "սարք": 2643,
      "Վլադիմիր": 2644,
      "Հիմ": 2645,
      "անել": 2646,
      "##իզնես": 2647,
      "##եփոխ": 2648,
      "Կարեն": 2649,
      "##աշեն": 2650,
      "ՆԱՏ": 2651,
      "կարգավորման": 2652,
      "գործի": 2653,
      "##ասխ": 2654,
      "ՆԱՏՕ": 2655,
      "ցանկացած": 2656,
      "գործունեության": 2657,
      "զենք": 2658,
      "կրակ": 2659,
      "առթիվ": 2660,
      "կարծի": 2661,
      "յուրաքանչյուր": 2662,
      "##ապատրաստ": 2663,
      "ինստիտ": 2664,
      "եվրոպ": 2665,
      "ունենք": 2666,
      "ճգնաժամ": 2667,
      "##ադառնալով": 2668,
      "նույնպես": 2669,
      "##րախ": 2670,
      "ատ": 2671,
      "դաշին": 2672,
      "ահազանգ": 2673,
      "տուն": 2674,
      "վկայակոչ": 2675,
      "##առանգ": 2676,
      "##ազանց": 2677,
      "##am": 2678,
      "համեմատ": 2679,
      "ամերիկյան": 2680,
      "##աբանական": 2681,
      "բարեփոխ": 2682,
      "ազդեց": 2683,
      "##ազգ": 2684,
      "##ատոր": 2685,
      "##իսին": 2686,
      "Սամ": 2687,
      "##ելուց": 2688,
      "Աշ": 2689,
      "##ակվել": 2690,
      "ընտրությունների": 2691,
      "բավական": 2692,
      "տեղեկացնում": 2693,
      "ինք": 2694,
      "##ենայի": 2695,
      "##այրի": 2696,
      "դրամով": 2697,
      "##իայում": 2698,
      "##այով": 2699,
      "կեղծ": 2700,
      "##կայում": 2701,
      "##արանում": 2702,
      "ենթադր": 2703,
      "##ստանի": 2704,
      "##ովին": 2705,
      "ենթարկել": 2706,
      "35": 2707,
      "տեղադր": 2708,
      "դրան": 2709,
      "օդ": 2710,
      "ջերմ": 2711,
      "##ակն": 2712,
      "չհ": 2713,
      "հարցեր": 2714,
      "##յուսիսային": 2715,
      "կնոջ": 2716,
      "##ոճանապարհ": 2717,
      "##ադատության": 2718,
      "մեկնաբան": 2719,
      "##բերտ": 2720,
      "նույնիսկ": 2721,
      "##աքննության": 2722,
      "##արկի": 2723,
      "Իմ": 2724,
      "##նայած": 2725,
      "խորհուրդ": 2726,
      "կենս": 2727,
      "հասարակական": 2728,
      "լս": 2729,
      "հուշ": 2730,
      "նշում": 2731,
      "ավտոճանապարհ": 2732,
      "որից": 2733,
      "##he": 2734,
      "հարցին": 2735,
      "մոտեց": 2736,
      "Գագիկ": 2737,
      "Կարապետ": 2738,
      "իշխանությունների": 2739,
      "նախարարը": 2740,
      "##շն": 2741,
      "Տար": 2742,
      "սովոր": 2743,
      "ամուս": 2744,
      "Քնն": 2745,
      "տասն": 2746,
      "Լուս": 2747,
      "Ժողովուրդ": 2748,
      "մանկ": 2749,
      "բաժին": 2750,
      "%-": 2751,
      "##շաբթի": 2752,
      "հերթին": 2753,
      "շփ": 2754,
      "Գեղ": 2755,
      "արար": 2756,
      "##աշարժ": 2757,
      "դատարան": 2758,
      "Ռուսաստանը": 2759,
      "##ինք": 2760,
      "քիչ": 2761,
      "նկար": 2762,
      "զեկ": 2763,
      "##կաս": 2764,
      "մատակարար": 2765,
      "##եւը": 2766,
      "ԱԻՆ": 2767,
      "##իշկ": 2768,
      "##ահայ": 2769,
      "##այիս": 2770,
      "կենտրոնի": 2771,
      "հրդեհ": 2772,
      "պարբեր": 2773,
      "վկայակոչելով": 2774,
      "##ավի": 2775,
      "աշխատում": 2776,
      "##անյութ": 2777,
      "լրատվամիջոց": 2778,
      "##աժամանակ": 2779,
      "դեր": 2780,
      "Բաղ": 2781,
      "նպաստ": 2782,
      "այնտեղ": 2783,
      "Արամ": 2784,
      "##ճատ": 2785,
      "##ացյալ": 2786,
      "##եմբերին": 2787,
      "համոզ": 2788,
      "հույս": 2789,
      "արտահայտ": 2790,
      "##ատնտես": 2791,
      "մարզում": 2792,
      "բիզնես": 2793,
      "ֆոտ": 2794,
      "հակառակ": 2795,
      "բողոքի": 2796,
      "հաշվի": 2797,
      "կդ": 2798,
      "##աժողովի": 2799,
      "Գեւոր": 2800,
      "##պանի": 2801,
      "Մինչ": 2802,
      "այստեղ": 2803,
      "հատկապես": 2804,
      "##ատական": 2805,
      "հիշեց": 2806,
      "հակամարտության": 2807,
      "Կան": 2808,
      "Մասն": 2809,
      "##եթե": 2810,
      "##ացուցիչ": 2811,
      "##անդիպ": 2812,
      "ֆինանսական": 2813,
      "##ելիք": 2814,
      "դատարանը": 2815,
      "##ահոգ": 2816,
      "Մարդ": 2817,
      "##ողը": 2818,
      "դիրքորոշ": 2819,
      "եղբ": 2820,
      "ստուգ": 2821,
      "##..": 2822,
      "բերման": 2823,
      "հայտնաբերել": 2824,
      "Գյումրի": 2825,
      "դեռեւս": 2826,
      "##le": 2827,
      "մասնագետ": 2828,
      "որոշել": 2829,
      "##վեցին": 2830,
      "##քերը": 2831,
      "##ոռուպ": 2832,
      "##իները": 2833,
      "զբոս": 2834,
      "##որտային": 2835,
      "հարակից": 2836,
      "Ապ": 2837,
      "Բար": 2838,
      "քաղաքականության": 2839,
      "եռ": 2840,
      "սխ": 2841,
      "այցելել": 2842,
      "ներքին": 2843,
      "իրավական": 2844,
      "ՊՆ": 2845,
      "##ընթաց": 2846,
      "կկ": 2847,
      "փոխանցմամբ": 2848,
      "ներկա": 2849,
      "##ացավ": 2850,
      "##անակը": 2851,
      "ձայն": 2852,
      "ինստիտուտ": 2853,
      "Պաշտ": 2854,
      "կազմակերպության": 2855,
      "շենքի": 2856,
      "հայտարարության": 2857,
      "կես": 2858,
      "որովհետեւ": 2859,
      "փորձագետ": 2860,
      "դադարեց": 2861,
      "##ամական": 2862,
      "Գեւորգ": 2863,
      "առաքել": 2864,
      "խմ": 2865,
      "##այք": 2866,
      "ճնշ": 2867,
      "##աղթ": 2868,
      "հնչ": 2869,
      "Հարավային": 2870,
      "անվան": 2871,
      "ԲՀԿ": 2872,
      "պաշտոնյան": 2873,
      "##սեն": 2874,
      "##ունի": 2875,
      "Հետ": 2876,
      "Արաբ": 2877,
      "Դեպքի": 2878,
      "հազ": 2879,
      "որոշակի": 2880,
      "հայրեն": 2881,
      "պատժամիջոց": 2882,
      "կգ": 2883,
      "##ամտ": 2884,
      "##աբաժ": 2885,
      "##ունդ": 2886,
      "պայմաններում": 2887,
      "կին": 2888,
      "մինչև": 2889,
      "##արմ": 2890,
      "ստեղծել": 2891,
      "##ուհի": 2892,
      "##ԱՍՍ": 2893,
      "արտակարգ": 2894,
      "կալանավոր": 2895,
      "##ասյանը": 2896,
      "Սյունիքի": 2897,
      "իրականացման": 2898,
      "թափ": 2899,
      "ՏԱՍՍ": 2900,
      "##արկում": 2901,
      "##ինե": 2902,
      "ժամանակահատված": 2903,
      "կրկին": 2904,
      "Շիր": 2905,
      "հասել": 2906,
      "Կոն": 2907,
      "##ստի": 2908,
      "##երկր": 2909,
      "ներգրավ": 2910,
      "##ավիճ": 2911,
      "առումով": 2912,
      "Նախագահ": 2913,
      "##ավուշ": 2914,
      "ներք": 2915,
      "մաքս": 2916,
      "աշխատակազմ": 2917,
      "տուժած": 2918,
      "ցեղասպանության": 2919,
      "երրորդ": 2920,
      "կատարված": 2921,
      "կունենա": 2922,
      "կրթության": 2923,
      "անդրադարձ": 2924,
      "հանդիպել": 2925,
      "հեղինակ": 2926,
      "##ետի": 2927,
      "շրջանի": 2928,
      "արդյոք": 2929,
      "Ամեն": 2930,
      "բախվել": 2931,
      "վիճակը": 2932,
      "##ապահության": 2933,
      "տոկոսը": 2934,
      "Հարց": 2935,
      "մտած": 2936,
      "թիմ": 2937,
      "լայն": 2938,
      "աղջ": 2939,
      "շուկ": 2940,
      "Կոտ": 2941,
      "##թիռ": 2942,
      "ազգ": 2943,
      "հաստատել": 2944,
      "խնդիրը": 2945,
      "ընդլայն": 2946,
      "ժողովի": 2947,
      "անձնական": 2948,
      "կյանքի": 2949,
      "##եյսբ": 2950,
      "##ՈՒ": 2951,
      "ենթարկվել": 2952,
      "2016": 2953,
      "օրերին": 2954,
      "նախարարությունը": 2955,
      "Եղ": 2956,
      "##հարկ": 2957,
      "եվրոպական": 2958,
      "Ռուբ": 2959,
      "պահանջում": 2960,
      "հինգ": 2961,
      "հետագա": 2962,
      "գնում": 2963,
      "ունենալ": 2964,
      "փողոցի": 2965,
      "նիստում": 2966,
      "##այքի": 2967,
      "նշանակում": 2968,
      "պատկեր": 2969,
      "##անակի": 2970,
      "գազի": 2971,
      "##ուխ": 2972,
      "հարցերով": 2973,
      "##ամուտ": 2974,
      "Հայկ": 2975,
      "##լուծ": 2976,
      "Երևանի": 2977,
      "հետաքրքր": 2978,
      "հող": 2979,
      "##լանդ": 2980,
      "ԱԱ": 2981,
      "##խոս": 2982,
      "միջին": 2983,
      "##ew": 2984,
      "ծեծ": 2985,
      "2019": 2986,
      "գործիչ": 2987,
      "փորձել": 2988,
      "Սուրբ": 2989,
      "խորհրդարանի": 2990,
      "Ազատ": 2991,
      "մարզպետ": 2992,
      "կող": 2993,
      "##ամենը": 2994,
      "առն": 2995,
      "ամրապնդ": 2996,
      "շնորհիվ": 2997,
      "##րահամ": 2998,
      "Ժամ": 2999,
      "բնական": 3000,
      "##ացու": 3001,
      "գալիս": 3002,
      "հրամանատար": 3003,
      "Իսրայելի": 3004,
      "Գործ": 3005,
      "ցուցաբեր": 3006,
      "Աշոտ": 3007,
      "##հայտ": 3008,
      "##ուսափ": 3009,
      "տարածքային": 3010,
      "օրին": 3011,
      "տեղում": 3012,
      "տեղեկություններով": 3013,
      "դրական": 3014,
      "զանգված": 3015,
      "##անդակ": 3016,
      "քվեարկ": 3017,
      "բողոք": 3018,
      "գոյ": 3019,
      "##միր": 3020,
      "առջ": 3021,
      "##եքստ": 3022,
      "##ur": 3023,
      "##իկը": 3024,
      "աշխատել": 3025,
      "Ռոբերտ": 3026,
      "##ՊՀ": 3027,
      "ծնված": 3028,
      "առավոտ": 3029,
      "2015": 3030,
      "##հարկե": 3031,
      "##ահր": 3032,
      "իս": 3033,
      "##ագած": 3034,
      "ազատազրկ": 3035,
      "հարաբերությունները": 3036,
      "ցուցանիշ": 3037,
      "հեռուստա": 3038,
      "##կանում": 3039,
      "2017": 3040,
      "##ազրույց": 3041,
      "խաղաղության": 3042,
      "առնելով": 3043,
      "որին": 3044,
      "##անու": 3045,
      "անմիջ": 3046,
      "գրեթե": 3047,
      "##ace": 3048,
      "ձև": 3049,
      "մտահոգ": 3050,
      "մերժ": 3051,
      "մարմնական": 3052,
      "##il": 3053,
      "թմ": 3054,
      "ուժեղ": 3055,
      "ծառայությունը": 3056,
      "խնդիրներ": 3057,
      "##խտ": 3058,
      "հավելել": 3059,
      "աճել": 3060,
      "բնակարան": 3061,
      "##ոնական": 3062,
      "սեր": 3063,
      "միջադեպ": 3064,
      "ճիշտ": 3065,
      "սպանության": 3066,
      "##կի": 3067,
      "##ազան": 3068,
      "Ավետ": 3069,
      "հրաժարվել": 3070,
      "Re": 3071,
      "##ավարձ": 3072,
      "##ականների": 3073,
      "օրենսդր": 3074,
      "ավանդ": 3075,
      "Արմավիր": 3076,
      "##պատ": 3077,
      "դրս": 3078,
      "արժան": 3079,
      "օտար": 3080,
      "եկեղեց": 3081,
      "կարգավոր": 3082,
      "ձերբակալվել": 3083,
      "գործարար": 3084,
      "հիման": 3085,
      "ընդհ": 3086,
      "խնդիրների": 3087,
      "##ասար": 3088,
      "Աբրահամ": 3089,
      "հանձ": 3090,
      "ոչնչ": 3091,
      "իրավապահ": 3092,
      "Հյուսիսային": 3093,
      "##աշվի": 3094,
      "թանկ": 3095,
      "Սերգ": 3096,
      "Արարատ": 3097,
      "##քել": 3098,
      "եզրակ": 3099,
      "Հարությունյանը": 3100,
      "Պարզ": 3101,
      "քարոզ": 3102,
      "##իտի": 3103,
      "Հայկական": 3104,
      "խոսել": 3105,
      "##արկման": 3106,
      "##արանը": 3107,
      "տարածաշրջանում": 3108,
      "շարունակվում": 3109,
      "գնդ": 3110,
      "դաշտ": 3111,
      "վճ": 3112,
      "կախ": 3113,
      "Ալեքսան": 3114,
      "##ունքը": 3115,
      "##ակողմ": 3116,
      "աշխարհում": 3117,
      "##ակր": 3118,
      "##ակին": 3119,
      "պալ": 3120,
      "մշտական": 3121,
      "կատարվել": 3122,
      "բր": 3123,
      "գրանցվել": 3124,
      "բժիշկ": 3125,
      "...": 3126,
      "միության": 3127,
      "հարթ": 3128,
      "##ակառուց": 3129,
      "##եսի": 3130,
      "Վարչապետ": 3131,
      "##ահավաք": 3132,
      "հարուցվել": 3133,
      "ղեկավարը": 3134,
      "շեշտ": 3135,
      "ընդամենը": 3136,
      "շինարար": 3137,
      "##թարի": 3138,
      "ուսան": 3139,
      "##եական": 3140,
      "Երևան": 3141,
      "ընդդիմադիր": 3142,
      "նամ": 3143,
      "##գործնախարար": 3144,
      "Ծառ": 3145,
      "Ամերիկ": 3146,
      "իրականացնել": 3147,
      "##ոնդ": 3148,
      "ցանց": 3149,
      "իրադարձ": 3150,
      "միջև": 3151,
      "Տեղ": 3152,
      "փրկարարական": 3153,
      "կիս": 3154,
      "անձի": 3155,
      "վարույթ": 3156,
      "կենտրոնում": 3157,
      "Ակ": 3158,
      "պայքարի": 3159,
      "##st": 3160,
      "կրճատ": 3161,
      "հասկան": 3162,
      "առաջադրվել": 3163,
      "Հանդիպ": 3164,
      "##իաների": 3165,
      "Երկր": 3166,
      "Լոռ": 3167,
      "հանձնարար": 3168,
      "ալ": 3169,
      "օդանավակայ": 3170,
      "առանձ": 3171,
      "Չինաստանի": 3172,
      "մտադիր": 3173,
      "երեխաների": 3174,
      "այնքան": 3175,
      "##ահան": 3176,
      "կարծիքով": 3177,
      "Գլ": 3178,
      "##եռներում": 3179,
      "տեղական": 3180,
      "իրավաս": 3181,
      "ՆԳ": 3182,
      "սար": 3183,
      "##ընկեր": 3184,
      "Եվրոպայի": 3185,
      "հայտնեց": 3186,
      "Բաբ": 3187,
      "զր": 3188,
      "##աստի": 3189,
      "աշխատանքների": 3190,
      "աշխատանքները": 3191,
      "մահվան": 3192,
      "վերան": 3193,
      "##բյ": 3194,
      "##ևէ": 3195,
      "##զմ": 3196,
      "մարզային": 3197,
      "աշխատավարձ": 3198,
      "##եցնում": 3199,
      "որոշման": 3200,
      "##կողմ": 3201,
      "Ծառուկ": 3202,
      "##ավորվել": 3203,
      "2021": 3204,
      "գործընթացը": 3205,
      "կստ": 3206,
      "միշտ": 3207,
      "##րիստ": 3208,
      "##աքննություն": 3209,
      "Թուրք": 3210,
      "##իղ": 3211,
      "նորմ": 3212,
      "վերականգն": 3213,
      "պրո": 3214,
      "միջոցառումների": 3215,
      "Գերմանիայի": 3216,
      "##րամի": 3217,
      "##վազն": 3218,
      "պող": 3219,
      "ուժի": 3220,
      "Միացյալ": 3221,
      "լար": 3222,
      "նախապատրաստ": 3223,
      "բաժանորդ": 3224,
      "##ուքյան": 3225,
      "խնդիրները": 3226,
      "համան": 3227,
      "գործադր": 3228,
      "Աֆ": 3229,
      "##րանից": 3230,
      "սպասվում": 3231,
      "##որում": 3232,
      "##ակատ": 3233,
      "նշելով": 3234,
      "կարգավիճ": 3235,
      "ներկայացնում": 3236,
      "վիճակում": 3237,
      "սահմանված": 3238,
      "Մարգ": 3239,
      "##ադրան": 3240,
      "փաստաբան": 3241,
      "բնակչության": 3242,
      "սկսվել": 3243,
      "դիմում": 3244,
      "Տավուշ": 3245,
      "Եվր": 3246,
      "հսկ": 3247,
      "Հրապարակ": 3248,
      "Աստ": 3249,
      "փոխարժեք": 3250,
      "Սամվել": 3251,
      "##եֆ": 3252,
      "##օգն": 3253,
      "հրթիռ": 3254,
      "Աշխ": 3255,
      "փաթ": 3256,
      "հատվածում": 3257,
      "նվիրված": 3258,
      "##ատրել": 3259,
      "անցել": 3260,
      "թեմ": 3261,
      "##ովկաս": 3262,
      "ծրագրերի": 3263,
      "համայնք": 3264,
      "##ic": 3265,
      "ԼՂՀ": 3266,
      "բեռն": 3267,
      "##ook": 3268,
      "կշ": 3269,
      "##իկների": 3270,
      "պատրաստվում": 3271,
      "խափ": 3272,
      "պայթյուն": 3273,
      "##փոփ": 3274,
      "##զոր": 3275,
      "Լեւ": 3276,
      "տիր": 3277,
      "սխալ": 3278,
      "ստանալ": 3279,
      "անձինք": 3280,
      "գաղափ": 3281,
      "դուք": 3282,
      "երկկողմ": 3283,
      "ցավ": 3284,
      "հասարակության": 3285,
      "##իչը": 3286,
      "##ացնի": 3287,
      "թղթակցի": 3288,
      "նախկինում": 3289,
      "Կոտայքի": 3290,
      "##տյան": 3291,
      "2022": 3292,
      "##ողություն": 3293,
      "Թրամփը": 3294,
      "օբյ": 3295,
      "##ազդ": 3296,
      "ֆեյսբ": 3297,
      "կայան": 3298,
      "եզրակաց": 3299,
      "գործը": 3300,
      "հանդիպում": 3301,
      "##այդ": 3302,
      "տեսնում": 3303,
      "շնորհակալ": 3304,
      "Արագած": 3305,
      "երեւ": 3306,
      "Նրանց": 3307,
      "##ամեն": 3308,
      "ընդգրկ": 3309,
      "32": 3310,
      "##ՊԿ": 3311,
      "Երբ": 3312,
      "նախնական": 3313,
      "տեսակի": 3314,
      "##ակար": 3315,
      "կողմը": 3316,
      "##րաձ": 3317,
      "##ուկային": 3318,
      "դրամի": 3319,
      "##նախագահ": 3320,
      "Սերգեյ": 3321,
      "##ացական": 3322,
      "##բերգ": 3323,
      "Դաշն": 3324,
      "հանդեպ": 3325,
      "##իկայում": 3326,
      "##աների": 3327,
      "Մանուկ": 3328,
      "Թուրքիայում": 3329,
      "պարզել": 3330,
      "լուսանկար": 3331,
      "Եվրամի": 3332,
      "չգ": 3333,
      "նշվում": 3334,
      "խումբը": 3335,
      "կայացած": 3336,
      "Կր": 3337,
      "##ենային": 3338,
      "պատկան": 3339,
      "Ձեր": 3340,
      "մասնակցելու": 3341,
      "##ենդ": 3342,
      "60": 3343,
      "էինք": 3344,
      "Նախարար": 3345,
      "Մեկ": 3346,
      "ղեկավարի": 3347,
      "ՀՅ": 3348,
      "##ոլի": 3349,
      "Արցախում": 3350,
      "պարզվել": 3351,
      "մշակութային": 3352,
      "45": 3353,
      "միջոցների": 3354,
      "##ացիոն": 3355,
      "2014": 3356,
      "հրապարակել": 3357,
      "մնալ": 3358,
      "աշխատանքներ": 3359,
      "##ավարության": 3360,
      "բանկի": 3361,
      "ընտանիքի": 3362,
      "##կրետ": 3363,
      "Վանաձ": 3364,
      "Եվրոպական": 3365,
      "##book": 3366,
      "համագործակց": 3367,
      "իշխ": 3368,
      "մարմինների": 3369,
      "##ԵԿ": 3370,
      "իրավիճակի": 3371,
      "գիտնական": 3372,
      "աշխատանքը": 3373,
      "փոխնախագահ": 3374,
      "սկզբունք": 3375,
      "##որը": 3376,
      "##ախմբ": 3377,
      "գործել": 3378,
      "կարիք": 3379,
      "##նա": 3380,
      "նվազել": 3381,
      "միլիարդ": 3382,
      "Կատար": 3383,
      "Չինաստ": 3384,
      "միջոցներ": 3385,
      "տարածաշրջանային": 3386,
      "##acebook": 3387,
      "ծրագիրը": 3388,
      "զբոսաշրջ": 3389,
      "բացի": 3390,
      "ՀՅԴ": 3391,
      "##ացմանը": 3392,
      "շուտ": 3393,
      "##ավաճ": 3394,
      "խուսափ": 3395,
      "առնվազն": 3396,
      "տեղափոխել": 3397,
      "շու": 3398,
      "առանձին": 3399,
      "վերլուծ": 3400,
      "չորս": 3401,
      "Բելառ": 3402,
      "ունենում": 3403,
      "արտգործնախարար": 3404,
      "զոհերի": 3405,
      "##իրի": 3406,
      "Մասնավորապես": 3407,
      "զեկույց": 3408,
      "որքան": 3409,
      "ներկայացուցիչների": 3410,
      "##աձգ": 3411,
      "տեղակայ": 3412,
      "ստորաբաժ": 3413,
      "Գազ": 3414,
      "այդպես": 3415,
      "##յուռ": 3416,
      "տվյալների": 3417,
      "առավոտյան": 3418,
      "##ահեղ": 3419,
      "ֆոտո": 3420,
      "հատկաց": 3421,
      "ընթ": 3422,
      "գյուղատնտես": 3423,
      "ինքնաթիռ": 3424,
      "##ասիր": 3425,
      "##ագաթ": 3426,
      "զգալի": 3427,
      "Կորե": 3428,
      "##ենս": 3429,
      "աստիճան": 3430,
      "2013": 3431,
      "մնացել": 3432,
      "կատարած": 3433,
      "դի": 3434,
      "հարազատ": 3435,
      "մշակույթի": 3436,
      "փոփոխություններ": 3437,
      "Ճապ": 3438,
      "գագաթ": 3439,
      "հարձակում": 3440,
      "##ընդոտ": 3441,
      "ստեղծված": 3442,
      "բարդ": 3443,
      "Facebook": 3444,
      "որևէ": 3445,
      "եկամուտ": 3446,
      "քննարկման": 3447,
      "##ոչընդոտ": 3448,
      "Միր": 3449,
      "ֆեյսբուքյան": 3450,
      "առաջարկել": 3451,
      "34": 3452,
      "վախ": 3453,
      "վարչապետը": 3454,
      "ներկայացված": 3455,
      "##ատուն": 3456,
      "ստանալու": 3457,
      "գլխ": 3458,
      "##ոնին": 3459,
      "հետապնդ": 3460,
      "Խորհրդ": 3461,
      "կանց": 3462,
      "տալու": 3463,
      "Լիբ": 3464,
      "ոլորտի": 3465,
      "տնտեսության": 3466,
      "տարիներին": 3467,
      "կոնկրետ": 3468,
      "ԱԱԾ": 3469,
      "կապերի": 3470,
      "տեսանյութ": 3471,
      "դրությամբ": 3472,
      "##ters": 3473,
      "երկիրը": 3474,
      "համալսարանի": 3475,
      "Լավ": 3476,
      "Դատ": 3477,
      "##ակո": 3478,
      "ուշադր": 3479,
      "##ահաս": 3480,
      "##ախագահ": 3481,
      "դիվանագիտական": 3482,
      "##ասպ": 3483,
      "##փակ": 3484,
      "ուղղակի": 3485,
      "##ավառ": 3486,
      "2012": 3487,
      "The": 3488,
      "հետեւանք": 3489,
      "հավանական": 3490,
      "##sh": 3491,
      "կենդան": 3492,
      "Սիմ": 3493,
      "գործողությունները": 3494,
      "ժամանակահատվածում": 3495,
      "##վելով": 3496,
      "միասին": 3497,
      "եղանակ": 3498,
      "կորց": 3499,
      "խաչ": 3500,
      "շտաբ": 3501,
      "թաղամաս": 3502,
      "դրանից": 3503,
      "##անիկ": 3504,
      "իշխանությունը": 3505,
      "##ոսյանի": 3506,
      "##ent": 3507,
      "ամբողջությամբ": 3508,
      "##ումներին": 3509,
      "##փյուռ": 3510,
      "Սիրիայի": 3511,
      "գեներ": 3512,
      "չար": 3513,
      "##ալից": 3514,
      "չկան": 3515,
      "ոստիկանությունը": 3516,
      "գաղտնի": 3517,
      "ներկայացվել": 3518,
      "բանակի": 3519,
      "երեկոյան": 3520,
      "ծառ": 3521,
      "##ol": 3522,
      "Գերմանի": 3523,
      "առարկ": 3524,
      "միտ": 3525,
      "վարձ": 3526,
      "Լեւոն": 3527,
      "Կառավարության": 3528,
      "ինչու": 3529,
      "նախագահական": 3530,
      "իրավունքի": 3531,
      "ծառայությունների": 3532,
      "հավան": 3533,
      "2023": 3534,
      "##ույթը": 3535,
      "Կենտրոնական": 3536,
      "##վածների": 3537,
      "բարել": 3538,
      "այնպիսի": 3539,
      "հարցով": 3540,
      "##եցինք": 3541,
      "##ews": 3542,
      "ուղարկել": 3543,
      "##ննդ": 3544,
      "ամուսն": 3545,
      "աշխատակիցները": 3546,
      "Reu": 3547,
      "հարգ": 3548,
      "ստիպված": 3549,
      "չափով": 3550,
      "պատմության": 3551,
      "ցեղասպան": 3552,
      "##ավայրի": 3553,
      "ներկայացնել": 3554,
      "խոսում": 3555,
      "Զոհ": 3556,
      "Reuters": 3557,
      "տուգ": 3558,
      "##ամթեր": 3559,
      "լուր": 3560,
      "հով": 3561,
      "առաջիկա": 3562,
      "Գիտ": 3563,
      "ասված": 3564,
      "դեղ": 3565,
      "##առնում": 3566,
      "ձեզ": 3567,
      "##երծ": 3568,
      "կազմակերպությունների": 3569,
      "միջուկային": 3570,
      "աջակցության": 3571,
      "փոխարեն": 3572,
      "մետ": 3573,
      "##ագրական": 3574,
      "Նման": 3575,
      "##եշ": 3576,
      "փոխհ": 3577,
      "##ուրգ": 3578,
      "բանտ": 3579,
      "##ավան": 3580,
      "մանրամաս": 3581,
      "ՀԱՊԿ": 3582,
      "##ավորության": 3583,
      "փոխանակ": 3584,
      "արդյունքները": 3585,
      "ամբողջական": 3586,
      "##շեջ": 3587,
      "այլեւ": 3588,
      "պատասխանել": 3589,
      "զրկ": 3590,
      "կաթ": 3591,
      "լավագույն": 3592,
      "##եւելյան": 3593,
      "##ոտնի": 3594,
      "##արձակ": 3595,
      "##ահմ": 3596,
      "ագրես": 3597,
      "հայերի": 3598,
      "կանանց": 3599,
      "##րին": 3600,
      "քաղ": 3601,
      "անընդ": 3602,
      "հետևանքով": 3603,
      "##ավարժ": 3604,
      "33": 3605,
      "Ղազ": 3606,
      "երկխոս": 3607,
      "##եւեկ": 3608,
      "պատասխանատու": 3609,
      "բանակցությունների": 3610,
      "##օրյա": 3611,
      "Արսեն": 3612,
      "##որդի": 3613,
      "եղբայր": 3614,
      "##արշ": 3615,
      "անհայտ": 3616,
      "##ացուց": 3617,
      "ՔԿ": 3618,
      "օրինական": 3619,
      "հայց": 3620,
      "Գեր": 3621,
      "առիթ": 3622,
      "##եւն": 3623,
      "մեխ": 3624,
      "38": 3625,
      "ստորագրել": 3626,
      "ավագանու": 3627,
      "թշն": 3628,
      "##ազրույցում": 3629,
      "պարագ": 3630,
      "##ուրի": 3631,
      "##ացրեց": 3632,
      "հավատ": 3633,
      "նիստը": 3634,
      "##ահամ": 3635,
      "500": 3636,
      "44": 3637,
      "հարցի": 3638,
      "հում": 3639,
      "2011": 3640,
      "չունեն": 3641,
      "Հնդ": 3642,
      "##եկց": 3643,
      "ՆԳՆ": 3644,
      "ուժերը": 3645,
      "##այման": 3646,
      "խոչընդոտ": 3647,
      "Հաս": 3648,
      "հիմնադրամի": 3649,
      "բաժնում": 3650,
      "առջեւ": 3651,
      "թռ": 3652,
      "արձակ": 3653,
      "հայտարարություն": 3654,
      "լրացուցիչ": 3655,
      "իրականացնում": 3656,
      "արտահերթ": 3657,
      "Հովհաննիսյանը": 3658,
      "լարված": 3659,
      "խիստ": 3660,
      "Վաշին": 3661,
      "##ed": 3662,
      "մեղավոր": 3663,
      "##ro": 3664,
      "Սեւ": 3665,
      "կերպով": 3666,
      "երթեւեկ": 3667,
      "##ատան": 3668,
      "ներկայացուցիչները": 3669,
      "մոդ": 3670,
      "մեկում": 3671,
      "##աշար": 3672,
      "ցած": 3673,
      "հիմնականում": 3674,
      "##ոնալդ": 3675,
      "##ակային": 3676,
      "##անների": 3677,
      "զինծառայող": 3678,
      "այր": 3679,
      "Հիմա": 3680,
      "Խոս": 3681,
      "##երեն": 3682,
      "Ռուբեն": 3683,
      "աշխատակիցների": 3684,
      "փողոցում": 3685,
      "Գրիգորյանը": 3686,
      "ևս": 3687,
      "կորոնավիրուսի": 3688,
      "հոր": 3689,
      "կանխատես": 3690,
      "բարեկամ": 3691,
      "Իշխան": 3692,
      "Աթ": 3693,
      "պատմական": 3694,
      "գտել": 3695,
      "մարմնի": 3696,
      "կլինեն": 3697,
      "լեզ": 3698,
      "մասնակի": 3699,
      "կոռուպ": 3700,
      "ամենամ": 3701,
      "նախատեսվում": 3702,
      "քննարկվել": 3703,
      "##օդ": 3704,
      "300": 3705,
      "պետությունների": 3706,
      "չվ": 3707,
      "նշանակվել": 3708,
      "քննադատ": 3709,
      "տրանսպորտային": 3710,
      "իրականացնելու": 3711,
      "անցած": 3712,
      "կներ": 3713,
      "com": 3714,
      "հասնել": 3715,
      "պողոտ": 3716,
      "վառ": 3717,
      "միակ": 3718,
      "##ոֆ": 3719,
      "մետր": 3720,
      "օգտագործել": 3721,
      "Ալեքսանդր": 3722,
      "##ստր": 3723,
      ".)": 3724,
      "ընկերությունների": 3725,
      "##ենգ": 3726,
      "ընտրական": 3727,
      "նախըն": 3728,
      "ակնհայտ": 3729,
      "անհետ": 3730,
      "##յակում": 3731,
      "Առաջին": 3732,
      "##ցիոն": 3733,
      "հավելելով": 3734,
      "ամփոփ": 3735,
      "Արագածոտնի": 3736,
      "հրապարակում": 3737,
      "Շիրակի": 3738,
      "պարգ": 3739,
      "միասնական": 3740,
      "Մաս": 3741,
      "թեր": 3742,
      "ֆիլ": 3743,
      "##իչների": 3744,
      "չնայած": 3745,
      "վարորդը": 3746,
      "էներգետ": 3747,
      "ունենալու": 3748,
      "հզոր": 3749,
      "կինը": 3750,
      "անդամների": 3751,
      "տեխնիկական": 3752,
      "կախված": 3753,
      "խոսնակ": 3754,
      "կբ": 3755,
      "բռ": 3756,
      "Իրաք": 3757,
      "շտապ": 3758,
      "198": 3759,
      "Բայդ": 3760,
      "այլն": 3761,
      "ջոկ": 3762,
      "ֆիզ": 3763,
      "շրջանառ": 3764,
      "չեղ": 3765,
      "##կարող": 3766,
      "##մուծ": 3767,
      "##պետք": 3768,
      "In": 3769,
      "Վայ": 3770,
      "ներդրում": 3771,
      "ճակատ": 3772,
      "##ոնիայի": 3773,
      "արդարադատության": 3774,
      "ապահովել": 3775,
      "պր": 3776,
      "պնդում": 3777,
      "անցյալ": 3778,
      "##իներ": 3779,
      "ապահովման": 3780,
      "խոսքը": 3781,
      "Մոսկվայի": 3782,
      "մասնակցում": 3783,
      "##ուհետեւ": 3784,
      "ոսկ": 3785,
      "Թրամփի": 3786,
      "համանախագահ": 3787,
      "Իտ": 3788,
      "##ակներ": 3789,
      "ապրում": 3790,
      "##ուսը": 3791,
      "##սում": 3792,
      "##համ": 3793,
      "Նույն": 3794,
      "երկրներում": 3795,
      "ժողովրդին": 3796,
      "գործունեությունը": 3797,
      "ստորաբաժանում": 3798,
      "##իոն": 3799,
      "##ահարել": 3800,
      "##ոկր": 3801,
      "##բր": 3802,
      "ներմուծ": 3803,
      "Արարատի": 3804,
      "սահմանադրական": 3805,
      "##անիտար": 3806,
      "մեխանի": 3807,
      "ՀԱԿ": 3808,
      "իրականացվել": 3809,
      "համագործակցությունը": 3810,
      "զորամաս": 3811,
      "ոչինչ": 3812,
      "##ra": 3813,
      "ներկ": 3814,
      "բնակչ": 3815,
      "##ոմս": 3816,
      "նախագիծը": 3817,
      "##ակաս": 3818,
      "##եգր": 3819,
      "Սիմոն": 3820,
      "քաշ": 3821,
      "հարեւան": 3822,
      "երբեք": 3823,
      "գրավ": 3824,
      "##այական": 3825,
      "նախագծի": 3826,
      "##առատ": 3827,
      "փաթեթ": 3828,
      "Հայաստանին": 3829,
      "ծով": 3830,
      "փոխնախարար": 3831,
      "ծայր": 3832,
      "բաղ": 3833,
      "մասնագիտական": 3834,
      "գերազանց": 3835,
      "ընկել": 3836,
      "Մալ": 3837,
      "Դոնալդ": 3838,
      "36": 3839,
      "Մինսկի": 3840,
      "Շահ": 3841,
      "##արձր": 3842,
      "հայտարարությունը": 3843,
      "միավոր": 3844,
      "##ումներով": 3845,
      "րոպ": 3846,
      "##ուլիս": 3847,
      "համակարգը": 3848,
      "Պուտինը": 3849,
      "##ուղթ": 3850,
      "նիստի": 3851,
      "տված": 3852,
      "բացել": 3853,
      "ափ": 3854,
      "##արգել": 3855,
      "շնորհակալություն": 3856,
      "##ակամ": 3857,
      "ճանապարհի": 3858,
      "երգ": 3859,
      "##ատը": 3860,
      "ղարաբաղ": 3861,
      "##այթ": 3862,
      "մասնավոր": 3863,
      "տեղեկություններ": 3864,
      "հասցե": 3865,
      "Կովկաս": 3866,
      "##ակները": 3867,
      "միջանց": 3868,
      "դար": 3869,
      "##անութ": 3870,
      "Ավետիս": 3871,
      "Գեղարք": 3872,
      "կենտրոնական": 3873,
      "գեներալ": 3874,
      "Գոր": 3875,
      "շարունակել": 3876,
      "Նար": 3877,
      "##վարդ": 3878,
      "ավի": 3879,
      "այսպես": 3880,
      "բացակայ": 3881,
      "սակ": 3882,
      "գյուղում": 3883,
      "կոտ": 3884,
      "##նց": 3885,
      "հաղորդագրության": 3886,
      "##ուսով": 3887,
      "Արման": 3888,
      "պայմանագր": 3889,
      "օգնություն": 3890,
      "լինեն": 3891,
      "կուսակցությունը": 3892,
      "հանրության": 3893,
      "բռնկ": 3894,
      "կո": 3895,
      "իրականացվող": 3896,
      "##ղզ": 3897,
      "##օրեին": 3898,
      "աշխատակազմի": 3899,
      "Հնդկ": 3900,
      "մատուց": 3901,
      "##տոր": 3902,
      "Գար": 3903,
      "Անց": 3904,
      "##ացիան": 3905,
      "իրականացվում": 3906,
      "բանաձ": 3907,
      "ՍՊ": 3908,
      "##ատուր": 3909,
      "ներկայացուց": 3910,
      "##անյանի": 3911,
      "պատճառը": 3912,
      "##ընտ": 3913,
      "ստանում": 3914,
      "հանդիպումը": 3915,
      "ՍԴ": 3916,
      "որոշմամբ": 3917,
      "37": 3918,
      "Պող": 3919,
      "օրա": 3920,
      "հիշատակ": 3921,
      "բաժն": 3922,
      "##աղորդ": 3923,
      "կարծիք": 3924,
      "չպետք": 3925,
      "Այսինքն": 3926,
      "մնում": 3927,
      "հարցերը": 3928,
      "Ահ": 3929,
      "հասանելի": 3930,
      "Վայոց": 3931,
      "նավթի": 3932,
      "##եւմտյան": 3933,
      "կազմակերպել": 3934,
      "Նովոստի": 3935,
      "##ing": 3936,
      "##վեդ": 3937,
      "շահագործ": 3938,
      "Նահանգ": 3939,
      "70": 3940,
      "հեղափոխ": 3941,
      "հանրապետության": 3942,
      "##իպտ": 3943,
      "ապացույց": 3944,
      "կողմի": 3945,
      "հարյուր": 3946,
      "##ոնում": 3947,
      "##ացնելով": 3948,
      "##ֆոր": 3949,
      "տեղեկատվական": 3950,
      "##աչու": 3951,
      "Կապ": 3952,
      "ընտրություններին": 3953,
      "ոլորտներում": 3954,
      "Ոչ": 3955,
      "առմամբ": 3956,
      "##եցի": 3957,
      "##անումը": 3958,
      "պակաս": 3959,
      "թռչ": 3960,
      "##ճի": 3961,
      "տարածել": 3962,
      "##գիպտ": 3963,
      "##սը": 3964,
      "վերականգ": 3965,
      "պատմել": 3966,
      "##որոգ": 3967,
      "հորդ": 3968,
      "##ասական": 3969,
      "##ողությունը": 3970,
      "գերատես": 3971,
      "անդամները": 3972,
      "##կրտ": 3973,
      "##ովյան": 3974,
      "##ացվի": 3975,
      "վերջնական": 3976,
      "աչ": 3977,
      "հայրենի": 3978,
      "կտա": 3979,
      "ներքո": 3980,
      "ենթակառուց": 3981,
      "իրականացնող": 3982,
      "ձեռքբեր": 3983,
      "պահանջել": 3984,
      "փուլում": 3985,
      "##ԲԸ": 3986,
      "անդրադառնալով": 3987,
      "Սպիտ": 3988,
      "եվր": 3989,
      "խափանման": 3990,
      "ուղիղ": 3991,
      "ընկած": 3992,
      "գործակալությունը": 3993,
      "առողջապահության": 3994,
      "ուր": 3995,
      "թշնամ": 3996,
      "##ագում": 3997,
      "ապահովելու": 3998,
      "##իսով": 3999,
      "օգնության": 4000,
      "կարճ": 4001,
      "##որդը": 4002,
      "##ակայքում": 4003,
      "անտ": 4004,
      "կարողանում": 4005,
      "բացատր": 4006,
      "ներկայում": 4007,
      "##ադեմ": 4008,
      "հարավ": 4009,
      "գրառ": 4010,
      "կշար": 4011,
      "խնդրել": 4012,
      "հաջողվել": 4013,
      "Թե": 4014,
      "##յալների": 4015,
      "##լամական": 4016,
      "իրավասության": 4017,
      "Մարդու": 4018,
      "այցի": 4019,
      "Տեր": 4020,
      "Ղազախ": 4021,
      "տվյալները": 4022,
      "զուգ": 4023,
      "կպ": 4024,
      "վերած": 4025,
      "հագ": 4026,
      "գործընթացի": 4027,
      "Ադրբեջանում": 4028,
      "Բաղդ": 4029,
      "##պե": 4030,
      "Բագր": 4031,
      "տասնյակ": 4032,
      "Գր": 4033,
      "կարողացել": 4034,
      "##us": 4035,
      "ուղեկց": 4036,
      "Մայր": 4037,
      "ցածր": 4038,
      "ծանոթ": 4039,
      "##ացվում": 4040,
      "##BC": 4041,
      "տարել": 4042,
      "ալի": 4043,
      "Դուք": 4044,
      "##արտուղ": 4045,
      "##ալը": 4046,
      "Բոլոր": 4047,
      "##անյան": 4048,
      "քննարկում": 4049,
      "ռազմավարական": 4050,
      "##մանն": 4051,
      "կաշ": 4052,
      "տեղեկատվության": 4053,
      "կրակոց": 4054,
      "ժամանել": 4055,
      "##եքստում": 4056,
      "դաշն": 4057,
      "որոնցից": 4058,
      "իջ": 4059,
      "գործողություններ": 4060,
      "ակնկալ": 4061,
      "սպառնալի": 4062,
      "վտանգավոր": 4063,
      "Միրզ": 4064,
      "թաք": 4065,
      "Պարզվել": 4066,
      "համեր": 4067,
      "Դրա": 4068,
      "ՄԻ": 4069,
      "գիտության": 4070,
      "մնացած": 4071,
      "##az": 4072,
      "Բրիտանիայի": 4073,
      "Անկ": 4074,
      "##եցված": 4075,
      "պարտադիր": 4076,
      "##եզեր": 4077,
      "անմիջապես": 4078,
      "##անգստ": 4079,
      "առեւտրի": 4080,
      "իրականացրել": 4081,
      "##նակազմ": 4082,
      "անձն": 4083,
      "##ույր": 4084,
      "թանգ": 4085,
      "պաշտոնում": 4086,
      "զանգվածային": 4087,
      "վր": 4088,
      "##վարչապետ": 4089,
      "աջակցություն": 4090,
      "Հակոբյանը": 4091,
      "##իչի": 4092,
      "խնդրի": 4093,
      "պարզաբան": 4094,
      "ոստիկանները": 4095,
      "կործ": 4096,
      "վճռ": 4097,
      "##ադադ": 4098,
      "պատշ": 4099,
      "Ռուսաստանում": 4100,
      "Էլ": 4101,
      "խանութ": 4102,
      "Հարցին": 4103,
      "տպ": 4104,
      "ողջուն": 4105,
      "Գլխավոր": 4106,
      "Սահմանադրական": 4107,
      "##յակը": 4108,
      "տարիների": 4109,
      "դու": 4110,
      "Իտալի": 4111,
      "##ԱԶ": 4112,
      "##գոհ": 4113,
      "##տրոնային": 4114,
      "ճանապարհով": 4115,
      "վերադառն": 4116,
      "ընդգծեց": 4117,
      "սպառնալիք": 4118,
      "##սկս": 4119,
      "##պիսով": 4120,
      "Տավուշի": 4121,
      "իբր": 4122,
      "ՔՊ": 4123,
      "անդրադարձել": 4124,
      "Դանի": 4125,
      "Հայրապետ": 4126,
      "2010": 4127,
      "Մկրտ": 4128,
      "հատկանիշ": 4129,
      "ռուբ": 4130,
      "պարզապես": 4131,
      "##ոյանի": 4132,
      "##եցնելու": 4133,
      "ռես": 4134,
      "ընթանում": 4135,
      "Մարտիր": 4136,
      "Պետք": 4137,
      "Կի": 4138,
      "##ուդյան": 4139,
      "կապի": 4140,
      "##աժամկետ": 4141,
      "օտարերկր": 4142,
      "ավտոբ": 4143,
      "փակել": 4144,
      "##ետև": 4145,
      "թռիչ": 4146,
      "Անն": 4147,
      "քայլը": 4148,
      "##իժ": 4149,
      "լրագրողներին": 4150,
      "ծրագիր": 4151,
      "երկրաշարժ": 4152,
      "արձանագրվել": 4153,
      "պատասխանատվության": 4154,
      "ճանաչել": 4155,
      "հրշեջ": 4156,
      "պիտի": 4157,
      "Պապ": 4158,
      "##ir": 4159,
      "##գար": 4160,
      "ընտանիք": 4161,
      "պարտական": 4162,
      "##ion": 4163,
      "##րաստիճան": 4164,
      "ձախ": 4165,
      "արդյունաբեր": 4166,
      "սահմանափակում": 4167,
      "պատկանող": 4168,
      "Օհան": 4169,
      "դժգոհ": 4170,
      "կանչ": 4171,
      "այգ": 4172,
      "##րանտ": 4173,
      "Քրեական": 4174,
      "ձերբակալել": 4175,
      "բնակավայր": 4176,
      "բարելավ": 4177,
      "ճանապարհին": 4178,
      "##im": 4179,
      "նիստին": 4180,
      "ընտրություններում": 4181,
      "##անքը": 4182,
      "##ասխանում": 4183,
      "##յանց": 4184,
      "Շատ": 4185,
      "Էրդողանը": 4186,
      "գտնվել": 4187,
      "Խաչատրյանը": 4188,
      "80": 4189,
      "##ot": 4190,
      "հարկային": 4191,
      "տեխնոլոգիաների": 4192,
      "հեռանկար": 4193,
      "##րաբ": 4194,
      "ծնող": 4195,
      "Թուրքական": 4196,
      "հասցրել": 4197,
      "Զին": 4198,
      "##ցիայի": 4199,
      "պայմանագիր": 4200,
      "ԿԳ": 4201,
      "դաշինքի": 4202,
      "##իրախ": 4203,
      "առավելագույն": 4204,
      "##աստիճ": 4205,
      "Հայաստանն": 4206,
      "խոստով": 4207,
      "տանը": 4208,
      "Մել": 4209,
      "##բամ": 4210,
      "բրիտ": 4211,
      "վկայում": 4212,
      "կատարվում": 4213,
      "##եմն": 4214,
      "դատարանում": 4215,
      "դպրոցի": 4216,
      "համալիր": 4217,
      "գաղափար": 4218,
      "##ղան": 4219,
      "կրթական": 4220,
      "բարեփոխումների": 4221,
      "գրասենյակի": 4222,
      "շուկայում": 4223,
      "պրոֆ": 4224,
      "ծայրահեղ": 4225,
      "փոփոխությունների": 4226,
      "##աբանության": 4227,
      "առաջարկում": 4228,
      "գործադիր": 4229,
      "աստիճ": 4230,
      "համատ": 4231,
      "քննություն": 4232,
      "ուկրաին": 4233,
      "ՀԿ": 4234,
      "թվով": 4235,
      "##ուհին": 4236,
      "##ամասն": 4237,
      "Արայ": 4238,
      "վիճակ": 4239,
      "ավտոմեքենայի": 4240,
      "##ոսը": 4241,
      "ազատազրկման": 4242,
      "այսինքն": 4243,
      "##ուի": 4244,
      "սպասում": 4245,
      "նահանգի": 4246,
      "Միք": 4247,
      "##ուտբ": 4248,
      "Բալ": 4249,
      "մակարդակի": 4250,
      "Նյու": 4251,
      "##իկին": 4252,
      "##տեմբերին": 4253,
      "##ia": 4254,
      "##րկարար": 4255,
      "մասնակցությամբ": 4256,
      "այլեւս": 4257,
      "չոր": 4258,
      "փոխարժեքը": 4259,
      "մարտահր": 4260,
      "ուղերձ": 4261,
      "վիրավորվել": 4262,
      "Կոմ": 4263,
      "չկ": 4264,
      "##ծում": 4265,
      "հանրահավաք": 4266,
      "##աքննությունը": 4267,
      "վնասվածքներ": 4268,
      "##եսը": 4269,
      "բերված": 4270,
      "ճանապարհը": 4271,
      "թագ": 4272,
      "զենքի": 4273,
      "տրամադրել": 4274,
      "Գալ": 4275,
      "##ացիական": 4276,
      "տեղեկանում": 4277,
      "##ոնե": 4278,
      "գույքի": 4279,
      "բավականին": 4280,
      "41": 4281,
      "##ապաշտ": 4282,
      "Կարապետյանը": 4283,
      "սեղ": 4284,
      "##ակցություն": 4285,
      "ԵԽ": 4286,
      "##is": 4287,
      "##ինա": 4288,
      "շարժման": 4289,
      "ընդհանր": 4290,
      "##թափ": 4291,
      "Ժառանգ": 4292,
      "պաշտոնը": 4293,
      "կվեր": 4294,
      "գնահատել": 4295,
      "հարցազրույցում": 4296,
      "ղարաբաղյան": 4297,
      "արհ": 4298,
      "Սահակյանը": 4299,
      "բեռնատար": 4300,
      "##իչները": 4301,
      "կանխարգել": 4302,
      "բանից": 4303,
      "մահացած": 4304,
      "լուծման": 4305,
      "լրագրող": 4306,
      "Արմավիրի": 4307,
      "իհարկե": 4308,
      "Հովհաննես": 4309,
      "գալու": 4310,
      "Որոշ": 4311,
      "Մարտի": 4312,
      "սառ": 4313,
      "հարձակման": 4314,
      "էի": 4315,
      "քայլեր": 4316,
      "Լեհ": 4317,
      "##ազարյանը": 4318,
      "պատրաստակամ": 4319,
      "րոպե": 4320,
      "##վտանգ": 4321,
      "սնն": 4322,
      "գիշեր": 4323,
      "ցուցադր": 4324,
      "Մոսկվայում": 4325,
      "Ստամբ": 4326,
      "զրուց": 4327,
      "թիրախ": 4328,
      "օրենքով": 4329,
      "առողջական": 4330,
      "ռիսկ": 4331,
      "Ադրբեջանին": 4332,
      "սեն": 4333,
      "հյուսիս": 4334,
      "##ահերթ": 4335,
      "հիմք": 4336,
      "մեխանիզմ": 4337,
      "դանակ": 4338,
      "հասկանում": 4339,
      "նախատեսում": 4340,
      "ժառանգ": 4341,
      "վեց": 4342,
      "բնակիչների": 4343,
      "ապրանքների": 4344,
      "##ուչ": 4345,
      "համարվում": 4346,
      "դեպքերի": 4347,
      "դառնալ": 4348,
      "ժամանակավոր": 4349,
      "դին": 4350,
      "Արա": 4351,
      "արտադրության": 4352,
      "շրջանների": 4353,
      "ուղարկվել": 4354,
      "տեղեկություն": 4355,
      "թուն": 4356,
      "հակաս": 4357,
      "Վաշինգտ": 4358,
      "##եստի": 4359,
      "##եւմուտ": 4360,
      "արտաս": 4361,
      "Իսրայել": 4362,
      "ռադի": 4363,
      "կց": 4364,
      "բռնության": 4365,
      "##ալբ": 4366,
      "որակ": 4367,
      "պարագայում": 4368,
      "տղամարդը": 4369,
      "մուտք": 4370,
      "##ռչակ": 4371,
      "դրսեւոր": 4372,
      "բարձրաստիճան": 4373,
      "նետ": 4374,
      "հավատար": 4375,
      "##սկայ": 4376,
      "Գեղարքուն": 4377,
      "գինը": 4378,
      "տարածաշրջանի": 4379,
      "ru": 4380,
      "Շուշ": 4381,
      "բնապահ": 4382,
      "պահել": 4383,
      "Նովոստին": 4384,
      "քաղաքացիներին": 4385,
      "մանդ": 4386,
      "##րանս": 4387,
      "##վեյ": 4388,
      "ախտ": 4389,
      "##un": 4390,
      "վթարի": 4391,
      "Քոչարյանի": 4392,
      "իրականացված": 4393,
      "Ստեփանակ": 4394,
      "##դեռ": 4395,
      "Հայտ": 4396,
      "ունենալով": 4397,
      "Փարի": 4398,
      "միաժամանակ": 4399,
      "հանձնել": 4400,
      "##նդր": 4401,
      "նախալ": 4402,
      "Սպ": 4403,
      "հետեւյալ": 4404,
      "ներառյալ": 4405,
      "##ենզ": 4406,
      "ուրի": 4407,
      "ոք": 4408,
      "մտել": 4409,
      "48": 4410,
      "Արայիկ": 4411,
      "բառ": 4412,
      "միջամտ": 4413,
      "ֆրանսի": 4414,
      "55": 4415,
      "հարձակ": 4416,
      "Միաժամանակ": 4417,
      "ռեսուրս": 4418,
      "##արում": 4419,
      "ունեմ": 4420,
      "Ղր": 4421,
      "խաղաղապահ": 4422,
      "եվրո": 4423,
      "կանգնած": 4424,
      "երկաթ": 4425,
      "Արտակ": 4426,
      "վիճակի": 4427,
      "##ay": 4428,
      "պատշաճ": 4429,
      "հոսպիտ": 4430,
      "90": 4431,
      "քննության": 4432,
      "հրավիրել": 4433,
      "##ակիր": 4434,
      "##ապար": 4435,
      "Լոռու": 4436,
      "##արյան": 4437,
      "##անալով": 4438,
      "կդառն": 4439,
      "մեն": 4440,
      "բջ": 4441,
      "##որդների": 4442,
      "անձնակազմ": 4443,
      "##ևս": 4444,
      "մարզերում": 4445,
      "երաժ": 4446,
      "##ցանց": 4447,
      "մեկին": 4448,
      "Հատ": 4449,
      "ընդունվել": 4450,
      "պաշտոնակատար": 4451,
      "Միքայել": 4452,
      "ընտրվել": 4453,
      "քաղաքապետարանի": 4454,
      "նախագահին": 4455,
      "այդպիսի": 4456,
      "ջերմաստիճ": 4457,
      "Սեյ": 4458,
      "կարգով": 4459,
      "ներկայացուցիչը": 4460,
      "Սիրիայում": 4461,
      "հանրաք": 4462,
      "Բագրատ": 4463,
      "39": 4464,
      "##օրինական": 4465,
      "Իրավ": 4466,
      "համաձայնագրի": 4467,
      "վայրում": 4468,
      "42": 4469,
      "ուսումնական": 4470,
      "սեռ": 4471,
      "հանցագործության": 4472,
      "##աստանյան": 4473,
      "էլեկտրոնային": 4474,
      "վերջերս": 4475,
      "##իկն": 4476,
      "կփ": 4477,
      "ընտրությունները": 4478,
      "հրազ": 4479,
      "պահպանման": 4480,
      "##ադադարի": 4481,
      "ստացված": 4482,
      "##եղեցին": 4483,
      "Արդյուն": 4484,
      "քաղաքապետի": 4485,
      "փլ": 4486,
      "անվանել": 4487,
      "անձը": 4488,
      "Լավր": 4489,
      "գումարը": 4490,
      "Բրիտանի": 4491,
      "ոտ": 4492,
      "բերվել": 4493,
      "Գեղարքունիքի": 4494,
      "հերոս": 4495,
      "Նալբ": 4496,
      "Կատարվում": 4497,
      "գնացել": 4498,
      "երկրները": 4499,
      "##մեր": 4500,
      "խոսք": 4501,
      "##ասիական": 4502,
      "մարտահրավեր": 4503,
      "ցուցարար": 4504,
      "ԱՊՀ": 4505,
      "##ստանում": 4506,
      "Նալբանդ": 4507,
      "ամսվա": 4508,
      "ձգտ": 4509,
      "Մն": 4510,
      "գործակալության": 4511,
      "դառնում": 4512,
      "Իլ": 4513,
      "##աթոշ": 4514,
      "Ել": 4515,
      "##ելյան": 4516,
      "##ատարած": 4517,
      "Սպիտակ": 4518,
      "դիտարկ": 4519,
      "փոխհատուց": 4520,
      "գործառ": 4521,
      "Իրանը": 4522,
      "գործընկերների": 4523,
      "Սուրեն": 4524,
      "արվ": 4525,
      "##ess": 4526,
      "գործիք": 4527,
      "խթ": 4528,
      "Հովիկ": 4529,
      "##չափ": 4530,
      "համատեքստում": 4531,
      "եկեղեցու": 4532,
      "Մարի": 4533,
      "ինստիտուտի": 4534,
      "2008": 4535,
      "գոյություն": 4536,
      "գրոհ": 4537,
      "փաստաթուղթ": 4538,
      "Անդրադառնալով": 4539,
      "##ահանդ": 4540,
      "##օգնության": 4541,
      "հաց": 4542,
      "##եւնույն": 4543,
      "ՍՊԸ": 4544,
      "Նոյ": 4545,
      "##նիշխան": 4546,
      "##րեբ": 4547,
      "քաղաքականությունը": 4548,
      "որդին": 4549,
      "Սաուդյան": 4550,
      "առաջընթաց": 4551,
      "##արդյուն": 4552,
      "Մամ": 4553,
      "Եգիպտ": 4554,
      "սահմանին": 4555,
      "Զոհրաբ": 4556,
      "հղում": 4557,
      "ունենա": 4558,
      "##ոմի": 4559,
      "նորից": 4560,
      "Օբամ": 4561,
      "ստացած": 4562,
      "պատվիրակության": 4563,
      "հեռուստաալի": 4564,
      "խորհրդարանում": 4565,
      "Կոնգրես": 4566,
      "##իում": 4567,
      "Մեղ": 4568,
      "##ոլդ": 4569,
      "Օս": 4570,
      "##ch": 4571,
      "վերջինիս": 4572,
      "պետի": 4573,
      "գին": 4574,
      "հաղորդել": 4575,
      "##մունքի": 4576,
      "##ասպան": 4577,
      "մեկնարկ": 4578,
      "հետագայում": 4579,
      "կետով": 4580,
      "##աշխավոր": 4581,
      "##ավորական": 4582,
      "քրե": 4583,
      "##անգամ": 4584,
      "##իեզեր": 4585,
      "վերահսկողության": 4586,
      "հրաժարական": 4587,
      "բազ": 4588,
      "Աֆղան": 4589,
      "ժողովուրդը": 4590,
      "կնք": 4591,
      "Ընկեր": 4592,
      "##պիսին": 4593,
      "##ֆի": 4594,
      "400": 4595,
      "կապիտ": 4596,
      "կուտ": 4597,
      "գործար": 4598,
      "վնասվածքներով": 4599,
      "##ետն": 4600,
      "լրատվական": 4601,
      "բյուջեի": 4602,
      "##այժմ": 4603,
      "դաշ": 4604,
      "ավարտվել": 4605,
      "Կամ": 4606,
      "սպանել": 4607,
      "##ենում": 4608,
      "թվականից": 4609,
      "ստեղծվել": 4610,
      "տուժել": 4611,
      "Ջոն": 4612,
      "ապրել": 4613,
      "գնահատական": 4614,
      "անհանգստ": 4615,
      "Մեզ": 4616,
      "սահմ": 4617,
      "անտառ": 4618,
      "ճշ": 4619,
      "ապացուց": 4620,
      "##ատիպ": 4621,
      "արցախ": 4622,
      "վարակ": 4623,
      "ժամանակակից": 4624,
      "տեղեկությունների": 4625,
      "նկատել": 4626,
      "միջոցառումներ": 4627,
      "Պետական": 4628,
      "բացասական": 4629,
      "Պետրոսյանը": 4630,
      "պաշտպանական": 4631,
      "մեծամասն": 4632,
      "##ելյանը": 4633,
      "լինում": 4634,
      "Միջազգային": 4635,
      "պատահ": 4636,
      "##արին": 4637,
      "վարչակազմ": 4638,
      "ինքնիշխան": 4639,
      "ԵՏ": 4640,
      "հունվար": 4641,
      "Ղարաբաղում": 4642,
      "Վալ": 4643,
      "Սաֆ": 4644,
      "ծննդ": 4645,
      "##ներս": 4646,
      "սուր": 4647,
      "##ադրանքի": 4648,
      "Եկ": 4649,
      "իշխող": 4650,
      "տեսակետ": 4651,
      "համարել": 4652,
      "ակցիան": 4653,
      "##վանից": 4654,
      "##ագիծը": 4655,
      "հավելեց": 4656,
      "հանդիպմանը": 4657,
      "լուծել": 4658,
      "##եկտիվ": 4659,
      "նախալեռներում": 4660,
      "հավասար": 4661,
      "նավթ": 4662,
      "կտրուկ": 4663,
      "Ապրի": 4664,
      "Աննա": 4665,
      "ֆուտբ": 4666,
      "իշխանություններին": 4667,
      "Ժամանակ": 4668,
      "ինչն": 4669,
      "պատասխանեց": 4670,
      "պալատի": 4671,
      "Փորձ": 4672,
      "վերաբերող": 4673,
      "##ձավոր": 4674,
      "հետախուզական": 4675,
      "##ագիտության": 4676,
      "ասած": 4677,
      "##ագծի": 4678,
      "առնչությամբ": 4679,
      "ողբերգ": 4680,
      "երեխայի": 4681,
      "##աղեստ": 4682,
      "իրար": 4683,
      "##աժան": 4684,
      "հանցագործությունների": 4685,
      "կներկայ": 4686,
      "պայքարում": 4687,
      "աճի": 4688,
      "##yan": 4689,
      "գիտական": 4690,
      "ծաղ": 4691,
      "##տը": 4692,
      "առաջատար": 4693,
      "աջակցել": 4694,
      "##օղ": 4695,
      "օրենքում": 4696,
      "Փրկարար": 4697,
      "փոխվարչապետ": 4698,
      "հաշվետ": 4699,
      "Բեր": 4700,
      "##ուլում": 4701,
      "Երկրորդ": 4702,
      "կայքում": 4703,
      "արգելափ": 4704,
      "սն": 4705,
      "զոհված": 4706,
      "արտոն": 4707,
      "ձայ": 4708,
      "ընդդիմության": 4709,
      "քաղաքացիները": 4710,
      "տուր": 4711,
      "Սարգսյանն": 4712,
      "կատարում": 4713,
      "տեսել": 4714,
      "աշակ": 4715,
      "##էներգ": 4716,
      "ջրի": 4717,
      "##վտանգության": 4718,
      "##ասիրական": 4719,
      "սպառնում": 4720,
      "հանուն": 4721,
      "նպատակն": 4722,
      "Արդար": 4723,
      "Կարծում": 4724,
      "երաշխավոր": 4725,
      "ընդհանրապես": 4726,
      "օգտին": 4727,
      "լուծում": 4728,
      "վճարել": 4729,
      "ակումբ": 4730,
      "##տվ": 4731,
      "Բրյուս": 4732,
      "Գասպ": 4733,
      "Ստեփան": 4734,
      "Առաքել": 4735,
      "ժաման": 4736,
      "ջուր": 4737,
      "փորձի": 4738,
      "##թնոլոր": 4739,
      "օբյեկտ": 4740,
      "անօրինական": 4741,
      "ներկայիս": 4742,
      "տարում": 4743,
      "կք": 4744,
      "անշ": 4745,
      "պետքարտուղ": 4746,
      "Պուտինի": 4747,
      "##եկտրա": 4748,
      "##տեր": 4749,
      "ՊԵԿ": 4750,
      "##ջային": 4751,
      "մղ": 4752,
      "##մեդ": 4753,
      "ռեժիմի": 4754,
      "պատգամավորը": 4755,
      "ավարտին": 4756,
      "ամենը": 4757,
      "##եստական": 4758,
      "Այժմ": 4759,
      "հանել": 4760,
      "տաք": 4761,
      "##ուցե": 4762,
      "ղեկավարների": 4763,
      "լույս": 4764,
      "օժ": 4765,
      "փոխել": 4766,
      "Հանդիպման": 4767,
      "##րիկ": 4768,
      "կորուստ": 4769,
      "սահմանափակ": 4770,
      "հումանիտար": 4771,
      "Էրեբ": 4772,
      "Մուր": 4773,
      "##ազին": 4774,
      "##աժողովը": 4775,
      "նախընտրական": 4776,
      "թեման": 4777,
      "Նշվում": 4778,
      "ներգրավված": 4779,
      "թմրամ": 4780,
      "##այնիվ": 4781,
      "Փաշինյանն": 4782,
      "փախստ": 4783,
      "պաշտոնից": 4784,
      "սուբ": 4785,
      "##ուամեն": 4786,
      "##ատների": 4787,
      "սկսած": 4788,
      "Բելառուսի": 4789,
      "մրցույթ": 4790,
      "փոխգործ": 4791,
      "##ասի": 4792,
      "հոգեբ": 4793,
      "43": 4794,
      "##եցման": 4795,
      "ակտիվիստ": 4796,
      "Հայաստանից": 4797,
      "անունը": 4798,
      "անհն": 4799,
      "հայտարարում": 4800,
      "ֆիզիկական": 4801,
      "Եվրամիության": 4802,
      "Դրանից": 4803,
      "Յոր": 4804,
      "չարաշ": 4805,
      "##արանական": 4806,
      "անցկացնել": 4807,
      "չէին": 4808,
      "##ուամենայնիվ": 4809,
      "դատախազության": 4810,
      "փն": 4811,
      "պարգեւ": 4812,
      "Կորեայի": 4813,
      "##wit": 4814,
      "պետություն": 4815,
      "Երեկ": 4816,
      "##pp": 4817,
      "մթնոլոր": 4818,
      "##վածքների": 4819,
      "նախօրեին": 4820,
      "Բաբայ": 4821,
      "##ափշտ": 4822,
      "փոխանցել": 4823,
      "զինծառայողների": 4824,
      "##առք": 4825,
      "Մկրտչ": 4826,
      "աշխատանքից": 4827,
      "չտ": 4828,
      "ծառայություն": 4829,
      "արժեքը": 4830,
      "նյութեր": 4831,
      "Երկու": 4832,
      "##ուել": 4833,
      "հատկանիշներով": 4834,
      "փաստացի": 4835,
      "մշտապես": 4836,
      "##ագրգ": 4837,
      "պարոն": 4838,
      "##ամի": 4839,
      "մաքսային": 4840,
      "##անկյուն": 4841,
      "##ացան": 4842,
      "ասուլիս": 4843,
      "##ասը": 4844,
      "##քս": 4845,
      "##ազերծ": 4846,
      "մտց": 4847,
      "ահաբեկչական": 4848,
      "նշանակություն": 4849,
      "տարիներ": 4850,
      "հոսպիտալ": 4851,
      "Քոչարյանը": 4852,
      "առաջիկայում": 4853,
      "ինտերն": 4854,
      "մեկուս": 4855,
      "խախտում": 4856,
      "կոալից": 4857,
      "##անշանակ": 4858,
      "##ագրության": 4859,
      "պայմանագրի": 4860,
      "ՓԲԸ": 4861,
      "Պաշտպանության": 4862,
      "կազմակերպված": 4863,
      "##աշնորհ": 4864,
      "##իմն": 4865,
      "վերջինս": 4866,
      "գտնել": 4867,
      "իրավունքը": 4868,
      "ստեղծման": 4869,
      "Քաղաքացիական": 4870,
      "##ail": 4871,
      "գնալ": 4872,
      "##witter": 4873,
      "##սկին": 4874,
      "վաղը": 4875,
      "Նաիր": 4876,
      "հարմար": 4877,
      "հափշտ": 4878,
      "##անոցի": 4879,
      "առաջնահերթ": 4880,
      "##տու": 4881,
      "գները": 4882,
      "##ժան": 4883,
      "հարցերին": 4884,
      "##ոսյան": 4885,
      "քաղաքացու": 4886,
      "պաշտոնատար": 4887,
      "օրաթ": 4888,
      "զորքերի": 4889,
      "անձամբ": 4890,
      "կալան": 4891,
      "անելու": 4892,
      "երեխա": 4893,
      "ազատության": 4894,
      "##ահլի": 4895,
      "նպատակը": 4896,
      "վթար": 4897,
      "էական": 4898,
      "##առու": 4899,
      "բջջային": 4900,
      "News": 4901,
      "##օղլ": 4902,
      "չգիտ": 4903,
      "գնել": 4904,
      "կառույցների": 4905,
      "##ապաղ": 4906,
      "##ինս": 4907,
      "Քրիստ": 4908,
      "առկայ": 4909,
      "ճանապարհային": 4910,
      "Դավթ": 4911,
      "տրանսպորտի": 4912,
      "Հանրային": 4913,
      "հանձնաժողովը": 4914,
      "լից": 4915,
      "դեմոկր": 4916,
      "բալ": 4917,
      "առնչվող": 4918,
      "47": 4919,
      "օգնել": 4920,
      "##ինգի": 4921,
      "ստեղծելու": 4922,
      "մասնակիցները": 4923,
      "շահագրգ": 4924,
      "մետաղ": 4925,
      "պահպանել": 4926,
      "ուրախ": 4927,
      "##ագրված": 4928,
      "Աշխատ": 4929,
      "տա": 4930,
      "Վահե": 4931,
      "Չնայած": 4932,
      "##ավորումը": 4933,
      "աշակերտ": 4934,
      "կարգի": 4935,
      "##պանական": 4936,
      "հին": 4937,
      "##եճ": 4938,
      "կյանքը": 4939,
      "շրջաններում": 4940,
      "դարձավ": 4941,
      "##իկներ": 4942,
      "օգտագործման": 4943,
      "##բիլ": 4944,
      "##եստոր": 4945,
      "##յաց": 4946,
      "իրականում": 4947,
      "##իներին": 4948,
      "փոխարին": 4949,
      "ներկայումս": 4950,
      "եզրա": 4951,
      "»՝": 4952,
      "##ենցի": 4953,
      "Վրաստանում": 4954,
      "##ասարակ": 4955,
      "զարգաց": 4956,
      "բնակիչները": 4957,
      "ւմ": 4958,
      "##ովանդակ": 4959,
      "արմ": 4960,
      "Քննչական": 4961,
      "ամենա": 4962,
      "ավտով": 4963,
      "հրադադարի": 4964,
      "շարունակելու": 4965,
      "դաշնակից": 4966,
      "##կոնոմ": 4967,
      "կայացրել": 4968,
      "հազարավոր": 4969,
      "ոգ": 4970,
      "##արման": 4971,
      "տեղակայված": 4972,
      "Փոխ": 4973,
      "##արիայի": 4974,
      "##ընտրանք": 4975,
      "միջոցները": 4976,
      "փնտր": 4977,
      "հուշարձ": 4978,
      "Խաչատուր": 4979,
      "Կանադ": 4980,
      "նշանակության": 4981,
      "Լոնդ": 4982,
      "ձորի": 4983,
      "##արկվել": 4984,
      "##եգործ": 4985,
      "դրել": 4986,
      "##ine": 4987,
      "ռեկ": 4988,
      "բոլորը": 4989,
      "բանակցությունները": 4990,
      "ձեռնարկել": 4991,
      "2024": 4992,
      "համակարգում": 4993,
      "մատ": 4994,
      "բացառապես": 4995,
      "էլեկտր": 4996,
      "##ողներ": 4997,
      "Դեմ": 4998,
      "Ներկայում": 4999,
      "դիրքորոշումը": 5000,
      "ժողովրդավարական": 5001,
      "Էրդողանի": 5002,
      "տվեց": 5003,
      "քանակ": 5004,
      "անցկացրել": 5005,
      "սեւ": 5006,
      "Ուկրաինայում": 5007,
      "շտաբի": 5008,
      "Իսլամական": 5009,
      "անհրաժեշտության": 5010,
      "##re": 5011,
      "հավաստի": 5012,
      "մեքենայի": 5013,
      "##ամփ": 5014,
      "իմաստ": 5015,
      "վերանորոգ": 5016,
      "##ողիկ": 5017,
      "Թեհ": 5018,
      "##եկտրաէներգ": 5019,
      "ԵՏՄ": 5020,
      "##ԼՄ": 5021,
      "մեթ": 5022,
      "հանցավոր": 5023,
      "գերման": 5024,
      "պատգամավորների": 5025,
      "տղամարդու": 5026,
      "##ԱՆ": 5027,
      "##ունը": 5028,
      "Թբիլ": 5029,
      "##աքար": 5030,
      "ներկայացուցիչներ": 5031,
      "համապատասխանում": 5032,
      "էության": 5033,
      "բանակցություններ": 5034,
      "##ասյանի": 5035,
      "հանրապետական": 5036,
      "Աբրահամյանը": 5037,
      "##անիշի": 5038,
      "ուսուց": 5039,
      "միմ": 5040,
      "փաստը": 5041,
      "##լիմ": 5042,
      "##ացիների": 5043,
      "խորհուրդը": 5044,
      "##անքների": 5045,
      "Սար": 5046,
      "ամենամեծ": 5047,
      "հարվածել": 5048,
      "Սեպ": 5049,
      "Լուսավոր": 5050,
      "տարածքը": 5051,
      "սահմանել": 5052,
      "Ցեղաս": 5053,
      "հնարավորությունը": 5054,
      "ֆիլմ": 5055,
      "##պարտ": 5056,
      "ակադեմ": 5057,
      "պաշտոնապես": 5058,
      "կորած": 5059,
      "##ամին": 5060,
      "տեսանկյուն": 5061,
      "2009": 5062,
      "դոլարով": 5063,
      "##ut": 5064,
      "##ախց": 5065,
      "մեքեն": 5066,
      "##ակատարողական": 5067,
      "հայտնեցին": 5068,
      "ֆուն": 5069,
      "մակարդակով": 5070,
      "տարածքի": 5071,
      "վավեր": 5072,
      "տնօրենի": 5073,
      "Սեն": 5074,
      "ԶԼՄ": 5075,
      "կիրառել": 5076,
      "Խաղ": 5077,
      "ձեւաչափ": 5078,
      "խոստացել": 5079,
      "տիեզեր": 5080,
      "միմյանց": 5081,
      "##իցս": 5082,
      "##րդական": 5083,
      "Նախկին": 5084,
      "##as": 5085,
      "կամավոր": 5086,
      "##եքի": 5087,
      "քր": 5088,
      "անբ": 5089,
      "Սահմանադրության": 5090,
      "Տես": 5091,
      "ուրիշ": 5092,
      "##ահլիճ": 5093,
      "##ag": 5094,
      "Հռ": 5095,
      "մոտակայքում": 5096,
      "ավազ": 5097,
      "օտարերկրյա": 5098,
      "Սան": 5099,
      "##ետային": 5100,
      "Twitter": 5101,
      "Արդյունքում": 5102,
      "Արցախը": 5103,
      "ուշադրություն": 5104,
      "անկախության": 5105,
      "ահաբեկչության": 5106,
      "Անվտանգության": 5107,
      "տապ": 5108,
      "անչափ": 5109,
      "մեդ": 5110,
      "##իկները": 5111,
      "կողմերը": 5112,
      "դիվանագետ": 5113,
      "##ովմ": 5114,
      "197": 5115,
      "վրաերթի": 5116,
      "կկարող": 5117,
      "Նարեկ": 5118,
      "##ուղու": 5119,
      "եկեղեցին": 5120,
      "ռեստոր": 5121,
      "կոնգրես": 5122,
      "Սեյրան": 5123,
      "Արծ": 5124,
      "կադր": 5125,
      "քմ": 5126,
      "արք": 5127,
      "օրենքը": 5128,
      "##միած": 5129,
      "մեղադրել": 5130,
      "##վագ": 5131,
      "##եյն": 5132,
      "##թթ": 5133,
      "##ամս": 5134,
      "##անցիկ": 5135,
      "զավ": 5136,
      "շփման": 5137,
      "Ռուսաստան": 5138,
      "մասնակիցների": 5139,
      "##ակոծ": 5140,
      "Էջ": 5141,
      "Անկար": 5142,
      "վիրահատ": 5143,
      "աստղ": 5144,
      "##eta": 5145,
      "հաստատվել": 5146,
      "տեսանկյունից": 5147,
      "Եվրասիական": 5148,
      "Վեն": 5149,
      "##օդաչու": 5150,
      "առեւտրային": 5151,
      "##ացանց": 5152,
      "դատապարտել": 5153,
      "միջավայրի": 5154,
      "75": 5155,
      "ներկայացնելու": 5156,
      "լիարժեք": 5157,
      "սահմանի": 5158,
      "լց": 5159,
      "ոստիկանների": 5160,
      "##աբանում": 5161,
      "հանրաքվե": 5162,
      "գյուղատնտեսության": 5163,
      "##ci": 5164,
      "անձր": 5165,
      "##ոբալ": 5166,
      "##արանների": 5167,
      "##ումներից": 5168,
      "հյուրանոց": 5169,
      "առև": 5170,
      "Բաքվի": 5171,
      "##ասան": 5172,
      "ներդրումային": 5173,
      "շրջափ": 5174,
      "զգուշ": 5175,
      "հանք": 5176,
      "աջակցությունը": 5177,
      "էլեկտրական": 5178,
      "Ar": 5179,
      "կենսաթոշ": 5180,
      "տվյալներ": 5181,
      "մակարդակը": 5182,
      "իրավիճակ": 5183,
      "Արտաշ": 5184,
      "սերտ": 5185,
      "##վածքի": 5186,
      "ենթադրում": 5187,
      "##այիլ": 5188,
      "խնդրում": 5189,
      "##ազգուշ": 5190,
      "չափազանց": 5191,
      "նորմալ": 5192,
      "Լիբան": 5193,
      "անհապաղ": 5194,
      "բովանդակ": 5195,
      "##ակողմանի": 5196,
      "Գիտնական": 5197,
      "##ham": 5198,
      "##ian": 5199,
      "զբաղվում": 5200,
      "էդ": 5201,
      "կանցկաց": 5202,
      "##կոնոմիկայի": 5203,
      "իրանական": 5204,
      "ավելին": 5205,
      "բանակցային": 5206,
      "##ախության": 5207,
      "Վաղ": 5208,
      "խստ": 5209,
      "բարձրագույն": 5210,
      "Անհ": 5211,
      "##աբանը": 5212,
      "##ակիցը": 5213,
      "մայիս": 5214,
      "պարզելու": 5215,
      "46": 5216,
      "թույլտվ": 5217,
      "օրենսդրական": 5218,
      "ինքնակ": 5219,
      "տեղյակ": 5220,
      "ֆինանսների": 5221,
      "##ազեկ": 5222,
      "շարունակական": 5223,
      "բերելու": 5224,
      "ծրագրերը": 5225,
      "հետաձգ": 5226,
      "##ուստի": 5227,
      "ջոկատ": 5228,
      "խորհրդական": 5229,
      "կանգն": 5230,
      "Էջմիած": 5231,
      "քաղաքացիներ": 5232,
      "դեկտ": 5233,
      "##օրինակ": 5234,
      "զարգացմանը": 5235,
      "հեռու": 5236,
      "##աքաղաքական": 5237,
      "##արգավաճ": 5238,
      "Քար": 5239,
      "այդքան": 5240,
      "աճը": 5241,
      "##խիթ": 5242,
      "ների": 5243,
      "##մերուկ": 5244,
      "արձակել": 5245,
      "չմ": 5246,
      "պարբերաբար": 5247,
      "Այստեղ": 5248,
      "իսկապես": 5249,
      "կոչված": 5250,
      "կռ": 5251,
      "պահելու": 5252,
      "տեղեկատվություն": 5253,
      "ուստի": 5254,
      "կողմնակից": 5255,
      "վերցրել": 5256,
      "բյուջե": 5257,
      "##խուժ": 5258,
      "արտահանման": 5259,
      "կայացել": 5260,
      "##ապահական": 5261,
      "##ապետի": 5262,
      "ջանքերը": 5263,
      "իսրայ": 5264,
      "դաժան": 5265,
      "էլեկտրաէներգ": 5266,
      "հասնելու": 5267,
      "նախազգուշ": 5268,
      "ադրբեջանց": 5269,
      "##ագրել": 5270,
      "քվեարկել": 5271,
      "##ածկ": 5272,
      "##ժի": 5273,
      "ժամանակով": 5274,
      "արձանագրել": 5275,
      "Ձեզ": 5276,
      "ունեցավ": 5277,
      "հիմնադիր": 5278,
      "65": 5279,
      "##աներ": 5280,
      "Վարդանյանը": 5281,
      "Հարությունյանի": 5282,
      "##յալի": 5283,
      "##քները": 5284,
      "##ագրում": 5285,
      "##ակցական": 5286,
      "ավտոմեքեն": 5287,
      "##ՄՍ": 5288,
      "պետությունը": 5289,
      "Իհարկե": 5290,
      "էկ": 5291,
      "Օգ": 5292,
      "տոննա": 5293,
      "Դատար": 5294,
      "անօդաչու": 5295,
      "##ավանդ": 5296,
      "կոմիտե": 5297,
      "գնահատում": 5298,
      "St": 5299,
      "ինչո": 5300,
      "##աքննիչ": 5301,
      "ներխուժ": 5302,
      "վաճառքի": 5303,
      "կայանալիք": 5304,
      "տեւ": 5305,
      "##ուարդ": 5306,
      "երկրներ": 5307,
      "բաժնետ": 5308,
      "կդառնա": 5309,
      "ծրագրեր": 5310,
      "##ացիները": 5311,
      "ավտոճանապարհի": 5312,
      "52": 5313,
      "երաժշտ": 5314,
      "գործնական": 5315,
      "կքնն": 5316,
      "##պանում": 5317,
      "##ակտ": 5318,
      "նահանգում": 5319,
      "խոց": 5320,
      "հաշվին": 5321,
      "գների": 5322,
      "##ոյական": 5323,
      "##ինյանը": 5324,
      "Ավելին": 5325,
      "զիջ": 5326,
      "Որպես": 5327,
      "ինչպիսի": 5328,
      "##ad": 5329,
      "անցնում": 5330,
      "##ադրությունը": 5331,
      "օգտատեր": 5332,
      "արտասահման": 5333,
      "արարող": 5334,
      "ընդունում": 5335,
      "##ասուն": 5336,
      "գծով": 5337,
      "##վեյց": 5338,
      "01": 5339,
      "ներուժ": 5340,
      "ներսում": 5341,
      "այցը": 5342,
      "##ույթների": 5343,
      "ընթացիկ": 5344,
      "արդյունքների": 5345,
      "կոշ": 5346,
      "Մայիսի": 5347,
      "##ևեկ": 5348,
      "անելով": 5349,
      "մեթոդ": 5350,
      "խնդ": 5351,
      "բրիտանական": 5352,
      "##ոյում": 5353,
      "51": 5354,
      "կատարման": 5355,
      "ծխ": 5356,
      "օգնական": 5357,
      "իսրայել": 5358,
      "##ԽՎ": 5359,
      "150": 5360,
      "մատն": 5361,
      "##ովան": 5362,
      "##ացնող": 5363,
      "Ընդհանուր": 5364,
      "##եսկ": 5365,
      "անհրաժեշտությունը": 5366,
      "Հրդեհ": 5367,
      "ազատվել": 5368,
      "ժամկետով": 5369,
      "իրավիճակների": 5370,
      "ենթակա": 5371,
      "արեւմտյան": 5372,
      "ավիա": 5373,
      "ցուցահանդ": 5374,
      "##ոնյան": 5375,
      "լեռներում": 5376,
      "դահլիճ": 5377,
      "Արև": 5378,
      "##ապետը": 5379,
      "առանձնապես": 5380,
      "Թովմ": 5381,
      "Ավստր": 5382,
      "ԿԳՄՍ": 5383,
      "Չար": 5384,
      "հանգստ": 5385,
      "հայաստանյան": 5386,
      "փլուզ": 5387,
      "##քներ": 5388,
      "փոխադարձ": 5389,
      "գլխավորությամբ": 5390,
      "լրատվամիջոցների": 5391,
      "ԲԿ": 5392,
      "##ակարգի": 5393,
      "մրցանակ": 5394,
      "Ամերիկայի": 5395,
      "նվազագույն": 5396,
      "##ապաշտպան": 5397,
      "Երևանում": 5398,
      "Գրիգորյանի": 5399,
      "##առաջ": 5400,
      "մանր": 5401,
      "բազմիցս": 5402,
      "մարմինը": 5403,
      "##ուլտ": 5404,
      "կիլ": 5405,
      "##ավը": 5406,
      "ցուցմունք": 5407,
      "հաղթանակ": 5408,
      "մոր": 5409,
      "##իպր": 5410,
      "##ացումներ": 5411,
      "##ամշակ": 5412,
      "##azeta": 5413,
      "Էդուարդ": 5414,
      "հայրենակից": 5415,
      "գողության": 5416,
      "##ուշտ": 5417,
      "Ազատության": 5418,
      "##վածության": 5419,
      "ասուլիսի": 5420,
      "պատժամիջոցների": 5421,
      "հետեւում": 5422,
      "##ik": 5423,
      "Հոկտեմբերի": 5424,
      "ամիսներին": 5425,
      "Փաշինյանին": 5426,
      "##բան": 5427,
      "դրոշ": 5428,
      "CO": 5429,
      "խաչմերուկ": 5430,
      "Հաջ": 5431,
      "շենքեր": 5432,
      "երթևեկ": 5433,
      "Բոր": 5434,
      "##աբոր": 5435,
      "##իստական": 5436,
      "բլ": 5437,
      "հարուցված": 5438,
      "##րանյութ": 5439,
      "խուզ": 5440,
      "##եցնի": 5441,
      "հնարավորությունները": 5442,
      "##արդար": 5443,
      "դադարեցնել": 5444,
      "##ակրթ": 5445,
      "կազմակերպման": 5446,
      "Էդվարդ": 5447,
      "գիտակց": 5448,
      "իման": 5449,
      "առայժմ": 5450,
      "թեստ": 5451,
      "կողմերի": 5452,
      "դավաճ": 5453,
      "թատր": 5454,
      "ինքնությունը": 5455,
      "Արմենիա": 5456,
      "BBC": 5457,
      "##փյուռքի": 5458,
      "Այսպիսով": 5459,
      "Ապրիլի": 5460,
      "միջավայր": 5461,
      "##դեմ": 5462,
      "##րանում": 5463,
      "ընտրություններ": 5464,
      "գերատեսչ": 5465,
      "աստիճանի": 5466,
      "##երտի": 5467,
      "սեռական": 5468,
      "սկզբին": 5469,
      "ոտն": 5470,
      "զորավարժ": 5471,
      "երաշխ": 5472,
      "Օրինակ": 5473,
      "##ահեռ": 5474,
      "##րաֆ": 5475,
      "քաղաքային": 5476,
      "##ումներն": 5477,
      "ծագ": 5478,
      "չարաշահ": 5479,
      "ամենայն": 5480,
      "թեեւ": 5481,
      "##ինին": 5482,
      "իրագործ": 5483,
      "կասկածանքով": 5484,
      "եղած": 5485,
      "նախաձեռնության": 5486,
      "նրանցից": 5487,
      "##միտ": 5488,
      "կողքին": 5489,
      "ճգնաժամի": 5490,
      "Ասի": 5491,
      "##էջ": 5492,
      "##թերց": 5493,
      "մարդկային": 5494,
      "հիվանդանոցում": 5495,
      "բանի": 5496,
      "Եվրոպայում": 5497,
      "երեխաներին": 5498,
      "ինտեգր": 5499,
      "Ներկայ": 5500,
      "Հանրապետությունում": 5501,
      "տրվել": 5502,
      "մեղադրանքով": 5503,
      "ժամանակին": 5504,
      "անվտանգությունը": 5505,
      "մարդասիրական": 5506,
      "Հավ": 5507,
      "##արն": 5508,
      "պաշտպանի": 5509,
      "##աբնակ": 5510,
      "Անդրանիկ": 5511,
      "օրաթերթը": 5512,
      "##ադուլ": 5513,
      "##ատրելի": 5514,
      "գով": 5515,
      "ֆոնին": 5516,
      "ժամկետը": 5517,
      "ԵԽԽՎ": 5518,
      "Ոստիկանությունը": 5519,
      "Ռազմ": 5520,
      "##ress": 5521,
      "##ադրել": 5522,
      "սպանվել": 5523,
      "##անե": 5524,
      "##եգին": 5525,
      "ոստիկանություն": 5526,
      "հսկայ": 5527,
      "##րբաթ": 5528,
      "##ri": 5529,
      "##hamsh": 5530,
      "53": 5531,
      "թուլ": 5532,
      "##անանք": 5533,
      "տեղաշարժ": 5534,
      "ապագա": 5535,
      "հարցազրույց": 5536,
      "ներկր": 5537,
      "պես": 5538,
      "Մեդ": 5539,
      "կրում": 5540,
      "քառ": 5541,
      "Կարմիր": 5542,
      "##ոնների": 5543,
      "երկրներից": 5544,
      "նախագահն": 5545,
      "բացահայտվել": 5546,
      "պատկանում": 5547,
      "համայնքների": 5548,
      "##պտ": 5549,
      "##հատ": 5550,
      "բխ": 5551,
      "Երկրի": 5552,
      "դեպքերում": 5553,
      "##ber": 5554,
      "ցնց": 5555,
      "##ավորությամբ": 5556,
      "շահերի": 5557,
      "հրահանգ": 5558,
      "##ացնեն": 5559,
      "փորձը": 5560,
      "Շարմ": 5561,
      "փրկարարների": 5562,
      "կշարունակ": 5563,
      "Հանրապետական": 5564,
      "##hamshyan": 5565,
      "##եւին": 5566,
      "այցով": 5567,
      "ընդունված": 5568,
      "սակագ": 5569,
      "քրեակատարողական": 5570,
      "##ավարտ": 5571,
      "փոփոխություն": 5572,
      "##ացիա": 5573,
      "Ալեն": 5574,
      "Նորք": 5575,
      "Վահագն": 5576,
      "համաձայնության": 5577,
      "##ոսին": 5578,
      "օգնությունը": 5579,
      "արդիական": 5580,
      "Սեպտեմբերի": 5581,
      "##ապարտեզ": 5582,
      "##աժողովին": 5583,
      "կողմն": 5584,
      "ուսուցիչ": 5585,
      "ստեղծում": 5586,
      "դարձնել": 5587,
      "Ոսկ": 5588,
      "մայրաքաղաքում": 5589,
      "Թբիլիսի": 5590,
      "միանգամ": 5591,
      "մասնակցության": 5592,
      "ճանաչում": 5593,
      "ելնելով": 5594,
      "պատերազմը": 5595,
      "##լու": 5596,
      "համավար": 5597,
      "Այլ": 5598,
      "Մանուկյանը": 5599,
      "հռչակ": 5600,
      "խանգ": 5601,
      "դրված": 5602,
      "կորպ": 5603,
      "կոնֆ": 5604,
      "##ավճ": 5605,
      "##ռված": 5606,
      "##աններ": 5607,
      "Վահան": 5608,
      "դե": 5609,
      "##անեկան": 5610,
      "մաղթ": 5611,
      "տապալ": 5612,
      "տառ": 5613,
      "##ատիր": 5614,
      "գործընթացում": 5615,
      "Բարս": 5616,
      "Տարոն": 5617,
      "բերում": 5618,
      "օրում": 5619,
      "հոկ": 5620,
      "##պետական": 5621,
      "ահաբեկչ": 5622,
      "Դաշնության": 5623,
      "##արտար": 5624,
      "վարել": 5625,
      "ծառայողները": 5626,
      "Հունիսի": 5627,
      "##յակից": 5628,
      "հարաբերություններ": 5629,
      "ցուցաբերել": 5630,
      "մարդը": 5631,
      "ավելացել": 5632,
      "օրն": 5633,
      "##ինն": 5634,
      "տեսնել": 5635,
      "##իկյանը": 5636,
      "զինամթեր": 5637,
      "գիտնականները": 5638,
      "##ատում": 5639,
      "հոգեւոր": 5640,
      "կկայ": 5641,
      "գնաց": 5642,
      "Սկ": 5643,
      "անգ": 5644,
      "հանգամանքները": 5645,
      "օդային": 5646,
      "Միխ": 5647,
      "օգտագործում": 5648,
      "Էրեբունի": 5649,
      "մաքր": 5650,
      "աջակցում": 5651,
      "լռ": 5652,
      "անջ": 5653,
      "անցկ": 5654,
      "##ողությամբ": 5655,
      "կառավարությանը": 5656,
      "49": 5657,
      "Արգ": 5658,
      "Զար": 5659,
      "Առողջ": 5660,
      "ծեծի": 5661,
      "վերականգնման": 5662,
      "այլընտրանք": 5663,
      "Ճապոնիայի": 5664,
      "Գարեգին": 5665,
      "տեղը": 5666,
      "Տն": 5667,
      "պատասխ": 5668,
      "պահպանության": 5669,
      "գլխավորած": 5670,
      "Բաղրամ": 5671,
      "ուկրաինական": 5672,
      "հսկայական": 5673,
      "##լավ": 5674,
      "09": 5675,
      "ընդգրկված": 5676,
      "ակնկալում": 5677,
      "Ակն": 5678,
      "խմբակց": 5679,
      "##արյանին": 5680,
      "Gazeta": 5681,
      "բարձրացման": 5682,
      "իրավունքները": 5683,
      "Ինձ": 5684,
      "##ID": 5685,
      "ներդրումների": 5686,
      "Խաչատրյանի": 5687,
      "կրել": 5688,
      "թմրանյութ": 5689,
      "անցկացնելու": 5690,
      "Արեւմուտ": 5691,
      "թողել": 5692,
      "Մահ": 5693,
      "##օգ": 5694,
      "բեռ": 5695,
      "##անկարը": 5696,
      "Դմիտ": 5697,
      "ընկալ": 5698,
      "անչափահաս": 5699,
      "ամերիկացի": 5700,
      "ապագայում": 5701,
      "ՊԲ": 5702,
      "շենքը": 5703,
      "Շենգ": 5704,
      "##ոնտ": 5705,
      "մերժել": 5706,
      "հաշվառ": 5707,
      "երկխոսության": 5708,
      "Գյումրիի": 5709,
      "Մելիք": 5710,
      "##ունակի": 5711,
      "պապ": 5712,
      "բանակը": 5713,
      "##բուրգ": 5714,
      "##ուների": 5715,
      "էներգետիկ": 5716,
      "սոց": 5717,
      "նախարարների": 5718,
      "աջակցությամբ": 5719,
      "Շնորհ": 5720,
      "##ուբար": 5721,
      "Ղուկ": 5722,
      "աճուրդ": 5723,
      "ուներ": 5724,
      "հեշտ": 5725,
      "##ագրերի": 5726,
      "Աբդ": 5727,
      "թվի": 5728,
      "ջերմաստիճանը": 5729,
      "աղետ": 5730,
      "էս": 5731,
      "##ագրով": 5732,
      "##ation": 5733,
      "մեքենաների": 5734,
      "մեղադրվում": 5735,
      "հարձակվել": 5736,
      "Ռուսաստանին": 5737,
      "մոլոր": 5738,
      "ծանո": 5739,
      "կղզ": 5740,
      "##անները": 5741,
      "Ավստրալի": 5742,
      "մեջբեր": 5743,
      "հետաքննություն": 5744,
      "արև": 5745,
      "կալանքի": 5746,
      "ավտովթար": 5747,
      "Սու": 5748,
      "բնագ": 5749,
      "Սրբ": 5750,
      "վերջո": 5751,
      "##ենն": 5752,
      "աղբ": 5753,
      "##մարթ": 5754,
      "##ախմբի": 5755,
      "Սև": 5756,
      "Բաղդաս": 5757,
      "տանի": 5758,
      "##ՈԱԿ": 5759,
      "##աճյուղ": 5760,
      "վիզ": 5761,
      "անդամներին": 5762,
      "ընթերց": 5763,
      "##ուհետ": 5764,
      "Քանի": 5765,
      "մեկնարկել": 5766,
      "ձեւավոր": 5767,
      "##ախախտ": 5768,
      "գլոբալ": 5769,
      "կայացվել": 5770,
      "հա": 5771,
      "Լար": 5772,
      "պահեստ": 5773,
      "երազ": 5774,
      "մանրամասներ": 5775,
      "##ավորումների": 5776,
      "համաձայնագիրը": 5777,
      "հատվածի": 5778,
      "վերսկս": 5779,
      "դրանով": 5780,
      "մանկապարտեզ": 5781,
      "շուկայի": 5782,
      "54": 5783,
      "Գյումրիում": 5784,
      "Աստված": 5785,
      "հաշվետվ": 5786,
      "##ամերձ": 5787,
      "Սարգսյանին": 5788,
      "թթ": 5789,
      "Գաբ": 5790,
      "բուհ": 5791,
      "##ընկերության": 5792,
      "##ունելի": 5793,
      "##եմի": 5794,
      "էժան": 5795,
      "դեպարտ": 5796,
      "ենթակառուցվածքների": 5797,
      "Մխիթ": 5798,
      "մասնագիտ": 5799,
      "թաքց": 5800,
      "Մնացական": 5801,
      "Դմիտրի": 5802,
      "բնույթ": 5803,
      "կառուցման": 5804,
      "հավաքել": 5805,
      "##տում": 5806,
      "բնույթի": 5807,
      "##անքները": 5808,
      "պահի": 5809,
      "մարմն": 5810,
      "ԱՀ": 5811,
      "առանձնահատ": 5812,
      "պաշտոնեական": 5813,
      "Շարմազան": 5814,
      "աջակցելու": 5815,
      "գերեզ": 5816,
      "բնագավառ": 5817,
      "##ահանջ": 5818,
      "Արեւել": 5819,
      "##ակցին": 5820,
      "Զել": 5821,
      "##ct": 5822,
      "Րաֆ": 5823,
      "հաղթահար": 5824,
      "##արանից": 5825,
      "գործընկերության": 5826,
      "պաշտոնյաների": 5827,
      "##ովս": 5828,
      "իրավիճակում": 5829,
      "##աջող": 5830,
      "ՓԾ": 5831,
      "Նոյեմբերի": 5832,
      "լիազորությունները": 5833,
      "չլին": 5834,
      "այնուհետեւ": 5835,
      "նախաձեռնությամբ": 5836,
      "ազդեցություն": 5837,
      "Իրաքի": 5838,
      ".,": 5839,
      "Լուկ": 5840,
      "Նրան": 5841,
      "App": 5842,
      "յոթ": 5843,
      "196": 5844,
      "հակա": 5845,
      "ձերբակալված": 5846,
      "դաշնային": 5847,
      "Հաղորդ": 5848,
      "##առլ": 5849,
      "աշխատող": 5850,
      "##ածավալ": 5851,
      "ստեղծագործ": 5852,
      "մայրաքաղաքի": 5853,
      "եթ": 5854,
      "բանկային": 5855,
      "ներկայացել": 5856,
      "կնոջը": 5857,
      "##ԸՀ": 5858,
      "##երեւ": 5859,
      "օրակարգում": 5860,
      "արվել": 5861,
      "պաշար": 5862,
      "հանգիստ": 5863,
      "Հայտարար": 5864,
      "հիմնված": 5865,
      "առողջության": 5866,
      "Դրանք": 5867,
      "Արեւելյան": 5868,
      "լսել": 5869,
      "գողացել": 5870,
      "ընտրել": 5871,
      "Մաքս": 5872,
      "զարգացում": 5873,
      "##եքշաբթի": 5874,
      "հիշեցրել": 5875,
      "Մոսկվա": 5876,
      "դերը": 5877,
      "սահմանը": 5878,
      "Մհ": 5879,
      "Ռեջ": 5880,
      "առաքելության": 5881,
      "կոմիտեն": 5882,
      "անհամ": 5883,
      "գոտում": 5884,
      "հոգի": 5885,
      "##ամաք": 5886,
      "Մանվել": 5887,
      "գործողության": 5888,
      "##ադրանքը": 5889,
      "ուղղաթիռ": 5890,
      "Տեղեկ": 5891,
      "հրաձ": 5892,
      "ծախսերը": 5893,
      "##so": 5894,
      "մարմինները": 5895,
      "գոհ": 5896,
      "պաշտպանել": 5897,
      "քարոզարշ": 5898,
      "գագաթն": 5899,
      "մասնաճյուղ": 5900,
      "լքել": 5901,
      "փառատ": 5902,
      "պատիժ": 5903,
      "##վենց": 5904,
      "անցկացվել": 5905,
      "քրիստ": 5906,
      "փոխվել": 5907,
      "Խաղաղ": 5908,
      "քաղաքագետ": 5909,
      "Արդեն": 5910,
      "Ռոս": 5911,
      "համոզված": 5912,
      "ընտրության": 5913,
      "նրանից": 5914,
      "##մանդամ": 5915,
      "ներդ": 5916,
      "##ենկ": 5917,
      "ծառայողների": 5918,
      "ճանաչվել": 5919,
      "ՔԿՀ": 5920,
      "##մուն": 5921,
      "քարտեզ": 5922,
      "##աստանում": 5923,
      "ծանոթաց": 5924,
      "կմասն": 5925,
      "մեքենա": 5926,
      "չունենք": 5927,
      "ենթարկված": 5928,
      "գնաճ": 5929,
      "եկամուտների": 5930,
      "##ագրման": 5931,
      "հանդիսանում": 5932,
      "Ներկայումս": 5933,
      "Մակ": 5934,
      "##id": 5935,
      "անմիջական": 5936,
      "կաշառք": 5937,
      "շուտով": 5938,
      "Թայի": 5939,
      "Բաց": 5940,
      "##եղի": 5941,
      "առիթով": 5942,
      "միգ": 5943,
      "առաջացրել": 5944,
      "Են": 5945,
      "նախագիծ": 5946,
      "կրկն": 5947,
      "Թագ": 5948,
      "ընթացակարգ": 5949,
      "Ստեփանակերտ": 5950,
      "շահագործման": 5951,
      "արշ": 5952,
      "Ադրբեջան": 5953,
      "հանրությանը": 5954,
      "##ուհու": 5955,
      "Ռուսական": 5956,
      "սպառազին": 5957,
      "գրասենյակ": 5958,
      "Ուկրաինային": 5959,
      "ախտորոշ": 5960,
      "Նավ": 5961,
      "շուկան": 5962,
      "ՄԻՊ": 5963,
      "Կիր": 5964,
      "##ուստր": 5965,
      "Մերձավոր": 5966,
      "Բարձր": 5967,
      "անպ": 5968,
      "ներկայացնող": 5969,
      "անվճար": 5970,
      "Գյուղ": 5971,
      "խարդ": 5972,
      "Թոր": 5973,
      "օժանդակ": 5974,
      "կանայք": 5975,
      "նամակ": 5976,
      "արյուն": 5977,
      "Ռեջեփ": 5978,
      "Ուկրաինան": 5979,
      "Աշխարհ": 5980,
      "ՀՔ": 5981,
      "վերադառնալ": 5982,
      "Tim": 5983,
      "մեղմ": 5984,
      "Թայիփ": 5985,
      "արձագանքել": 5986,
      "շեշտել": 5987,
      "տեղեկությունը": 5988,
      "Անդրե": 5989,
      "աղբյուրը": 5990,
      "թմրամիջոց": 5991,
      "##յալը": 5992,
      "դատապարտվել": 5993,
      "##ավախ": 5994,
      "##աշխատ": 5995,
      "Մեքս": 5996,
      "Կիպր": 5997,
      "Մովս": 5998,
      "ղեկավարության": 5999,
      "ֆուտբոլ": 6000,
      "հասկաց": 6001,
      "սահմանային": 6002,
      "Վազգ": 6003,
      "##երային": 6004,
      "տեխնոլոգիական": 6005,
      "##ավորություն": 6006,
      "բռնկվել": 6007,
      "արհեստական": 6008,
      "անխ": 6009,
      "56": 6010,
      "տոկոսի": 6011,
      "ֆրանսիական": 6012,
      "կանոնները": 6013,
      "զբաղեց": 6014,
      "##ig": 6015,
      "ամսական": 6016,
      "կոռուպցիայի": 6017,
      "կկազմ": 6018,
      "Վանաձոր": 6019,
      "քանդ": 6020,
      "վճռական": 6021,
      "##կանց": 6022,
      "##ձգ": 6023,
      "հրապարակված": 6024,
      "ակցիա": 6025,
      "բաժանորդներ": 6026,
      "օգտվել": 6027,
      "բացարձակ": 6028,
      "Համաշխարհային": 6029,
      "չվերթ": 6030,
      "##ԷԿ": 6031,
      "հետաքրքիր": 6032,
      "Վի": 6033,
      "հանրապետությունում": 6034,
      "խուզարկ": 6035,
      "##իլիջ": 6036,
      "կրոնական": 6037,
      "##մարթֆ": 6038,
      "տեղադրված": 6039,
      "Սալ": 6040,
      "տեղեկաց": 6041,
      "Գալստ": 6042,
      "կրակել": 6043,
      "##Ու": 6044,
      "սրահ": 6045,
      "Միջոց": 6046,
      "զուգահեռ": 6047,
      "հայտնելով": 6048,
      "ծրագրում": 6049,
      "դեսպանը": 6050,
      "Ղազախստանի": 6051,
      "##վածքը": 6052,
      "չինական": 6053,
      "գրանցված": 6054,
      "երաշխիք": 6055,
      "հանդիպումներ": 6056,
      "հայտարարվել": 6057,
      "Թուրքիա": 6058,
      "օգնությամբ": 6059,
      "դերակատար": 6060,
      "ասուլիսում": 6061,
      "Հն": 6062,
      "վերադարձել": 6063,
      "տեղամաս": 6064,
      "պայքարը": 6065,
      "թեթ": 6066,
      "##ցեն": 6067,
      "կառուցել": 6068,
      "բացման": 6069,
      "բորս": 6070,
      "##երես": 6071,
      "Հայտնի": 6072,
      "ԿԸՀ": 6073,
      "հնարավորինս": 6074,
      "անցնել": 6075,
      "Մուրադ": 6076,
      "Տոն": 6077,
      "տեսախց": 6078,
      "զբաղվել": 6079,
      "երթուղ": 6080,
      "գոնե": 6081,
      "Դիլիջ": 6082,
      "##լով": 6083,
      "Ռուսաստանից": 6084,
      "ակցիայի": 6085,
      "տղան": 6086,
      "##ստիկ": 6087,
      "հուս": 6088,
      "մուտքի": 6089,
      "Համբ": 6090,
      "նկատեց": 6091,
      "հրապարակվել": 6092,
      "շահերը": 6093,
      "##աշվիլին": 6094,
      "##ողին": 6095,
      "Անցած": 6096,
      "##ոսում": 6097,
      "Վանաձորի": 6098,
      "62": 6099,
      "արեւել": 6100,
      "հետախուզության": 6101,
      "օրյա": 6102,
      "խորհրդարան": 6103,
      "##ժշկական": 6104,
      "Պողոսյանը": 6105,
      "պետքարտուղար": 6106,
      "նշանակել": 6107,
      "Հանձն": 6108,
      "##ղթի": 6109,
      "ճշտ": 6110,
      "կեր": 6111,
      "տեր": 6112,
      "վարք": 6113,
      "սովորական": 6114,
      "կունենան": 6115,
      "##ամար": 6116,
      "##այնության": 6117,
      "հայտարարությամբ": 6118,
      "ադրբեջանցի": 6119,
      "ատր": 6120,
      "տարածած": 6121,
      "շրջակա": 6122,
      "եզրափակ": 6123,
      "58": 6124,
      "ավանդական": 6125,
      "մոդել": 6126,
      "փոփոխության": 6127,
      "Արդարադատության": 6128,
      "Սին": 6129,
      "##գան": 6130,
      "գործընթացին": 6131,
      "պատգամավորները": 6132,
      "վայրի": 6133,
      "անունով": 6134,
      "վաճառել": 6135,
      "##կել": 6136,
      "զեկուց": 6137,
      "57": 6138,
      "##ուսային": 6139,
      "Ամերի": 6140,
      "Վիկ": 6141,
      "վրացական": 6142,
      "2015թ": 6143,
      "պայմանների": 6144,
      "անփ": 6145,
      "ժողովրդական": 6146,
      "կոպ": 6147,
      "Չինաստանը": 6148,
      "Մարկ": 6149,
      "Հենց": 6150,
      "Համաձայն": 6151,
      "##օգտ": 6152,
      "Արշակ": 6153,
      "##անուն": 6154,
      "տարածքների": 6155,
      "##ոնշ": 6156,
      "##ումի": 6157,
      "Apple": 6158,
      "Բադ": 6159,
      "հակառակորդի": 6160,
      "բիզնեսի": 6161,
      "ինքնասպան": 6162,
      "Օգոստոսի": 6163,
      "բոլորին": 6164,
      "քվեարկության": 6165,
      "Կաթ": 6166,
      "նշվել": 6167,
      "խել": 6168,
      "##od": 6169,
      "Ամերիկյան": 6170,
      "առանցքային": 6171,
      "տունը": 6172,
      "սկանդ": 6173,
      "թեմայով": 6174,
      "դիտորդ": 6175,
      "##ագրությունը": 6176,
      "որդու": 6177,
      "ժողովում": 6178,
      "դատախազի": 6179,
      "պատվիրակությունը": 6180,
      "##ֆորմ": 6181,
      "##ավճար": 6182,
      "դռ": 6183,
      "Հաշվի": 6184,
      "առեւանգ": 6185,
      "աշխատանքներին": 6186,
      "##ույթները": 6187,
      "խնդրանք": 6188,
      "##ափն": 6189,
      "զարգացումը": 6190,
      "ռեկորդ": 6191,
      "բաղադր": 6192,
      "որովհետև": 6193,
      "խաբ": 6194,
      "2020թ": 6195,
      "Հունաստանի": 6196,
      "դաշտում": 6197,
      "արգելել": 6198,
      "անունից": 6199,
      "վարած": 6200,
      "Հուլիսի": 6201,
      "Ուղ": 6202,
      "Շվեդ": 6203,
      "կենտրոնը": 6204,
      "ամրապնդման": 6205,
      "մշակման": 6206,
      "անընդհատ": 6207,
      "մանդատ": 6208,
      "##իրավ": 6209,
      "կիրառման": 6210,
      "ազդեցության": 6211,
      "##ստրի": 6212,
      "համախմբ": 6213,
      "եղանակով": 6214,
      "խուսափելու": 6215,
      "դնել": 6216,
      "ձմ": 6217,
      "հաշիվ": 6218,
      "վարկած": 6219,
      "Մյուս": 6220,
      "ճանաչման": 6221,
      "Ֆրանսիան": 6222,
      "կազմակերպելու": 6223,
      "ժողովուրդների": 6224,
      "մոռ": 6225,
      "##ենդան": 6226,
      "Սե": 6227,
      "չափանիշ": 6228,
      "անդամներ": 6229,
      "բոլորի": 6230,
      "Մակր": 6231,
      "##ub": 6232,
      "##եցվել": 6233,
      "հիմնախ": 6234,
      "լուծելու": 6235,
      "կանխարգելման": 6236,
      "Ժամը": 6237,
      "անցկացման": 6238,
      "Սիմոնյանը": 6239,
      "բռնություն": 6240,
      "խախտման": 6241,
      "Այո": 6242,
      "ճարտար": 6243,
      "շնորհավորել": 6244,
      "խոստովանել": 6245,
      "##եւում": 6246,
      "հասցնելու": 6247,
      "##ամենտ": 6248,
      "##աննա": 6249,
      "նստաշրջ": 6250,
      "բռնի": 6251,
      "ԶՈՒ": 6252,
      "հանցագործություն": 6253,
      "լրատվամիջոցները": 6254,
      "իրադարձությունների": 6255,
      "ՊՈԱԿ": 6256,
      "վարչությունից": 6257,
      "արդյունքներով": 6258,
      "##րաչ": 6259,
      "հոդվածով": 6260,
      "պահանջները": 6261,
      "սեփականատեր": 6262,
      "##ԱՏՄ": 6263,
      "Բրյուսել": 6264,
      "լինելով": 6265,
      "ժողովրդավարության": 6266,
      "##աղեստին": 6267,
      "պայմաններ": 6268,
      "մասնագետների": 6269,
      "##թույլ": 6270,
      "Շվեյց": 6271,
      "հասցնել": 6272,
      "Մարտիրոսյանը": 6273,
      "մնաց": 6274,
      "Ժառանգություն": 6275,
      "նյութերի": 6276,
      "##լահ": 6277,
      "##eg": 6278,
      "Մհեր": 6279,
      "##ահայկական": 6280,
      "Փետր": 6281,
      "##անքում": 6282,
      "Դեռ": 6283,
      "հիմնավոր": 6284,
      "Իլհամ": 6285,
      "բենզ": 6286,
      "մասնակցությունը": 6287,
      ",-": 6288,
      "կորցրել": 6289,
      "գումարի": 6290,
      "Աբովյան": 6291,
      "եզրակացության": 6292,
      "COV": 6293,
      "Ճանապարհ": 6294,
      "փաստաթղթերի": 6295,
      "##ովն": 6296,
      "ձախող": 6297,
      "հավելված": 6298,
      "Րաֆֆի": 6299,
      "ավտոմեքենաները": 6300,
      "##խորհրդ": 6301,
      "##ալյանը": 6302,
      "##ավարությունը": 6303,
      "խնդիրն": 6304,
      "իրազեկ": 6305,
      "Բաքվում": 6306,
      "մեղադրում": 6307,
      "քաղաքականություն": 6308,
      "Վարդեն": 6309,
      "##ականության": 6310,
      "Վազգեն": 6311,
      "հետեւել": 6312,
      "մշակել": 6313,
      "փոխադր": 6314,
      "Արաբկ": 6315,
      "հավատարմ": 6316,
      "##ադրույ": 6317,
      "մինչդեռ": 6318,
      "բարեգործ": 6319,
      "բացահայտել": 6320,
      "##տրի": 6321,
      "ներկայացրած": 6322,
      "աղմ": 6323,
      "ավտոմեքենա": 6324,
      "բաժանորդները": 6325,
      "ցեղասպանությունը": 6326,
      "##enta": 6327,
      "05": 6328,
      "գետ": 6329,
      "##պաստ": 6330,
      "Թուրքիային": 6331,
      "նկատի": 6332,
      "շաբաթվա": 6333,
      "Եւ": 6334,
      "##սին": 6335,
      "##աչափի": 6336,
      "Times": 6337,
      "Փաշինյան": 6338,
      "Ուր": 6339,
      "անընդունելի": 6340,
      "##սեփ": 6341,
      "##ՆԱ": 6342,
      "արձակվել": 6343,
      "մեկնաբանել": 6344,
      "Անի": 6345,
      "Միրզոյանը": 6346,
      "կալանավորվել": 6347,
      "անջատ": 6348,
      "խեղ": 6349,
      "##ատներ": 6350,
      "Կառավարությունը": 6351,
      "միջադեպի": 6352,
      "##ոնն": 6353,
      "Հովսեփ": 6354,
      "Այնուհետեւ": 6355,
      "Բանկ": 6356,
      "հեն": 6357,
      "հանգամանքը": 6358,
      "նախաքնն": 6359,
      "##ոնյանը": 6360,
      "հայտնաբերված": 6361,
      "ժամանած": 6362,
      "##ուլիսին": 6363,
      "##եռնարկ": 6364,
      "խնամ": 6365,
      "ձեւակերպ": 6366,
      "ՎԱԶ": 6367,
      "հրազենային": 6368,
      "փողոցների": 6369,
      "տները": 6370,
      "Այսպես": 6371,
      "COVID": 6372,
      "Press": 6373,
      "2013թ": 6374,
      "##թող": 6375,
      "##ագնաց": 6376,
      "Գորիս": 6377,
      "02": 6378,
      "հավանականությամբ": 6379,
      "հայոց": 6380,
      "կորոնավիրուսով": 6381,
      "սմարթֆ": 6382,
      "անս": 6383,
      "##ադրություն": 6384,
      "##ելիքի": 6385,
      "ծառայողական": 6386,
      "Ավագ": 6387,
      "Հրաչ": 6388,
      "նրբ": 6389,
      "սատար": 6390,
      "##եթի": 6391,
      "հասկանալ": 6392,
      "##իմի": 6393,
      "Պատգամավոր": 6394,
      "ստանձն": 6395,
      "Հրանտ": 6396,
      "մերձ": 6397,
      "ոստիկանական": 6398,
      "վարկանիշ": 6399,
      "բնակիչներին": 6400,
      "Դատախազ": 6401,
      "##թոնի": 6402,
      "կայունության": 6403,
      "##տեմբեր": 6404,
      "պտ": 6405,
      "##ավաճառ": 6406,
      "##բեկ": 6407,
      "օրս": 6408,
      "Ցուց": 6409,
      "Հունվարի": 6410,
      "ռեկտ": 6411,
      "հավաքվել": 6412,
      "լրջ": 6413,
      "##դա": 6414,
      "##ապատվ": 6415,
      "նեղ": 6416,
      "##ոյին": 6417,
      "գլուխ": 6418,
      "անշարժ": 6419,
      "բարի": 6420,
      "Պետեր": 6421,
      "հսկողության": 6422,
      "##ոկայ": 6423,
      "Նուբար": 6424,
      "քննարկելու": 6425,
      "հաստատված": 6426,
      "պայմանները": 6427,
      "Վիր": 6428,
      "ճգնաժամային": 6429,
      "կազմակերպությունը": 6430,
      "ցուցակում": 6431,
      "ապրիլ": 6432,
      "վարչությունում": 6433,
      "Հնդկաստանի": 6434,
      "Be": 6435,
      "առաջադրված": 6436,
      "բժշ": 6437,
      "ձեւով": 6438,
      "Մինասյանը": 6439,
      "##երիների": 6440,
      "Մարգարյանը": 6441,
      "Ծրագր": 6442,
      "տարր": 6443,
      "191": 6444,
      "պատվաստ": 6445,
      "լաբոր": 6446,
      "փետրվար": 6447,
      "Նախնական": 6448,
      "կիրական": 6449,
      "պատասխանելով": 6450,
      "##ակներում": 6451,
      "Բաղրամյան": 6452,
      "Պետրոսյանի": 6453,
      "պրոց": 6454,
      "Լրագր": 6455,
      "համերգ": 6456,
      "##ագետները": 6457,
      "##ran": 6458,
      "##որդներին": 6459,
      "Բակո": 6460,
      "ծառայությունները": 6461,
      "սպասարկման": 6462,
      "Իտալիայի": 6463,
      "##մուշ": 6464,
      "համացանց": 6465,
      "ԱՆ": 6466,
      "##ժեք": 6467,
      "59": 6468,
      "210": 6469,
      "արվում": 6470,
      "զսպ": 6471,
      "##երսի": 6472,
      "հորդոր": 6473,
      "##լա": 6474,
      "տեսքով": 6475,
      "անցնելու": 6476,
      "Լաչ": 6477,
      "85": 6478,
      "թերթ": 6479,
      "մոն": 6480,
      "պատասխանատվություն": 6481,
      "Դեկտեմբերի": 6482,
      "պարզաբանել": 6483,
      "զրույց": 6484,
      "նմանատիպ": 6485,
      "Թում": 6486,
      "մայրը": 6487,
      "Մարուք": 6488,
      "սպորտի": 6489,
      "միկ": 6490,
      "հայրենիք": 6491,
      "փախուստի": 6492,
      "##ակված": 6493,
      "Մաշտ": 6494,
      "իրավաբանական": 6495,
      "Նաիրա": 6496,
      "##ուղարկ": 6497,
      "թափանցիկ": 6498,
      "օդանավակայանում": 6499,
      "08": 6500,
      "ստանձ": 6501,
      "##ացվեն": 6502,
      "մտնում": 6503,
      "Վիկտոր": 6504,
      "կարդ": 6505,
      "մտածում": 6506,
      "Դիմ": 6507,
      "Բայդենը": 6508,
      "##ականները": 6509,
      "##ոնշյալ": 6510,
      "##ուստամ": 6511,
      "Միջոցառ": 6512,
      "դեպքերը": 6513,
      "եռամս": 6514,
      "հավանություն": 6515,
      "##նջ": 6516,
      "ուշադրության": 6517,
      "ուրբաթ": 6518,
      "ականատես": 6519,
      "##րաձայն": 6520,
      "համայնքում": 6521,
      "հասցեին": 6522,
      "##պար": 6523,
      "առաջացել": 6524,
      "Ցեղասպանության": 6525,
      "Պակի": 6526,
      "կոլ": 6527,
      "Հարկ": 6528,
      "##ասեր": 6529,
      "կփոխ": 6530,
      "օբյեկտիվ": 6531,
      "Բարգավաճ": 6532,
      "Չեխ": 6533,
      "գործերով": 6534,
      "ասելով": 6535,
      "գերեզման": 6536,
      "##օղլուն": 6537,
      "տնօրենը": 6538,
      "Թաթ": 6539,
      "##աշինության": 6540,
      "փոխգործակցության": 6541,
      "Ող": 6542,
      "արդյունաբերության": 6543,
      "##ագիծ": 6544,
      "սկսում": 6545,
      "Ֆրանսիայում": 6546,
      "##սափ": 6547,
      "##եսոր": 6548,
      "շենքերը": 6549,
      "2014թ": 6550,
      "2018թ": 6551,
      "Հեռ": 6552,
      "թվականներին": 6553,
      "երկուշաբթի": 6554,
      "կարգը": 6555,
      "##ատարի": 6556,
      "Նախագահի": 6557,
      "##ՏԱ": 6558,
      "Ալավեր": 6559,
      "1000": 6560,
      "Կալ": 6561,
      "Ջերմ": 6562,
      "լեգ": 6563,
      "Goo": 6564,
      "տարածքներում": 6565,
      "ձգտում": 6566,
      "ղեկավարները": 6567,
      "կուսակցությունների": 6568,
      "##ահուն": 6569,
      "տեղահան": 6570,
      "Ցավ": 6571,
      "##եյթ": 6572,
      "հայրը": 6573,
      "էներգետիկայի": 6574,
      "##եմպ": 6575,
      "##դամթեր": 6576,
      "Աթոռ": 6577,
      "ավտոբուս": 6578,
      "պահում": 6579,
      "պողոտայում": 6580,
      "600": 6581,
      "##լիմպ": 6582,
      "ատրճ": 6583,
      "դեպքեր": 6584,
      "մտնել": 6585,
      "պայթյունի": 6586,
      "կիրակի": 6587,
      "##gle": 6588,
      "առգրավ": 6589,
      "գտնվելու": 6590,
      "ճեպ": 6591,
      "հետապնդում": 6592,
      "հրապարակային": 6593,
      "դրդ": 6594,
      "խորհրդարանը": 6595,
      "սննդի": 6596,
      "Զաք": 6597,
      "##ամյա": 6598,
      "##ոսյանին": 6599,
      "##ակիցները": 6600,
      "Գաբրի": 6601,
      "դեպքը": 6602,
      "փորձաքննության": 6603,
      "Անահ": 6604,
      "տեղադրել": 6605,
      "03": 6606,
      "##իտակ": 6607,
      "ինչից": 6608,
      "Վերջինս": 6609,
      "##անիչ": 6610,
      "ակտ": 6611,
      "ռեժիմը": 6612,
      "հանդիսացող": 6613,
      "աննախ": 6614,
      "տանում": 6615,
      "Առողջապահության": 6616,
      "հաշմանդամ": 6617,
      "կալանավորված": 6618,
      "Սարգիս": 6619,
      "էլեկտրաէներգիայի": 6620,
      "Հունգ": 6621,
      "Գերագույն": 6622,
      "##անվել": 6623,
      "ատել": 6624,
      "2000": 6625,
      "91": 6626,
      "հերքել": 6627,
      "##դիր": 6628,
      "դեսպանատան": 6629,
      "հղել": 6630,
      "վաստ": 6631,
      "##լինի": 6632,
      "հայրենիքի": 6633,
      "Ախ": 6634,
      "Մոլդ": 6635,
      "մայ": 6636,
      "հերթապահ": 6637,
      "##անքներ": 6638,
      "##ևի": 6639,
      "օգոստ": 6640,
      "ուժգն": 6641,
      "հաստ": 6642,
      "անցակետ": 6643,
      "հակակ": 6644,
      "(«": 6645,
      "##ատիկ": 6646,
      "գործարք": 6647,
      "ծավալը": 6648,
      "ՀՔԾ": 6649,
      "##ռը": 6650,
      "ԵՊՀ": 6651,
      "դուստր": 6652,
      "ընթացող": 6653,
      "ներկայացուցչի": 6654,
      "միկրո": 6655,
      "լող": 6656,
      "Բեռ": 6657,
      "##um": 6658,
      "կարեւորել": 6659,
      "շինարարական": 6660,
      "##չին": 6661,
      "Անջ": 6662,
      "պատերազմում": 6663,
      "վաղուց": 6664,
      "հավանաբար": 6665,
      "##ամյակ": 6666,
      "ամրագր": 6667,
      "համարժեք": 6668,
      "քննարկումների": 6669,
      "##աբլ": 6670,
      "##ալական": 6671,
      "երեխաները": 6672,
      "Shamshyan": 6673,
      "շրջանառության": 6674,
      "կետի": 6675,
      "աղբյուրները": 6676,
      "Լի": 6677,
      "էկոնոմիկայի": 6678,
      "պատանդ": 6679,
      "Կաս": 6680,
      "պարտականությունները": 6681,
      "Անահիտ": 6682,
      "##ak": 6683,
      "պարեկ": 6684,
      "ընկերությունները": 6685,
      "պարզվում": 6686,
      "համարանիշի": 6687,
      "Google": 6688,
      "շինարարության": 6689,
      "միջպետական": 6690,
      "Անտ": 6691,
      "գործունեություն": 6692,
      "Փետրվարի": 6693,
      "աննախադեպ": 6694,
      "կարմիր": 6695,
      "Գեղամ": 6696,
      "##ասկան": 6697,
      "դեռևս": 6698,
      "պաշտպանելու": 6699,
      "պատմեց": 6700,
      "մեղադրական": 6701,
      "Զանգ": 6702,
      "##աշրջան": 6703,
      "կլիներ": 6704,
      "սահմանվել": 6705,
      "զբաղվող": 6706,
      "նախաձեռնությունը": 6707,
      "Հռոմի": 6708,
      "##սեր": 6709,
      "խախտել": 6710,
      "սեպտեմբերին": 6711,
      "փաստաթղթերը": 6712,
      "##եյտ": 6713,
      "ընդդեմ": 6714,
      "Լավրովը": 6715,
      "##առության": 6716,
      "##ջախ": 6717,
      "ընտանիքների": 6718,
      "63": 6719,
      "AP": 6720,
      "աշխատատեղ": 6721,
      "բարեկամական": 6722,
      "տեխնոլոգիան": 6723,
      "Տնտես": 6724,
      "գործոն": 6725,
      "շատերը": 6726,
      "սահմանների": 6727,
      "տարբերակը": 6728,
      "Պետդ": 6729,
      "##վածքով": 6730,
      "հրաժարականի": 6731,
      "##կն": 6732,
      "##ենկոն": 6733,
      "ընտրողների": 6734,
      "##ալին": 6735,
      "ներկայացրեց": 6736,
      "ցանցի": 6737,
      "An": 6738,
      "խրախ": 6739,
      "դատավճ": 6740,
      "փաստաթղթեր": 6741,
      "ամպ": 6742,
      "Սարգսյան": 6743,
      "##իսկոպ": 6744,
      "ներառում": 6745,
      "Գերմանիայում": 6746,
      "բակում": 6747,
      "թռչող": 6748,
      "քայլերը": 6749,
      "Իսրայելը": 6750,
      "Դրանց": 6751,
      "Սի": 6752,
      "հայտարարությունները": 6753,
      "Կոլ": 6754,
      "կտեղ": 6755,
      "երկրներին": 6756,
      "պատգամավորի": 6757,
      "ծախսերի": 6758,
      "Լուկաշեն": 6759,
      "Միլ": 6760,
      "Կողմ": 6761,
      "ծավ": 6762,
      "ուղղություններով": 6763,
      "օրեր": 6764,
      "Միեւնույն": 6765,
      "հետազոտությունների": 6766,
      "կանաչ": 6767,
      "հաղորդմամբ": 6768,
      "չեք": 6769,
      "##լիի": 6770,
      "անձնակազմի": 6771,
      "Ավտ": 6772,
      "##ատակի": 6773,
      "##ոռուպցիոն": 6774,
      "եռակողմ": 6775,
      "որս": 6776,
      "պարբերականը": 6777,
      "Ներքին": 6778,
      "լրացումներ": 6779,
      "աշխատելու": 6780,
      "հատվածը": 6781,
      "մասնակիցներին": 6782,
      "լրատվության": 6783,
      "տիկին": 6784,
      "Միայն": 6785,
      "Դիտ": 6786,
      "##ՀՄ": 6787,
      "կից": 6788,
      "##լիկ": 6789,
      "ամենաբ": 6790,
      "Լիտ": 6791,
      "##լամ": 6792,
      "բնակելի": 6793,
      "##one": 6794,
      "##ուլյ": 6795,
      "Դես": 6796,
      "տարբերություն": 6797,
      "քննիչ": 6798,
      "Arm": 6799,
      "##իլիպ": 6800,
      "անհնար": 6801,
      "պայթուց": 6802,
      "զորամասի": 6803,
      "կոտր": 6804,
      "Միխայիլ": 6805,
      "էթն": 6806,
      "արված": 6807,
      "Ադրբեջանն": 6808,
      "ազատել": 6809,
      "օղ": 6810,
      "CN": 6811,
      "Ոստիկանությունից": 6812,
      "անտես": 6813,
      "ընտրված": 6814,
      "120": 6815,
      "դատախազությունը": 6816,
      "լիներ": 6817,
      "իրավապաշտպան": 6818,
      "փոփոխությունները": 6819,
      "չբ": 6820,
      "Աջ": 6821,
      "##անաք": 6822,
      "միջոցներով": 6823,
      "##աբաշխ": 6824,
      "Ծառուկյանի": 6825,
      "##ուլղ": 6826,
      "Լաչինի": 6827,
      "##որդները": 6828,
      "As": 6829,
      "կարծես": 6830,
      "64": 6831,
      "Ինտեր": 6832,
      "զնն": 6833,
      "##անդարտ": 6834,
      "խոշորագույն": 6835,
      "համակարգերի": 6836,
      "##ադիտ": 6837,
      "Ռուսաստանն": 6838,
      "պատմությունը": 6839,
      "փամփ": 6840,
      "##րեյ": 6841,
      "սուբյ": 6842,
      "բացատրել": 6843,
      "թվականը": 6844,
      "Ջո": 6845,
      "##վկ": 6846,
      "ղեկավարությունը": 6847,
      "բժիշկները": 6848,
      "Ինչո": 6849,
      "ցուցանիշը": 6850,
      "որակի": 6851,
      "##շտաբ": 6852,
      "ամենակար": 6853,
      "Ալիեւի": 6854,
      "կենտրոնից": 6855,
      "բացվել": 6856,
      "հասցեում": 6857,
      "ժամանակը": 6858,
      "իշխանություն": 6859,
      "պարունակ": 6860,
      "Ամենայն": 6861,
      "քաղաքներում": 6862,
      "ատոմ": 6863,
      "դեկտեմբերին": 6864,
      "##քատ": 6865,
      "անձրեւ": 6866,
      "##յուպատ": 6867,
      "ամառ": 6868,
      "անկարգ": 6869,
      "հրդեհի": 6870,
      "Sp": 6871,
      "տարհան": 6872,
      "լիովին": 6873,
      "Լեհաստանի": 6874,
      "Եվրախ": 6875,
      "Ջր": 6876,
      "հեռացել": 6877,
      "բանտարկ": 6878,
      "Փրկարարները": 6879,
      "Բրազ": 6880,
      "հավատում": 6881,
      "##եմին": 6882,
      "նախարարությունից": 6883,
      "Վրաստան": 6884,
      "վարչապետին": 6885,
      "կքննարկ": 6886,
      "##ուրը": 6887,
      "բացակայության": 6888,
      "երեւում": 6889,
      "##ացնենք": 6890,
      "##օգտագործ": 6891,
      "խուսափել": 6892,
      "##ուսն": 6893,
      "մտածել": 6894,
      "##ացրած": 6895,
      "շարքում": 6896,
      "##ard": 6897,
      "պայմանավորվել": 6898,
      "գյուղատնտեսական": 6899,
      "բարձրացնել": 6900,
      "Օբաման": 6901,
      "բարձրաձայն": 6902,
      "##նձ": 6903,
      "##շռ": 6904,
      "Ընտր": 6905,
      "Lenta": 6906,
      "##որթ": 6907,
      "միջոցառումները": 6908,
      "այսպիսի": 6909,
      "դնում": 6910,
      "կաց": 6911,
      "##ագրավ": 6912,
      "կատարելով": 6913,
      "##եո": 6914,
      "##մունքը": 6915,
      "հայհ": 6916,
      "Միշ": 6917,
      "Օհանյանը": 6918,
      "նախապես": 6919,
      "կոշտ": 6920,
      "Ադրբեջանական": 6921,
      "ենթարկելու": 6922,
      "Էր": 6923,
      "Bl": 6924,
      "Ուստի": 6925,
      "շտապօգնության": 6926,
      "##ապետական": 6927,
      "Գազայի": 6928,
      "##իսը": 6929,
      "##վկիան": 6930,
      "աշխատակիցներին": 6931,
      "զգում": 6932,
      "վարում": 6933,
      "Ալիեւը": 6934,
      "##ուրաբ": 6935,
      "##մահ": 6936,
      "կլիմ": 6937,
      "Սաղ": 6938,
      "##արկը": 6939,
      "կրկնակի": 6940,
      "Վոլ": 6941,
      "##ուսական": 6942,
      "երկարաժամկետ": 6943,
      "նպաստել": 6944,
      "ավելացրել": 6945,
      "հնարավորություններ": 6946,
      "Յուր": 6947,
      "կյանքում": 6948,
      "արժանացել": 6949,
      "Ավան": 6950,
      "լաբորատոր": 6951,
      "ծնվել": 6952,
      "կխ": 6953,
      "##աստանը": 6954,
      "եղավ": 6955,
      "սերունդ": 6956,
      "Քեր": 6957,
      "վիճաբան": 6958,
      "ավեր": 6959,
      "կանչել": 6960,
      "սահմանապահ": 6961,
      "Հիմն": 6962,
      "դավաճան": 6963,
      "##աբժշկական": 6964,
      "իշխանական": 6965,
      "թվային": 6966,
      "##որմ": 6967,
      "տնտեսվար": 6968,
      "համաձայնագիր": 6969,
      "Չինաստանում": 6970,
      "հեռախոսազրույց": 6971,
      "Աշտ": 6972,
      "անհրաժեշտություն": 6973,
      "տրված": 6974,
      "ընթացքը": 6975,
      "թարմ": 6976,
      "սպառնալիքի": 6977,
      "Երիտասարդ": 6978,
      "ապահովում": 6979,
      "դասախոս": 6980,
      "Իրական": 6981,
      "դիտավորությամբ": 6982,
      "բացառիկ": 6983,
      "06": 6984,
      "տանող": 6985,
      "խաղաղություն": 6986,
      "Տարած": 6987,
      "խախտումների": 6988,
      "Յուն": 6989,
      "ջարդ": 6990,
      "ուսումնասիրել": 6991,
      "ինչպիսին": 6992,
      "ամբաստան": 6993,
      "##ուրժ": 6994,
      "եկավ": 6995,
      "Ֆլ": 6996,
      "##կյան": 6997,
      "##անթ": 6998,
      "Բաղդասարյանը": 6999,
      "հասնում": 7000,
      "Ղազար": 7001,
      "Բախ": 7002,
      "պղ": 7003,
      "մասնագետները": 7004,
      "##ալց": 7005,
      "##աթի": 7006,
      "պատահար": 7007,
      "Զուրաբ": 7008,
      "տեղումների": 7009,
      "տրամադրելու": 7010,
      "Մրց": 7011,
      "պատերազմից": 7012,
      "սպանված": 7013,
      "##այտն": 7014,
      "ամուր": 7015,
      "ճնշում": 7016,
      "տառապ": 7017,
      "պահանջը": 7018,
      "խուլի": 7019,
      "իրականացումը": 7020,
      "զբաղեցնում": 7021,
      "ավարտել": 7022,
      "##ոջը": 7023,
      "##ամետ": 7024,
      "գերմանական": 7025,
      "միջանցքի": 7026,
      "##ուկի": 7027,
      "գնդապետ": 7028,
      "թեթեւ": 7029,
      "հանձնարարել": 7030,
      "##զմի": 7031,
      "տոկոսադրույ": 7032,
      "հիվանդության": 7033,
      "##ոտի": 7034,
      "մեղադրյալ": 7035,
      "վերականգնել": 7036,
      "վարկային": 7037,
      "անցկացվում": 7038,
      "Ծառուկյանը": 7039,
      "Կովկասում": 7040,
      "բնակվող": 7041,
      "Տղ": 7042,
      "##ուրույն": 7043,
      "փրկարարները": 7044,
      "Ցանկ": 7045,
      "դիզ": 7046,
      "անվանում": 7047,
      "##ապատասխան": 7048,
      "դերասան": 7049,
      "##ուղի": 7050,
      "պարզաբանում": 7051,
      "61": 7052,
      "տեսակ": 7053,
      "կենդանիների": 7054,
      "72": 7055,
      "2007": 7056,
      "ստաց": 7057,
      "##սր": 7058,
      "ինտերնետ": 7059,
      "##ադաշտ": 7060,
      "պաշտոնավար": 7061,
      "Զինված": 7062,
      "ընտրություններից": 7063,
      "##րակտ": 7064,
      "արտահոս": 7065,
      "արձագանքեց": 7066,
      "##ost": 7067,
      "ավտոմեքենաների": 7068,
      "Արաբիայի": 7069,
      "Բարսեղ": 7070,
      "##րանկ": 7071,
      "Ներս": 7072,
      "հյուպատ": 7073,
      "Մաշտոցի": 7074,
      "կարգավիճակ": 7075,
      "համակարգող": 7076,
      "Արտակարգ": 7077,
      "օրերս": 7078,
      "##վաճառ": 7079,
      "թիմի": 7080,
      "դիտարկում": 7081,
      "Գերմանիան": 7082,
      "Mer": 7083,
      "լիազորությունների": 7084,
      "ճշգր": 7085,
      "մասում": 7086,
      "հարցն": 7087,
      "Մինչեւ": 7088,
      "գրոհային": 7089,
      "սցեն": 7090,
      "Գիտնականները": 7091,
      "Մոսկվան": 7092,
      "դիմակայ": 7093,
      "ընդգծելով": 7094,
      "քամ": 7095,
      "ՀՆԱ": 7096,
      "գց": 7097,
      "##եչ": 7098,
      "լվ": 7099,
      "##ականներ": 7100,
      "##րամաս": 7101,
      "Նշված": 7102,
      "ծննդյան": 7103,
      "հմ": 7104,
      "բանկը": 7105,
      "Գևոր": 7106,
      "իրավիճակին": 7107,
      "07": 7108,
      "Ռաֆ": 7109,
      "Տուժ": 7110,
      "##ութի": 7111,
      "Ավստրի": 7112,
      "ընտանիքը": 7113,
      "Հայրեն": 7114,
      "Յուրի": 7115,
      "պատգամավորներ": 7116,
      "##ույգ": 7117,
      "##ոտենցի": 7118,
      "##ոգման": 7119,
      "բարձրացել": 7120,
      "պատժամիջոցներ": 7121,
      "կիլոմ": 7122,
      "Նազար": 7123,
      "սրբ": 7124,
      "Եվրախորհրդ": 7125,
      "##ափոխադր": 7126,
      "ապագայի": 7127,
      "պատասխանատվությունը": 7128,
      "պայմանագիրը": 7129,
      "Բայդենի": 7130,
      "պահանջով": 7131,
      "ժառանգության": 7132,
      "##ենին": 7133,
      "ԱԽ": 7134,
      "նշան": 7135,
      "խնդիրներին": 7136,
      "##լեր": 7137,
      "ինքնուրույն": 7138,
      "##աստանյութ": 7139,
      "հասնելով": 7140,
      "Գեւորգյանը": 7141,
      "##ատեսակ": 7142,
      "դասընթաց": 7143,
      "Ջեյ": 7144,
      "եթերում": 7145,
      "##քերով": 7146,
      "ապրող": 7147,
      "քիմ": 7148,
      "թալ": 7149,
      "առաջարկը": 7150,
      "##երորդ": 7151,
      "ցանկություն": 7152,
      "##եզոք": 7153,
      "արեւելյան": 7154,
      "մաք": 7155,
      "կայքի": 7156,
      "խմբավորման": 7157,
      "ՄՏ": 7158,
      "հայեց": 7159,
      "##ատապ": 7160,
      "արձակուրդ": 7161,
      "Սասուն": 7162,
      "պաղեստին": 7163,
      "ստորաբաժանումների": 7164,
      "մթեր": 7165,
      "հակառ": 7166,
      "գուցե": 7167,
      "հաստատման": 7168,
      "դպրոցում": 7169,
      "Հատուկ": 7170,
      "##ունու": 7171,
      "##ամադր": 7172,
      "կառավարությունն": 7173,
      "##ակայանի": 7174,
      "##կռ": 7175,
      "##ույժ": 7176,
      "տրամաչափի": 7177,
      "Հետազոտ": 7178,
      "ստանդարտ": 7179,
      "iP": 7180,
      "##մոն": 7181,
      "ամերի": 7182,
      "խողով": 7183,
      "Ստամբուլի": 7184,
      "##կերը": 7185,
      "անդամակց": 7186,
      "կանխելու": 7187,
      "ձգ": 7188,
      "կմեկ": 7189,
      "համավարակի": 7190,
      "միացել": 7191,
      "իսրայելական": 7192,
      "մագն": 7193,
      "ակտիվորեն": 7194,
      "փախստականների": 7195,
      "կընդ": 7196,
      "##սպաս": 7197,
      "չունեց": 7198,
      "հաստատելու": 7199,
      "##ահամալ": 7200,
      "Եգիպտոսի": 7201,
      "հայտարարությանը": 7202,
      "գործողություն": 7203,
      "Մեղրի": 7204,
      "Ադ": 7205,
      "##ոյանն": 7206,
      "##բուր": 7207,
      "հրաժարվում": 7208,
      "2012թ": 7209,
      "ԵԱՏՄ": 7210,
      "ժամանակավորապես": 7211,
      "հպարտ": 7212,
      "Նալբանդյանը": 7213,
      "Օդի": 7214,
      "04": 7215,
      "օրական": 7216,
      "տարելից": 7217,
      "##ced": 7218,
      "դատի": 7219,
      "ծանոթացել": 7220,
      "խրախուս": 7221,
      "ողբերգական": 7222,
      "դառնալու": 7223,
      "չափը": 7224,
      "գրանցել": 7225,
      "թոշ": 7226,
      "##որոշման": 7227,
      "##ովայի": 7228,
      "Նիդ": 7229,
      "երթեւեկելի": 7230,
      "##ուկը": 7231,
      "պոտենցի": 7232,
      "Իջ": 7233,
      "##արակի": 7234,
      "Ռուստամ": 7235,
      "այրվել": 7236,
      "գեղեց": 7237,
      "բնապահպանական": 7238,
      "Բրազիլի": 7239,
      "քանակը": 7240,
      "բնակիչներ": 7241,
      "սարսափ": 7242,
      "##միկ": 7243,
      "պորտ": 7244,
      "Կոնգրեսի": 7245,
      "վտանգի": 7246,
      "##րու": 7247,
      "##ամիտ": 7248,
      "դրամական": 7249,
      "հարաբերություններում": 7250,
      "Մարաշ": 7251,
      "##ունց": 7252,
      "համաժողովի": 7253,
      "##աթափ": 7254,
      "չափերով": 7255,
      "հիմքով": 7256,
      "Նախորդ": 7257,
      "ամիսների": 7258,
      "##րամասն": 7259,
      "առաջադրել": 7260,
      "Վահրամ": 7261,
      "կարողանա": 7262,
      "խմբերի": 7263,
      "Հալ": 7264,
      "շենքերի": 7265,
      "ընտանեկան": 7266,
      "Գյուլ": 7267,
      "ԻՊ": 7268,
      "##ՆԵ": 7269,
      "սահմանազատ": 7270,
      "առցանց": 7271,
      "սահմանում": 7272,
      "##աձոր": 7273,
      "Իսպ": 7274,
      "սննդամթեր": 7275,
      "Կովկասի": 7276,
      "փորձաքննություն": 7277,
      "եկած": 7278,
      "հարվածներ": 7279,
      "##ատվի": 7280,
      "վայրէջ": 7281,
      "2016թ": 7282,
      "փաստաբանը": 7283,
      "հոսպիտալացվել": 7284,
      "##ախմ": 7285,
      "հարս": 7286,
      "տեքստ": 7287,
      "քո": 7288,
      "համագում": 7289,
      "միջնորդությունը": 7290,
      "ԿԲ": 7291,
      "դառնա": 7292,
      "պլան": 7293,
      "66": 7294,
      "խց": 7295,
      "##մա": 7296,
      "Գևորգ": 7297,
      "կարի": 7298,
      "սպասարկ": 7299,
      "փրկել": 7300,
      "##eline": 7301,
      "հետևյալ": 7302,
      "##անյ": 7303,
      "չկարող": 7304,
      "քննարկումներ": 7305,
      "##եխնիկական": 7306,
      "հիմնադր": 7307,
      "վստահության": 7308,
      "եղբոր": 7309,
      "Սիսի": 7310,
      "##արյանն": 7311,
      "զորակոչ": 7312,
      "##աբանի": 7313,
      "փամփուշտ": 7314,
      "հովանավոր": 7315,
      "##aily": 7316,
      "Մայք": 7317,
      "վարժ": 7318,
      "անցկացնում": 7319,
      "տարեկ": 7320,
      "ասոցի": 7321,
      "մրցույթի": 7322,
      "թեկնածուն": 7323,
      "##ազն": 7324,
      "##նդի": 7325,
      "73": 7326,
      "##ոստանջ": 7327,
      "տաղ": 7328,
      "##կացած": 7329,
      "Հովհաննիսյանի": 7330,
      "պայթուցիկ": 7331,
      "##ապարփակ": 7332,
      "##արգման": 7333,
      "ազատամարտ": 7334,
      "##վին": 7335,
      "իրավախախտ": 7336,
      "##ոսյանն": 7337,
      "ներողություն": 7338,
      "Իրանում": 7339,
      "պատասխանը": 7340,
      "ռուբլու": 7341,
      "##իքս": 7342,
      "վայրերում": 7343,
      "##ոկի": 7344,
      "բաժանմունքի": 7345,
      "Վանեց": 7346,
      "մեկնաբանելով": 7347,
      "քայլերի": 7348,
      "Ավետիսյանը": 7349,
      "պատվաստանյութ": 7350,
      "նախագահների": 7351,
      "սկզբում": 7352,
      "Խոսքը": 7353,
      "##իսկոպոս": 7354,
      "լճի": 7355,
      "պրակտ": 7356,
      "հանդիպումից": 7357,
      "մայիսին": 7358,
      "##ավայրում": 7359,
      "##արդյունաբեր": 7360,
      "»)": 7361,
      "սուտ": 7362,
      "##ունքով": 7363,
      "##ահաղորդ": 7364,
      "##ոմսերի": 7365,
      "հաղթել": 7366,
      "ութ": 7367,
      "##ենցաղ": 7368,
      "ուժային": 7369,
      "քաղց": 7370,
      "Ֆիլիպ": 7371,
      "տարբերակ": 7372,
      "չեզոք": 7373,
      "բարեգործական": 7374,
      "800": 7375,
      "Էն": 7376,
      "անկեղծ": 7377,
      "միգր": 7378,
      "քննարկվում": 7379,
      "##լանդիայի": 7380,
      "Air": 7381,
      "Նահանգների": 7382,
      "Մկրտչյանը": 7383,
      "##ram": 7384,
      "արվեստի": 7385,
      "բարոյական": 7386,
      "Կրեմ": 7387,
      "Ամբ": 7388,
      "Չեմ": 7389,
      "##ԵԴ": 7390,
      "հիշում": 7391,
      "Ինտերֆ": 7392,
      "ծածկ": 7393,
      "անհատական": 7394,
      "թաղամասի": 7395,
      "Աղբյուր": 7396,
      "Հոլ": 7397,
      "հարստ": 7398,
      "հարյուրավոր": 7399,
      "որոշումներ": 7400,
      "զանգահարել": 7401,
      "##եսուել": 7402,
      "##ընկալ": 7403,
      "տիրող": 7404,
      "տարեց": 7405,
      "ինչպե": 7406,
      "ելույթում": 7407,
      "ճամբ": 7408,
      "195": 7409,
      "սրտ": 7410,
      "դադարեցնելու": 7411,
      "հետեւողական": 7412,
      "ֆինանսավորման": 7413,
      "հիշյալ": 7414,
      "կշարունակի": 7415,
      "գործն": 7416,
      "ուսանողների": 7417,
      "աղքատ": 7418,
      "##ենսիվ": 7419,
      "##նեմ": 7420,
      "տեղեկությունները": 7421,
      "Վարչապետը": 7422,
      "##ուռ": 7423,
      "գրավոր": 7424,
      "առաջնային": 7425,
      "Հեր": 7426,
      "հետաքննության": 7427,
      "պատժամիջոցները": 7428,
      "դատավորի": 7429,
      "մուտքը": 7430,
      "##բլ": 7431,
      "##եինք": 7432,
      "Հարգ": 7433,
      "ջոկատից": 7434,
      "խորհրդատվ": 7435,
      "Պեսկ": 7436,
      "ուշադրությունը": 7437,
      "հայերը": 7438,
      "Վալերի": 7439,
      "##պրոմ": 7440,
      "##ացուն": 7441,
      "Չի": 7442,
      "գա": 7443,
      "Կոստ": 7444,
      "վերոնշյալ": 7445,
      "Մելք": 7446,
      "նախաքննության": 7447,
      "էթնիկ": 7448,
      "Լյու": 7449,
      "տարածված": 7450,
      "##արել": 7451,
      "##իպի": 7452,
      "մեղադրվող": 7453,
      "Մոտ": 7454,
      "##ցիների": 7455,
      "հրատար": 7456,
      "##ասյան": 7457,
      "դիպ": 7458,
      "պատվիր": 7459,
      "վերահաստատ": 7460,
      "Հարավ": 7461,
      "լեռն": 7462,
      "##աձգել": 7463,
      "արժեքների": 7464,
      "##ուա": 7465,
      "հրետ": 7466,
      "հիմնարար": 7467,
      "հակամարտությունը": 7468,
      "##իտոր": 7469,
      "Ղազարյանը": 7470,
      "##ԴԽ": 7471,
      "շրջապատ": 7472,
      "68": 7473,
      "քարտուղարի": 7474,
      "##վայի": 7475,
      "##ելիության": 7476,
      "արժանի": 7477,
      "##ենտին": 7478,
      "հեռավորության": 7479,
      "For": 7480,
      "բաղկացած": 7481,
      "լրիվ": 7482,
      "Մեդվեդ": 7483,
      "հանգեցրել": 7484,
      "Միջադեպ": 7485,
      "##ուտի": 7486,
      "հատվածներում": 7487,
      "միջոցառման": 7488,
      "Մալաթ": 7489,
      "ԲԴԽ": 7490,
      "արգելված": 7491,
      "ընդլայնման": 7492,
      "երիտասարդական": 7493,
      "Զելեն": 7494,
      "օրգ": 7495,
      "Քաղաքական": 7496,
      "պրոֆեսոր": 7497,
      "##cedes": 7498,
      "միանգամից": 7499,
      "##որդին": 7500,
      "կոռուպցիոն": 7501,
      "Այվազ": 7502,
      "խոհ": 7503,
      "##ուղղ": 7504,
      "Վթարի": 7505,
      "արտադրանքի": 7506,
      "ենթադրյալ": 7507,
      "2011թ": 7508,
      "ազդեցությունը": 7509,
      "հեռուստատես": 7510,
      "խորհրդակց": 7511,
      "##լը": 7512,
      "կամրջ": 7513,
      "##ամասնական": 7514,
      "վեճ": 7515,
      "##ամասում": 7516,
      "Mercedes": 7517,
      "77": 7518,
      "Ch": 7519,
      "այլև": 7520,
      "կառավարական": 7521,
      "կանխել": 7522,
      "ունակ": 7523,
      "##կոհ": 7524,
      "##ագի": 7525,
      "Վր": 7526,
      "տաճ": 7527,
      "Ֆին": 7528,
      "ժամկետային": 7529,
      "Բրյուսելում": 7530,
      "տիրապետ": 7531,
      "գանձ": 7532,
      "գյուղը": 7533,
      "Զոր": 7534,
      "տարածման": 7535,
      "հագուստ": 7536,
      "##ադաս": 7537,
      "ապրիլին": 7538,
      "օրինագիծը": 7539,
      "տրամադրված": 7540,
      "Մոն": 7541,
      "գնով": 7542,
      "Հակոբյանի": 7543,
      "##մարտ": 7544,
      "Ոստիկանները": 7545,
      "բռնաբար": 7546,
      "##րանսպորտային": 7547,
      "Հանդիպմանը": 7548,
      "ինժ": 7549,
      "որտեղից": 7550,
      "համայնքապետ": 7551,
      "##ստանը": 7552,
      "օրակարգի": 7553,
      "##os": 7554,
      "կվ": 7555,
      "օգտագործելով": 7556,
      "համայնքային": 7557,
      "Beeline": 7558,
      "Բաբայանը": 7559,
      "Թայ": 7560,
      "Կա": 7561,
      "տեղեկատվությունը": 7562,
      "Վիվ": 7563,
      "##em": 7564,
      "Պր": 7565,
      "երիտասարդների": 7566,
      "##եսթ": 7567,
      "տրամաբան": 7568,
      "##լե": 7569,
      "Լիբանանի": 7570,
      "##զգ": 7571,
      "##iv": 7572,
      "զերծ": 7573,
      "կենդ": 7574,
      "##est": 7575,
      "սիրիական": 7576,
      "խլ": 7577,
      "այնուամենայնիվ": 7578,
      "հնչել": 7579,
      "##թույլատրելի": 7580,
      "##ոհամ": 7581,
      "Նախկինում": 7582,
      "երկրից": 7583,
      "անդամակցության": 7584,
      "Աման": 7585,
      "##աշվ": 7586,
      "կարգավիճակի": 7587,
      "Դեսպան": 7588,
      "հեռուստաալիքը": 7589,
      "##րիպ": 7590,
      "ինտենսիվ": 7591,
      "աղբյուրների": 7592,
      "հարուստ": 7593,
      "շահագրգռված": 7594,
      "ամերիկաց": 7595,
      "##ակցային": 7596,
      "Հաջորդ": 7597,
      "Զախ": 7598,
      "Նախարարը": 7599,
      "վարձակալ": 7600,
      "թանգարան": 7601,
      "արձանագրված": 7602,
      "կանոնների": 7603,
      "ատյանի": 7604,
      "առաքելությունը": 7605,
      "գոտի": 7606,
      "##կային": 7607,
      "կյանքին": 7608,
      "տրվում": 7609,
      "67": 7610,
      "Պարոն": 7611,
      "##եդեր": 7612,
      "հյուպատոս": 7613,
      "##ov": 7614,
      "կայքը": 7615,
      "տեմպ": 7616,
      "գնալու": 7617,
      "նախագծերի": 7618,
      "աչքի": 7619,
      "Վրաստանը": 7620,
      "դրության": 7621,
      "Եվրո": 7622,
      "Օլ": 7623,
      "անհիմն": 7624,
      "միգրանտ": 7625,
      "##ումբը": 7626,
      "Դոլ": 7627,
      "##ուհանդ": 7628,
      "հարկի": 7629,
      "##ամենտի": 7630,
      "ագրեսիվ": 7631,
      "##ոլոգիական": 7632,
      "ձայնը": 7633,
      "հասարակայնության": 7634,
      "Զոհրաբյանը": 7635,
      "միեւնույն": 7636,
      "##իրավական": 7637,
      "ԽՍ": 7638,
      "հանրությունը": 7639,
      "Գոռ": 7640,
      "##աշենի": 7641,
      "տեղեկացրեց": 7642,
      "##ևան": 7643,
      "նախաքննություն": 7644,
      "Անկարայի": 7645,
      "Նիստ": 7646,
      "օկ": 7647,
      "գրասենյակից": 7648,
      "Դի": 7649,
      "Սասն": 7650,
      "##ոյանին": 7651,
      "խնդրանքով": 7652,
      "##այանը": 7653,
      "դարի": 7654,
      "Երկիր": 7655,
      "Շարմազանովը": 7656,
      "պարունակում": 7657,
      "սրտի": 7658,
      "քույր": 7659,
      "դպրոցների": 7660,
      "##ուռն": 7661,
      "Կարապետյանի": 7662,
      "##իայից": 7663,
      "##աններում": 7664,
      "անմեղ": 7665,
      "##ագրվել": 7666,
      "ռուսաստ": 7667,
      "օգտակար": 7668,
      "##ուհանդերձ": 7669,
      "##մին": 7670,
      "դատավորների": 7671,
      "ողջունել": 7672,
      "ներկայացնելով": 7673,
      "օդանավակայանի": 7674,
      "սիրում": 7675,
      "լայնածավալ": 7676,
      "գործադրել": 7677,
      "հոկտեմբերին": 7678,
      "աշն": 7679,
      "ծրագրով": 7680,
      "գծում": 7681,
      "Բժ": 7682,
      "##իչներ": 7683,
      "կոնվենց": 7684,
      "թիմը": 7685,
      "տնտեսությունը": 7686,
      "Ինտերֆաքս": 7687,
      "հավաքական": 7688,
      "երեխային": 7689,
      "պայքարել": 7690,
      "գույք": 7691,
      "ուղևոր": 7692,
      "գործողություններին": 7693,
      "կանգնել": 7694,
      "Ելք": 7695,
      "Նուբարաշեն": 7696,
      "Բուլղ": 7697,
      "մշ": 7698,
      "վեհ": 7699,
      "##յուչ": 7700,
      "կոմուն": 7701,
      "պարբերական": 7702,
      "այո": 7703,
      "տղամարդկանց": 7704,
      "##թոնը": 7705,
      "ընդդիմությունը": 7706,
      "Շրջ": 7707,
      "հավատարիմ": 7708,
      "95": 7709,
      "վերաբերմունք": 7710,
      "թեժ": 7711,
      "Գալու": 7712,
      "հարավային": 7713,
      "կենցաղ": 7714,
      "հետաքրքրություն": 7715,
      "74": 7716,
      "առաջացնում": 7717,
      "սպիտակ": 7718,
      "##բին": 7719,
      "մարմիններին": 7720,
      "կգա": 7721,
      "երեխաներ": 7722,
      "##վաճ": 7723,
      "սույն": 7724,
      "ուժեր": 7725,
      "նետել": 7726,
      "թղթակիցը": 7727,
      "ՄՏՍ": 7728,
      "##ou": 7729,
      "##աղաքական": 7730,
      "նախարարին": 7731,
      "Կաթողիկ": 7732,
      "երդ": 7733,
      "ընկերությանը": 7734,
      "##իզբ": 7735,
      "էլի": 7736,
      "գործելու": 7737,
      "փայտ": 7738,
      "արժանապատվ": 7739,
      "զգալիորեն": 7740,
      "##արվ": 7741,
      "##ահարույց": 7742,
      "104": 7743,
      "պրոֆեսի": 7744,
      "պատրաստել": 7745,
      "օրենսդրության": 7746,
      "ինքնակառավար": 7747,
      "Նորքի": 7748,
      "Պեկ": 7749,
      "տարածքից": 7750,
      "կառուցողական": 7751,
      "փուլը": 7752,
      "հավաստ": 7753,
      "Կիմ": 7754,
      "Արփ": 7755,
      "Սերբ": 7756,
      "գործարան": 7757,
      "##գրավել": 7758,
      "##ատնտեսական": 7759,
      "ինչքան": 7760,
      "Ճապոնի": 7761,
      "ցուցահանդես": 7762,
      "հիմնադրամը": 7763,
      "Սաղաթ": 7764,
      "ամենաբարձր": 7765,
      "##պահ": 7766,
      "Սասնա": 7767,
      "երև": 7768,
      "հանրաքվեի": 7769,
      "of": 7770,
      "հրատապ": 7771,
      "76": 7772,
      "սկսելու": 7773,
      "կուսակցություն": 7774,
      "Վստահ": 7775,
      "##ուան": 7776,
      "2019թ": 7777,
      "արաբ": 7778,
      "գործարանի": 7779,
      "##եռնել": 7780,
      "թեկնածությունը": 7781,
      "ԱՄԷ": 7782,
      "Գայ": 7783,
      "հետաքնն": 7784,
      "նորարար": 7785,
      "զեկույցում": 7786,
      "##ոսով": 7787,
      "անդ": 7788,
      "Ձեռնարկ": 7789,
      "Հանրապետությունը": 7790,
      "գույքը": 7791,
      "բնականաբար": 7792,
      "Բոլ": 7793,
      "##անկտ": 7794,
      "ինչպիսիք": 7795,
      "գրված": 7796,
      "օգտագործելու": 7797,
      "որդուն": 7798,
      "##պրոց": 7799,
      "համալր": 7800,
      "##20": 7801,
      "կտրամադր": 7802,
      "համաձայնել": 7803,
      "ներդրումներ": 7804,
      "քաղաքից": 7805,
      "հիմնարկ": 7806,
      "գերատեսչության": 7807,
      "օրենսդիր": 7808,
      "եզր": 7809,
      "##յանների": 7810,
      "բոլորս": 7811,
      "Բաքուն": 7812,
      "տարաձայն": 7813,
      "կազմի": 7814,
      "Հանրապետություն": 7815,
      "գործընկերներին": 7816,
      "հիշեցնում": 7817,
      "Վենեսուել": 7818,
      "ուժը": 7819,
      "նոյեմբերին": 7820,
      "սարքերի": 7821,
      "##ow": 7822,
      "ստանձնել": 7823,
      "##ացումն": 7824,
      "գործիչների": 7825,
      "կրծ": 7826,
      "##երների": 7827,
      "համաժողով": 7828,
      "աճում": 7829,
      "դատաբժշկական": 7830,
      "##ածին": 7831,
      "փոխանակման": 7832,
      "հյուսիսային": 7833,
      "ներկայացուցիչներին": 7834,
      "հաշվով": 7835,
      "Կազմ": 7836,
      "խթան": 7837,
      "##ընտր": 7838,
      "իշխանություններն": 7839,
      "խմբեր": 7840,
      "##օդային": 7841,
      "ֆինանսավոր": 7842,
      "##սան": 7843,
      "որոշումն": 7844,
      "պաշտոնի": 7845,
      "հերքում": 7846,
      "հուզ": 7847,
      "##բանկ": 7848,
      "##յալները": 7849,
      "Այնուամենայնիվ": 7850,
      "կնքել": 7851,
      "ագրեսիայի": 7852,
      "տներ": 7853,
      "տներից": 7854,
      "վերցնել": 7855,
      "հաստատությունների": 7856,
      "##ահետ": 7857,
      "բժիշկների": 7858,
      "##մունքում": 7859,
      "##եցրեց": 7860,
      "դրամը": 7861,
      "##ուհետև": 7862,
      "Մինչդեռ": 7863,
      "դինամ": 7864,
      "պատրաստված": 7865,
      "մատակարարման": 7866,
      "ոճ": 7867,
      "սադրանք": 7868,
      "զարման": 7869,
      "##ավիթ": 7870,
      "Մերկ": 7871,
      "կանոնակարգ": 7872,
      "Անջել": 7873,
      "խոսքի": 7874,
      "##եցվի": 7875,
      "հաղորդվում": 7876,
      "ծեծկռ": 7877,
      "Ուկրաինա": 7878,
      "##տոտ": 7879,
      "##եգն": 7880,
      "հայտնաբերելու": 7881,
      "Իվ": 7882,
      "##ներիս": 7883,
      "հղի": 7884,
      "Tel": 7885,
      "Ատ": 7886,
      "համաձայնագր": 7887,
      "վաճառվում": 7888,
      "տուժածներ": 7889,
      "խաղում": 7890,
      "Սանկտ": 7891,
      "##hone": 7892,
      "նռ": 7893,
      "##ումային": 7894,
      "առարկա": 7895,
      "##ոլիկ": 7896,
      "Սահմանադր": 7897,
      "ավտոմեքենայով": 7898,
      "քաջ": 7899,
      "կայց": 7900,
      "գտնում": 7901,
      "Ժողովրդ": 7902,
      "հիշեցրեց": 7903,
      "կստեղծ": 7904,
      "##ապայման": 7905,
      "իտ": 7906,
      "##եյր": 7907,
      "փոխհատուցում": 7908,
      "##ոշտանգ": 7909,
      "250": 7910,
      "նպաստում": 7911,
      "##ֆիկ": 7912,
      "ալկոհ": 7913,
      "##աբանների": 7914,
      "ընդունելության": 7915,
      "Համբարձ": 7916,
      "երեքշաբթի": 7917,
      "##ամաքային": 7918,
      "##խազ": 7919,
      "դեսպանի": 7920,
      "գովազդ": 7921,
      "Այր": 7922,
      "քարտուղարը": 7923,
      "##երան": 7924,
      "##երիմ": 7925,
      "օրերի": 7926,
      "արեց": 7927,
      "անհատ": 7928,
      "կկայանա": 7929,
      "աշխարհաքաղաքական": 7930,
      "##անդի": 7931,
      "Հրայր": 7932,
      "700": 7933,
      "հրաշ": 7934,
      "Եվրահ": 7935,
      "փաստաթղթի": 7936,
      "Առաջիկա": 7937,
      "դատապարտված": 7938,
      "հեռանալ": 7939,
      "վստահություն": 7940,
      "ֆոնդ": 7941,
      "##ոլով": 7942,
      "ծառայությունում": 7943,
      "ավտոճանապարհին": 7944,
      "հաստատում": 7945,
      "շենքում": 7946,
      "լիցք": 7947,
      "մեջբերում": 7948,
      "հարցաքնն": 7949,
      "հայտարարությունում": 7950,
      "##ուճ": 7951,
      "ծառայություններ": 7952,
      "տալով": 7953,
      "կազմակերպվել": 7954,
      "ընդունման": 7955,
      "համալիրի": 7956,
      "Եռ": 7957,
      "##ահանման": 7958,
      "միանշանակ": 7959,
      "Քլին": 7960,
      "խոսքում": 7961,
      "բաժանմունք": 7962,
      "կարծիքը": 7963,
      "կիլոմետր": 7964,
      "շահերից": 7965,
      "այսուհետ": 7966,
      "դոլարը": 7967,
      "ժխտ": 7968,
      "##ումյանը": 7969,
      "վարչակազմի": 7970,
      "Լոս": 7971,
      "2017թ": 7972,
      "պահանջելով": 7973,
      "հիմքում": 7974,
      "##ալուծ": 7975,
      "հորդորում": 7976,
      "հողի": 7977,
      "##իռը": 7978,
      "եվրոյի": 7979,
      "հետազոտության": 7980,
      "գիր": 7981,
      "Հաղթ": 7982,
      "99": 7983,
      "քննադատել": 7984,
      "հափշտակ": 7985,
      "երկն": 7986,
      "տեսանելի": 7987,
      "միջոցը": 7988,
      "##ացոլ": 7989,
      "լուծումներ": 7990,
      "Վերաքննիչ": 7991,
      "տո": 7992,
      "ընթացքի": 7993,
      "սկզբից": 7994,
      "Ընկերությունը": 7995,
      "որոշումների": 7996,
      "Հայտն": 7997,
      "կազմված": 7998,
      "##ալիֆոր": 7999,
      "դստ": 8000,
      "կոտրել": 8001,
      "քաղաքը": 8002,
      "բարձրացրել": 8003,
      "ժամկետում": 8004,
      "երեւույթ": 8005,
      "սոցցանց": 8006,
      "կյանք": 8007,
      "Բեգ": 8008,
      "Daily": 8009,
      "Օդ": 8010,
      "Շամ": 8011,
      "արարողությանը": 8012,
      "ուրեմն": 8013,
      "Լոնդոնի": 8014,
      "##ոլիտ": 8015,
      "պարտավորությունները": 8016,
      "Բարաք": 8017,
      "քաղաքապետը": 8018,
      "Ամիր": 8019,
      "168": 8020,
      "ջանքերի": 8021,
      "Փորձագետ": 8022,
      "ած": 8023,
      "##ալիֆորնի": 8024,
      "վնասվել": 8025,
      "Բնակ": 8026,
      "նյութական": 8027,
      "ՀԱՄ": 8028,
      "##ետիկ": 8029,
      "փոքրամասն": 8030,
      "սիրի": 8031,
      "Կրթ": 8032,
      "հեղափոխության": 8033,
      "CNN": 8034,
      "նախընտր": 8035,
      "գեղ": 8036,
      "բուժման": 8037,
      "խուլիգան": 8038,
      "Մուս": 8039,
      "##ումինի": 8040,
      "կդադար": 8041,
      "78": 8042,
      "##ույնն": 8043,
      "##եմը": 8044,
      "ֆյուչ": 8045,
      "##գիայի": 8046,
      "##ինակը": 8047,
      "ընձ": 8048,
      "նմուշ": 8049,
      "կարեւորությունը": 8050,
      "##ացիներին": 8051,
      "##մանի": 8052,
      "##ex": 8053,
      "օկուպ": 8054,
      "լեզվ": 8055,
      "Ընդդիմ": 8056,
      "ճգնաժամը": 8057,
      "բյուր": 8058,
      "Կոմիտաս": 8059,
      "##ac": 8060,
      "աղջկա": 8061,
      "գերազանցում": 8062,
      "նիստերի": 8063,
      "Լիլի": 8064,
      "Ենթ": 8065,
      "թղթակցին": 8066,
      "անպայման": 8067,
      "Al": 8068,
      "Դատական": 8069,
      "կառուցված": 8070,
      "սպասել": 8071,
      "վայել": 8072,
      "պատիվ": 8073,
      "##ությանն": 8074,
      "ներդրման": 8075,
      "##յար": 8076,
      "թիվն": 8077,
      "ինժեներ": 8078,
      "շղթ": 8079,
      "##SA": 8080,
      "արարողությունը": 8081,
      "օրինագծ": 8082,
      "կայսր": 8083,
      "Դատարանը": 8084,
      "մանրամասները": 8085,
      "##անդաղ": 8086,
      "անասն": 8087,
      "Եվրահանձն": 8088,
      "օպերատոր": 8089,
      "դադարեցվել": 8090,
      "##արկմանը": 8091,
      "անթույլատրելի": 8092,
      "դաշինքը": 8093,
      "##ողն": 8094,
      "աշխատավարձի": 8095,
      "թագավոր": 8096,
      "##րիարք": 8097,
      "հավաքված": 8098,
      "դրսևոր": 8099,
      "##ույզ": 8100,
      "Վարչապետի": 8101,
      "լարվածության": 8102,
      "Կայ": 8103,
      "պնդել": 8104,
      "Սեւան": 8105,
      "խոսակց": 8106,
      "ԻՏԱ": 8107,
      "պարգեւատր": 8108,
      "հարկավոր": 8109,
      "բորսայում": 8110,
      "##նումը": 8111,
      "խորը": 8112,
      "Օսկ": 8113,
      "վերապատրաստ": 8114,
      "աշխարհը": 8115,
      "կորպոր": 8116,
      "նշանակված": 8117,
      "ձայների": 8118,
      "Գալուստ": 8119,
      "առաջարկվում": 8120,
      "դադարեցրել": 8121,
      "##լան": 8122,
      "վերաբերվում": 8123,
      "արքայ": 8124,
      "օրոք": 8125,
      "մահապատ": 8126,
      "##կոտ": 8127,
      "կստանա": 8128,
      "##անաչ": 8129,
      "բնակարանի": 8130,
      "չունեմ": 8131,
      "ստորագրվել": 8132,
      "ճշմարտ": 8133,
      "բաշխ": 8134,
      "##ակայության": 8135,
      "հրավ": 8136,
      "սահմանամերձ": 8137,
      "##պատասխան": 8138,
      "տարածվել": 8139,
      "օգնում": 8140,
      "պահանջներին": 8141,
      "Յորքի": 8142,
      "ատրճանակ": 8143,
      "առաջացած": 8144,
      "Անցյալ": 8145,
      "##րեցին": 8146,
      "պատճառները": 8147,
      "կսկ": 8148,
      "հրաժարականը": 8149,
      "ազդել": 8150,
      "մանկական": 8151,
      "69": 8152,
      "առաք": 8153,
      "երբեմն": 8154,
      "Շնորհակալ": 8155,
      "կառույցի": 8156,
      "##վենք": 8157,
      "կարեւորագույն": 8158,
      "մոտեցել": 8159,
      "Վիլ": 8160,
      "##իզմի": 8161,
      "բեկ": 8162,
      "##oom": 8163,
      "դուռը": 8164,
      "արտասահմանյան": 8165,
      "Տղամարդ": 8166,
      "խփ": 8167,
      "համերաշխ": 8168,
      "վերանորոգման": 8169,
      "##ոզի": 8170,
      "ՄԻԵԴ": 8171,
      "Ղարաբաղը": 8172,
      "թեկնածուների": 8173,
      "Աբրահամյանի": 8174,
      "ԻՏԱՌ": 8175,
      "71": 8176,
      "##ադառնում": 8177,
      "փորձաքնն": 8178,
      "##նից": 8179,
      "հայաց": 8180,
      "##ավարություն": 8181,
      "զինծառայողի": 8182,
      "ճնշման": 8183,
      "Դոն": 8184,
      "##ուսաղ": 8185,
      "աթ": 8186,
      "գործընթացների": 8187,
      "պատրաստակամություն": 8188,
      "հարազատները": 8189,
      "տոնի": 8190,
      "արտահան": 8191,
      "ժամանակաշրջ": 8192,
      "##ուլս": 8193,
      "##գնաժամային": 8194,
      "շնչ": 8195,
      "##մանյան": 8196,
      "##ագրային": 8197,
      "##սկու": 8198,
      "ընտանիքին": 8199,
      "դատավարության": 8200,
      "բացառում": 8201,
      "կհաս": 8202,
      "##հասարակ": 8203,
      "ռուբլի": 8204,
      "նվաճ": 8205,
      "հաղթահարել": 8206,
      "Իսպանի": 8207,
      "Հայրենի": 8208,
      "իրականությանը": 8209,
      "մարտին": 8210,
      "ստիպել": 8211,
      "կոկ": 8212,
      "##ակալի": 8213,
      "դիվերսի": 8214,
      "ապօրին": 8215,
      "գրասենյակը": 8216,
      "շեղ": 8217,
      "Առավոտ": 8218,
      "դատախազը": 8219,
      "##ատանը": 8220,
      "Իսպանիայի": 8221,
      "էն": 8222,
      "ջանքեր": 8223,
      "##յակին": 8224,
      "ծովի": 8225,
      "##all": 8226,
      "##առավարական": 8227,
      "գծի": 8228,
      "հավասարակ": 8229,
      "##ատունը": 8230,
      "պատճառաբան": 8231,
      "գործառույթ": 8232,
      "տուրք": 8233,
      "##այլի": 8234,
      "ըմբ": 8235,
      "##իրական": 8236,
      "Երուսաղ": 8237,
      "դարձնում": 8238,
      "բնակիչը": 8239,
      "դեպարտամենտ": 8240,
      "արդյո": 8241,
      "փաստաթուղթը": 8242,
      "փաստով": 8243,
      "##ադրում": 8244,
      "Սթ": 8245,
      "##րուց": 8246,
      "հոսանք": 8247,
      "համայնքներում": 8248,
      "##նիկ": 8249,
      "համաճ": 8250,
      "##աքն": 8251,
      "տնօրին": 8252,
      "հաղորդագրությունում": 8253,
      "կողոպ": 8254,
      "Զարուհի": 8255,
      "Կանադայի": 8256,
      "ուժերին": 8257,
      "ծովային": 8258,
      "հոդվածում": 8259,
      "Փարիզի": 8260,
      "սկիզբ": 8261,
      "պատմություն": 8262,
      "հոդվածը": 8263,
      "վարչությունը": 8264,
      "քեզ": 8265,
      "հեղաշրջ": 8266,
      "զինվորականների": 8267,
      "վաճառվել": 8268,
      "##արական": 8269,
      "##ատեւ": 8270,
      "##op": 8271,
      "##ելուն": 8272,
      "ներգ": 8273,
      "գրառում": 8274,
      "ձկն": 8275,
      "Ինքն": 8276,
      "փաստի": 8277,
      "ձմեռ": 8278,
      "##ափորձ": 8279,
      "փոքրիկ": 8280,
      "ծանուց": 8281,
      "կործանիչ": 8282,
      "Մադ": 8283,
      "ինքնակառավարման": 8284,
      "##ob": 8285,
      "##ոթոր": 8286,
      "հրամանագր": 8287,
      "Հարգելի": 8288,
      "ծռ": 8289,
      "ստորաբաժանումները": 8290,
      "շրջվել": 8291,
      "ոման": 8292,
      "##աները": 8293,
      "դիմակ": 8294,
      "բխում": 8295,
      "զբոսաշրջության": 8296,
      "Շվեդիայի": 8297,
      "անդամի": 8298,
      "Շար": 8299,
      "##ուներ": 8300,
      "##ասրահ": 8301,
      "Չեն": 8302,
      "ներմուծման": 8303,
      "արտացոլ": 8304,
      "չկատար": 8305,
      "բարելավման": 8306,
      "ծնողները": 8307,
      "Հյուսիս": 8308,
      "հրամանով": 8309,
      "հինգշաբթի": 8310,
      "Ողջ": 8311,
      "գնահատվում": 8312,
      "Վարդանյանի": 8313,
      "գերազանցել": 8314,
      "##իդր": 8315,
      "հարցերում": 8316,
      "երթեւեկության": 8317,
      "հանձնվել": 8318,
      "Ցավոք": 8319,
      "##ադրված": 8320,
      "դրվագ": 8321,
      "շեշտեց": 8322,
      "Անկարան": 8323,
      "ցուցակը": 8324,
      "##ուհամ": 8325,
      "##վերջ": 8326,
      "##ողներն": 8327,
      "Ծրագրի": 8328,
      "հունիսին": 8329,
      "հոգեբանական": 8330,
      "##ապահով": 8331,
      "դարձնելու": 8332,
      "կողմերին": 8333,
      "ընկերություն": 8334,
      "Բելառուս": 8335,
      "բանկերի": 8336,
      "էներգիայի": 8337,
      "Կիպրոսի": 8338,
      "ժամանակի": 8339,
      "##ակենդան": 8340,
      "վայրից": 8341,
      "##կարծ": 8342,
      "Op": 8343,
      "ինքնորոշման": 8344,
      "##անետ": 8345,
      "##ավարար": 8346,
      "Անգ": 8347,
      "Լե": 8348,
      "սկզբունքների": 8349,
      "Բրիտանիան": 8350,
      "ստացվում": 8351,
      "տարածքները": 8352,
      "արմատական": 8353,
      "Աշոտյանը": 8354,
      "գնահատման": 8355,
      "վիրավորում": 8356,
      "ցուցարարների": 8357,
      "Հրազդ": 8358,
      "կգործ": 8359,
      "գումարները": 8360,
      "գյուղապետ": 8361,
      "Անդրեյ": 8362,
      "երկաթուղ": 8363,
      "ընտրատեղ": 8364,
      "նորանշանակ": 8365,
      "զրուցել": 8366,
      "խարդախության": 8367,
      "Սեդր": 8368,
      "82": 8369,
      "Հայրապետյանը": 8370,
      "##ողներից": 8371,
      "նվազում": 8372,
      "հաղթանակի": 8373,
      "ԽՍՀՄ": 8374,
      "Մես": 8375,
      "աշխատակիցներ": 8376,
      "ցավոք": 8377,
      "##օգնություն": 8378,
      "չորեքշաբթի": 8379,
      "իմաստով": 8380,
      "թեմի": 8381,
      "հետեւաբար": 8382,
      "2021թ": 8383,
      "##ևն": 8384,
      "զարմ": 8385,
      "հաջողությամբ": 8386,
      "աղետի": 8387,
      "շարժումը": 8388,
      "աֆ": 8389,
      "գլխին": 8390,
      "Աֆղանստանում": 8391,
      "##ասկանալի": 8392,
      "թաքն": 8393,
      "զբաղեցրել": 8394,
      "ծնողների": 8395,
      "վիդ": 8396,
      "##աղի": 8397,
      "այդմ": 8398,
      "շք": 8399,
      "պետությանը": 8400,
      "ՀԱՄԱՍ": 8401,
      "##արագ": 8402,
      "իրականացմանը": 8403,
      "##ժամ": 8404,
      "հաշտ": 8405,
      "##իսյանը": 8406,
      "միտված": 8407,
      "##oy": 8408,
      "##իկյան": 8409,
      "ոստիկ": 8410,
      "##ադը": 8411,
      "հիվանդանոցից": 8412,
      "քրդ": 8413,
      "փորձագետը": 8414,
      "գյուղերի": 8415,
      "հյուրընկալ": 8416,
      "##ոնա": 8417,
      "##եպորտ": 8418,
      "մնալու": 8419,
      "կհր": 8420,
      "ահա": 8421,
      "թեկնածուի": 8422,
      "հռ": 8423,
      "##ասպանության": 8424,
      "##ԴՀ": 8425,
      "արագությամբ": 8426,
      "առաջինը": 8427,
      "համապարփակ": 8428,
      "սահմանները": 8429,
      "բանակում": 8430,
      "օգտագործվել": 8431,
      "Սիլ": 8432,
      "երջ": 8433,
      "ՔՕ": 8434,
      "կամուրջ": 8435,
      "iPhone": 8436,
      "88": 8437,
      "չորրորդ": 8438,
      "##5թ": 8439,
      "գրավել": 8440,
      "նավահանգ": 8441,
      "տուգանք": 8442,
      "##ցիան": 8443,
      "Տեղի": 8444,
      "##ևը": 8445,
      "##բուրգում": 8446,
      "ֆյուչերս": 8447,
      "խճ": 8448,
      "##ելն": 8449,
      "շարքային": 8450,
      "երիտասարդը": 8451,
      "կիրառվել": 8452,
      "Մաքսային": 8453,
      "2006": 8454,
      "Արեւմտյան": 8455,
      "Պենտ": 8456,
      "Զվար": 8457,
      "խաչմերուկում": 8458,
      "դանդաղ": 8459,
      "Դե": 8460,
      "հունվարին": 8461,
      "ամբողջովին": 8462,
      "Չոր": 8463,
      "պատմում": 8464,
      "հոգեկան": 8465,
      "պաշտոնյաները": 8466,
      "##ափառ": 8467,
      "տեսչական": 8468,
      "մարզերի": 8469,
      "անցկացված": 8470,
      "ամպրոպ": 8471,
      "հմտ": 8472,
      "##ոտն": 8473,
      "##ատուների": 8474,
      "Փարիզում": 8475,
      "փետրվարին": 8476,
      "հանդիպումների": 8477,
      "իրադարձությունները": 8478,
      "գնա": 8479,
      "հասարակությունը": 8480,
      "աստիճանաբար": 8481,
      "Գուրգ": 8482,
      "տանկ": 8483,
      "գիտությունների": 8484,
      "Ֆրանկ": 8485,
      "սփյուռքի": 8486,
      "ոստիկանապետ": 8487,
      "##soci": 8488,
      "Բեգլ": 8489,
      "խոշտանգ": 8490,
      "##արկետ": 8491,
      "հանկարծ": 8492,
      "արժողությամբ": 8493,
      "##»,": 8494,
      "վախենում": 8495,
      "վերջն": 8496,
      "ընտանիքներին": 8497,
      "Թուն": 8498,
      "կսկս": 8499,
      "ՕԵԿ": 8500,
      "վերաբերմունքի": 8501,
      "##եվերջ": 8502,
      "Ֆինանս": 8503,
      "ԳԱ": 8504,
      "այցելու": 8505,
      "Նահանգները": 8506,
      "չափերի": 8507,
      "##ատերը": 8508,
      "երկարաձգ": 8509,
      "ոլորտը": 8510,
      "Պենտագ": 8511,
      "ավարտից": 8512,
      "Տավուշում": 8513,
      "##ft": 8514,
      "Փաստի": 8515,
      "##նելուց": 8516,
      "տասնամյակ": 8517,
      "##անտարկ": 8518,
      "##եպորտաժ": 8519,
      "##րուն": 8520,
      "օրհ": 8521,
      "աշխատավարձը": 8522,
      "ճապ": 8523,
      "գոտու": 8524,
      "հրաձգ": 8525,
      "##կը": 8526,
      "##yet": 8527,
      "արծ": 8528,
      "աղոթ": 8529,
      "բաժանմունքում": 8530,
      "բանաձեւ": 8531,
      "##ենպաստ": 8532,
      "միջադեպը": 8533,
      "մեծամասնությունը": 8534,
      "միությունը": 8535,
      "##ավազ": 8536,
      "Աֆր": 8537,
      "վերադարձնել": 8538,
      "ակումբի": 8539,
      "##իխ": 8540,
      "##եքենան": 8541,
      "կայք": 8542,
      "հանձնակ": 8543,
      "Գասպարյանը": 8544,
      "Հեղ": 8545,
      "տանել": 8546,
      "պետը": 8547,
      "շահերին": 8548,
      "տղամարդուն": 8549,
      "օդաչու": 8550,
      "Տաթ": 8551,
      "Գե": 8552,
      "Շտ": 8553,
      "Ժիր": 8554,
      "տարածքով": 8555,
      "Արտաքին": 8556,
      "Սեբ": 8557,
      "մմ": 8558,
      "##ելիս": 8559,
      "գաղտն": 8560,
      "Պարբեր": 8561,
      "Էդգար": 8562,
      "աղջիկ": 8563,
      "Հայտնաբեր": 8564,
      "կս": 8565,
      "համացանցում": 8566,
      "դոկ": 8567,
      "կատ": 8568,
      "##ալիբ": 8569,
      "##անտին": 8570,
      "Մարուքյանը": 8571,
      "Associ": 8572,
      "Էդմոն": 8573,
      "քրիստոն": 8574,
      "##ապի": 8575,
      "զբաղված": 8576,
      "##ացուցիչների": 8577,
      "քննությունը": 8578,
      "հարգանքի": 8579,
      "##աիրավական": 8580,
      "բողոքը": 8581,
      "Փոստանջ": 8582,
      "ցանկացել": 8583,
      "Բորիս": 8584,
      "մշակում": 8585,
      "պաշտպանում": 8586,
      "օրենսգրքում": 8587,
      "վրդ": 8588,
      "կալանավորումը": 8589,
      "անի": 8590,
      "տեխնիկայի": 8591,
      "զինվորների": 8592,
      "##որգի": 8593,
      "##ավանի": 8594,
      "կցանկ": 8595,
      "Կողմերը": 8596,
      "##ռանը": 8597,
      "ուտ": 8598,
      "պատճառված": 8599,
      "Բն": 8600,
      "ցմահ": 8601,
      "##ակցված": 8602,
      "խառն": 8603,
      "ֆորում": 8604,
      "##պաստի": 8605,
      "##ատակարարումը": 8606,
      "փորձագետների": 8607,
      "Ծաղ": 8608,
      "կառաջ": 8609,
      "##դանշ": 8610,
      "Հրդեհը": 8611,
      "արբան": 8612,
      "սպանությունը": 8613,
      "տիպի": 8614,
      "կրճատվել": 8615,
      "կստանան": 8616,
      "ճյուղ": 8617,
      "##ԻՄ": 8618,
      "Զվարթն": 8619,
      "##եցության": 8620,
      "հիշատակին": 8621,
      "դեսպանին": 8622,
      "Աբխազ": 8623,
      "հարուցել": 8624,
      "Դանիել": 8625,
      "##բուրգի": 8626,
      "կողմին": 8627,
      "##ընկ": 8628,
      "Զրուց": 8629,
      "հնարավորությունների": 8630,
      "նրանով": 8631,
      "առկայության": 8632,
      "Արցախյան": 8633,
      "ավիաընկեր": 8634,
      "նախապատրաստվում": 8635,
      "կենցաղային": 8636,
      "գործունեությանը": 8637,
      "դպրոցներում": 8638,
      "Դատավոր": 8639,
      "Ստեփանակերտի": 8640,
      "##բա": 8641,
      "##ուալ": 8642,
      "սուբյեկտ": 8643,
      "Սեդրակ": 8644,
      "հեռախոսահամ": 8645,
      "Արաբական": 8646,
      "##ագրություն": 8647,
      "##աղբյուր": 8648,
      "կարտ": 8649,
      "շնորհավոր": 8650,
      "Հրազ": 8651,
      "հարազատներին": 8652,
      "##նդրի": 8653,
      "Հաղորդվում": 8654,
      "կհայտն": 8655,
      "պոտենցիալ": 8656,
      "##կինի": 8657,
      "Ռամ": 8658,
      "Երրորդ": 8659,
      "հրթիռային": 8660,
      "կնպաստի": 8661,
      "##berg": 8662,
      "##նակալ": 8663,
      "գնի": 8664,
      "կորոնավիրուսային": 8665,
      "հեռուստաընկեր": 8666,
      "հանգեցնել": 8667,
      "##our": 8668,
      "ուղղել": 8669,
      "աթոռ": 8670,
      "զորքերը": 8671,
      "Լուկաշենկոն": 8672,
      "մարվել": 8673,
      "##մտյան": 8674,
      "##ալս": 8675,
      "առաջնորդների": 8676,
      "Անհրաժեշտ": 8677,
      "բռնել": 8678,
      "##գծ": 8679,
      "հափշտակել": 8680,
      "Արկ": 8681,
      "հայտարարություններ": 8682,
      "վնասի": 8683,
      "ռեկորդային": 8684,
      "Լր": 8685,
      "ռազմագ": 8686,
      "նայ": 8687,
      "գործուղ": 8688,
      "##աձիգ": 8689,
      "միակողմանի": 8690,
      "ծրագրին": 8691,
      "##մն": 8692,
      "Պեսկովը": 8693,
      "լուծումը": 8694,
      "սթափ": 8695,
      "փուլի": 8696,
      "Ծառուկյան": 8697,
      "ներքաղաքական": 8698,
      "հացադուլ": 8699,
      "փոխելու": 8700,
      "պողոտայի": 8701,
      "հայեր": 8702,
      "##աջիկ": 8703,
      "2022թ": 8704,
      "ֆեդեր": 8705,
      "մասամբ": 8706,
      "կենդանի": 8707,
      "ֆակ": 8708,
      "մոտակա": 8709,
      "համագործակցել": 8710,
      "լիտ": 8711,
      "նստած": 8712,
      "Գազպրոմ": 8713,
      "բացառվում": 8714,
      "լուրերը": 8715,
      "ամյակի": 8716,
      "աշխատանքներն": 8717,
      "BM": 8718,
      "Վիգ": 8719,
      "դատապարտում": 8720,
      "ամենախ": 8721,
      "հնարավորության": 8722,
      "գիտելիք": 8723,
      "վայրը": 8724,
      "կտան": 8725,
      "սենատոր": 8726,
      "պրոֆեսիոնալ": 8727,
      "բոլորիս": 8728,
      "##աստառ": 8729,
      "Բժիշկ": 8730,
      "փոխանցվել": 8731,
      "##ուցի": 8732,
      "##ահարմար": 8733,
      "առջև": 8734,
      "վերջում": 8735,
      "թողնել": 8736,
      "գործարքի": 8737,
      "գարն": 8738,
      "իրացման": 8739,
      "##անենգ": 8740,
      "նախարարությունում": 8741,
      "բնապահպանության": 8742,
      "մագնիտ": 8743,
      "պայմանավորվածություն": 8744,
      "հնդ": 8745,
      "1991": 8746,
      "Քանաք": 8747,
      "տարեվերջ": 8748,
      "ինչին": 8749,
      "Բան": 8750,
      "Վիվա": 8751,
      "չեղյալ": 8752,
      "արվեստ": 8753,
      "Դեմիր": 8754,
      "««": 8755,
      "Աֆղանստանի": 8756,
      "Հետեւ": 8757,
      "##ակտիվ": 8758,
      "պատճառելով": 8759,
      "Եվրոպա": 8760,
      "հանգուց": 8761,
      "Սլով": 8762,
      "գյուղեր": 8763,
      "թույլատր": 8764,
      "ազատազրկում": 8765,
      "չգիտեմ": 8766,
      "փակվել": 8767,
      "ունենան": 8768,
      "կմնա": 8769,
      "Ղրղզ": 8770,
      "Բրիտանիայում": 8771,
      "Քանաքեռ": 8772,
      "աստիճանով": 8773,
      "այլընտրանքային": 8774,
      "առանձնահատկ": 8775,
      "ՏՏ": 8776,
      "խնդրին": 8777,
      "անունները": 8778,
      "ռեժիմով": 8779,
      "ռեսուրսների": 8780,
      "ղեկավարն": 8781,
      "օգտագործվում": 8782,
      "ջրամ": 8783,
      "փորձարկ": 8784,
      "##ունակության": 8785,
      "վառելիքի": 8786,
      "Սոչ": 8787,
      "##ab": 8788,
      "կիրառելու": 8789,
      "ներառված": 8790,
      "փնտրում": 8791,
      "Հնարավոր": 8792,
      "ծեծել": 8793,
      "կմասնակցի": 8794,
      "համակարգչ": 8795,
      "Նախագահը": 8796,
      "Ֆրանս": 8797,
      "##ացմամբ": 8798,
      "##աշատ": 8799,
      "չունեցող": 8800,
      "Մոր": 8801,
      "##վանի": 8802,
      "նվեր": 8803,
      "ծովում": 8804,
      "Վերին": 8805,
      "գործին": 8806,
      "Նիկոլայ": 8807,
      "բաներ": 8808,
      "փաթեթը": 8809,
      "79": 8810,
      "դահլիճում": 8811,
      "անորոշ": 8812,
      "##րանա": 8813,
      "միջնորդություն": 8814,
      "##իային": 8815,
      "շահառու": 8816,
      "խախտումներ": 8817,
      "86": 8818,
      "միանալ": 8819,
      "ները": 8820,
      "խմբագիր": 8821,
      "նիստից": 8822,
      "հետեւանքների": 8823,
      "Իրաքում": 8824,
      "##յարդ": 8825,
      "չին": 8826,
      "կրակոցներ": 8827,
      "քամու": 8828,
      "իրականացրած": 8829,
      "Պատասխան": 8830,
      "ձեւավորման": 8831,
      "Նրանցից": 8832,
      "գերագույն": 8833,
      "##ատին": 8834,
      "մայոր": 8835,
      "##եյտենան": 8836,
      "ցր": 8837,
      "##ated": 8838,
      "Աբդուլ": 8839,
      "օվկիան": 8840,
      "կառավարություն": 8841,
      "ծնվ": 8842,
      "մահմեդ": 8843,
      "194": 8844,
      "ձյուն": 8845,
      "##up": 8846,
      "ապրելու": 8847,
      "Փար": 8848,
      "##ատրանսպորտային": 8849,
      "կոնտ": 8850,
      "նախարարն": 8851,
      "##ստական": 8852,
      "հաղորդվել": 8853,
      "կատարելագործ": 8854,
      "Մուշ": 8855,
      "խորհրդային": 8856,
      "մրցակցության": 8857,
      "Bloom": 8858,
      "աղջիկը": 8859,
      "դիմումը": 8860,
      "Ճանապարհային": 8861,
      "##այտառակ": 8862,
      "թիկն": 8863,
      "տեղահանված": 8864,
      "##ակած": 8865,
      "ճանաչելու": 8866,
      "պահպանելու": 8867,
      "սերնդի": 8868,
      "Inter": 8869,
      "Կազմակերպ": 8870,
      "քն": 8871,
      "ազդանշ": 8872,
      "Ներկայացուցիչների": 8873,
      "##ույք": 8874,
      "ամենամյա": 8875,
      "Հավաք": 8876,
      "Bloomberg": 8877,
      "##չելի": 8878,
      "Շենգավիթ": 8879,
      "##իտիմ": 8880,
      "84": 8881,
      "AF": 8882,
      "##իչներին": 8883,
      "##բանտարկ": 8884,
      "պարկ": 8885,
      "մտավախ": 8886,
      "ֆակուլտ": 8887,
      "##ովային": 8888,
      "##աբաց": 8889,
      "կրակի": 8890,
      "Բեն": 8891,
      "փոստ": 8892,
      "##աձեւ": 8893,
      "կապերը": 8894,
      "քարոզչ": 8895,
      "քիմիական": 8896,
      "ոռ": 8897,
      "ապագան": 8898,
      "մնա": 8899,
      "##and": 8900,
      "շուկայ": 8901,
      "Ամուլս": 8902,
      "Սուքի": 8903,
      "Մերս": 8904,
      "հակասում": 8905,
      "##սից": 8906,
      "##թերթի": 8907,
      "քանակությամբ": 8908,
      "ծառայել": 8909,
      "հավաքած": 8910,
      "Դին": 8911,
      "##արների": 8912,
      "հայտնաբերման": 8913,
      "սեփականության": 8914,
      "BMW": 8915,
      "կգն": 8916,
      "Արգենտին": 8917,
      "մագնիտուդ": 8918,
      "##տային": 8919,
      "տասը": 8920,
      "Սփյուռքի": 8921,
      "գետի": 8922,
      "ինֆ": 8923,
      "վերացման": 8924,
      "Թադ": 8925,
      "Հոգ": 8926,
      "ցանկում": 8927,
      "Նշանակ": 8928,
      "մարդուն": 8929,
      "Զվարթնոց": 8930,
      "Հրաչյա": 8931,
      "ռադիոկայ": 8932,
      "մեղադրանքը": 8933,
      "##ational": 8934,
      "նախարարություն": 8935,
      "բնակվում": 8936,
      "թաղամասում": 8937,
      "արեւմուտ": 8938,
      "ճարտարապետ": 8939,
      "##ահամալիր": 8940,
[...]
