{
  "version": "1.0",
  "truncation": null,
  "padding": null,
  "added_tokens": [
    {
      "id": 0,
      "content": "[UNK]",
      "single_word": false,
      "lstrip": false,
      "rstrip": false,
      "normalized": false,
      "special": true
    },
    {
      "id": 1,
      "content": "[CLS]",
      "single_word": false,
      "lstrip": false,
      "rstrip": false,
      "normalized": false,
      "special": true
    },
    {
      "id": 2,
      "content": "[SEP]",
      "single_word": false,
      "lstrip": false,
      "rstrip": false,
      "normalized": false,
      "special": true
    },
    {
      "id": 3,
      "content": "[PAD]",
      "single_word": false,
      "lstrip": false,
      "rstrip": false,
      "normalized": false,
      "special": true
    },
    {
      "id": 4,
      "content": "[MASK]",
      "single_word": false,
      "lstrip": false,
      "rstrip": false,
      "normalized": false,
      "special": true
    }
  ],
  "normalizer": null,
  "pre_tokenizer": {
    "type": "Whitespace"
  },
  "post_processor": {
    "type": "TemplateProcessing",
    "single": [
      {
        "SpecialToken": {
          "id": "[CLS]",
          "type_id": 0
        }
      },
      {
        "Sequence": {
          "id": "A",
          "type_id": 0
        }
      },
      {
        "SpecialToken": {
          "id": "[SEP]",
          "type_id": 0
        }
      }
    ],
    "pair": [
      {
        "SpecialToken": {
          "id": "[CLS]",
          "type_id": 0
        }
      },
      {
        "Sequence": {
          "id": "A",
          "type_id": 0
        }
      },
      {
        "SpecialToken": {
          "id": "[SEP]",
          "type_id": 0
        }
      },
      {
        "Sequence": {
          "id": "B",
          "type_id": 1
        }
      },
      {
        "SpecialToken": {
          "id": "[SEP]",
          "type_id": 1
        }
      }
    ],
    "special_tokens": {
      "[CLS]": {
        "id": "[CLS]",
        "ids": [
          1
        ],
        "tokens": [
          "[CLS]"
        ]
      },
      "[SEP]": {
        "id": "[SEP]",
        "ids": [
          2
        ],
        "tokens": [
          "[SEP]"
        ]
      }
    }
  },
  "decoder": {
    "type": "BPEDecoder",
    "suffix": "</w>"
  },
  "model": {
    "type": "BPE",
    "dropout": null,
    "unk_token": "[UNK]",
    "continuing_subword_prefix": null,
    "end_of_word_suffix": null,
    "fuse_unk": false,
    "byte_fallback": false,
    "ignore_merges": false,
    "vocab": {
      "[UNK]": 0,
      "[CLS]": 1,
      "[SEP]": 2,
      "[PAD]": 3,
      "[MASK]": 4,
      "!": 5,
      "\"": 6,
      "#": 7,
      "%": 8,
      "'": 9,
      "(": 10,
      ")": 11,
      "+": 12,
      ",": 13,
      "-": 14,
      ".": 15,
      "/": 16,
      "0": 17,
      "1": 18,
      "2": 19,
      "3": 20,
      "4": 21,
      "5": 22,
      "6": 23,
      "7": 24,
      "8": 25,
      "9": 26,
      ":": 27,
      ";": 28,
      "?": 29,
      "@": 30,
      "A": 31,
      "B": 32,
      "C": 33,
      "D": 34,
      "E": 35,
      "F": 36,
      "G": 37,
      "H": 38,
      "I": 39,
      "J": 40,
      "K": 41,
      "L": 42,
      "M": 43,
      "N": 44,
      "O": 45,
      "P": 46,
      "Q": 47,
      "R": 48,
      "S": 49,
      "T": 50,
      "U": 51,
      "V": 52,
      "W": 53,
      "X": 54,
      "Y": 55,
      "Z": 56,
      "[": 57,
      "]": 58,
      "_": 59,
      "`": 60,
      "a": 61,
      "b": 62,
      "c": 63,
      "d": 64,
      "e": 65,
      "f": 66,
      "g": 67,
      "h": 68,
      "i": 69,
      "j": 70,
      "k": 71,
      "l": 72,
      "m": 73,
      "n": 74,
      "o": 75,
      "p": 76,
      "q": 77,
      "r": 78,
      "s": 79,
      "t": 80,
      "u": 81,
      "v": 82,
      "w": 83,
      "x": 84,
      "y": 85,
      "z": 86,
      "«": 87,
      "´": 88,
      "»": 89,
      "А": 90,
      "Б": 91,
      "В": 92,
      "Г": 93,
      "Д": 94,
      "Е": 95,
      "З": 96,
      "И": 97,
      "К": 98,
      "Л": 99,
      "М": 100,
      "Н": 101,
      "О": 102,
      "П": 103,
      "Р": 104,
      "С": 105,
      "Т": 106,
      "У": 107,
      "Ф": 108,
      "Х": 109,
      "Ц": 110,
      "Ч": 111,
      "Ш": 112,
      "Ъ": 113,
      "Ь": 114,
      "Э": 115,
      "Ю": 116,
      "Я": 117,
      "а": 118,
      "б": 119,
      "в": 120,
      "г": 121,
      "д": 122,
      "е": 123,
      "ж": 124,
      "з": 125,
      "и": 126,
      "й": 127,
      "к": 128,
      "л": 129,
      "м": 130,
      "н": 131,
      "о": 132,
      "п": 133,
      "р": 134,
      "с": 135,
      "т": 136,
      "у": 137,
      "ф": 138,
      "х": 139,
      "ц": 140,
      "ч": 141,
      "ш": 142,
      "щ": 143,
      "ъ": 144,
      "ы": 145,
      "ь": 146,
      "э": 147,
      "ю": 148,
      "я": 149,
      "ё": 150,
      "Ա": 151,
      "Բ": 152,
      "Գ": 153,
      "Դ": 154,
      "Ե": 155,
      "Զ": 156,
      "Է": 157,
      "Ը": 158,
      "Թ": 159,
      "Ժ": 160,
      "Ի": 161,
      "Լ": 162,
      "Խ": 163,
      "Ծ": 164,
      "Կ": 165,
      "Հ": 166,
      "Ձ": 167,
      "Ղ": 168,
      "Ճ": 169,
      "Մ": 170,
      "Յ": 171,
      "Ն": 172,
      "Շ": 173,
      "Ո": 174,
      "Չ": 175,
      "Պ": 176,
      "Ջ": 177,
      "Ռ": 178,
      "Ս": 179,
      "Վ": 180,
      "Տ": 181,
      "Ր": 182,
      "Ց": 183,
      "Ւ": 184,
      "Փ": 185,
      "Ք": 186,
      "Օ": 187,
      "Ֆ": 188,
      "ՙ": 189,
      "՚": 190,
      "՛": 191,
      "՜": 192,
      "՝": 193,
      "՞": 194,
      "ա": 195,
      "բ": 196,
      "գ": 197,
      "դ": 198,
      "ե": 199,
      "զ": 200,
      "է": 201,
      "ը": 202,
      "թ": 203,
      "ժ": 204,
      "ի": 205,
      "լ": 206,
      "խ": 207,
      "ծ": 208,
      "կ": 209,
      "հ": 210,
      "ձ": 211,
      "ղ": 212,
      "ճ": 213,
      "մ": 214,
      "յ": 215,
      "ն": 216,
      "շ": 217,
      "ո": 218,
      "չ": 219,
      "պ": 220,
      "ջ": 221,
      "ռ": 222,
      "ս": 223,
      "վ": 224,
      "տ": 225,
      "ր": 226,
      "ց": 227,
      "ւ": 228,
      "փ": 229,
      "ք": 230,
      "օ": 231,
      "ֆ": 232,
      "և": 233,
      "—": 234,
      "•": 235,
      "…": 236,
      "ու": 237,
      "ան": 238,
      "ար": 239,
      "եր": 240,
      "ակ": 241,
      "այ": 242,
      "ին": 243,
      "որ": 244,
      "ել": 245,
      "ում": 246,
      "ներ": 247,
      "ութ": 248,
      "ությ": 249,
      "են": 250,
      "ամ": 251,
      "ուն": 252,
      "ատ": 253,
      "աս": 254,
      "ավ": 255,
      "ական": 256,
      "աց": 257,
      "եւ": 258,
      "ով": 259,
      "ություն": 260,
      "ետ": 261,
      "ող": 262,
      "նա": 263,
      "առ": 264,
      "ության": 265,
      "ած": 266,
      "իր": 267,
      "ների": 268,
      "ահ": 269,
      "ման": 270,
      "ագ": 271,
      "ապ": 272,
      "անի": 273,
      "եղ": 274,
      "մի": 275,
      "ազ": 276,
      "ես": 277,
      "ալ": 278,
      "ստ": 279,
      "աղ": 280,
      "աշ": 281,
      "եկ": 282,
      "դր": 283,
      "ված": 284,
      "համ": 285,
      "յան": 286,
      "վել": 287,
      "աստ": 288,
      "ոն": 289,
      "ային": 290,
      "ից": 291,
      "ըն": 292,
      "ները": 293,
      "եց": 294,
      "աք": 295,
      "հետ": 296,
      "ավոր": 297,
      "տար": 298,
      "ուր": 299,
      "հայ": 300,
      "նախ": 301,
      "երի": 302,
      "ործ": 303,
      "մաս": 304,
      "այն": 305,
      "ենք": 306,
      "աբ": 307,
      "պատ": 308,
      "իս": 309,
      "արդ": 310,
      "անց": 311,
      "կար": 312,
      "իկ": 313,
      "ույ": 314,
      "ախ": 315,
      "օր": 316,
      "ուս": 317,
      "ությունը": 318,
      "տն": 319,
      "ելու": 320,
      "հան": 321,
      "եմ": 322,
      "արկ": 323,
      "ոս": 324,
      "արտ": 325,
      "գործ": 326,
      "քի": 327,
      "դի": 328,
      "տեղ": 329,
      "անակ": 330,
      "ամբ": 331,
      "րա": 332,
      "աջ": 333,
      "վեր": 334,
      "հար": 335,
      "անք": 336,
      "այի": 337,
      "Հայ": 338,
      "ոլ": 339,
      "տր": 340,
      "ոց": 341,
      "համար": 342,
      "ակց": 343,
      "եռ": 344,
      "անում": 345,
      "յանը": 346,
      "փո": 347,
      "վում": 348,
      "կր": 349,
      "կայ": 350,
      "որդ": 351,
      "ինչ": 352,
      "ադր": 353,
      "ժամ": 354,
      "մե": 355,
      "աղաք": 356,
      "Ար": 357,
      "վար": 358,
      "ուղ": 359,
      "միջ": 360,
      "մասին": 361,
      "գր": 362,
      "ուց": 363,
      "ավար": 364,
      "Այ": 365,
      "արգ": 366,
      "ագր": 367,
      "աշխ": 368,
      "թե": 369,
      "հի": 370,
      "պետ": 371,
      "Հայաստ": 372,
      "քաղաք": 373,
      "փոխ": 374,
      "հր": 375,
      "էր": 376,
      "արձ": 377,
      "ադ": 378,
      "ատար": 379,
      "առաջ": 380,
      "երը": 381,
      "ոտ": 382,
      "պես": 383,
      "անգ": 384,
      "20": 385,
      "ելի": 386,
      "բեր": 387,
      "արար": 388,
      "այս": 389,
      "ազմ": 390,
      "քում": 391,
      "ությունների": 392,
      "ներին": 393,
      "նշ": 394,
      "պան": 395,
      "ապետ": 396,
      "լի": 397,
      "իշ": 398,
      "»,": 399,
      "այդ": 400,
      "խան": 401,
      "ընդ": 402,
      "քն": 403,
      "ոչ": 404,
      "եպ": 405,
      "հայտն": 406,
      "թի": 407,
      "նել": 408,
      "նախագ": 409,
      "ակի": 410,
      "ոշ": 411,
      "աշտ": 412,
      "իտ": 413,
      "մեկ": 414,
      "աշխատ": 415,
      "չի": 416,
      "ությամբ": 417,
      "վի": 418,
      "կող": 419,
      "րջ": 420,
      "կայաց": 421,
      "ՀՀ": 422,
      "յալ": 423,
      "անդ": 424,
      "եք": 425,
      "Այս": 426,
      "ափ": 427,
      "յանի": 428,
      "տես": 429,
      "նախագահ": 430,
      "նոր": 431,
      "սկ": 432,
      "ումը": 433,
      "հարց": 434,
      "Եր": 435,
      "պաշտ": 436,
      "մար": 437,
      "»,-": 438,
      "ներում": 439,
      "պահ": 440,
      "անկ": 441,
      "րդ": 442,
      "ժամանակ": 443,
      "երկր": 444,
      "այլ": 445,
      "անը": 446,
      "լին": 447,
      "նդ": 448,
      "աբեր": 449,
      "ընթ": 450,
      "ելով": 451,
      "հատ": 452,
      "կեր": 453,
      "նում": 454,
      "նի": 455,
      "տարար": 456,
      "ողով": 457,
      "կան": 458,
      "ոստ": 459,
      "ացի": 460,
      "իրավ": 461,
      "հայտարար": 462,
      "Հայաստանի": 463,
      "00": 464,
      "րել": 465,
      "կարող": 466,
      "ներկայաց": 467,
      "ոլոր": 468,
      "նախարար": 469,
      "նաեւ": 470,
      "անձ": 471,
      "րի": 472,
      "որոշ": 473,
      "քը": 474,
      "ացել": 475,
      "հաս": 476,
      "յուն": 477,
      "իչ": 478,
      "մեր": 479,
      "ուժ": 480,
      "կառ": 481,
      "աթ": 482,
      "շար": 483,
      "ընթաց": 484,
      "աձ": 485,
      "շտ": 486,
      "ույն": 487,
      "դեպ": 488,
      "ահման": 489,
      "որոն": 490,
      "օգ": 491,
      "ություններ": 492,
      "ապար": 493,
      "ծառ": 494,
      "ագործ": 495,
      "ժողով": 496,
      "տո": 497,
      "պայ": 498,
      "պետք": 499,
      "եջ": 500,
      "երկ": 501,
      "տարած": 502,
      "վա": 503,
      "էլ": 504,
      "մասն": 505,
      "նչ": 506,
      "ությունները": 507,
      "ուկ": 508,
      "խոր": 509,
      "գային": 510,
      "նր": 511,
      "խոս": 512,
      "դատ": 513,
      "վարչ": 514,
      "իրական": 515,
      "կապ": 516,
      "շրջ": 517,
      "այր": 518,
      "մարդ": 519,
      "ծառայ": 520,
      "ենց": 521,
      "բն": 522,
      "»:": 523,
      "ույց": 524,
      "պար": 525,
      "վող": 526,
      "հավ": 527,
      "որը": 528,
      "կազմ": 529,
      "ճան": 530,
      "իսի": 531,
      "իսկ": 532,
      "դիմ": 533,
      "նարկ": 534,
      "ակից": 535,
      "ուլ": 536,
      "ունեց": 537,
      "հիմ": 538,
      "իկան": 539,
      "այում": 540,
      "արի": 541,
      "մից": 542,
      "այց": 543,
      "ամեն": 544,
      "սպ": 545,
      "բեջ": 546,
      "աչ": 547,
      "հաղ": 548,
      "մեջ": 549,
      "ընտր": 550,
      "մամբ": 551,
      "սահման": 552,
      "ընկեր": 553,
      "տի": 554,
      "րագր": 555,
      "կատար": 556,
      "յա": 557,
      "տեղեկ": 558,
      "ակում": 559,
      "ճառ": 560,
      "բաց": 561,
      "մոտ": 562,
      "ակարգ": 563,
      "ներից": 564,
      "ավելի": 565,
      "երին": 566,
      "նական": 567,
      "աժ": 568,
      "կողմից": 569,
      "երբ": 570,
      "բերի": 571,
      "գի": 572,
      "հետո": 573,
      "ակցության": 574,
      "հո": 575,
      "երթ": 576,
      "վրա": 577,
      "ԱՄ": 578,
      "րաստ": 579,
      "ացման": 580,
      "ուտ": 581,
      "կամ": 582,
      "էին": 583,
      "201": 584,
      "որձ": 585,
      "ակեր": 586,
      "ներով": 587,
      "քով": 588,
      "կին": 589,
      "նկ": 590,
      "եմբերի": 591,
      "րո": 592,
      "ասխան": 593,
      "թվ": 594,
      "քր": 595,
      "ասել": 596,
      "ալի": 597,
      "ությանը": 598,
      "ազգային": 599,
      "մբ": 600,
      "անվ": 601,
      "ԱՄՆ": 602,
      "յուր": 603,
      "ողջ": 604,
      "միջոց": 605,
      "ունեն": 606,
      "դրամ": 607,
      "կա": 608,
      "կառավար": 609,
      "ապահ": 610,
      "ուշ": 611,
      "արդյուն": 612,
      "այսօր": 613,
      "իմ": 614,
      "փորձ": 615,
      "խորհր": 616,
      "զի": 617,
      "հն": 618,
      "հրա": 619,
      "անր": 620,
      "բոլոր": 621,
      "ապես": 622,
      "տեղի": 623,
      "կեն": 624,
      "ղեկ": 625,
      "նելու": 626,
      "բան": 627,
      "աճ": 628,
      "am": 629,
      "Ռուս": 630,
      "տրոն": 631,
      "շատ": 632,
      "վերջ": 633,
      "հաղորդ": 634,
      "Ադր": 635,
      "ակալ": 636,
      "Ադրբեջ": 637,
      "ղեկավար": 638,
      "իրենց": 639,
      "որի": 640,
      "պաշտոն": 641,
      "արավոր": 642,
      "իրականաց": 643,
      "քաղաքական": 644,
      "հետեւ": 645,
      "եզ": 646,
      "քանի": 647,
      "վերաբեր": 648,
      "ներն": 649,
      "դեմ": 650,
      "ակայն": 651,
      "Թուր": 652,
      "կո": 653,
      "ոստիկան": 654,
      "զին": 655,
      "անական": 656,
      "աշին": 657,
      "ուղղ": 658,
      "ինչպես": 659,
      "ակերպ": 660,
      "դիպ": 661,
      "ակը": 662,
      "ությունն": 663,
      "տանգ": 664,
      "եյ": 665,
      "չեն": 666,
      "իշխան": 667,
      "եղծ": 668,
      "Երեւ": 669,
      "թվական": 670,
      "իայի": 671,
      "պանության": 672,
      "ազատ": 673,
      "որոնք": 674,
      "Ու": 675,
      "ապատ": 676,
      "լու": 677,
      "ատես": 678,
      "ումների": 679,
      "բարձ": 680,
      "10": 681,
      "հեռ": 682,
      "ունի": 683,
      "ձեռ": 684,
      "որպես": 685,
      "եղել": 686,
      "րամ": 687,
      "Ռուսաստ": 688,
      "պայման": 689,
      "հրաժ": 690,
      "աշխատանք": 691,
      "հնարավոր": 692,
      "Մի": 693,
      "ոյ": 694,
      "ավել": 695,
      "գամ": 696,
      "արժ": 697,
      "անս": 698,
      "Ան": 699,
      "եւոր": 700,
      "հանր": 701,
      "ընթացքում": 702,
      "յուղ": 703,
      "տե": 704,
      "մտ": 705,
      "քան": 706,
      "Իր": 707,
      "ությունից": 708,
      "տեմբերի": 709,
      "գլ": 710,
      "մեծ": 711,
      "զբ": 712,
      "ենթ": 713,
      "խն": 714,
      "ույթ": 715,
      "հայտնում": 716,
      "Թուրքի": 717,
      "մեղ": 718,
      "վիր": 719,
      "նդիր": 720,
      "բաժ": 721,
      "Եվ": 722,
      "Նա": 723,
      "հայտնել": 724,
      "կազմակերպ": 725,
      "պատճառ": 726,
      "գտն": 727,
      "հանդիպ": 728,
      "NE": 729,
      "WS": 730,
      "շենք": 731,
      "գնա": 732,
      "անջ": 733,
      "NEWS": 734,
      "քեն": 735,
      "նկատ": 736,
      "շարուն": 737,
      "դար": 738,
      "19": 739,
      "նույն": 740,
      "փաստ": 741,
      "իճ": 742,
      "նրա": 743,
      "ունք": 744,
      "ասաց": 745,
      "կական": 746,
      "մինչ": 747,
      "ցախ": 748,
      "դա": 749,
      "վեց": 750,
      "մենք": 751,
      "խնդիր": 752,
      "ուցիչ": 753,
      "օրեն": 754,
      "բարձր": 755,
      "թիվ": 756,
      "եական": 757,
      "հակ": 758,
      "մեքեն": 759,
      "կաց": 760,
      "բար": 761,
      "նման": 762,
      "հայտ": 763,
      "հանձ": 764,
      "նշել": 765,
      "քննարկ": 766,
      "հայտարարել": 767,
      "համաձ": 768,
      "ատվ": 769,
      "սկս": 770,
      "խմբ": 771,
      "ավտո": 772,
      "գիտ": 773,
      "յուս": 774,
      "օգտ": 775,
      "օրին": 776,
      "նաս": 777,
      "երկու": 778,
      "ճանապար": 779,
      "պատասխան": 780,
      "խաղ": 781,
      "ոհ": 782,
      "գործող": 783,
      "ցուց": 784,
      "ամյա": 785,
      "եշտ": 786,
      "գլխ": 787,
      "ուրջ": 788,
      "Հանր": 789,
      "վարչապետ": 790,
      "եռն": 791,
      "մասնակց": 792,
      "կարգ": 793,
      "գյուղ": 794,
      "կենտրոն": 795,
      "պարզ": 796,
      "ստեղծ": 797,
      "Արցախ": 798,
      "յանին": 799,
      "մահ": 800,
      "քեր": 801,
      "անդամ": 802,
      "մանը": 803,
      "ծրագր": 804,
      "մարտ": 805,
      "հազ": 806,
      "աշրջ": 807,
      "անից": 808,
      "եթե": 809,
      "անալ": 810,
      "համակարգ": 811,
      "մարզ": 812,
      "նպատ": 813,
      "դես": 814,
      "անգամ": 815,
      "հաշ": 816,
      "ոցի": 817,
      "հաստ": 818,
      "առաջին": 819,
      "միայն": 820,
      "ուրս": 821,
      "դոլ": 822,
      "տարի": 823,
      "մեն": 824,
      "տարբեր": 825,
      "Հար": 826,
      "աշխար": 827,
      "պետական": 828,
      "ընդուն": 829,
      "ափոխ": 830,
      "ողների": 831,
      "հուն": 832,
      "արդեն": 833,
      "ուզ": 834,
      "ացին": 835,
      "ացած": 836,
      "առնա": 837,
      "ասն": 838,
      "յանն": 839,
      "սակայն": 840,
      "ուստ": 841,
      "չէ": 842,
      "տնտես": 843,
      "իվ": 844,
      "ումներ": 845,
      "դատար": 846,
      "ունեցել": 847,
      "15": 848,
      "ռազմ": 849,
      "ինքն": 850,
      "պահանջ": 851,
      "տալ": 852,
      "կոս": 853,
      "թեր": 854,
      "իլ": 855,
      "գամավոր": 856,
      "նախկին": 857,
      "գլխավոր": 858,
      "ուլի": 859,
      "Առ": 860,
      "Հանրապետ": 861,
      "Կար": 862,
      "զր": 863,
      "աքն": 864,
      "անվտանգ": 865,
      "գում": 866,
      "բնակ": 867,
      "տվ": 868,
      "Նախ": 869,
      "բայց": 870,
      "իք": 871,
      "ոք": 872,
      "կուս": 873,
      "միջազգային": 874,
      "ակել": 875,
      "ցանկ": 876,
      "զարգ": 877,
      "Փաշին": 878,
      "լինի": 879,
      "»-": 880,
      "բանակ": 881,
      "պարտ": 882,
      "կետ": 883,
      "դեռ": 884,
      "լուծ": 885,
      "անքով": 886,
      "նպատակ": 887,
      "վե": 888,
      "պր": 889,
      "ետր": 890,
      "ակայ": 891,
      "յու": 892,
      "քրեական": 893,
      "եւս": 894,
      "մլ": 895,
      "Հայաստանում": 896,
      "նրանց": 897,
      "տոկոս": 898,
      "Սարգ": 899,
      "հաստատ": 900,
      "նշանակ": 901,
      "վերջին": 902,
      "30": 903,
      "պատգամավոր": 904,
      "վերաբերյալ": 905,
      "մեղադր": 906,
      "հրապար": 907,
      "վելու": 908,
      "պատրաստ": 909,
      "հիվ": 910,
      "ատր": 911,
      "տում": 912,
      "որեն": 913,
      "ագույն": 914,
      "եցին": 915,
      "կողմ": 916,
      "կյան": 917,
      "երով": 918,
      "մարմ": 919,
      "խոսքով": 920,
      "Ադրբեջանի": 921,
      "իջ": 922,
      "Մենք": 923,
      "ժամը": 924,
      "ադարձ": 925,
      "րոպ": 926,
      "Սարգս": 927,
      "գծ": 928,
      "կարծ": 929,
      "անին": 930,
      "ուրդ": 931,
      "ճանապարհ": 932,
      "Այդ": 933,
      "համաձայն": 934,
      "հաղորդում": 935,
      "վազ": 936,
      "ավի": 937,
      "անել": 938,
      "12": 939,
      "փող": 940,
      "սր": 941,
      "դուրս": 942,
      "հարաբեր": 943,
      "արկել": 944,
      "վարի": 945,
      "ներկայացուցիչ": 946,
      "նկատմամբ": 947,
      "ահայ": 948,
      "վան": 949,
      "նության": 950,
      "հազար": 951,
      "ավիր": 952,
      "Ազ": 953,
      "երում": 954,
      "ոնի": 955,
      "վեն": 956,
      "դարձ": 957,
      "հրաժեշտ": 958,
      "նիստ": 959,
      "նաև": 960,
      "շակ": 961,
      "վիճ": 962,
      "մամ": 963,
      "նած": 964,
      "ասում": 965,
      "լր": 966,
      "երեկ": 967,
      "er": 968,
      "կոն": 969,
      "սար": 970,
      "վնաս": 971,
      "տվյալ": 972,
      "Ռուսաստանի": 973,
      "թուր": 974,
      "ԱԺ": 975,
      "ակիչ": 976,
      "արել": 977,
      "11": 978,
      "ոբ": 979,
      "իրավիճ": 980,
      "նենք": 981,
      "գեր": 982,
      "նաժողով": 983,
      "ագիր": 984,
      "փոխանց": 985,
      "մատ": 986,
      "մակ": 987,
      "համագործ": 988,
      "աբար": 989,
      "րաին": 990,
      "կոչ": 991,
      "նելով": 992,
      "դոլար": 993,
      "քին": 994,
      "զոր": 995,
      "ացրել": 996,
      "շահ": 997,
      "գն": 998,
      "Նիկ": 999,
      "վաղ": 1000,
      "լավ": 1001,
      "ությունում": 1002,
      "նաբեր": 1003,
      "հաջ": 1004,
      "խորհրդար": 1005,
      "անհրաժեշտ": 1006,
      "մինչեւ": 1007,
      "ապահով": 1008,
      "անքի": 1009,
      "ադիր": 1010,
      "աբան": 1011,
      "ինը": 1012,
      "ոգ": 1013,
      "ռուս": 1014,
      "ություններին": 1015,
      "ույցում": 1016,
      "աշխարհ": 1017,
      "Ինչ": 1018,
      "յութ": 1019,
      "կն": 1020,
      "շուրջ": 1021,
      "թվականի": 1022,
      "մր": 1023,
      "արակ": 1024,
      "շարունակ": 1025,
      "զոհ": 1026,
      "Հայաստան": 1027,
      "երն": 1028,
      "շրջանակ": 1029,
      "համայն": 1030,
      "տրամ": 1031,
      "ավորման": 1032,
      "տեղափոխ": 1033,
      "հարկ": 1034,
      "չափ": 1035,
      "քար": 1036,
      "օգտագործ": 1037,
      "բնակիչ": 1038,
      "եծ": 1039,
      "դված": 1040,
      "պատմ": 1041,
      "16": 1042,
      "հայտնաբեր": 1043,
      "կաս": 1044,
      "Նիկոլ": 1045,
      "ստաց": 1046,
      "ստոր": 1047,
      "գիշ": 1048,
      "անցկաց": 1049,
      "ոռ": 1050,
      "որտեղ": 1051,
      "ույլ": 1052,
      "ումները": 1053,
      "Թուրքիայի": 1054,
      "անվտանգության": 1055,
      "կիր": 1056,
      "հերթ": 1057,
      "իրավունք": 1058,
      "եփ": 1059,
      "տվել": 1060,
      "օրենք": 1061,
      "երե": 1062,
      "Ալ": 1063,
      "հոդված": 1064,
      "նորդ": 1065,
      "դեպքում": 1066,
      "14": 1067,
      "18": 1068,
      "արաբ": 1069,
      "ինք": 1070,
      "թույլ": 1071,
      "նշեց": 1072,
      "երից": 1073,
      "դիր": 1074,
      "ոմ": 1075,
      "մամուլի": 1076,
      "լրագր": 1077,
      "րանք": 1078,
      "Արցախի": 1079,
      "ոստիկանության": 1080,
      "հիվանդ": 1081,
      "տարվա": 1082,
      "օդ": 1083,
      "նվազ": 1084,
      "վայր": 1085,
      "քաղաքացին": 1086,
      "վճ": 1087,
      "երկրի": 1088,
      "հասց": 1089,
      "Հանրապետության": 1090,
      "խաղաղ": 1091,
      "ՀԿ": 1092,
      "ամբողջ": 1093,
      "գրում": 1094,
      "անոց": 1095,
      "անիշ": 1096,
      "ավորված": 1097,
      "հանուր": 1098,
      "17": 1099,
      "փոփոխ": 1100,
      "Ես": 1101,
      "իան": 1102,
      "պատճառով": 1103,
      "նրան": 1104,
      "բռ": 1105,
      "Երեւանի": 1106,
      "ազմի": 1107,
      "նախատես": 1108,
      "ախտ": 1109,
      "կապված": 1110,
      "հանգ": 1111,
      "25": 1112,
      "պաշտպան": 1113,
      "տղ": 1114,
      "իզ": 1115,
      "նախագահի": 1116,
      "ոզ": 1117,
      "կրաին": 1118,
      "համապատ": 1119,
      "Նրա": 1120,
      "պաշտպանության": 1121,
      "սի": 1122,
      "Ուկրաին": 1123,
      "քների": 1124,
      "նագ": 1125,
      "ոսի": 1126,
      "հանց": 1127,
      "արաբաղ": 1128,
      "վարկ": 1129,
      "միջեւ": 1130,
      "ազր": 1131,
      "ավորապես": 1132,
      "ղթ": 1133,
      "մեքենան": 1134,
      "եստ": 1135,
      "Նոր": 1136,
      "գալ": 1137,
      "Հիշ": 1138,
      "ունե": 1139,
      "Սեր": 1140,
      "13": 1141,
      "Ֆր": 1142,
      "մլն": 1143,
      "արգել": 1144,
      "Սա": 1145,
      "փր": 1146,
      "ԱԳ": 1147,
      "an": 1148,
      "շնոր": 1149,
      "կարեւոր": 1150,
      "23": 1151,
      "ուք": 1152,
      "քաղաքապետ": 1153,
      "ագետ": 1154,
      "քաղաքի": 1155,
      "կալ": 1156,
      "անա": 1157,
      "24": 1158,
      "աջակց": 1159,
      "երկրների": 1160,
      "պատեր": 1161,
      "հանձնաժողով": 1162,
      "առանց": 1163,
      "Ըստ": 1164,
      "ամաս": 1165,
      "յակ": 1166,
      "արան": 1167,
      "Ավ": 1168,
      "ելը": 1169,
      "օրենս": 1170,
      "ուգ": 1171,
      "ողական": 1172,
      "դադ": 1173,
      "ազդ": 1174,
      "առաջարկ": 1175,
      ".-": 1176,
      "ոսկ": 1177,
      "շաբ": 1178,
      "առում": 1179,
      "արտադր": 1180,
      "հավաք": 1181,
      "ԱԿ": 1182,
      "ենի": 1183,
      "22": 1184,
      "տնօրեն": 1185,
      "քայլ": 1186,
      "եցնենք": 1187,
      "իջոց": 1188,
      "21": 1189,
      "բանկ": 1190,
      "որում": 1191,
      "մրց": 1192,
      "ծն": 1193,
      "մշակ": 1194,
      "թվում": 1195,
      "ավարտ": 1196,
      "Այն": 1197,
      "200": 1198,
      "թող": 1199,
      "հայկական": 1200,
      "որոնց": 1201,
      "եւէ": 1202,
      "հավել": 1203,
      "Հով": 1204,
      "մայ": 1205,
      "տաս": 1206,
      "նչական": 1207,
      "ատի": 1208,
      "ընդհանուր": 1209,
      "ուբ": 1210,
      "գնահատ": 1211,
      "կած": 1212,
      "ձեռք": 1213,
      "բանակց": 1214,
      "ակտի": 1215,
      "Հիշեցնենք": 1216,
      "անդր": 1217,
      "Արմեն": 1218,
      "մարդկ": 1219,
      "տարածաշրջ": 1220,
      "հրաժար": 1221,
      "քային": 1222,
      "ճանաչ": 1223,
      "կառավարության": 1224,
      "անտ": 1225,
      "ստացել": 1226,
      "ատեղ": 1227,
      "ացնում": 1228,
      "տակ": 1229,
      "որն": 1230,
      "մարզի": 1231,
      "խնդր": 1232,
      "ժամկետ": 1233,
      "ձեւ": 1234,
      "ումն": 1235,
      "ընդգծ": 1236,
      "նրանք": 1237,
      "կառուց": 1238,
      "որպեսզի": 1239,
      "ացնել": 1240,
      "զբաղ": 1241,
      "Վրաստ": 1242,
      "դաս": 1243,
      "Բր": 1244,
      "ուղղությամբ": 1245,
      "բժ": 1246,
      "հասարակ": 1247,
      "զրույցում": 1248,
      "տանի": 1249,
      "սեփ": 1250,
      "ապա": 1251,
      "տնտեսական": 1252,
      "ֆին": 1253,
      "զարգացման": 1254,
      "մեկը": 1255,
      "գործընթաց": 1256,
      "կարար": 1257,
      "տրամադր": 1258,
      "դեսպան": 1259,
      "բր": 1260,
      "եվ": 1261,
      "անագր": 1262,
      "նություն": 1263,
      "ռազմական": 1264,
      "եկել": 1265,
      "աքին": 1266,
      "բող": 1267,
      "քարտ": 1268,
      "աշխատակից": 1269,
      "շարժ": 1270,
      "երբակալ": 1271,
      "թեկ": 1272,
      "Ավել": 1273,
      "արդյունքում": 1274,
      "Նշենք": 1275,
      "ՌԴ": 1276,
      "կոր": 1277,
      "ընկերության": 1278,
      "հատուկ": 1279,
      "տեխն": 1280,
      "դպր": 1281,
      "դրա": 1282,
      "ստահ": 1283,
      "գործունե": 1284,
      "ըստ": 1285,
      "ադրբեջ": 1286,
      "գրել": 1287,
      "վաճառ": 1288,
      "սպաս": 1289,
      "սպան": 1290,
      "պեր": 1291,
      "արյանը": 1292,
      "կանխ": 1293,
      "համապատասխան": 1294,
      "ապրի": 1295,
      "նակ": 1296,
      "որեւէ": 1297,
      "պահպան": 1298,
      "օրը": 1299,
      "հետեւանքով": 1300,
      "հատված": 1301,
      "Վեր": 1302,
      "ախազ": 1303,
      "ահար": 1304,
      "համալ": 1305,
      "գտնվող": 1306,
      "ԵՄ": 1307,
      "Ոստ": 1308,
      "եկտ": 1309,
      "հեղ": 1310,
      "Ղարաբաղ": 1311,
      "գիշերը": 1312,
      "ձերբակալ": 1313,
      "առանձ": 1314,
      "թեկնած": 1315,
      "զգ": 1316,
      "մն": 1317,
      "երեք": 1318,
      "իրեն": 1319,
      "միլի": 1320,
      "արժեք": 1321,
      "փողոց": 1322,
      "Ամ": 1323,
      "ոնա": 1324,
      "քերի": 1325,
      "հայտնի": 1326,
      "ովը": 1327,
      "Ոստիկան": 1328,
      "աբեկ": 1329,
      "բազմ": 1330,
      "տարին": 1331,
      "եկան": 1332,
      "ույթի": 1333,
      "ծառայության": 1334,
      "շրջան": 1335,
      "մեզ": 1336,
      "ոկ": 1337,
      "առողջ": 1338,
      "հետև": 1339,
      "ֆինանս": 1340,
      "շարք": 1341,
      "համարում": 1342,
      "ոթ": 1343,
      "Համ": 1344,
      "հին": 1345,
      "քաղաքացի": 1346,
      "Աշ": 1347,
      "դեր": 1348,
      "Ազգային": 1349,
      "ժմ": 1350,
      "Հր": 1351,
      "գազ": 1352,
      "ներդր": 1353,
      "առնալ": 1354,
      "նպատակով": 1355,
      "անկար": 1356,
      "հաջող": 1357,
      "կոմի": 1358,
      "փակ": 1359,
      "ամարտ": 1360,
      "Ֆրանս": 1361,
      "կայում": 1362,
      "ումբ": 1363,
      "որով": 1364,
      "սեփական": 1365,
      "Գեր": 1366,
      "կուսակցության": 1367,
      "Մեր": 1368,
      "արդար": 1369,
      "դե": 1370,
      "ոջ": 1371,
      "արտահ": 1372,
      "այել": 1373,
      "ահատ": 1374,
      "ունենալ": 1375,
      "ամարդ": 1376,
      "եղաս": 1377,
      "հոգ": 1378,
      "Եթե": 1379,
      "ևոր": 1380,
      "նախաձ": 1381,
      "պիսի": 1382,
      "տան": 1383,
      "աստի": 1384,
      "սեպ": 1385,
      "քննչական": 1386,
      "գումար": 1387,
      "հարձ": 1388,
      "աման": 1389,
      "ժողովրդ": 1390,
      "հայր": 1391,
      "ստորագր": 1392,
      "Վարդ": 1393,
      "Չին": 1394,
      "Երև": 1395,
      "մյուս": 1396,
      "նավ": 1397,
      "վոր": 1398,
      "ուլիսի": 1399,
      "».": 1400,
      "կլինի": 1401,
      "),": 1402,
      "կրթ": 1403,
      "արձանագր": 1404,
      "արեց": 1405,
      "վտանգ": 1406,
      "միջոցառ": 1407,
      "ովի": 1408,
      "հոկ": 1409,
      "գոր": 1410,
      "մայր": 1411,
      "մանրամ": 1412,
      "նող": 1413,
      "դատախազ": 1414,
      "կիրառ": 1415,
      "ձեռնարկ": 1416,
      "թուրք": 1417,
      "ընտանի": 1418,
      "իստ": 1419,
      "ենթարկ": 1420,
      "):": 1421,
      "Իրանի": 1422,
      "վածք": 1423,
      "ներկայացրել": 1424,
      "հոդվածի": 1425,
      "ունեցող": 1426,
      "եքս": 1427,
      "բյուր": 1428,
      "ամս": 1429,
      "պիտ": 1430,
      "ուսում": 1431,
      "հիմնական": 1432,
      "որոշում": 1433,
      "ռուսական": 1434,
      "ակցությունը": 1435,
      "50": 1436,
      "Իսկ": 1437,
      "երիտաս": 1438,
      "ընդդիմ": 1439,
      "ակտիվ": 1440,
      "երիտասարդ": 1441,
      "նոյ": 1442,
      "Հակ": 1443,
      "համագործակցության": 1444,
      "Մոսկ": 1445,
      "թվականին": 1446,
      "վարչության": 1447,
      "հրապարակ": 1448,
      "on": 1449,
      "ցերեկ": 1450,
      "հիշ": 1451,
      "երեխան": 1452,
      "վստահ": 1453,
      "եկտեմբերի": 1454,
      "գրավ": 1455,
      "Ինչպես": 1456,
      "Ավելի": 1457,
      "կատարել": 1458,
      "ապարտ": 1459,
      "տուժ": 1460,
      "es": 1461,
      "27": 1462,
      "ինի": 1463,
      "en": 1464,
      "Խաչ": 1465,
      "ախոս": 1466,
      "թիռ": 1467,
      "սպոր": 1468,
      "փաստաթ": 1469,
      "ազգ": 1470,
      "ունեցած": 1471,
      "նամ": 1472,
      "in": 1473,
      "արձակ": 1474,
      "արագ": 1475,
      "նախարարության": 1476,
      "անալու": 1477,
      "ություններով": 1478,
      "գրանց": 1479,
      "առաջադր": 1480,
      "փրկարար": 1481,
      "ցույց": 1482,
      "ավալ": 1483,
      "չեմ": 1484,
      "..": 1485,
      "տալիս": 1486,
      "սկզբ": 1487,
      "մարդկանց": 1488,
      "Սակայն": 1489,
      "հարցը": 1490,
      "թար": 1491,
      "ուսի": 1492,
      "ահայտ": 1493,
      "անուն": 1494,
      "դժ": 1495,
      "ցի": 1496,
      "ամիս": 1497,
      "արտաքին": 1498,
      "հանցագործ": 1499,
      "վիրավոր": 1500,
      "100": 1501,
      "երկրորդ": 1502,
      "տարածքում": 1503,
      "մարտի": 1504,
      "ողները": 1505,
      "իրի": 1506,
      "տղամարդ": 1507,
      "Պար": 1508,
      "տոն": 1509,
      "աքս": 1510,
      "Հայաստանը": 1511,
      "ցերեկը": 1512,
      "Փաշինյանը": 1513,
      "ացված": 1514,
      "յուսիս": 1515,
      "երկար": 1516,
      "աքր": 1517,
      "ոշոր": 1518,
      "ռե": 1519,
      "էջ": 1520,
      "գաղ": 1521,
      "ծանր": 1522,
      "մուտ": 1523,
      "խորհրդի": 1524,
      "առավել": 1525,
      "հիմնա": 1526,
      "Չինաստ": 1527,
      "բաժան": 1528,
      "տնի": 1529,
      "ստի": 1530,
      "լինելու": 1531,
      "չության": 1532,
      "միջոցով": 1533,
      "խորհրդ": 1534,
      "ություններից": 1535,
      "շաբաթ": 1536,
      "արանի": 1537,
      "ագիտ": 1538,
      "ուդ": 1539,
      "եկամ": 1540,
      "ույս": 1541,
      "մասնակից": 1542,
      "ետրվարի": 1543,
      "Գրի": 1544,
      "հաղթ": 1545,
      "մակարդ": 1546,
      "ավետ": 1547,
      "գործընկեր": 1548,
      "շնորհ": 1549,
      "անն": 1550,
      "ամերի": 1551,
      "զինվոր": 1552,
      "վարորդ": 1553,
      "նախաձեռն": 1554,
      "դպրոց": 1555,
      "լրատվ": 1556,
      "այից": 1557,
      "ոդ": 1558,
      "հիմն": 1559,
      "ապրիլի": 1560,
      "վերահ": 1561,
      "առաջնորդ": 1562,
      "Եվրոպ": 1563,
      "երմ": 1564,
      "ասեն": 1565,
      "քից": 1566,
      "մարդու": 1567,
      "մարմին": 1568,
      "բախ": 1569,
      "անձանց": 1570,
      "այժմ": 1571,
      "Հարություն": 1572,
      "եցրել": 1573,
      "ահաբեկ": 1574,
      "երթը": 1575,
      "եին": 1576,
      "Պետ": 1577,
      "անման": 1578,
      "ուղար": 1579,
      "հունիսի": 1580,
      "աշն": 1581,
      "սպառ": 1582,
      "Մար": 1583,
      "28": 1584,
      "Ման": 1585,
      "զենք": 1586,
      "կոմիտե": 1587,
      "օպեր": 1588,
      "նախագծ": 1589,
      "մայիսի": 1590,
      "եմբեր": 1591,
      "ություններն": 1592,
      "իծ": 1593,
      "ոգի": 1594,
      "նես": 1595,
      "տարկ": 1596,
      "դադարեց": 1597,
      "պաշտոնական": 1598,
      "րեց": 1599,
      "դատապարտ": 1600,
      "արդյունք": 1601,
      "սկսել": 1602,
      "ցեղաս": 1603,
      "անյանը": 1604,
      "առեւ": 1605,
      "իկական": 1606,
      "տեղեկատվ": 1607,
      "հոկտեմբերի": 1608,
      "ՆԱ": 1609,
      "դրանք": 1610,
      "ապնդ": 1611,
      "Հուն": 1612,
      "ակատար": 1613,
      "ություններում": 1614,
      "Գյ": 1615,
      "Իսր": 1616,
      "առակ": 1617,
      "հիվանդանոց": 1618,
      "Սերժ": 1619,
      "ոցիալ": 1620,
      "կասկած": 1621,
      "որոշումը": 1622,
      "իրավունքների": 1623,
      "ինչը": 1624,
      "Մարտ": 1625,
      "գործով": 1626,
      "հարուց": 1627,
      "26": 1628,
      "այցել": 1629,
      "եռնային": 1630,
      "դեկտեմբերի": 1631,
      "քերը": 1632,
      "խոշոր": 1633,
      "համատեղ": 1634,
      "նշված": 1635,
      "հարաբերությունների": 1636,
      "Ընդ": 1637,
      "լայն": 1638,
      "ացնելու": 1639,
      "էներ": 1640,
      "իա": 1641,
      "աքաղաք": 1642,
      "բուժ": 1643,
      "Երեւան": 1644,
      "երս": 1645,
      "Սարգսյանը": 1646,
      "անավ": 1647,
      "ուղղված": 1648,
      "հակամարտ": 1649,
      "քվե": 1650,
      "լինել": 1651,
      "ընդունել": 1652,
      "սա": 1653,
      "Գրիգոր": 1654,
      "ումից": 1655,
      "հաշվ": 1656,
      "ոլորտում": 1657,
      "Թրամ": 1658,
      "29": 1659,
      "մասնավորապես": 1660,
      "Թրամփ": 1661,
      "րած": 1662,
      "վճար": 1663,
      "թեկնածու": 1664,
      "մարդիկ": 1665,
      "բժշ": 1666,
      "առավար": 1667,
      "նոյեմբերի": 1668,
      "խախտ": 1669,
      "շին": 1670,
      "շրջանում": 1671,
      "սեպտեմբերի": 1672,
      "լուս": 1673,
      "հանդ": 1674,
      "հանրապետ": 1675,
      "ադրբեջանական": 1676,
      "պահին": 1677,
      "խմբակցության": 1678,
      "դարձել": 1679,
      "Հովհան": 1680,
      "ce": 1681,
      "կառավարման": 1682,
      "կանգ": 1683,
      "հեր": 1684,
      "նյութ": 1685,
      "զանգ": 1686,
      "ակն": 1687,
      "Հայոց": 1688,
      "այսօրվա": 1689,
      "ագիրը": 1690,
      "հենց": 1691,
      "ատության": 1692,
      "Արար": 1693,
      "երկիր": 1694,
      "աչափ": 1695,
      "մասնակցել": 1696,
      "չկա": 1697,
      "ագահ": 1698,
      "կարծում": 1699,
      "ազոտ": 1700,
      "ՀՀԿ": 1701,
      "հաճ": 1702,
      "եի": 1703,
      "ողներին": 1704,
      "հունվարի": 1705,
      "Գերման": 1706,
      "Մեծ": 1707,
      "լա": 1708,
      "Տի": 1709,
      "ատիվ": 1710,
      "աղբյուր": 1711,
      "000": 1712,
      "Երեւանում": 1713,
      "ադեպ": 1714,
      "հնարավորություն": 1715,
      "միլիոն": 1716,
      "Ին": 1717,
      "իշի": 1718,
      "դիմել": 1719,
      "թղթ": 1720,
      "դիմաց": 1721,
      "լրագրողների": 1722,
      "խոստ": 1723,
      "փոքր": 1724,
      "ինքնա": 1725,
      "անյութ": 1726,
      "ավագ": 1727,
      "գործում": 1728,
      "օրենսգր": 1729,
      "անային": 1730,
      "արք": 1731,
      "մահացել": 1732,
      "անշ": 1733,
      "բարե": 1734,
      "հարցում": 1735,
      "ծրագրի": 1736,
      "արեւ": 1737,
      "ակցությամբ": 1738,
      "գող": 1739,
      "Անդր": 1740,
      "40": 1741,
      "Վար": 1742,
      "թափ": 1743,
      "Որ": 1744,
      "մասնա": 1745,
      "ոստոսի": 1746,
      "պայմանավորված": 1747,
      "al": 1748,
      "ահամ": 1749,
      "Սուր": 1750,
      "սոցիալ": 1751,
      "վկայ": 1752,
      "անավոր": 1753,
      "նախագահը": 1754,
      "ուժերի": 1755,
      "փետրվարի": 1756,
      "ագայում": 1757,
      "ուղարկ": 1758,
      "աշխարհային": 1759,
      "ունենք": 1760,
      "կունեն": 1761,
      "անսպոր": 1762,
      "բացառ": 1763,
      "վնասվածք": 1764,
      "ստեղ": 1765,
      "նախատեսված": 1766,
      "ծր": 1767,
      "կազմել": 1768,
      "ոսյանը": 1769,
      "ոլորտ": 1770,
      "հետախ": 1771,
      "ժողովի": 1772,
      "or": 1773,
      "նագր": 1774,
      "ուզում": 1775,
      "կարելի": 1776,
      "դատական": 1777,
      "ոլոգի": 1778,
      "անկախ": 1779,
      "Ուկրաինայի": 1780,
      "սեր": 1781,
      "ողի": 1782,
      "հիմա": 1783,
      "սեն": 1784,
      "կերպ": 1785,
      "յունի": 1786,
      "զինծառայ": 1787,
      "Լեռնային": 1788,
      "խումբ": 1789,
      "դրանց": 1790,
      "ավայր": 1791,
      "հանդիպման": 1792,
      "ցանց": 1793,
      "հանգամ": 1794,
      "Հակոբ": 1795,
      "Սահման": 1796,
      "դատավոր": 1797,
      "գտնվում": 1798,
      "մեղադրանք": 1799,
      "տարեկան": 1800,
      "Վահ": 1801,
      "ինձ": 1802,
      "խմբի": 1803,
      "գետ": 1804,
      "կել": 1805,
      "ոնը": 1806,
      "գործակալ": 1807,
      "իական": 1808,
      "պայքար": 1809,
      "դրամի": 1810,
      "հանձնաժողովի": 1811,
      "ապօրին": 1812,
      "ավեր": 1813,
      "արձագ": 1814,
      "շրջանակներում": 1815,
      "բերել": 1816,
      "Այսօր": 1817,
      "որս": 1818,
      "համաձայ": 1819,
      "ուպ": 1820,
      "աշխատանքի": 1821,
      "որոնավիր": 1822,
      "մակն": 1823,
      "բողո": 1824,
      "ter": 1825,
      "Դա": 1826,
      "երկրում": 1827,
      "կմ": 1828,
      "ոյանը": 1829,
      "օրինակ": 1830,
      "տեղափոխվել": 1831,
      "վարչական": 1832,
      "ակոչ": 1833,
      "ինքը": 1834,
      "Միջ": 1835,
      "Աբ": 1836,
      "Պատ": 1837,
      "Քաղաք": 1838,
      "դատարանի": 1839,
      "սկող": 1840,
      "ադառնալ": 1841,
      "քարտուղար": 1842,
      "ատու": 1843,
      "կապես": 1844,
      "վատ": 1845,
      "յուջ": 1846,
      "ar": 1847,
      "ՄԱԿ": 1848,
      "Նով": 1849,
      "հանդես": 1850,
      "իլի": 1851,
      "հուլիսի": 1852,
      "վերական": 1853,
      "թիվը": 1854,
      "Վրաստանի": 1855,
      "իների": 1856,
      "պաստ": 1857,
      "նայ": 1858,
      "իկա": 1859,
      "ընդգծել": 1860,
      "հոս": 1861,
      "ակների": 1862,
      "ավտոմեքենան": 1863,
      "ականների": 1864,
      "հրաման": 1865,
      "ծավալ": 1866,
      "անյան": 1867,
      "ԱՀԿ": 1868,
      "անելի": 1869,
      "ԱԳՆ": 1870,
      "ԱԻ": 1871,
      "նեն": 1872,
      "պատվիր": 1873,
      "Կեն": 1874,
      "յակի": 1875,
      "լուրջ": 1876,
      "Տիգր": 1877,
      "եմատ": 1878,
      "ափակ": 1879,
      "դիտ": 1880,
      "ծառայությունից": 1881,
      "մակնիշի": 1882,
      "Օր": 1883,
      "արդյունավետ": 1884,
      "պատերազմ": 1885,
      "անչ": 1886,
      "դիվան": 1887,
      "կատարելու": 1888,
      "Պուտ": 1889,
      "չենք": 1890,
      "ագա": 1891,
      "ցանկանում": 1892,
      "ձգ": 1893,
      "Վերջ": 1894,
      "ամր": 1895,
      "ամենը": 1896,
      "հեռուստ": 1897,
      "նախարարի": 1898,
      "իշխանության": 1899,
      "կի": 1900,
      "Բայց": 1901,
      "շարունակում": 1902,
      "պայթ": 1903,
      "ռեժ": 1904,
      "oo": 1905,
      "ակարար": 1906,
      "ականի": 1907,
      "սկի": 1908,
      "մշտ": 1909,
      "ջր": 1910,
      "տարածք": 1911,
      "րդի": 1912,
      "նախարարը": 1913,
      "աների": 1914,
      "աքնն": 1915,
      "արձագանք": 1916,
      "it": 1917,
      "հարված": 1918,
      "նվիր": 1919,
      "դրական": 1920,
      "պլ": 1921,
      "ավարական": 1922,
      "փուլ": 1923,
      "Ժողով": 1924,
      "վերադարձ": 1925,
      "նշում": 1926,
      "հարձակ": 1927,
      "թուրքական": 1928,
      "բյուջ": 1929,
      "միաս": 1930,
      "գին": 1931,
      "արյանի": 1932,
      "Աս": 1933,
      "էլեկ": 1934,
      "մլրդ": 1935,
      "խորհրդարանական": 1936,
      "ասվում": 1937,
      "ընկերությունը": 1938,
      "Մին": 1939,
      "ապրանք": 1940,
      "թերթի": 1941,
      "որին": 1942,
      "առկա": 1943,
      "աքել": 1944,
      "ավորում": 1945,
      "լինեն": 1946,
      "եւի": 1947,
      "ացում": 1948,
      "աթիվ": 1949,
      "իշխանությունները": 1950,
      "ծախ": 1951,
      "նախորդ": 1952,
      "ստացվել": 1953,
      "կապակցությամբ": 1954,
      "Բրիտ": 1955,
      "Տիգրան": 1956,
      "դեպքի": 1957,
      "ավիթ": 1958,
      "հետաքր": 1959,
      "գրասեն": 1960,
      "ովքեր": 1961,
      "իսին": 1962,
      "at": 1963,
      "թռ": 1964,
      "ավտոմեքեն": 1965,
      "մարտական": 1966,
      "բժշկական": 1967,
      "տային": 1968,
      "Կառավար": 1969,
      "կորոնավիր": 1970,
      "չական": 1971,
      "հայտնաբերվել": 1972,
      "ինակ": 1973,
      "աֆ": 1974,
      "ականները": 1975,
      "հարցերի": 1976,
      "նասիր": 1977,
      "եդ": 1978,
      "հանգամանք": 1979,
      "ինչի": 1980,
      "Սարգսյանի": 1981,
      "օրենսգրքի": 1982,
      "րորդ": 1983,
      "ստակ": 1984,
      "ազոր": 1985,
      "ժողովրդի": 1986,
      "բազ": 1987,
      "ականը": 1988,
      "Արթուր": 1989,
      "մանրամասն": 1990,
      "կոմիտեի": 1991,
      "դեպի": 1992,
      "կազմում": 1993,
      "ԼՂ": 1994,
      "փորձում": 1995,
      "նտես": 1996,
      "այնպես": 1997,
      "սահմաններում": 1998,
      "եսի": 1999,
      "ապր": 2000,
      "հաղորդագր": 2001,
      "եկեղ": 2002,
      "հանդիս": 2003,
      "ացումը": 2004,
      "անու": 2005,
      "ԱՊ": 2006,
      "փոխար": 2007,
      "et": 2008,
      "ամիջոց": 2009,
      "ադրական": 2010,
      "վերաբերում": 2011,
      "Արտ": 2012,
      "ակա": 2013,
      "ունքի": 2014,
      "վարչապետի": 2015,
      "Մոսկվ": 2016,
      "Էդ": 2017,
      "ԻԱ": 2018,
      "Առաջ": 2019,
      "սոցիալական": 2020,
      "բավար": 2021,
      "ացվել": 2022,
      "Փաշինյանի": 2023,
      "տրանսպոր": 2024,
      "ապօրինի": 2025,
      "չէր": 2026,
      "իկայի": 2027,
      "կայուն": 2028,
      "նագետ": 2029,
      "Արեւ": 2030,
      "հետազոտ": 2031,
      "ՏԱ": 2032,
      "Քոչ": 2033,
      "նիս": 2034,
      "շու": 2035,
      "ահակ": 2036,
      "հաճախ": 2037,
      "Նրանք": 2038,
      "համալսար": 2039,
      "Ներ": 2040,
      "վերց": 2041,
      "Ղարաբաղի": 2042,
      "Ղազ": 2043,
      "մասի": 2044,
      "հետախուզ": 2045,
      "գույ": 2046,
      "իկի": 2047,
      "գործերի": 2048,
      "շրջանակում": 2049,
      "Խաչատր": 2050,
      "կտր": 2051,
      "ունակ": 2052,
      "ոյի": 2053,
      "հանձն": 2054,
      "Գյում": 2055,
      "ՏՕ": 2056,
      "հստակ": 2057,
      "տեղակալ": 2058,
      "ազրկ": 2059,
      "եւան": 2060,
      "աքանչ": 2061,
      "դժվար": 2062,
      "Ալեքս": 2063,
      "Ռո": 2064,
      "որոշման": 2065,
      "գործի": 2066,
      "քաղաքում": 2067,
      "աքանչյուր": 2068,
      "սով": 2069,
      "օգոստոսի": 2070,
      "կարծի": 2071,
      "առեւտր": 2072,
      "Բացի": 2073,
      "Ըն": 2074,
      "ակցի": 2075,
      "բազմաթիվ": 2076,
      "դեպք": 2077,
      "ընտրական": 2078,
      "դիրք": 2079,
      "մնա": 2080,
      "օրվա": 2081,
      "քննարկել": 2082,
      "եթ": 2083,
      "Արմ": 2084,
      "2018": 2085,
      "եզր": 2086,
      "ավային": 2087,
      "գիտական": 2088,
      "ուսումնասիր": 2089,
      "կարևոր": 2090,
      "կառույց": 2091,
      "տվյալներով": 2092,
      "ամերիկյան": 2093,
      "Հայր": 2094,
      "բերման": 2095,
      "կուսակց": 2096,
      "Տար": 2097,
      "գեն": 2098,
      "Կենտրոն": 2099,
      "ադրության": 2100,
      "իրավական": 2101,
      "հաջորդ": 2102,
      "ՆԱՏՕ": 2103,
      "գոտ": 2104,
      "ծան": 2105,
      "ավանդ": 2106,
      "եյս": 2107,
      "ակով": 2108,
      "ահավ": 2109,
      "պետության": 2110,
      "Պետր": 2111,
      "ֆոն": 2112,
      "ացող": 2113,
      "հայտարարեց": 2114,
      "հանրային": 2115,
      "հուրդ": 2116,
      "որից": 2117,
      "մասով": 2118,
      "կտ": 2119,
      "նստ": 2120,
      "ջանք": 2121,
      "ադի": 2122,
      "ելույթ": 2123,
      "համաշխարհային": 2124,
      "Վան": 2125,
      "2020": 2126,
      "կառավարությունը": 2127,
      "անան": 2128,
      "հրավիր": 2129,
      "մասը": 2130,
      "գործողությունների": 2131,
      "Էրդ": 2132,
      "թն": 2133,
      "առնչ": 2134,
      "ստանի": 2135,
      "օպերատիվ": 2136,
      "համակարգի": 2137,
      "առնալի": 2138,
      "այրի": 2139,
      "Ամերի": 2140,
      "ճգնա": 2141,
      "իրենք": 2142,
      "միջնորդ": 2143,
      "Վարդան": 2144,
      "պատվիրակ": 2145,
      "թերթը": 2146,
      "փախ": 2147,
      "Հետ": 2148,
      "Էրդող": 2149,
      "բաժնի": 2150,
      "գյուղի": 2151,
      "ահատված": 2152,
      "մեկնել": 2153,
      "Երկր": 2154,
      "ենթարկել": 2155,
      "ծախս": 2156,
      "Ալի": 2157,
      "չունի": 2158,
      "ակին": 2159,
      "ագիտական": 2160,
      "զինված": 2161,
      "փոխանցում": 2162,
      "Իսրայ": 2163,
      "պնդ": 2164,
      "Սահակ": 2165,
      "ազանգ": 2166,
      "մեկի": 2167,
      "պարտավոր": 2168,
      "էջում": 2169,
      "199": 2170,
      "յուսիսային": 2171,
      "Վլա": 2172,
      "տել": 2173,
      "համեմատ": 2174,
      "ստիպ": 2175,
      "ներառ": 2176,
      "ազանց": 2177,
      "օդանավ": 2178,
      "Հովհաննիս": 2179,
      "Բել": 2180,
      "ավական": 2181,
      "Թուրքիան": 2182,
      "Հիմ": 2183,
      "նույնիսկ": 2184,
      "նաբան": 2185,
      "համայնքի": 2186,
      "թաղ": 2187,
      "այով": 2188,
      "որդի": 2189,
      "Առավել": 2190,
      "Վլադիմ": 2191,
      "Սիր": 2192,
      "ոմի": 2193,
      "րանց": 2194,
      "ութային": 2195,
      "լիազոր": 2196,
      "Բաք": 2197,
      "հղ": 2198,
      "տուն": 2199,
      "Դավիթ": 2200,
      "ոլի": 2201,
      "հերթական": 2202,
      "տոկոսով": 2203,
      "հերթին": 2204,
      "ազդեց": 2205,
      "Աղ": 2206,
      "Գագ": 2207,
      "ակետ": 2208,
      "աշխատանքային": 2209,
      "իրավիճակը": 2210,
      "պրո": 2211,
      "դրամով": 2212,
      "հակառակ": 2213,
      "եվրոպ": 2214,
      "35": 2215,
      "Վլադիմիր": 2216,
      "Սյունի": 2217,
      "քաղաքացիների": 2218,
      "ԵԱՀԿ": 2219,
      "դաշին": 2220,
      "սն": 2221,
      "տեղեկացրել": 2222,
      "he": 2223,
      "om": 2224,
      "Ստ": 2225,
      "կանոն": 2226,
      "ուծ": 2227,
      "օրակարգ": 2228,
      "լս": 2229,
      "երեւ": 2230,
      "ահանգ": 2231,
      "իշտ": 2232,
      "ոնալ": 2233,
      "քաղաքացիական": 2234,
      "Նովոստ": 2235,
      "Գեղ": 2236,
      "տեխնոլոգի": 2237,
      "31": 2238,
      "պատասխանատվ": 2239,
      "Ստե": 2240,
      "ստանում": 2241,
      "պատերազմի": 2242,
      "մայրաքաղաք": 2243,
      "ավոտ": 2244,
      "եղբ": 2245,
      "ճանապարհի": 2246,
      "ԱԻՆ": 2247,
      "կրակ": 2248,
      "իզնես": 2249,
      "le": 2250,
      "վկայակոչ": 2251,
      "եբ": 2252,
      "ընտրությունների": 2253,
      "մունք": 2254,
      "ոպ": 2255,
      "առթիվ": 2256,
      "սպառնալի": 2257,
      "հաշվարկ": 2258,
      "ձայն": 2259,
      "ՌԻԱ": 2260,
      "ճի": 2261,
      "ապատրաստ": 2262,
      "Ֆրանսիայի": 2263,
      "Գեւոր": 2264,
      "օրենքի": 2265,
      "ավորել": 2266,
      "ցանկացած": 2267,
      "իթ": 2268,
      "դատարանը": 2269,
      "Վերջին": 2270,
      "ճատ": 2271,
      "նույնպես": 2272,
      "վեցին": 2273,
      "դատարան": 2274,
      "եմբերին": 2275,
      "Դեպ": 2276,
      "Բրիտանի": 2277,
      "Քն": 2278,
      "ովին": 2279,
      "արդյ": 2280,
      "Բաղ": 2281,
      "Լի": 2282,
      "ացիայի": 2283,
      "Եվր": 2284,
      "կարգավորման": 2285,
      "Կարեն": 2286,
      "Նշ": 2287,
      "հաշվի": 2288,
      "հյուր": 2289,
      "տեն": 2290,
      "հարակից": 2291,
      "խորհուրդ": 2292,
      "կեղծ": 2293,
      "հող": 2294,
      "անդի": 2295,
      "ներկայ": 2296,
      "առն": 2297,
      "հասկան": 2298,
      "յուրաքանչյուր": 2299,
      "ենթադր": 2300,
      "կնոջ": 2301,
      "երձ": 2302,
      "ամուս": 2303,
      "ֆիլ": 2304,
      "դոլարի": 2305,
      "նայած": 2306,
      "Ստեփ": 2307,
      "տեղեկացնում": 2308,
      "Ոստիկանության": 2309,
      "%-": 2310,
      "ցած": 2311,
      "ֆր": 2312,
      "գար": 2313,
      "վր": 2314,
      "արված": 2315,
      "Շիր": 2316,
      "սխ": 2317,
      "ևս": 2318,
      "աշխարհի": 2319,
      "ոյան": 2320,
      "իշխանությունների": 2321,
      "Գեւորգ": 2322,
      "ցին": 2323,
      "նահան": 2324,
      "եներ": 2325,
      "աշարժ": 2326,
      "ելուց": 2327,
      "Կարապետ": 2328,
      "գործունեության": 2329,
      "Փաստ": 2330,
      "ագն": 2331,
      "բնական": 2332,
      "կենտրոնի": 2333,
      "Գագիկ": 2334,
      "ժամիջոց": 2335,
      "աքննության": 2336,
      "զոհվել": 2337,
      "իծը": 2338,
      "բավական": 2339,
      "ատնտես": 2340,
      "քիչ": 2341,
      "Արամ": 2342,
      "օրինական": 2343,
      "Արդ": 2344,
      "լրաց": 2345,
      "ժողովուրդ": 2346,
      "մոտեց": 2347,
      "վկայակոչելով": 2348,
      "նկար": 2349,
      "ելյան": 2350,
      "տիր": 2351,
      "մեկնաբան": 2352,
      "առանգ": 2353,
      "անցի": 2354,
      "մարզում": 2355,
      "ակառ": 2356,
      "ճար": 2357,
      "լրատվամիջոց": 2358,
      "բողոքի": 2359,
      "զեկ": 2360,
      "պայք": 2361,
      "ցեղասպանության": 2362,
      "ադառնալով": 2363,
      "բիզնես": 2364,
      "ահազանգ": 2365,
      "բերտ": 2366,
      "հայտնվել": 2367,
      "մեկնարկ": 2368,
      "Մինչ": 2369,
      "տասն": 2370,
      "երաշխ": 2371,
      "ակտ": 2372,
      "Թե": 2373,
      "Ադրբեջանը": 2374,
      "հարցին": 2375,
      "դեռեւս": 2376,
      "հնչ": 2377,
      "հուշ": 2378,
      "աշեն": 2379,
      "հարցեր": 2380,
      "բավարար": 2381,
      "ացու": 2382,
      "օգնության": 2383,
      "տեղադր": 2384,
      "հայտնաբերել": 2385,
      "համոզ": 2386,
      "հեռախոս": 2387,
      "բաժին": 2388,
      "ստեղծել": 2389,
      "շփ": 2390,
      "արշ": 2391,
      "պայմանագր": 2392,
      "կունենա": 2393,
      "կես": 2394,
      "աբանական": 2395,
      "մատակարար": 2396,
      "Գյումրի": 2397,
      "դաշն": 2398,
      "ինստ": 2399,
      "ատեր": 2400,
      "ագած": 2401,
      "իշկ": 2402,
      "պատժամիջոց": 2403,
      "Կան": 2404,
      "Կոր": 2405,
      "ազատազրկ": 2406,
      "փոխանցմամբ": 2407,
      "որովհետեւ": 2408,
      "Լուս": 2409,
      "ժամանակահատված": 2410,
      "շենքի": 2411,
      "երեխ": 2412,
      "պալ": 2413,
      "հատկապես": 2414,
      "պարբեր": 2415,
      "պայմաններում": 2416,
      "հրապարակում": 2417,
      "Ծառ": 2418,
      "ակազմի": 2419,
      "ացյալ": 2420,
      "այնտեղ": 2421,
      "որոշակի": 2422,
      "մինչև": 2423,
      "եցնում": 2424,
      "պահանջում": 2425,
      "առումով": 2426,
      "Չինաստանի": 2427,
      "ջերմ": 2428,
      "այստեղ": 2429,
      "մասնագետ": 2430,
      "ուժի": 2431,
      "որոշել": 2432,
      "աստիճան": 2433,
      "ՍՍ": 2434,
      "եւը": 2435,
      "կանում": 2436,
      "որհր": 2437,
      "ադատության": 2438,
      "քվեարկ": 2439,
      "Մարդ": 2440,
      "ՊՆ": 2441,
      "ստանալ": 2442,
      "ինստիտ": 2443,
      "Կր": 2444,
      "եվրոպական": 2445,
      "Բար": 2446,
      "գնում": 2447,
      "2019": 2448,
      "Սամ": 2449,
      "խախ": 2450,
      "ապաց": 2451,
      "քաղաքականության": 2452,
      "Սյունիքի": 2453,
      "նետ": 2454,
      "ֆոտ": 2455,
      "հասարակական": 2456,
      "Կի": 2457,
      "աշխատել": 2458,
      "սովոր": 2459,
      "եցնել": 2460,
      "աշխատում": 2461,
      "արժան": 2462,
      "գազի": 2463,
      "ներգրավ": 2464,
      "խնդիրների": 2465,
      "պտ": 2466,
      "ներկա": 2467,
      "թեթ": 2468,
      "ՏԱՍՍ": 2469,
      "կրկին": 2470,
      "ծանոթ": 2471,
      "սիր": 2472,
      "հրդե": 2473,
      "կենս": 2474,
      "ֆինանսական": 2475,
      "ագծ": 2476,
      "օրյա": 2477,
      "հայրեն": 2478,
      "իի": 2479,
      "հույս": 2480,
      "Հարավային": 2481,
      "քնն": 2482,
      "խորհրդարանի": 2483,
      "եյսբ": 2484,
      "60": 2485,
      "ակող": 2486,
      "ինե": 2487,
      "անվան": 2488,
      "քո": 2489,
      "ապահության": 2490,
      "անդրադարձ": 2491,
      "դիտարկ": 2492,
      "բացահայտ": 2493,
      "Ռուսաստանը": 2494,
      "Մասն": 2495,
      "մերժ": 2496,
      "հակամարտության": 2497,
      "հետաքրքր": 2498,
      "ew": 2499,
      "միջին": 2500,
      "հաստատել": 2501,
      "ենը": 2502,
      "կենդ": 2503,
      "խնդիրը": 2504,
      "Հյուսիսային": 2505,
      "անձնական": 2506,
      "ուկային": 2507,
      "կալանավոր": 2508,
      "բախվել": 2509,
      "ուժեղ": 2510,
      "բողոք": 2511,
      "ճգնաժամ": 2512,
      "Կոտ": 2513,
      "Ռուբ": 2514,
      "քել": 2515,
      "ավուշ": 2516,
      "ավարձ": 2517,
      "խաղաղության": 2518,
      "աստիճ": 2519,
      "օրերին": 2520,
      "շտաբ": 2521,
      "տուժած": 2522,
      "հրամանատար": 2523,
      "ծառայությունը": 2524,
      "մտած": 2525,
      "հարաբերությունները": 2526,
      "ուղեւոր": 2527,
      "նիչ": 2528,
      "Գործ": 2529,
      "ծեծ": 2530,
      "մաքս": 2531,
      "նպաստ": 2532,
      "ներս": 2533,
      "կատարված": 2534,
      "հանդիպել": 2535,
      "Աշոտ": 2536,
      "խմ": 2537,
      "ասխ": 2538,
      "դրան": 2539,
      "կրճատ": 2540,
      "փորձագետ": 2541,
      "հարկե": 2542,
      "ակր": 2543,
      "Արմավիր": 2544,
      "Մարգ": 2545,
      "ացական": 2546,
      "հրաժարվել": 2547,
      "բարեփոխ": 2548,
      "հայտարարության": 2549,
      "Կոն": 2550,
      "կրթության": 2551,
      "Իմ": 2552,
      "խուս": 2553,
      "հետագա": 2554,
      "գործարար": 2555,
      "Հայկ": 2556,
      "ԱԱ": 2557,
      "գործիչ": 2558,
      "նշանակում": 2559,
      "պատվ": 2560,
      "ուղի": 2561,
      "ընդդիմադիր": 2562,
      "Աբր": 2563,
      "աժամանակ": 2564,
      "ներքին": 2565,
      "նախարարությունը": 2566,
      "հասել": 2567,
      "կազմակերպության": 2568,
      "տոկոսը": 2569,
      "շրջանի": 2570,
      "el": 2571,
      "անակը": 2572,
      "իրականացման": 2573,
      "փորձել": 2574,
      "պաշտոնյան": 2575,
      "լուսանկար": 2576,
      "խուսափ": 2577,
      "ավիճ": 2578,
      "խոսել": 2579,
      "գրեթե": 2580,
      "Նախագահ": 2581,
      "եվրո": 2582,
      "Սուրբ": 2583,
      "Աբրահամ": 2584,
      "ձև": 2585,
      "2016": 2586,
      "կյանքի": 2587,
      "Կոտայ": 2588,
      "արդյոք": 2589,
      "չին": 2590,
      "օտար": 2591,
      "ընդամենը": 2592,
      "վիճակը": 2593,
      "Արարատ": 2594,
      "Ավետ": 2595,
      "հատկաց": 2596,
      "զբոս": 2597,
      "ace": 2598,
      "բյ": 2599,
      "տեղեկություններով": 2600,
      "մտահ": 2601,
      "մարզպետ": 2602,
      "Հրապար": 2603,
      "զանգված": 2604,
      "թարի": 2605,
      "տված": 2606,
      "եքստ": 2607,
      "երգ": 2608,
      "ընդլայն": 2609,
      "2015": 2610,
      "Վարչ": 2611,
      "Դեպքի": 2612,
      "պատկեր": 2613,
      "արտակարգ": 2614,
      "ցուցանիշ": 2615,
      "րան": 2616,
      "կարգավոր": 2617,
      "նիստում": 2618,
      "Պարզ": 2619,
      "ամրապնդ": 2620,
      "Պաշտ": 2621,
      "լուր": 2622,
      "ահր": 2623,
      "այցելել": 2624,
      "ՆԳ": 2625,
      "ենտ": 2626,
      "Ժողովուրդ": 2627,
      "օգն": 2628,
      "գալիս": 2629,
      "ակամ": 2630,
      "աշխատավարձ": 2631,
      "արժեքը": 2632,
      "Ամեն": 2633,
      "Արագած": 2634,
      "ենթարկվել": 2635,
      "...": 2636,
      "եկեղեց": 2637,
      "դին": 2638,
      "առաքել": 2639,
      "տեղում": 2640,
      "աճել": 2641,
      "տարածաշրջանում": 2642,
      "Եղ": 2643,
      "ձեր": 2644,
      "պող": 2645,
      "իրավապահ": 2646,
      "առջ": 2647,
      "փողոցի": 2648,
      "հինգ": 2649,
      "հեռուստա": 2650,
      "միջադեպ": 2651,
      "տեր": 2652,
      "ուսան": 2653,
      "կայան": 2654,
      "արդյունաբեր": 2655,
      "քարոզ": 2656,
      "վերան": 2657,
      "սկսվել": 2658,
      "նագիր": 2659,
      "վերահսկող": 2660,
      "ուհի": 2661,
      "երթի": 2662,
      "անակի": 2663,
      "Ռոբերտ": 2664,
      "առնելով": 2665,
      "Արաբ": 2666,
      "խնդիրները": 2667,
      "ur": 2668,
      "դրս": 2669,
      "Սերգ": 2670,
      "գրանցվել": 2671,
      "դաշտ": 2672,
      "լամ": 2673,
      "ակաց": 2674,
      "ողը": 2675,
      "ստուգ": 2676,
      "Թուրք": 2677,
      "մահվան": 2678,
      "ցավ": 2679,
      "երրորդ": 2680,
      "աղջ": 2681,
      "աշվի": 2682,
      "2014": 2683,
      "նվազն": 2684,
      "ծնված": 2685,
      "Վարչապետ": 2686,
      "ՈՒ": 2687,
      "հավելել": 2688,
      "ԲՀԿ": 2689,
      "հարցերով": 2690,
      "դիմում": 2691,
      "դառնա": 2692,
      "ոխ": 2693,
      "մարզային": 2694,
      "միջոցառումների": 2695,
      "կայի": 2696,
      "առավոտ": 2697,
      "ցուցաբեր": 2698,
      "ավագանու": 2699,
      "ահավաք": 2700,
      "կախ": 2701,
      "ձերբակալվել": 2702,
      "ՍԴ": 2703,
      "ծով": 2704,
      "հարթ": 2705,
      "ընդգր": 2706,
      "տարածքային": 2707,
      "շնորհիվ": 2708,
      "բանկի": 2709,
      "գոյ": 2710,
      "միր": 2711,
      "օբյ": 2712,
      "ալիք": 2713,
      "իրականացնել": 2714,
      "մարմնական": 2715,
      "բաժանորդ": 2716,
      "նվիրված": 2717,
      "Դատ": 2718,
      "անմիջ": 2719,
      "միշտ": 2720,
      "հայտնեց": 2721,
      "մտադիր": 2722,
      "փաստաթղթ": 2723,
      "Իսրայելի": 2724,
      "սպանության": 2725,
      "խնդիրներ": 2726,
      "փրկարարական": 2727,
      "ակառուց": 2728,
      "Գլ": 2729,
      "միջուկային": 2730,
      "բարեկամ": 2731,
      "փա": 2732,
      "անցել": 2733,
      "միջև": 2734,
      "մեկն": 2735,
      "ՀՅ": 2736,
      "Հան": 2737,
      "արանում": 2738,
      "աձգ": 2739,
      "նկալ": 2740,
      "շաբթի": 2741,
      "Աշխ": 2742,
      "հարուցվել": 2743,
      "գոհ": 2744,
      "լե": 2745,
      "իրադարձ": 2746,
      "իկը": 2747,
      "անձի": 2748,
      "աշխարհում": 2749,
      "կարծիքով": 2750,
      "ստանալու": 2751,
      "կատարվել": 2752,
      "էինք": 2753,
      "մշտական": 2754,
      "ամենայն": 2755,
      "պայքարի": 2756,
      "արտահայտ": 2757,
      "հիման": 2758,
      "գործընթացը": 2759,
      "առարկ": 2760,
      "անդակ": 2761,
      "Երևանի": 2762,
      "Ծառուկ": 2763,
      "Հրապարակ": 2764,
      "ասյանը": 2765,
      "բժիշկ": 2766,
      "մնալ": 2767,
      "կիս": 2768,
      "հարցազր": 2769,
      "Հարությունյանը": 2770,
      "Սամվել": 2771,
      "յի": 2772,
      "ամթեր": 2773,
      "Re": 2774,
      "զինվորական": 2775,
      "շինարար": 2776,
      "Լեւ": 2777,
      "գործը": 2778,
      "Նախարար": 2779,
      "վերականգ": 2780,
      "ՀՅԴ": 2781,
      "34": 2782,
      "Մեկ": 2783,
      "ահան": 2784,
      "պատրաստվում": 2785,
      "70": 2786,
      "նշելով": 2787,
      "սխալ": 2788,
      "եմի": 2789,
      "հում": 2790,
      "նախապատրաստ": 2791,
      "կրետ": 2792,
      "ույթը": 2793,
      "երեխաների": 2794,
      "Տեղ": 2795,
      "ացավ": 2796,
      "մանի": 2797,
      "ունքը": 2798,
      "նախնական": 2799,
      "աշխատանքների": 2800,
      "մասնակցելու": 2801,
      "շարունակվում": 2802,
      "սակ": 2803,
      "տեղական": 2804,
      "Միացյալ": 2805,
      "համաձայնագր": 2806,
      "Լոռ": 2807,
      "աժողով": 2808,
      "միության": 2809,
      "փոփ": 2810,
      "արարող": 2811,
      "տեսակի": 2812,
      "հավանական": 2813,
      "ղեկավարը": 2814,
      "մտն": 2815,
      "այք": 2816,
      "սպասվում": 2817,
      "իայում": 2818,
      "ղեկավարի": 2819,
      "թղթակցի": 2820,
      "ֆոր": 2821,
      "Հայկական": 2822,
      "ծրագիրը": 2823,
      "շեշտ": 2824,
      "մտահոգ": 2825,
      "st": 2826,
      "մետ": 2827,
      "պանի": 2828,
      "ներկայացնում": 2829,
      "ծրագրերի": 2830,
      "աքննություն": 2831,
      "առանձն": 2832,
      "il": 2833,
      "համագործակց": 2834,
      "զմ": 2835,
      "դրությամբ": 2836,
      "արտգործ": 2837,
      "ելիք": 2838,
      "նախկինում": 2839,
      "վիճակում": 2840,
      "ուքյան": 2841,
      "Էր": 2842,
      "ակազմ": 2843,
      "այնքան": 2844,
      "գործադր": 2845,
      "իրավաս": 2846,
      "րամի": 2847,
      "հեղինակ": 2848,
      "խափ": 2849,
      "ունդ": 2850,
      "աբաժ": 2851,
      "տեղակայ": 2852,
      "բերգ": 2853,
      "րիստ": 2854,
      "տարածաշրջանային": 2855,
      "շնորհակալ": 2856,
      "Եվրոպայի": 2857,
      "Գերմանիայի": 2858,
      "տեսանյութ": 2859,
      "կապերի": 2860,
      "միջոցներ": 2861,
      "Նրանց": 2862,
      "հատկ": 2863,
      "գիայի": 2864,
      "հրապարակել": 2865,
      "զում": 2866,
      "առնվազն": 2867,
      "որդին": 2868,
      "աշխատանքները": 2869,
      "ook": 2870,
      "ճակ": 2871,
      "դեպքեր": 2872,
      "2017": 2873,
      "վարչապետը": 2874,
      "կենտրոնում": 2875,
      "զգալի": 2876,
      "հիշատ": 2877,
      "ուղղակի": 2878,
      "Եվրամի": 2879,
      "համայնք": 2880,
      "հատվածում": 2881,
      "Երևան": 2882,
      "Կոտայքի": 2883,
      "Բաբ": 2884,
      "կգ": 2885,
      "արը": 2886,
      "հանդիպում": 2887,
      "տնտեսության": 2888,
      "ագաթ": 2889,
      "ավորվել": 2890,
      "վերլուծ": 2891,
      "տալու": 2892,
      "տուր": 2893,
      "քննա": 2894,
      "տեսնում": 2895,
      "ճանապարհին": 2896,
      "սեղ": 2897,
      "ֆեյսբ": 2898,
      "2021": 2899,
      "կայացած": 2900,
      "մասնակի": 2901,
      "յուռ": 2902,
      "ամասի": 2903,
      "Կորե": 2904,
      "Մասնավորապես": 2905,
      "ru": 2906,
      "Գր": 2907,
      "Ժամ": 2908,
      "ինգ": 2909,
      "հանդեպ": 2910,
      "սահմանված": 2911,
      "առաջադրվել": 2912,
      "ic": 2913,
      "Տավուշ": 2914,
      "թանկ": 2915,
      "ևէ": 2916,
      "անների": 2917,
      "մանրամաս": 2918,
      "ռեժիմ": 2919,
      "80": 2920,
      "book": 2921,
      "Ճապ": 2922,
      "բացի": 2923,
      "կատ": 2924,
      "հետապնդ": 2925,
      "առանձին": 2926,
      "որոշմամբ": 2927,
      "աշխատանքը": 2928,
      "փաստաբան": 2929,
      "հանձնարար": 2930,
      "խոսում": 2931,
      "կարգավիճ": 2932,
      "կոնկրետ": 2933,
      "կորց": 2934,
      "մարմինների": 2935,
      "խումբը": 2936,
      "ԼՂՀ": 2937,
      "Բելառ": 2938,
      "ՏՄ": 2939,
      "չորս": 2940,
      "առատ": 2941,
      "հավաս": 2942,
      "պարզել": 2943,
      "իրավիճակի": 2944,
      "Թրամփը": 2945,
      "հարցով": 2946,
      "Թուրքիայում": 2947,
      "հարձակում": 2948,
      "The": 2949,
      "պատկան": 2950,
      "անձինք": 2951,
      "ուստի": 2952,
      "ոլորտի": 2953,
      "ունենում": 2954,
      "գյուղատնտես": 2955,
      "ճանապարհը": 2956,
      "ետի": 2957,
      "վարձ": 2958,
      "պարզվել": 2959,
      "զոհերի": 2960,
      "գագաթ": 2961,
      "երթեւ": 2962,
      "արդյունքները": 2963,
      "Բայդ": 2964,
      "տուգ": 2965,
      "առնում": 2966,
      "արյան": 2967,
      "ոնական": 2968,
      "կարիք": 2969,
      "այդպես": 2970,
      "աշինգ": 2971,
      "acebook": 2972,
      "բարդ": 2973,
      "հետեւանք": 2974,
      "Սերգեյ": 2975,
      "Երբ": 2976,
      "հավան": 2977,
      "բնակարան": 2978,
      "Մաս": 2979,
      "Վաշինգ": 2980,
      "հով": 2981,
      "ճիշտ": 2982,
      "շուտ": 2983,
      "իկների": 2984,
      "ավարժ": 2985,
      "սարք": 2986,
      "Միր": 2987,
      "խող": 2988,
      "որքան": 2989,
      "աշխատանքներ": 2990,
      "նվազել": 2991,
      "ՆԳՆ": 2992,
      "ԵԿ": 2993,
      "դուք": 2994,
      "փյուռ": 2995,
      "ուհ": 2996,
      "բերում": 2997,
      "գիտն": 2998,
      "ստեղծված": 2999,
      "Գազ": 3000,
      "գնդ": 3001,
      "բարել": 3002,
      "ընդգրկ": 3003,
      "Լեւոն": 3004,
      "օգտագործել": 3005,
      "սպասարկ": 3006,
      "սկզբունք": 3007,
      "Վանաձ": 3008,
      "նշվում": 3009,
      "45": 3010,
      "Սիրի": 3011,
      "իմի": 3012,
      "քաշ": 3013,
      "ոչնչ": 3014,
      "Լավ": 3015,
      "պի": 3016,
      "բնակչության": 3017,
      "ent": 3018,
      "Կենտրոնական": 3019,
      "Վի": 3020,
      "մուծ": 3021,
      "երեն": 3022,
      "ասված": 3023,
      "առաջարկել": 3024,
      "Արագածո": 3025,
      "Հանդիպ": 3026,
      "ro": 3027,
      "Ապ": 3028,
      "Իշ": 3029,
      "Սեւ": 3030,
      "եռներում": 3031,
      "ավարության": 3032,
      "Եվրո": 3033,
      "եզրակաց": 3034,
      "ժամանակահատվածում": 3035,
      "38": 3036,
      "Facebook": 3037,
      "վարդ": 3038,
      "քննարկման": 3039,
      "դիվանագիտական": 3040,
      "օդանավակայ": 3041,
      "ֆոտո": 3042,
      "sh": 3043,
      "առիթ": 3044,
      "մեդ": 3045,
      "պատասխանատու": 3046,
      "ինքնաթիռ": 3047,
      "համալսարանի": 3048,
      "օղ": 3049,
      "տեղափոխել": 3050,
      "քննադատ": 3051,
      "ֆեյսբուքյան": 3052,
      "ավազ": 3053,
      "դրանից": 3054,
      "հետևանքով": 3055,
      "Կառավարության": 3056,
      "դու": 3057,
      "մալ": 3058,
      "ավայրի": 3059,
      "շտապ": 3060,
      "եղբայր": 3061,
      "խոսնակ": 3062,
      "մտյան": 3063,
      "կայումս": 3064,
      "ews": 3065,
      "առավոտյան": 3066,
      "ամասն": 3067,
      "ահեղ": 3068,
      "տրական": 3069,
      "ներկայացվել": 3070,
      "գործողությունները": 3071,
      "չափով": 3072,
      "մնացել": 3073,
      "Մանուկ": 3074,
      "զբոսաշրջ": 3075,
      "Աստ": 3076,
      "անախ": 3077,
      "ահաս": 3078,
      "ոսյանի": 3079,
      "օգնություն": 3080,
      "կատարած": 3081,
      "միջոցների": 3082,
      "իշխանությունը": 3083,
      "մեղավոր": 3084,
      "Արցախում": 3085,
      "Կատար": 3086,
      "եղանակ": 3087,
      "այնպիսի": 3088,
      "հարազատ": 3089,
      "խանի": 3090,
      "իկայում": 3091,
      "հատուց": 3092,
      "տարիներին": 3093,
      "լրացուցիչ": 3094,
      "ճնշ": 3095,
      "վերած": 3096,
      "հրթիռ": 3097,
      "ացիոն": 3098,
      "երկխոս": 3099,
      "մշակութային": 3100,
      "Սիրիայի": 3101,
      "Գալ": 3102,
      "խոչ": 3103,
      "վախ": 3104,
      "վելով": 3105,
      "ուժերը": 3106,
      "33": 3107,
      "հռ": 3108,
      "ակներ": 3109,
      "ատոր": 3110,
      "ընկ": 3111,
      "Շիրակի": 3112,
      "կանանց": 3113,
      "թթ": 3114,
      "գործար": 3115,
      "կրտ": 3116,
      "ունեմ": 3117,
      "նորհ": 3118,
      "ուշադր": 3119,
      "ոստիկանությունը": 3120,
      "երեկոյան": 3121,
      "բանակցությունների": 3122,
      "արտահերթ": 3123,
      "գաղափ": 3124,
      "ստիպված": 3125,
      "խոչընդ": 3126,
      "ամբողջությամբ": 3127,
      "մշակույթի": 3128,
      "Եվրոպական": 3129,
      "44": 3130,
      "ed": 3131,
      "յակում": 3132,
      "ուղարկել": 3133,
      "կինը": 3134,
      "պատասխանել": 3135,
      "փոփոխություններ": 3136,
      "36": 3137,
      "Իս": 3138,
      "Նման": 3139,
      "փոխանակ": 3140,
      "ծառայությունների": 3141,
      "ներկայացուցիչները": 3142,
      "տրանսպորտային": 3143,
      "ՀԱՊ": 3144,
      "ձայ": 3145,
      "ters": 3146,
      "պողոտ": 3147,
      "հայտարարություն": 3148,
      "առանձնա": 3149,
      "եկամուտ": 3150,
      "երթեւեկ": 3151,
      "Արագածոտնի": 3152,
      "com": 3153,
      "Կով": 3154,
      "խիստ": 3155,
      "ակար": 3156,
      "աղթ": 3157,
      "2012": 3158,
      "կողմը": 3159,
      "լարված": 3160,
      "որևէ": 3161,
      "անքը": 3162,
      "վարույթ": 3163,
      "խոչընդոտ": 3164,
      "անյանի": 3165,
      "ատում": 3166,
      "ույցի": 3167,
      "ընթացի": 3168,
      "կորոնավիրուսի": 3169,
      "Քր": 3170,
      "խի": 3171,
      "2022": 3172,
      "անցած": 3173,
      "Արման": 3174,
      "նախագահական": 3175,
      "տվյալների": 3176,
      "հասարակության": 3177,
      "ունենալու": 3178,
      "միասին": 3179,
      "Ռուբեն": 3180,
      "ՀԱՊԿ": 3181,
      "առաջիկա": 3182,
      "իրականացնելու": 3183,
      "ժողովրդին": 3184,
      "ՀԱԿ": 3185,
      "դառնալ": 3186,
      "արմ": 3187,
      "երծ": 3188,
      "ատուր": 3189,
      "ընկերությունների": 3190,
      "ներկայացուցիչների": 3191,
      "փողոցում": 3192,
      "վարորդը": 3193,
      "ցեղասպան": 3194,
      "Գրիգորյանը": 3195,
      "Reu": 3196,
      "ՄԻ": 3197,
      "Սիմ": 3198,
      "Վայ": 3199,
      "ձեզ": 3200,
      "ամտ": 3201,
      "ինչու": 3202,
      "մեխանի": 3203,
      "2013": 3204,
      "իրականացվող": 3205,
      "աշխատակիցները": 3206,
      "Ղազախ": 3207,
      "բեռ": 3208,
      "ուսը": 3209,
      "ագրական": 3210,
      "կուսակցությունը": 3211,
      "լավագույն": 3212,
      "Այնու": 3213,
      "Reuters": 3214,
      "Խոս": 3215,
      "չեղ": 3216,
      "ներմուծ": 3217,
      "վառ": 3218,
      "ախմբ": 3219,
      "ստորաբաժ": 3220,
      "90": 3221,
      "բեռն": 3222,
      "փակել": 3223,
      "ատան": 3224,
      "իրավունքի": 3225,
      "ներկայացված": 3226,
      "իրականացվել": 3227,
      "Իրաք": 3228,
      "բանակի": 3229,
      "կողմն": 3230,
      "Շահ": 3231,
      "ավորության": 3232,
      "2023": 3233,
      "նիստը": 3234,
      "ակները": 3235,
      "ավան": 3236,
      "գործել": 3237,
      "կոռ": 3238,
      "գերազանց": 3239,
      "օդաչ": 3240,
      "արհ": 3241,
      "պատմական": 3242,
      "Նույն": 3243,
      "օրեին": 3244,
      "ընտանիքի": 3245,
      "Հիմա": 3246,
      "ԱԱԾ": 3247,
      "գեներ": 3248,
      "հզոր": 3249,
      "վագ": 3250,
      "եկտի": 3251,
      "անցյալ": 3252,
      "ափակում": 3253,
      "աշխատակիցների": 3254,
      "կանխատես": 3255,
      "մասնագիտական": 3256,
      "առջեւ": 3257,
      "Զին": 3258,
      "Խորհր": 3259,
      "շնամ": 3260,
      "մեկում": 3261,
      "հարցի": 3262,
      "ամփոփ": 3263,
      "այնու": 3264,
      "հարցերը": 3265,
      "Երկ": 3266,
      "էներգետ": 3267,
      "500": 3268,
      "պակ": 3269,
      "անհայտ": 3270,
      "հայց": 3271,
      "հարեւան": 3272,
      "չկան": 3273,
      "Արսեն": 3274,
      "նախագիծը": 3275,
      "հավելելով": 3276,
      "երկիրը": 3277,
      "կախված": 3278,
      "հա": 3279,
      "նց": 3280,
      "չունեն": 3281,
      "ստր": 3282,
      "աշար": 3283,
      "աստանի": 3284,
      "արդարադատության": 3285,
      "Հովհաննիսյանը": 3286,
      "ԲԸ": 3287,
      "ոկր": 3288,
      "մարմնի": 3289,
      "լեզ": 3290,
      "ակային": 3291,
      "որակ": 3292,
      "անիտար": 3293,
      "գյուղում": 3294,
      "ստորագրել": 3295,
      "անախագահ": 3296,
      "բացել": 3297,
      "գիտության": 3298,
      "հանգստ": 3299,
      "Նար": 3300,
      "դեղ": 3301,
      "տով": 3302,
      "տարել": 3303,
      "չնայած": 3304,
      "շարունակել": 3305,
      "պատմության": 3306,
      "Հնդ": 3307,
      "առմամբ": 3308,
      "ազան": 3309,
      "ուրի": 3310,
      "տրի": 3311,
      "հրդեհ": 3312,
      "Իշխան": 3313,
      "տեխնիկական": 3314,
      "փոխարեն": 3315,
      "ազատազրկման": 3316,
      "թուն": 3317,
      "թագ": 3318,
      "ջոկ": 3319,
      "երկկողմ": 3320,
      "համակարգը": 3321,
      "շրջանառ": 3322,
      "հիմնադրամի": 3323,
      "Հաս": 3324,
      "գտել": 3325,
      "չար": 3326,
      "ողներ": 3327,
      "աշառ": 3328,
      "ընտրություններին": 3329,
      "տեղեկաց": 3330,
      "Ավետիս": 3331,
      "մոդ": 3332,
      "ուլիս": 3333,
      "բացակայ": 3334,
      "ացմանը": 3335,
      "անդամները": 3336,
      "հեղափոխ": 3337,
      "կլինեն": 3338,
      "անհ": 3339,
      "ակո": 3340,
      "կարճ": 3341,
      "վարակ": 3342,
      "եցինք": 3343,
      "հասցե": 3344,
      "խախտում": 3345,
      "կլին": 3346,
      "մետր": 3347,
      "ուտի": 3348,
      "միջանց": 3349,
      "կոմ": 3350,
      "ավտոբ": 3351,
      "միասնական": 3352,
      "ասխանում": 3353,
      "Միրզ": 3354,
      "Գար": 3355,
      "կազմակերպությունների": 3356,
      "համագործակցությունը": 3357,
      "նախագծի": 3358,
      "Արարատի": 3359,
      "Լե": 3360,
      "ակցիան": 3361,
      "հասնել": 3362,
      "քննարկում": 3363,
      "Դր": 3364,
      "Տեր": 3365,
      "ատուն": 3366,
      "եկց": 3367,
      "պատժ": 3368,
      "հասցրել": 3369,
      "նախատեսվում": 3370,
      "փաստաթղ": 3371,
      "Պուտինը": 3372,
      "Առաջին": 3373,
      "խթ": 3374,
      "միակ": 3375,
      "ոչինչ": 3376,
      "աշխատակազմի": 3377,
      "կապի": 3378,
      "սահմանափակ": 3379,
      "նշանակվել": 3380,
      "շեջ": 3381,
      "վածների": 3382,
      "գնալ": 3383,
      "հիմնականում": 3384,
      "կերպով": 3385,
      "az": 3386,
      "թը": 3387,
      "իդ": 3388,
      "ոնդ": 3389,
      "խոսքը": 3390,
      "պատճառը": 3391,
      "փաթեթ": 3392,
      "ոկրատ": 3393,
      "Դավ": 3394,
      "խաչ": 3395,
      "ծայր": 3396,
      "հրաբ": 3397,
      "կողմի": 3398,
      "օդային": 3399,
      "թշնամ": 3400,
      "ներքո": 3401,
      "ուկրաին": 3402,
      "երբեք": 3403,
      "իրականացվում": 3404,
      "շնորհակալություն": 3405,
      "աջակցության": 3406,
      "այլն": 3407,
      "բացատր": 3408,
      "մասնակցում": 3409,
      "ամբողջական": 3410,
      "Բրիտանիայի": 3411,
      "ՍՊ": 3412,
      "հարյուր": 3413,
      "քննարկվել": 3414,
      "պնդում": 3415,
      "Դանի": 3416,
      "ՔԿ": 3417,
      "երկրներում": 3418,
      "ներկայացնել": 3419,
      "մասնավոր": 3420,
      "արժե": 3421,
      "ոնալդ": 3422,
      "ճակատ": 3423,
      "օդաչու": 3424,
      "թեմ": 3425,
      "ենային": 3426,
      "եցի": 3427,
      "զրկ": 3428,
      "հաջողվել": 3429,
      "ցիոն": 3430,
      "ապրում": 3431,
      "Նովոստի": 3432,
      "ցածր": 3433,
      "ոնե": 3434,
      "այլեւ": 3435,
      "տարածել": 3436,
      "վերահսկ": 3437,
      "Մայ": 3438,
      "պարգ": 3439,
      "նիստի": 3440,
      "գիշեր": 3441,
      "գործունեությունը": 3442,
      "տարիների": 3443,
      "համաձայնագիր": 3444,
      "բաղ": 3445,
      "կաթ": 3446,
      "նավթի": 3447,
      "Սիմոն": 3448,
      "բնա": 3449,
      "հագ": 3450,
      "շուկ": 3451,
      "ուհին": 3452,
      "աղորդ": 3453,
      "2011": 3454,
      "ցուցադր": 3455,
      "Թրամփի": 3456,
      "հանրապետության": 3457,
      "Օբ": 3458,
      "պատշ": 3459,
      "պաշտպանական": 3460,
      "In": 3461,
      "ay": 3462,
      "is": 3463,
      "դամ": 3464,
      "քս": 3465,
      "երաժ": 3466,
      "անումը": 3467,
      "անդամների": 3468,
      "պարտական": 3469,
      "գերատես": 3470,
      "արքունի": 3471,
      "300": 3472,
      "մատուց": 3473,
      "շահագործ": 3474,
      "ապահովման": 3475,
      "միլիարդ": 3476,
      "ուղիղ": 3477,
      "Մայր": 3478,
      "զուգ": 3479,
      "ուսով": 3480,
      "Այսինքն": 3481,
      "հասանելի": 3482,
      "հաղորդագրության": 3483,
      "Ալեքսանդր": 3484,
      "Գեղարքունի": 3485,
      "տասնյակ": 3486,
      "32": 3487,
      "ատեքստ": 3488,
      "ընկած": 3489,
      "հանել": 3490,
      "հանդիպումը": 3491,
      "ապահովել": 3492,
      "թռչ": 3493,
      "Վայոց": 3494,
      "կանց": 3495,
      "կուտ": 3496,
      "ճանաչել": 3497,
      "37": 3498,
      "Ակ": 3499,
      "չպետք": 3500,
      "միավոր": 3501,
      "ույր": 3502,
      "փոխնախագահ": 3503,
      "գիպտ": 3504,
      "տրոնային": 3505,
      "բաժնում": 3506,
      "թռիչ": 3507,
      "Արմավիրի": 3508,
      "Աթ": 3509,
      "Փր": 3510,
      "նե": 3511,
      "սը": 3512,
      "վեյ": 3513,
      "անելու": 3514,
      "ստանձ": 3515,
      "սպասում": 3516,
      "ակերտ": 3517,
      "իրականացնում": 3518,
      "պատմել": 3519,
      "զգուշ": 3520,
      "առողջապահության": 3521,
      "ol": 3522,
      "Դոնալդ": 3523,
      "լից": 3524,
      "որդը": 3525,
      "երկրաշարժ": 3526,
      "ակնհայտ": 3527,
      "քաղ": 3528,
      "պետությունների": 3529,
      "խանութ": 3530,
      "ակայքում": 3531,
      "ստացված": 3532,
      "որոնցից": 3533,
      "Մոսկվայի": 3534,
      "Ժառանգ": 3535,
      "չակ": 3536,
      "եսը": 3537,
      "ուղին": 3538,
      "ատարած": 3539,
      "այցի": 3540,
      "իրականացնող": 3541,
      "կազմակերպել": 3542,
      "բռնկ": 3543,
      "փուլում": 3544,
      "ֆի": 3545,
      "ընկալ": 3546,
      "թիմ": 3547,
      "ներկայացուց": 3548,
      "պարզաբ": 3549,
      "Սահմանադրական": 3550,
      "ընկել": 3551,
      "հարգ": 3552,
      "փոխհատուց": 3553,
      "բերված": 3554,
      "տեղեկություններ": 3555,
      "դպրոցի": 3556,
      "լամական": 3557,
      "BC": 3558,
      "աներ": 3559,
      "ալից": 3560,
      "պահանջել": 3561,
      "վճռ": 3562,
      "Մինսկի": 3563,
      "գրասենյակի": 3564,
      "ղարաբաղ": 3565,
      "մնում": 3566,
      "պե": 3567,
      "իրականացրել": 3568,
      "գալու": 3569,
      "Հակոբյանը": 3570,
      "գործակալությունը": 3571,
      "im": 3572,
      "թանգ": 3573,
      "խավոր": 3574,
      "քները": 3575,
      "ուներ": 3576,
      "ակնկալ": 3577,
      "պահպանության": 3578,
      "հասկանում": 3579,
      "Հարցին": 3580,
      "անդրադառնալով": 3581,
      "ներդրում": 3582,
      "զենքի": 3583,
      "առեւտրի": 3584,
      "կտա": 3585,
      "Պարզվել": 3586,
      "յակը": 3587,
      "ահարել": 3588,
      "հանրության": 3589,
      "արտգործնախարար": 3590,
      "իրավասության": 3591,
      "Սպիտ": 3592,
      "ալբ": 3593,
      "հանրաք": 3594,
      "Հնդկ": 3595,
      "իժ": 3596,
      "ձախ": 3597,
      "տպ": 3598,
      "ավա": 3599,
      "անիկ": 3600,
      "անցում": 3601,
      "ուղեկց": 3602,
      "ընթանում": 3603,
      "վերջնական": 3604,
      "պաշտոնակատար": 3605,
      "պիտի": 3606,
      "Գոր": 3607,
      "Պող": 3608,
      "եհ": 3609,
      "աստան": 3610,
      "հայերի": 3611,
      "հարմար": 3612,
      "առաջնա": 3613,
      "հայտարարությունը": 3614,
      "մնացած": 3615,
      "զանգվածային": 3616,
      "Մն": 3617,
      "հորդ": 3618,
      "մանն": 3619,
      "կենտրոնական": 3620,
      "գաղտնի": 3621,
      "ծրագիր": 3622,
      "շուկայում": 3623,
      "գեներալ": 3624,
      "ԿԳ": 3625,
      "Ձեր": 3626,
      "Նահանգ": 3627,
      "ացիական": 3628,
      "իչը": 3629,
      "փոփոխությունների": 3630,
      "համալիր": 3631,
      "Որոշ": 3632,
      "կոռուպ": 3633,
      "us": 3634,
      "ոնիայի": 3635,
      "պատրաստակամ": 3636,
      "էի": 3637,
      "տալի": 3638,
      "Հանրային": 3639,
      "Էրդողանը": 3640,
      "եխ": 3641,
      "ամասում": 3642,
      "հեռանկար": 3643,
      "ցուցարար": 3644,
      "Ազատ": 3645,
      "տեղեկատվության": 3646,
      "խոստով": 3647,
      "անմիջապես": 3648,
      "Դրա": 3649,
      "Զո": 3650,
      "բջ": 3651,
      "լիճ": 3652,
      "2010": 3653,
      "թույլատր": 3654,
      "բյուջեի": 3655,
      "Գլխավոր": 3656,
      "բալ": 3657,
      "իսով": 3658,
      "հարավ": 3659,
      "լինում": 3660,
      "խնդրել": 3661,
      "ոլորտներում": 3662,
      "Մարդու": 3663,
      "համանախագահ": 3664,
      "յանց": 3665,
      "ագրես": 3666,
      "խնդրի": 3667,
      "շարժման": 3668,
      "կրակոց": 3669,
      "ֆրանս": 3670,
      "պատկանող": 3671,
      "թվով": 3672,
      "մուտք": 3673,
      "հսկող": 3674,
      "նահանգ": 3675,
      "գործողություններ": 3676,
      "ձերբակալել": 3677,
      "ra": 3678,
      "ԱՆ": 3679,
      "Բալ": 3680,
      "տեմբերին": 3681,
      "րաստի": 3682,
      "հատկանիշ": 3683,
      "ՔՊ": 3684,
      "անհետ": 3685,
      "ասի": 3686,
      "աղեստ": 3687,
      "կանչ": 3688,
      "ակիցները": 3689,
      "օրենքով": 3690,
      "լրագրողներին": 3691,
      "վտանգավոր": 3692,
      "մակարդակի": 3693,
      "հոսպիտ": 3694,
      "խափանման": 3695,
      "Տավուշի": 3696,
      "Շատ": 3697,
      "Ոչ": 3698,
      "եգ": 3699,
      "ժեք": 3700,
      "սահմանադրական": 3701,
      "կրթական": 3702,
      "օտարերկր": 3703,
      "Թուրքական": 3704,
      "Կապ": 3705,
      "իրախ": 3706,
      "ահայտվել": 3707,
      "հայրենի": 3708,
      "րաստիճան": 3709,
      "Դուք": 3710,
      "Մալ": 3711,
      "ապրանքների": 3712,
      "ot": 3713,
      "կռ": 3714,
      "կատարվում": 3715,
      "ուտբ": 3716,
      "խորհրդարանում": 3717,
      "տարածաշրջանի": 3718,
      "Իսրայել": 3719,
      "ավտոմեքենայի": 3720,
      "եսուրս": 3721,
      "եցված": 3722,
      "հրադադ": 3723,
      "հետեւյալ": 3724,
      "ենթակառուց": 3725,
      "վիճակ": 3726,
      "քաղաքացիներին": 3727,
      "ահաբեկչական": 3728,
      "ion": 3729,
      "ասպար": 3730,
      "դատարանում": 3731,
      "ճանապարհով": 3732,
      "հոգե": 3733,
      "հիմնադրամ": 3734,
      "վերականգն": 3735,
      "Տարոն": 3736,
      "բառ": 3737,
      "ժամանել": 3738,
      "ուղերձ": 3739,
      "կարծիք": 3740,
      "ընդգծեց": 3741,
      "տրամադրել": 3742,
      "Մարտի": 3743,
      "դանակ": 3744,
      "հաց": 3745,
      "հյուսիս": 3746,
      "ուխ": 3747,
      "օրաթ": 3748,
      "տեսել": 3749,
      "տեղեկություն": 3750,
      "Անկար": 3751,
      "ապահովելու": 3752,
      "նախատեսում": 3753,
      "ստորաբաժանում": 3754,
      "պատշաճ": 3755,
      "Աֆ": 3756,
      "թիրախ": 3757,
      "իհարկե": 3758,
      "ռուբ": 3759,
      "տին": 3760,
      "տեւ": 3761,
      "ֆիզ": 3762,
      "նախընտրական": 3763,
      "ոստիկանները": 3764,
      "բնակչ": 3765,
      "բնակիչների": 3766,
      "գնահատել": 3767,
      "ունենալով": 3768,
      "բեռնատար": 3769,
      "ԱԶ": 3770,
      "իգ": 3771,
      "կղ": 3772,
      "արանը": 3773,
      "ահանդ": 3774,
      "համարվում": 3775,
      "պարագայում": 3776,
      "գտնվել": 3777,
      "պարտադիր": 3778,
      "քայլը": 3779,
      "տղամարդը": 3780,
      "հղում": 3781,
      "պիսով": 3782,
      "վթարի": 3783,
      "ացնելով": 3784,
      "պաշտոնում": 3785,
      "Ուր": 3786,
      "Միք": 3787,
      "հանրապես": 3788,
      "գույքի": 3789,
      "ռադի": 3790,
      "ցիայի": 3791,
      "ովյան": 3792,
      "յալների": 3793,
      "կարողացել": 3794,
      "հիմնարկ": 3795,
      "մահացած": 3796,
      "ոգման": 3797,
      "Հայաստանն": 3798,
      "էներգիայի": 3799,
      "կործ": 3800,
      "պահել": 3801,
      "օգտին": 3802,
      "դժգոհ": 3803,
      "ուղարկվել": 3804,
      "բարելավ": 3805,
      "ղան": 3806,
      "չոր": 3807,
      "ագում": 3808,
      "ընտրվել": 3809,
      "սահմանափակում": 3810,
      "բրիտ": 3811,
      "Ընկեր": 3812,
      "Ել": 3813,
      "Իտալի": 3814,
      "Հատ": 3815,
      "Նյու": 3816,
      "վկայում": 3817,
      "տու": 3818,
      "ատոմ": 3819,
      "ժամանակավոր": 3820,
      "ընտրություններում": 3821,
      "տեղեկանում": 3822,
      "քերով": 3823,
      "ռազմավարական": 3824,
      "վնասվածքներ": 3825,
      "էլեկտրոնային": 3826,
      "Մոսկվայում": 3827,
      "մղ": 3828,
      "հրշեջ": 3829,
      "ամենա": 3830,
      "պարզապես": 3831,
      "արձանագրվել": 3832,
      "առավելագույն": 3833,
      "նահանգի": 3834,
      "սառ": 3835,
      "երդ": 3836,
      "աձայն": 3837,
      "բացաս": 3838,
      "պայմանագիր": 3839,
      "կարգով": 3840,
      "տվյալները": 3841,
      "ուդյան": 3842,
      "Խաչատրյանը": 3843,
      "պատվաստ": 3844,
      "մեխանիզմ": 3845,
      "թմ": 3846,
      "շի": 3847,
      "փն": 3848,
      "քներ": 3849,
      "ավառ": 3850,
      "հարձակման": 3851,
      "փոխարին": 3852,
      "պատվիրակության": 3853,
      "Զոհրաբ": 3854,
      "բեն": 3855,
      "ռեսուրս": 3856,
      "տա": 3857,
      "լիմ": 3858,
      "սահմանին": 3859,
      "մասնակցությամբ": 3860,
      "օգտագործման": 3861,
      "Մարտիր": 3862,
      "դաշինքի": 3863,
      "ամուսն": 3864,
      "Կարապետյանը": 3865,
      "48": 3866,
      "ողջուն": 3867,
      "առաջարկում": 3868,
      "աքննությունը": 3869,
      "անդրադարձել": 3870,
      "ատեքստում": 3871,
      "ռը": 3872,
      "արվ": 3873,
      "միգր": 3874,
      "քրե": 3875,
      "Ադրբեջանում": 3876,
      "մարզերում": 3877,
      "Կարծ": 3878,
      "առողջական": 3879,
      "տերն": 3880,
      "գործընթացի": 3881,
      "կրկն": 3882,
      "Ադրբեջանին": 3883,
      "բարձրաստիճան": 3884,
      "հանրահավաք": 3885,
      "նիստին": 3886,
      "ch": 3887,
      "գինը": 3888,
      "ծաղ": 3889,
      "տը": 3890,
      "եմն": 3891,
      "անքների": 3892,
      "համարանիշ": 3893,
      "ակցություն": 3894,
      "ընտրությունները": 3895,
      "վերջերս": 3896,
      "նկատել": 3897,
      "55": 3898,
      "նին": 3899,
      "ենգ": 3900,
      "այսինքն": 3901,
      "մեկին": 3902,
      "բնակավայր": 3903,
      "նշանակության": 3904,
      "տեղեկատվական": 3905,
      "մշ": 3906,
      "տանը": 3907,
      "այդպիսի": 3908,
      "պաշտոնը": 3909,
      "կոտր": 3910,
      "Սաֆ": 3911,
      "քաղաքապետի": 3912,
      "արտադրության": 3913,
      "2008": 3914,
      "պալատի": 3915,
      "39": 3916,
      "Իլ": 3917,
      "լանդի": 3918,
      "անաս": 3919,
      "քաղաքացու": 3920,
      "այսպես": 3921,
      "Ռուսաստանում": 3922,
      "հանդիպմանը": 3923,
      "սպանել": 3924,
      "զինծառայող": 3925,
      "Քոչարյանի": 3926,
      "Միքայել": 3927,
      "ia": 3928,
      "Օս": 3929,
      "դրության": 3930,
      "գործիք": 3931,
      "հավատար": 3932,
      "զրուց": 3933,
      "գնացել": 3934,
      "հարկային": 3935,
      "պատասխանատվության": 3936,
      "re": 3937,
      "Արա": 3938,
      "ռիսկ": 3939,
      "հետագայում": 3940,
      "Հայաստանին": 3941,
      "ընդհատ": 3942,
      "քննություն": 3943,
      "այլեւս": 3944,
      "աճի": 3945,
      "շրջանների": 3946,
      "ներառյալ": 3947,
      "տեխնոլոգիաների": 3948,
      "հավասար": 3949,
      "Մամ": 3950,
      "բանից": 3951,
      "ջուր": 3952,
      "արցախ": 3953,
      "բերվել": 3954,
      "րոպե": 3955,
      "պահպանման": 3956,
      "անունը": 3957,
      "բի": 3958,
      "բիլ": 3959,
      "սեռ": 3960,
      "վթար": 3961,
      "եցնելու": 3962,
      "կարողանում": 3963,
      "դեպքերի": 3964,
      "աջակցություն": 3965,
      "կանգնած": 3966,
      "հերոս": 3967,
      "ծայրահեղ": 3968,
      "Սպիտակ": 3969,
      "լո": 3970,
      "վանից": 3971,
      "արտաս": 3972,
      "բռն": 3973,
      "փրկ": 3974,
      "վիրավորվել": 3975,
      "Նոյ": 3976,
      "չգիտ": 3977,
      "տոր": 3978,
      "ստացած": 3979,
      "ափշտ": 3980,
      "ազատության": 3981,
      "համապատասխանում": 3982,
      "ավարտվել": 3983,
      "գումարը": 3984,
      "արշավ": 3985,
      "ապացույց": 3986,
      "Նալբ": 3987,
      "ձորի": 3988,
      "տոնի": 3989,
      "ետային": 3990,
      "ոնում": 3991,
      "ուրբ": 3992,
      "անկյուն": 3993,
      "ing": 3994,
      "Ստամբ": 3995,
      "ՊԵԿ": 3996,
      "անհատ": 3997,
      "մերձ": 3998,
      "բանաձ": 3999,
      "թվականից": 4000,
      "տուժել": 4001,
      "պրոֆ": 4002,
      "Նալբանդ": 4003,
      "թիկ": 4004,
      "համատեքստում": 4005,
      "ակիցների": 4006,
      "գործակալության": 4007,
      "News": 4008,
      "Փարի": 4009,
      "կաշառ": 4010,
      "տապ": 4011,
      "անվանել": 4012,
      "իմաստ": 4013,
      "աբանության": 4014,
      "վճարել": 4015,
      "Ղարաբաղում": 4016,
      "Հայրապետ": 4017,
      "բավականին": 4018,
      "ժողովուրդը": 4019,
      "եկտիվ": 4020,
      "հոսպիտալ": 4021,
      "պատահ": 4022,
      "անակեր": 4023,
      "մեծամասն": 4024,
      "լրատվական": 4025,
      "Սահակյանը": 4026,
      "հարցազրույցում": 4027,
      "Լավր": 4028,
      "հափշտ": 4029,
      "ենում": 4030,
      "փորձի": 4031,
      "վայրում": 4032,
      "քայլեր": 4033,
      "միջոցառումներ": 4034,
      "Կատարվում": 4035,
      "պակաս": 4036,
      "ղարաբաղյան": 4037,
      "Աֆղան": 4038,
      "Սե": 4039,
      "ջային": 4040,
      "ենդ": 4041,
      "Արդար": 4042,
      "երկրները": 4043,
      "քաղաքացիները": 4044,
      "Դաշն": 4045,
      "բով": 4046,
      "իբր": 4047,
      "արտամեն": 4048,
      "կայացրել": 4049,
      "անձնակ": 4050,
      "հնար": 4051,
      "հունվար": 4052,
      "ակտիվի": 4053,
      "Պետրոսյանը": 4054,
      "ապացուց": 4055,
      "Գեղարքունիքի": 4056,
      "խր": 4057,
      "ճշ": 4058,
      "վերադ": 4059,
      "որդների": 4060,
      "Արայ": 4061,
      "առաջատար": 4062,
      "դեպարտամեն": 4063,
      "մտել": 4064,
      "Իրանը": 4065,
      "198": 4066,
      "կորուստ": 4067,
      "47": 4068,
      "դառնում": 4069,
      "ատը": 4070,
      "տարում": 4071,
      "պաշտոնա": 4072,
      "լուծման": 4073,
      "Հովիկ": 4074,
      "ընդդիմության": 4075,
      "Միջազգային": 4076,
      "պայթյուն": 4077,
      "ֆուտբ": 4078,
      "արում": 4079,
      "ընդհանրապես": 4080,
      "ստեղծման": 4081,
      "անտառ": 4082,
      "ուսումնական": 4083,
      "փաստաթուղ": 4084,
      "հանցագործության": 4085,
      "աստիճանի": 4086,
      "Փրկարար": 4087,
      "մթն": 4088,
      "ջրի": 4089,
      "ելքում": 4090,
      "մանդատ": 4091,
      "գրոհ": 4092,
      "տարածքը": 4093,
      "ստեղծվել": 4094,
      "լուծում": 4095,
      "un": 4096,
      "Նազ": 4097,
      "Օգ": 4098,
      "բեկ": 4099,
      "ակիր": 4100,
      "պետի": 4101,
      "քաղաքապետարանի": 4102,
      "աջակցել": 4103,
      "հետախուզական": 4104,
      "Եգիպտ": 4105,
      "Կիր": 4106,
      "սուբ": 4107,
      "ինս": 4108,
      "Արդյուն": 4109,
      "կենդանին": 4110,
      "եկեղեցու": 4111,
      "ինա": 4112,
      "ասուլիս": 4113,
      "ողություն": 4114,
      "ողբերգ": 4115,
      "նախալ": 4116,
      "արձր": 4117,
      "մարդաս": 4118,
      "զիջ": 4119,
      "կոալից": 4120,
      "իշխանություններին": 4121,
      "հանձնել": 4122,
      "ծրագրերը": 4123,
      "ինստիտուտ": 4124,
      "թմր": 4125,
      "լանդ": 4126,
      "ժաման": 4127,
      "քննիչ": 4128,
      "նախագահին": 4129,
      "եզեր": 4130,
      "հրավիրել": 4131,
      "Ստեփանակեր": 4132,
      "փնտր": 4133,
      "Բագր": 4134,
      "Մկրտ": 4135,
      "Վաղ": 4136,
      "գան": 4137,
      "կացի": 4138,
      "հայաստ": 4139,
      "նախօրեին": 4140,
      "նորից": 4141,
      "թույլտվ": 4142,
      "շուկան": 4143,
      "բջջային": 4144,
      "ՓԲԸ": 4145,
      "հոր": 4146,
      "փոխարժեքը": 4147,
      "իշխող": 4148,
      "ացիան": 4149,
      "պաշտոնից": 4150,
      "մարտահր": 4151,
      "նպատակը": 4152,
      "Փաշինյանն": 4153,
      "ձեւաչափ": 4154,
      "հաշվետ": 4155,
      "ԼՄ": 4156,
      "Պապ": 4157,
      "թաք": 4158,
      "դրել": 4159,
      "իրականացված": 4160,
      "ընդունելի": 4161,
      "շրջաններում": 4162,
      "առնչությամբ": 4163,
      "վեյց": 4164,
      "ճյուղ": 4165,
      "ուռ": 4166,
      "ելք": 4167,
      "միմ": 4168,
      "ժամանակակից": 4169,
      "ներկայացուցիչը": 4170,
      "զորքերի": 4171,
      "դրսեւոր": 4172,
      "Եվրամիության": 4173,
      "Բոլոր": 4174,
      "Ֆին": 4175,
      "եւնույն": 4176,
      "փոխել": 4177,
      "պատասխանեց": 4178,
      "մուտքի": 4179,
      "Վահե": 4180,
      "Աշխատ": 4181,
      "400": 4182,
      "Սաս": 4183,
      "ավորական": 4184,
      "ինչն": 4185,
      "հրամ": 4186,
      "իչների": 4187,
      "արիայի": 4188,
      "աշխատանքից": 4189,
      "ինքնաս": 4190,
      "հրաժարական": 4191,
      "Քաղաքացիական": 4192,
      "Նովոստին": 4193,
      "ներգրավված": 4194,
      "գաղափար": 4195,
      "հրադադարի": 4196,
      ".)": 4197,
      "Էլ": 4198,
      "ելյանը": 4199,
      "հրազ": 4200,
      "կատարում": 4201,
      "ակատարողական": 4202,
      "պայքարում": 4203,
      "Մեզ": 4204,
      "Օհան": 4205,
      "պիսին": 4206,
      "տվեց": 4207,
      "ասած": 4208,
      "եստի": 4209,
      "ալով": 4210,
      "մեթ": 4211,
      "արձակել": 4212,
      "քննության": 4213,
      "կապիտ": 4214,
      "հիմք": 4215,
      "տեղեկությունների": 4216,
      "ունենա": 4217,
      "զարգաց": 4218,
      "նշանակություն": 4219,
      "տնօրենի": 4220,
      "ess": 4221,
      "դատապարտել": 4222,
      "ասիական": 4223,
      "վածքների": 4224,
      "2024": 4225,
      "ընդունվել": 4226,
      "մասնակիցները": 4227,
      "վնասվածքներով": 4228,
      "հումանիտար": 4229,
      "Քրեական": 4230,
      "ակտիվիստ": 4231,
      "միմյանց": 4232,
      "ՊԲ": 4233,
      "Ջոն": 4234,
      "ռեկ": 4235,
      "տառ": 4236,
      "ույցը": 4237,
      "լուծել": 4238,
      "ամսվա": 4239,
      "ակողմ": 4240,
      "Սիրիայում": 4241,
      "հանրաքվե": 4242,
      "Դի": 4243,
      "ապրել": 4244,
      "հետաձգ": 4245,
      "վերջինիս": 4246,
      "կնք": 4247,
      "Սաուդյան": 4248,
      "Քննչական": 4249,
      "Դրանից": 4250,
      "աժամկետ": 4251,
      "նից": 4252,
      "շռ": 4253,
      "օժ": 4254,
      "ապագ": 4255,
      "աշակերտ": 4256,
      "արկի": 4257,
      "ուցե": 4258,
      "դեմոկրատ": 4259,
      "պրոց": 4260,
      "անցկացնել": 4261,
      "լրագրող": 4262,
      "ծննդ": 4263,
      "մարդկային": 4264,
      "Հովհաննես": 4265,
      "բացառապես": 4266,
      "կտրուկ": 4267,
      "բարեփոխումների": 4268,
      "Յոր": 4269,
      "դահ": 4270,
      "ոյանի": 4271,
      "ողիկ": 4272,
      "փոխադր": 4273,
      "հաղորդել": 4274,
      "կիրառել": 4275,
      "Պետք": 4276,
      "Էրեբ": 4277,
      "Կարծում": 4278,
      "ir": 4279,
      "wit": 4280,
      "ԵԽ": 4281,
      "Լոնդ": 4282,
      "այական": 4283,
      "ազմից": 4284,
      "անձը": 4285,
      "իրականում": 4286,
      "գործընկերների": 4287,
      "փախստ": 4288,
      "Երկրորդ": 4289,
      "Լիբան": 4290,
      "վերանոր": 4291,
      "ՍՊԸ": 4292,
      "Արայիկ": 4293,
      "ԶԼՄ": 4294,
      "չվեր": 4295,
      "ուի": 4296,
      "անցին": 4297,
      "անձնաժողով": 4298,
      "ունեցավ": 4299,
      "Նշվում": 4300,
      "Կոնգր": 4301,
      "Մեղ": 4302,
      "մունքի": 4303,
      "չէին": 4304,
      "ավորումը": 4305,
      "ադեմի": 4306,
      "քաղաքականությունը": 4307,
      "Նաիր": 4308,
      "խաղաղապահ": 4309,
      "Բրյուս": 4310,
      "եկտրա": 4311,
      "օբյեկտ": 4312,
      "պարգեւ": 4313,
      "Փորձ": 4314,
      "սկայ": 4315,
      "ամփ": 4316,
      "միաժամանակ": 4317,
      "ուսուց": 4318,
      "տեսակետ": 4319,
      "նպատակն": 4320,
      "տարիներ": 4321,
      "նյութեր": 4322,
      "ռեժիմի": 4323,
      "համաձայնագրի": 4324,
      "Կորեայի": 4325,
      "գնել": 4326,
      "նդի": 4327,
      "պոր": 4328,
      "այթ": 4329,
      "Միաժամանակ": 4330,
      "Առաքել": 4331,
      "տեղակայված": 4332,
      "Գի": 4333,
      "Վալ": 4334,
      "ժան": 4335,
      "ինտերն": 4336,
      "աքար": 4337,
      "ուրախ": 4338,
      "սահմանի": 4339,
      "գիստ": 4340,
      "փաստը": 4341,
      "բացասական": 4342,
      "փառատ": 4343,
      "ուել": 4344,
      "հարցերին": 4345,
      "երկաթ": 4346,
      "ղեկավարների": 4347,
      "Վրաստանում": 4348,
      "անշանակ": 4349,
      "Պուտինի": 4350,
      "վերահսկողության": 4351,
      "Լոռու": 4352,
      "Բելառուսի": 4353,
      "ավտով": 4354,
      "աբոր": 4355,
      "Այժմ": 4356,
      "ֆիլմ": 4357,
      "շփման": 4358,
      "աստիճանը": 4359,
      "գոյություն": 4360,
      "Ապրի": 4361,
      "41": 4362,
      "ad": 4363,
      "աթի": 4364,
      "թատր": 4365,
      "կով": 4366,
      "այան": 4367,
      "իսր": 4368,
      "ուսուցիչ": 4369,
      "գործառ": 4370,
      "համարել": 4371,
      "ուղու": 4372,
      "փաստացի": 4373,
      "ացիների": 4374,
      "դարձավ": 4375,
      "զոհված": 4376,
      "դատախազության": 4377,
      "Սուրեն": 4378,
      "տրանսպորտի": 4379,
      "Բաղդաս": 4380,
      "մաքսային": 4381,
      "ԽՎ": 4382,
      "եֆ": 4383,
      "սիրի": 4384,
      "գործադիր": 4385,
      "թեման": 4386,
      "դոլարով": 4387,
      "խորհուրդը": 4388,
      "ակողմանի": 4389,
      "ԵՏՄ": 4390,
      "Չնայած": 4391,
      "Վեն": 4392,
      "լց": 4393,
      "իրար": 4394,
      "ադուլ": 4395,
      "կարողանա": 4396,
      "մերուկ": 4397,
      "ծառայություն": 4398,
      "սկսած": 4399,
      "Ազատության": 4400,
      "վիճակի": 4401,
      "Անդրադառնալով": 4402,
      "իսրայել": 4403,
      "Զար": 4404,
      "բանի": 4405,
      "գները": 4406,
      "կեղ": 4407,
      "ազերծ": 4408,
      "Հայաստանից": 4409,
      "Մնացական": 4410,
      "Մահ": 4411,
      "աժողովի": 4412,
      "գով": 4413,
      "այանը": 4414,
      "առայժմ": 4415,
      "վերաբերող": 4416,
      "բաժնետ": 4417,
      "ներկայացուցիչներ": 4418,
      "ոբալ": 4419,
      "փոխանցել": 4420,
      "կանխարգել": 4421,
      "պահպանել": 4422,
      "ԱՊՀ": 4423,
      "ներկայիս": 4424,
      "հեռուստաալի": 4425,
      "ամենայնիվ": 4426,
      "երաժշտ": 4427,
      "հեն": 4428,
      "տաք": 4429,
      "քիր": 4430,
      "ներկայումս": 4431,
      "ատել": 4432,
      "ավաճ": 4433,
      "նորմալ": 4434,
      "Երեկ": 4435,
      "հազարավոր": 4436,
      "վերջինս": 4437,
      "թմրամ": 4438,
      "մարտահրավեր": 4439,
      "yan": 4440,
      "Կամ": 4441,
      "լույս": 4442,
      "տեղյակ": 4443,
      "փոխնախարար": 4444,
      "ակիցը": 4445,
      "բանտարկ": 4446,
      "շարունակելու": 4447,
      "չափազանց": 4448,
      "2009": 4449,
      "տղամարդու": 4450,
      "առնչվող": 4451,
      "հուշարձ": 4452,
      "Իսլամական": 4453,
      "Բագրատ": 4454,
      "witter": 4455,
      "Մարի": 4456,
      "էս": 4457,
      "ժի": 4458,
      "ֆուն": 4459,
      "ականության": 4460,
      "տրվել": 4461,
      "ագրված": 4462,
      "հայտնեցին": 4463,
      "լուխ": 4464,
      "Իրավ": 4465,
      "վիրահատ": 4466,
      "բնակիչները": 4467,
      "բռնության": 4468,
      "հավելեց": 4469,
      "ատիպ": 4470,
      "դիվանագետ": 4471,
      "Քոչարյանը": 4472,
      "դիրքորոշումը": 4473,
      "Շուշ": 4474,
      "Սեպ": 4475,
      "հոլ": 4476,
      "ատրել": 4477,
      "հանգիստ": 4478,
      "ագրի": 4479,
      "ընթեր": 4480,
      "ուլում": 4481,
      "Անվտանգ": 4482,
      "մտց": 4483,
      "համակարգում": 4484,
      "ավարտին": 4485,
      "բանակցությունները": 4486,
      "ազգուշ": 4487,
      "Պաշտպանության": 4488,
      "հատկանիշներով": 4489,
      "65": 4490,
      "Սեյ": 4491,
      "քմ": 4492,
      "ապաղ": 4493,
      "կարգի": 4494,
      "միջավայրի": 4495,
      "պահի": 4496,
      "հայտարարում": 4497,
      "միջոցները": 4498,
      "զորավարժ": 4499,
      "անցկացրել": 4500,
      "բյուջե": 4501,
      "գյուղատնտեսության": 4502,
      "Թբիլ": 4503,
      "Չար": 4504,
      "եխն": 4505,
      "ականներ": 4506,
      "եցրեց": 4507,
      "եստական": 4508,
      "կառուցված": 4509,
      "ժողովրդավարական": 4510,
      "խոստացել": 4511,
      "Բաղրամ": 4512,
      "ինստիտուտի": 4513,
      "ut": 4514,
      "Շարմ": 4515,
      "Սր": 4516,
      "գա": 4517,
      "անելով": 4518,
      "անօրինական": 4519,
      "ացնի": 4520,
      "բերելու": 4521,
      "բոլորը": 4522,
      "շենքը": 4523,
      "պատգամավորը": 4524,
      "մասնակիցների": 4525,
      "հաշվին": 4526,
      "Կանադ": 4527,
      "բովանդակ": 4528,
      "75": 4529,
      "pp": 4530,
      "ժառանգ": 4531,
      "կներկայաց": 4532,
      "նդր": 4533,
      "սերի": 4534,
      "րին": 4535,
      "ուների": 4536,
      "հանուն": 4537,
      "Արտակ": 4538,
      "փոխգործ": 4539,
      "մեղադրել": 4540,
      "բանակցություններ": 4541,
      "տոննա": 4542,
      "Բաքվի": 4543,
      "մետաղ": 4544,
      "Հանդիպման": 4545,
      "փաստաթղթեր": 4546,
      "նախալեռներում": 4547,
      "Հռ": 4548,
      "Հրա": 4549,
      "Մուր": 4550,
      "խանգ": 4551,
      "տիկ": 4552,
      "ինյանը": 4553,
      "առկայ": 4554,
      "համաժողով": 4555,
      "եցման": 4556,
      "նախազգուշ": 4557,
      "առաջիկայում": 4558,
      "ազատվել": 4559,
      "ճանապարհային": 4560,
      "աջակցությունը": 4561,
      "առեւտրային": 4562,
      "ջանքերը": 4563,
      "շտաբի": 4564,
      "Աբրահամյանը": 4565,
      "առաջնահերթ": 4566,
      "Ղուկ": 4567,
      "Սար": 4568,
      "պետություն": 4569,
      "մեկուս": 4570,
      "ենցի": 4571,
      "վրաերթի": 4572,
      "իրավիճակ": 4573,
      "արտահանման": 4574,
      "Գասպար": 4575,
      "Իսպ": 4576,
      "դեկտ": 4577,
      "սադր": 4578,
      "վավեր": 4579,
      "ավորությամբ": 4580,
      "անձամբ": 4581,
      "ուժը": 4582,
      "պարոն": 4583,
      "այցը": 4584,
      "ուշաբ": 4585,
      "աճը": 4586,
      "պաշտոնատար": 4587,
      "եզրա": 4588,
      "Աննա": 4589,
      "հաստատվել": 4590,
      "վաղը": 4591,
      "հանձնաժողովը": 4592,
      "Պետական": 4593,
      "քվեարկել": 4594,
      "չինական": 4595,
      "»՝": 4596,
      "Փոխ": 4597,
      "ևան": 4598,
      "ագիծը": 4599,
      "քաղաքային": 4600,
      "սկին": 4601,
      "բռնա": 4602,
      "Ուկրաինայում": 4603,
      "վաճառքի": 4604,
      "զինծառայողների": 4605,
      "Բոր": 4606,
      "Իհարկե": 4607,
      "տաժ": 4608,
      "աները": 4609,
      "առև": 4610,
      "վածության": 4611,
      "հավատ": 4612,
      "ժամկետը": 4613,
      "ահաբեկչության": 4614,
      "հարվածել": 4615,
      "ամթերքի": 4616,
      "վերականգնման": 4617,
      "հռչակ": 4618,
      "Երկու": 4619,
      "Նարեկ": 4620,
      "խաչմերուկ": 4621,
      "ID": 4622,
      "Դաշ": 4623,
      "Կաս": 4624,
      "կազմի": 4625,
      "անօդաչու": 4626,
      "օգնել": 4627,
      "տվյալներ": 4628,
      "հանցագործությունների": 4629,
      "եկեղեցին": 4630,
      "Կովկաս": 4631,
      "Ցեղաս": 4632,
      "գեղ": 4633,
      "նային": 4634,
      "արմատ": 4635,
      "ամին": 4636,
      "ազին": 4637,
      "աշնորհ": 4638,
      "ուրիշ": 4639,
      "արտոն": 4640,
      "էլեկտրա": 4641,
      "ամենամ": 4642,
      "միջոցառում": 4643,
      "հեռու": 4644,
      "մեքենայի": 4645,
      "անալով": 4646,
      "անհրաժեշտության": 4647,
      "Թեհր": 4648,
      "կայանալիք": 4649,
      "արտասահման": 4650,
      "ուշտ": 4651,
      "նշան": 4652,
      "Նախկին": 4653,
      "մրցույթ": 4654,
      "ուշադրություն": 4655,
      "զավ": 4656,
      "կոշ": 4657,
      "յաց": 4658,
      "ներխ": 4659,
      "ոսը": 4660,
      "ցուցահանդ": 4661,
      "Մերձ": 4662,
      "Օրինակ": 4663,
      "as": 4664,
      "կլ": 4665,
      "կստ": 4666,
      "ուարդ": 4667,
      "առլ": 4668,
      "կազմակերպված": 4669,
      "Սարգսյանն": 4670,
      "իրավիճակների": 4671,
      "ընտանիք": 4672,
      "սպառնում": 4673,
      "պարբերաբար": 4674,
      "Մայիսի": 4675,
      "պաշտոնապես": 4676,
      "եթեր": 4677,
      "ֆեր": 4678,
      "ամի": 4679,
      "ատորի": 4680,
      "ապագա": 4681,
      "արգավաճ": 4682,
      "կայացել": 4683,
      "ներկայացնելու": 4684,
      "կյանքը": 4685,
      "համաձայնության": 4686,
      "հանցավոր": 4687,
      "Ավելին": 4688,
      "Ընդհանուր": 4689,
      "օգնությունը": 4690,
      "արդյունաբերության": 4691,
      "ջոկատ": 4692,
      "ուկրաինական": 4693,
      "Հոկ": 4694,
      "մոն": 4695,
      "արյանին": 4696,
      "օգնական": 4697,
      "սահմանել": 4698,
      "գիտակց": 4699,
      "Փաշինյանին": 4700,
      "զբաղեց": 4701,
      "Էդուարդ": 4702,
      "քրեակատարողական": 4703,
      "կադր": 4704,
      "կդառնա": 4705,
      "ակադեմի": 4706,
      "այման": 4707,
      "իրանական": 4708,
      "միջամտ": 4709,
      "ագրության": 4710,
      "աշխատող": 4711,
      "աժան": 4712,
      "կամավոր": 4713,
      "ենթադրում": 4714,
      "Վաշինգտոն": 4715,
      "49": 4716,
      "Ar": 4717,
      "ՊՀ": 4718,
      "իման": 4719,
      "ոսյան": 4720,
      "շենքեր": 4721,
      "նվազագույն": 4722,
      "եստոր": 4723,
      "օրենսդրական": 4724,
      "ժամկետով": 4725,
      "դերաս": 4726,
      "Հրազդ": 4727,
      "մակարդակով": 4728,
      "պայմանագրի": 4729,
      "CO": 4730,
      "Twitter": 4731,
      "տները": 4732,
      "անչափ": 4733,
      "պատկանում": 4734,
      "օրում": 4735,
      "ընթացակարգ": 4736,
      "ուզարկ": 4737,
      "գերման": 4738,
      "քաղաքացիներ": 4739,
      "Ժամանակ": 4740,
      "Դավթ": 4741,
      "ուշաբթի": 4742,
      "43": 4743,
      "Քար": 4744,
      "խաբ": 4745,
      "կանցկաց": 4746,
      "ցնց": 4747,
      "քանակ": 4748,
      "անձր": 4749,
      "գնահատում": 4750,
      "ձեռնարկել": 4751,
      "սկզբին": 4752,
      "անկախության": 4753,
      "մշտապես": 4754,
      "Մկրտչ": 4755,
      "ներխուժ": 4756,
      "ci": 4757,
      "բուր": 4758,
      "զն": 4759,
      "իրագործ": 4760,
      "իրավունքը": 4761,
      "ընտրանք": 4762,
      "պատգամավորների": 4763,
      "բանկային": 4764,
      "Խաչատուր": 4765,
      "ամիսներին": 4766,
      "թեստ": 4767,
      "հեշտ": 4768,
      "սեւ": 4769,
      "աստղ": 4770,
      "իկներ": 4771,
      "կայքում": 4772,
      "յալի": 4773,
      "տեսանկյուն": 4774,
      "կատարման": 4775,
      "մոտակայքում": 4776,
      "պարզելու": 4777,
      "ստեղծելու": 4778,
      "կողմերը": 4779,
      "Սահմանադրության": 4780,
      "երեւույթ": 4781,
      "անհապաղ": 4782,
      "Են": 4783,
      "ՄՍ": 4784,
      "Տես": 4785,
      "Քրիստ": 4786,
      "կսկս": 4787,
      "ինտե": 4788,
      "ահեռ": 4789,
      "պահելու": 4790,
      "հավաստի": 4791,
      "ավտոճանապարհի": 4792,
      "կոչված": 4793,
      "խորհրդական": 4794,
      "հանրապետական": 4795,
      "կառույցների": 4796,
      "Ամերիկայի": 4797,
      "երեխայի": 4798,
      "աղեստին": 4799,
      "46": 4800,
      "գուցե": 4801,
      "խոց": 4802,
      "ամյակ": 4803,
      "միած": 4804,
      "աքննիչ": 4805,
      "ավիա": 4806,
      "կառուցման": 4807,
      "Որպես": 4808,
      "մանրամասներ": 4809,
      "փյուռքի": 4810,
      "59": 4811,
      "ոռուպ": 4812,
      "արձանագրել": 4813,
      "սերտ": 4814,
      "ռեստոր": 4815,
      "ուրդի": 4816,
      "արկման": 4817,
      "թեեւ": 4818,
      "ապետը": 4819,
      "երկրներից": 4820,
      "մարդը": 4821,
      "կառավարությանը": 4822,
      "արդյունքների": 4823,
      "Վարդանյանը": 4824,
      "ագիտության": 4825,
      "Եվրոպայ": 4826,
      "ֆիզիկական": 4827,
      "Գիտն": 4828,
      "Շարմազան": 4829,
      "եշ": 4830,
      "էության": 4831,
      "արվել": 4832,
      "կայացվել": 4833,
      "ծառայողները": 4834,
      "Ռուսաստան": 4835,
      "հնարավորությունները": 4836,
      "գտնել": 4837,
      "ինքնությունը": 4838,
      "կետով": 4839,
      "արեւմտյան": 4840,
      "ակրթ": 4841,
      "չարաշ": 4842,
      "սեռական": 4843,
      "Արդյունքում": 4844,
      "ail": 4845,
      "Էջ": 4846,
      "գների": 4847,
      "դռ": 4848,
      "եգին": 4849,
      "ոճ": 4850,
      "ապագայում": 4851,
      "իկյանը": 4852,
      "ոսին": 4853,
      "երթև": 4854,
      "փորձը": 4855,
      "գնաց": 4856,
      "համայնքների": 4857,
      "օրենքում": 4858,
      "զարգացմանը": 4859,
      "դերձ": 4860,
      "ծեծի": 4861,
      "տեսանկյունից": 4862,
      "42": 4863,
      "of": 4864,
      "ԲԿ": 4865,
      "Սի": 4866,
      "դնել": 4867,
      "լուն": 4868,
      "պանում": 4869,
      "ացան": 4870,
      "օրն": 4871,
      "լիարժեք": 4872,
      "Այսպիսով": 4873,
      "կառավարական": 4874,
      "բարձրագույն": 4875,
      "գլխավորությամբ": 4876,
      "ԿԳՄՍ": 4877,
      "Անվտանգության": 4878,
      "Շվեյց": 4879,
      "Սու": 4880,
      "ասյանի": 4881,
      "մանկապ": 4882,
      "տարե": 4883,
      "կրկ": 4884,
      "ինչպիսի": 4885,
      "վիզ": 4886,
      "կողմեր": 4887,
      "150": 4888,
      "մարմինը": 4889,
      "շահագր": 4890,
      "ֆինանսների": 4891,
      "Հարությունյանի": 4892,
      "ահաբեկչ": 4893,
      "կասկածանքով": 4894,
      "պատժամիջոցների": 4895,
      "2014թ": 4896,
      "Ճապոնիայի": 4897,
      "դահլիճ": 4898,
      "Դատար": 4899,
      "Թաթ": 4900,
      "ացրեց": 4901,
      "պաշտպանի": 4902,
      "ժամանակին": 4903,
      "ազատել": 4904,
      "կազմակերպման": 4905,
      "Հանրապետությունում": 4906,
      "կալան": 4907,
      "Ոստիկանությունը": 4908,
      "նախաձեռնությամբ": 4909,
      "մերժել": 4910,
      "Լեհաստ": 4911,
      "St": 4912,
      "ik": 4913,
      "Հրդ": 4914,
      "Սեն": 4915,
      "ւմ": 4916,
      "ուհան": 4917,
      "արև": 4918,
      "առման": 4919,
      "պատիժ": 4920,
      "ակցին": 4921,
      "րդական": 4922,
      "հետեւում": 4923,
      "հնարավորությունը": 4924,
      "զբաղվում": 4925,
      "հոգեւոր": 4926,
      "ժողովրդական": 4927,
      "հակառակորդի": 4928,
      "օրակարգում": 4929,
      "Իսպանի": 4930,
      "ԱՀ": 4931,
      "փոխվել": 4932,
      "փոխադարձ": 4933,
      "աթոշ": 4934,
      "կոնգր": 4935,
      "օրենքը": 4936,
      "ճգնաժամի": 4937,
      "օտարերկրյա": 4938,
      "id": 4939,
      "Քանի": 4940,
      "իում": 4941,
      "սին": 4942,
      "ողության": 4943,
      "միանգամ": 4944,
      "գործնական": 4945,
      "այիլ": 4946,
      "պետքարտ": 4947,
      "մասնակցության": 4948,
      "շենքերը": 4949,
      "ստեղծում": 4950,
      "ծրագրեր": 4951,
      "թափանց": 4952,
      "պայքարը": 4953,
      "համաձայնագիրը": 4954,
      "ռադիո": 4955,
      "հաշվետվ": 4956,
      "Դաշնության": 4957,
      "Էջմիած": 4958,
      "ՈԱԿ": 4959,
      "մանկ": 4960,
      "նախագահն": 4961,
      "նրանցից": 4962,
      "Նորք": 4963,
      "աջակցում": 4964,
      "ձեւակերպ": 4965,
      "սննդ": 4966,
      "Լուսավոր": 4967,
      "ագծի": 4968,
      "սակագ": 4969,
      "App": 4970,
      "Դեմ": 4971,
      "դաժան": 4972,
      "անհանգստ": 4973,
      "տոմ": 4974,
      "բացարձակ": 4975,
      "ճանաչման": 4976,
      "Խաչատրյանի": 4977,
      "ֆոնին": 4978,
      "լսել": 4979,
      "սպառնալիք": 4980,
      "հասկանալ": 4981,
      "Ղազախստանի": 4982,
      "ամենամեծ": 4983,
      "Tim": 4984,
      "կմասնակց": 4985,
      "կշարունակ": 4986,
      "ամերձ": 4987,
      "ոնների": 4988,
      "իսկապես": 4989,
      "Երևանում": 4990,
      "դադարեցնել": 4991,
      "azet": 4992,
      "շուկայի": 4993,
      "բրիտանական": 4994,
      "Սեպտեմբերի": 4995,
      "BBC": 4996,
      "Ահ": 4997,
      "Լար": 4998,
      "Ձեռ": 4999,
      "Մր": 5000,
      "էական": 5001,
      "մոլոր": 5002,
      "երև": 5003,
      "ապաշտ": 5004,
      "եսկ": 5005,
      "դրված": 5006,
      "համավար": 5007,
      "նախարարների": 5008,
      "Արցախը": 5009,
      "կողմերի": 5010,
      "դարձնել": 5011,
      "Մանվել": 5012,
      "տեղեկատվություն": 5013,
      "սպասարկման": 5014,
      "հայաստանյան": 5015,
      "Խաղ": 5016,
      "թուլ": 5017,
      "մեռ": 5018,
      "ռեկտ": 5019,
      "ովան": 5020,
      "նախադեպ": 5021,
      "վարել": 5022,
      "տարածքի": 5023,
      "մեքենաների": 5024,
      "Վահան": 5025,
      "Էրդողանի": 5026,
      "մայրաքաղաքում": 5027,
      "Pr": 5028,
      "To": 5029,
      "անոցի": 5030,
      "աբանը": 5031,
      "Այստեղ": 5032,
      "ավելացել": 5033,
      "սպանվել": 5034,
      "էլեկտրական": 5035,
      "արժանապատ": 5036,
      "բաժանորդները": 5037,
      "Ժառանգություն": 5038,
      "ինտեգր": 5039,
      "Անկ": 5040,
      "Զել": 5041,
      "Հավ": 5042,
      "սել": 5043,
      "ականներին": 5044,
      "կողքին": 5045,
      "գլոբալ": 5046,
      "տոկոսի": 5047,
      "Արմենիա": 5048,
      "աքաղաքական": 5049,
      "կանգն": 5050,
      "Արդեն": 5051,
      "ՄԻՊ": 5052,
      "ձախող": 5053,
      "Թբիլիսի": 5054,
      "Դրանք": 5055,
      "դերը": 5056,
      "ըմբ": 5057,
      "ճշտ": 5058,
      "մակեր": 5059,
      "անցնում": 5060,
      "փոխվարչապետ": 5061,
      "հասնելու": 5062,
      "բարեկ": 5063,
      "ճանաչում": 5064,
      "Հունիսի": 5065,
      "գողության": 5066,
      "Sh": 5067,
      "Ձեզ": 5068,
      "էդ": 5069,
      "հուս": 5070,
      "ներկր": 5071,
      "ովս": 5072,
      "Հայտնի": 5073,
      "պետությունը": 5074,
      "նորոշ": 5075,
      "երկրներ": 5076,
      "ներկայացրած": 5077,
      "իչները": 5078,
      "ընթացիկ": 5079,
      "բարձրացման": 5080,
      "պարզաբան": 5081,
      "շահերի": 5082,
      "մակարդակը": 5083,
      "գոտում": 5084,
      "երեխա": 5085,
      "Մարգարյանը": 5086,
      "սարքավոր": 5087,
      "Գարեգին": 5088,
      "մոռ": 5089,
      "աղետ": 5090,
      "ոնյան": 5091,
      "արդիական": 5092,
      "անցնել": 5093,
      "տեղաշարժ": 5094,
      "այցով": 5095,
      "ոստիկանություն": 5096,
      "հակա": 5097,
      "ընդունված": 5098,
      "անհրաժեշտությունը": 5099,
      "դատապարտվել": 5100,
      "հանդիսանում": 5101,
      "դաշնային": 5102,
      "գլուխ": 5103,
      "ձի": 5104,
      "վաստ": 5105,
      "այդքան": 5106,
      "ացիա": 5107,
      "նրանից": 5108,
      "բանակը": 5109,
      "մրցանակ": 5110,
      "Էդվարդ": 5111,
      "ծախսերը": 5112,
      "վրացական": 5113,
      "Արդարադատության": 5114,
      "Բաղրամյան": 5115,
      "Հոկտեմբերի": 5116,
      "09": 5117,
      "AR": 5118,
      "ԷԿ": 5119,
      "Հաջ": 5120,
      "Մովս": 5121,
      "խում": 5122,
      "մին": 5123,
      "ունը": 5124,
      "ասուլիսի": 5125,
      "ավախ": 5126,
      "համաց": 5127,
      "անքները": 5128,
      "գրավել": 5129,
      "ենթակա": 5130,
      "ընդունում": 5131,
      "գծում": 5132,
      "համայնքում": 5133,
      "անցկացվել": 5134,
      "կալանքի": 5135,
      "դեսպանը": 5136,
      "կորած": 5137,
      "փրկարարների": 5138,
      "հաղթահար": 5139,
      "հիմնված": 5140,
      "Պուտին": 5141,
      "ցուցաբերել": 5142,
      "փաստաթղթերի": 5143,
      "ակոծ": 5144,
      "Te": 5145,
      "Շվե": 5146,
      "կոտ": 5147,
      "պաշար": 5148,
      "քառ": 5149,
      "արվում": 5150,
      "բնույթի": 5151,
      "հակաս": 5152,
      "Գերագույն": 5153,
      "երեխաներին": 5154,
      "հիվանդանոցում": 5155,
      "նահանգում": 5156,
      "լրատվամիջոցների": 5157,
      "հանք": 5158,
      "ակցիա": 5159,
      "ընթացող": 5160,
      "կոնոմի": 5161,
      "իրավունքները": 5162,
      "փոփոխություն": 5163,
      "հատվածի": 5164,
      "ine": 5165,
      "մարմինները": 5166,
      "Ինձ": 5167,
      "գագաթնաժողով": 5168,
      "էներգետիկ": 5169,
      "թմրանյութ": 5170,
      "Թոր": 5171,
      "Ոսկ": 5172,
      "էժան": 5173,
      "մաղթ": 5174,
      "փայ": 5175,
      "իկները": 5176,
      "ախորհր": 5177,
      "վերը": 5178,
      "ընտրություններ": 5179,
      "սահմանային": 5180,
      "Միխ": 5181,
      "գերեզ": 5182,
      "հիշեցրել": 5183,
      "Գյուլ": 5184,
      "Գրիգորյանի": 5185,
      "հասկանալի": 5186,
      "դեպքերում": 5187,
      "Բայդենը": 5188,
      "ներդրումային": 5189,
      "ենթակառուցվածքների": 5190,
      "Ապրիլի": 5191,
      "azeta": 5192,
      "Կոմի": 5193,
      "Վիկ": 5194,
      "լաբոր": 5195,
      "ոֆ": 5196,
      "անանք": 5197,
      "նազ": 5198,
      "եղած": 5199,
      "իկյան": 5200,
      "ախց": 5201,
      "բացահայտվել": 5202,
      "հոգի": 5203,
      "amsh": 5204,
      "ավելին": 5205,
      "քերում": 5206,
      "հարաբերություններ": 5207,
      "Ուկրաինային": 5208,
      "դերակատար": 5209,
      "կունենան": 5210,
      "արձագանքել": 5211,
      "հարձակվել": 5212,
      "վերցրել": 5213,
      "Երկրի": 5214,
      "երաշխիք": 5215,
      "գերատեսչ": 5216,
      "58": 5217,
      "62": 5218,
      "Լուկ": 5219,
      "Ռեջ": 5220,
      "բա": 5221,
      "վայրի": 5222,
      "միկր": 5223,
      "միջավայր": 5224,
      "ապետի": 5225,
      "ծառայողների": 5226,
      "ռուսաստ": 5227,
      "շարունակական": 5228,
      "ձերբակալված": 5229,
      "Համաշխարհային": 5230,
      "առանձնապես": 5231,
      "ասուլիսում": 5232,
      "Էրեբունի": 5233,
      "Թով": 5234,
      "Հաղորդ": 5235,
      "ՓԾ": 5236,
      "ուչ": 5237,
      "անցկ": 5238,
      "Արշակ": 5239,
      "հակառ": 5240,
      "հարուցված": 5241,
      "հանգամանքները": 5242,
      "ընդգրկված": 5243,
      "տապալ": 5244,
      "կոնոմիկայի": 5245,
      "amshyan": 5246,
      "Ռեջեփ": 5247,
      "53": 5248,
      "57": 5249,
      "իոն": 5250,
      "լռ": 5251,
      "մուն": 5252,
      "ցեն": 5253,
      "ումներին": 5254,
      "ողությամբ": 5255,
      "կրակել": 5256,
      "ուլղ": 5257,
      "բոլորի": 5258,
      "ացիները": 5259,
      "օգտագործում": 5260,
      "հանդիսացող": 5261,
      "Ներկայաց": 5262,
      "ավանդական": 5263,
      "դրանով": 5264,
      "ռեկորդ": 5265,
      "Մակ": 5266,
      "խուզարկ": 5267,
      "նջ": 5268,
      "անհնար": 5269,
      "եւին": 5270,
      "ինչո": 5271,
      "ժամանակով": 5272,
      "ավտոճանապարհ": 5273,
      "ցուցմունք": 5274,
      "ծրագրում": 5275,
      "մեղադրում": 5276,
      "աջակցությամբ": 5277,
      "Եվրասիական": 5278,
      "օրաթերթը": 5279,
      "ֆուտբոլ": 5280,
      "52": 5281,
      "ՀՔ": 5282,
      "Նի": 5283,
      "ժշ": 5284,
      "լայ": 5285,
      "ճապ": 5286,
      "փլու": 5287,
      "քրիստ": 5288,
      "ավորություն": 5289,
      "կրում": 5290,
      "վարած": 5291,
      "գլխավորած": 5292,
      "Հանրապետական": 5293,
      "արգելափակ": 5294,
      "Ավստր": 5295,
      "աղբյուրը": 5296,
      "Արտաշ": 5297,
      "ազդեցություն": 5298,
      "առիթով": 5299,
      "մեթոդ": 5300,
      "Թայի": 5301,
      "Կող": 5302,
      "Վարդեն": 5303,
      "լահ": 5304,
      "խու": 5305,
      "ուբար": 5306,
      "ատիր": 5307,
      "ատակարար": 5308,
      "նաբ": 5309,
      "Այո": 5310,
      "եքշաբթի": 5311,
      "ապահական": 5312,
      "Թուրքիային": 5313,
      "անվտանգությունը": 5314,
      "Ալեն": 5315,
      "թողել": 5316,
      "մնաց": 5317,
      "նախաձեռ": 5318,
      "Մոսկվա": 5319,
      "Ամերիկյան": 5320,
      "առանձնատ": 5321,
      "Նոյեմբերի": 5322,
      "թաքց": 5323,
      "Եվրոպայում": 5324,
      "Gazeta": 5325,
      "ԿԸ": 5326,
      "արման": 5327,
      "վերջո": 5328,
      "մեղմ": 5329,
      "մեքենա": 5330,
      "անդամներ": 5331,
      "ուստր": 5332,
      "հոդվածով": 5333,
      "ադրբեջանցի": 5334,
      "հաղթանակ": 5335,
      "գողացել": 5336,
      "մասնագիտ": 5337,
      "ակազմը": 5338,
      "ռեժիմը": 5339,
      "Ճապոնի": 5340,
      "թույլատրելի": 5341,
      "մանկապարտ": 5342,
      "Times": 5343,
      "Շվեդի": 5344,
      "գրա": 5345,
      "ճեպ": 5346,
      "ումներով": 5347,
      "ազեկ": 5348,
      "ախության": 5349,
      "ոսյանին": 5350,
      "հրահանգ": 5351,
      "մարթ": 5352,
      "հասկաց": 5353,
      "Ռուսական": 5354,
      "Ուս": 5355,
      "ձեռն": 5356,
      "իրավիճակում": 5357,
      "նավթ": 5358,
      "հիմնադիր": 5359,
      "առեւանգ": 5360,
      "հանրապետությունում": 5361,
      "մեկնարկել": 5362,
      "համոզված": 5363,
      "ներսում": 5364,
      "ակնկալում": 5365,
      "ավտովթար": 5366,
      "ber": 5367,
      "աթիռ": 5368,
      "հսկայ": 5369,
      "պաղեստին": 5370,
      "ցր": 5371,
      "անձնագր": 5372,
      "միցս": 5373,
      "կենտրոնը": 5374,
      "մեղադրվում": 5375,
      "Սարգսյանին": 5376,
      "փոփոխության": 5377,
      "ճանաչվել": 5378,
      "խնդրում": 5379,
      "բարեգործ": 5380,
      "բազմիցս": 5381,
      "մայրաքաղաքի": 5382,
      "բաժանորդներ": 5383,
      "ԵԽԽՎ": 5384,
      "անչափահաս": 5385,
      "Թայիփ": 5386,
      "54": 5387,
      "600": 5388,
      "Նրան": 5389,
      "հյու": 5390,
      "ճնշում": 5391,
      "ելնելով": 5392,
      "դրոշ": 5393,
      "ակցիայի": 5394,
      "վարք": 5395,
      "կարողանան": 5396,
      "տարածքների": 5397,
      "սահմանը": 5398,
      "Առողջ": 5399,
      "պատգամավորները": 5400,
      "բանակցային": 5401,
      "ամերիկացի": 5402,
      "սպառն": 5403,
      "եկամուտների": 5404,
      "ՊՈԱԿ": 5405,
      "դնում": 5406,
      "կց": 5407,
      "մաքր": 5408,
      "չունենք": 5409,
      "սուր": 5410,
      "ցը": 5411,
      "արկում": 5412,
      "հայտնելով": 5413,
      "Այսպես": 5414,
      "այլընտրանք": 5415,
      "կանայք": 5416,
      "պայմաններ": 5417,
      "Անցած": 5418,
      "շարունակի": 5419,
      "հետաքրքիր": 5420,
      "ation": 5421,
      "լրատվամիջոցները": 5422,
      "Գյումրիում": 5423,
      "Իրաքի": 5424,
      "ԿԸՀ": 5425,
      "ag": 5426,
      "Համբ": 5427,
      "ենն": 5428,
      "ոնշ": 5429,
      "տեղը": 5430,
      "անձն": 5431,
      "ծառայությունները": 5432,
      "հիմնախ": 5433,
      "ընտրության": 5434,
      "Վահագն": 5435,
      "Գյումրիի": 5436,
      "2015թ": 5437,
      "շեշտել": 5438,
      "զուգահեռ": 5439,
      "56": 5440,
      "77": 5441,
      "Գյուղ": 5442,
      "Սպ": 5443,
      "գիր": 5444,
      "լքել": 5445,
      "լեռներում": 5446,
      "ասարդ": 5447,
      "վարչությունում": 5448,
      "շրջափակ": 5449,
      "ընտրել": 5450,
      "հրաձգ": 5451,
      "խմբակց": 5452,
      "ձեւավոր": 5453,
      "Սահմանադր": 5454,
      "Ստեփան": 5455,
      "օբյեկտիվ": 5456,
      "Գալստ": 5457,
      "Միրզոյանը": 5458,
      "Ծրագր": 5459,
      "Ջո": 5460,
      "ՎԱԶ": 5461,
      "բարի": 5462,
      "զգում": 5463,
      "կարդ": 5464,
      "ջան": 5465,
      "աններ": 5466,
      "անկարգ": 5467,
      "անցակետ": 5468,
      "Արև": 5469,
      "ափակել": 5470,
      "սկանդ": 5471,
      "կազմակերպելու": 5472,
      "կոմիտեն": 5473,
      "անունով": 5474,
      "Աբովյան": 5475,
      "Իսրայելը": 5476,
      "Քննարկ": 5477,
      "Մանուկյանը": 5478,
      "թմրամիջոց": 5479,
      "Բաց": 5480,
      "Լրագր": 5481,
      "Նավ": 5482,
      "ջախ": 5483,
      "տեմբեր": 5484,
      "մանդամ": 5485,
      "ինչից": 5486,
      "Այլ": 5487,
      "ագրում": 5488,
      "տեսնել": 5489,
      "տեղեկությունը": 5490,
      "Ադրբեջան": 5491,
      "տնտեսվար": 5492,
      "պահանջները": 5493,
      "գնահատական": 5494,
      "հեղին": 5495,
      "խախտման": 5496,
      "կնոջը": 5497,
      "երթևեկ": 5498,
      "թերթ": 5499,
      "խո": 5500,
      "խել": 5501,
      "աղբ": 5502,
      "համախմբ": 5503,
      "անցիների": 5504,
      "առաջընթաց": 5505,
      "սկզ": 5506,
      "շրջակա": 5507,
      "աշխատանքներին": 5508,
      "անդամներին": 5509,
      "աշրջանի": 5510,
      "համակարգերի": 5511,
      "ուստամ": 5512,
      "մատն": 5513,
      "հավաքել": 5514,
      "գործընթացում": 5515,
      "ֆինանսավորման": 5516,
      "նամակ": 5517,
      "վերադարձել": 5518,
      "մոդել": 5519,
      "համարանիշի": 5520,
      "Մրց": 5521,
      "Րաֆ": 5522,
      "ենա": 5523,
      "եւում": 5524,
      "աբնակ": 5525,
      "գործոն": 5526,
      "ակցական": 5527,
      "տիեզեր": 5528,
      "հետեւել": 5529,
      "օգտատեր": 5530,
      "սրահ": 5531,
      "գործունեություն": 5532,
      "հրապարակված": 5533,
      "լիազորությունները": 5534,
      "մասնագետների": 5535,
      "ամրապնդման": 5536,
      "Աստված": 5537,
      "երկխոսության": 5538,
      "պողոտայում": 5539,
      "Զինված": 5540,
      "Մերձավոր": 5541,
      ".,": 5542,
      "Խոր": 5543,
      "Հուլիսի": 5544,
      "Ցուց": 5545,
      "բնագ": 5546,
      "եժ": 5547,
      "լով": 5548,
      "կքննարկ": 5549,
      "անշարժ": 5550,
      "ինդ": 5551,
      "ավճար": 5552,
      "եռամս": 5553,
      "բնույթ": 5554,
      "անվճար": 5555,
      "ոստիկանների": 5556,
      "ուղղաթիռ": 5557,
      "գործողության": 5558,
      "one": 5559,
      "ծավալը": 5560,
      "Իլհամ": 5561,
      "ժամանած": 5562,
      "չարաշահ": 5563,
      "Թովմաս": 5564,
      "փլուզ": 5565,
      "հսկայական": 5566,
      "Լաչ": 5567,
      "Մեքս": 5568,
      "քանդ": 5569,
      "քույր": 5570,
      "անընդհատ": 5571,
      "վերսկս": 5572,
      "անքներ": 5573,
      "նշվել": 5574,
      "հայտարարվել": 5575,
      "պատասխանելով": 5576,
      "զորամասի": 5577,
      "անցկացնելու": 5578,
      "հրապարակվել": 5579,
      "Պատգամավոր": 5580,
      "ավտոմեքենաները": 5581,
      "տունը": 5582,
      "մեկնաբանել": 5583,
      "Կիպր": 5584,
      "ճգնաժամային": 5585,
      "պաշտոնյաների": 5586,
      "Վանաձոր": 5587,
      "Դիլի": 5588,
      "Վր": 5589,
      "դային": 5590,
      "յակից": 5591,
      "փամփ": 5592,
      "անընդունելի": 5593,
      "ստրի": 5594,
      "ոլդ": 5595,
      "առաջացրել": 5596,
      "ղեկավարության": 5597,
      "կազմակերպությունը": 5598,
      "օգտվել": 5599,
      "վարկային": 5600,
      "վարկանիշ": 5601,
      "վաճառել": 5602,
      "ներդրումների": 5603,
      "արձակվել": 5604,
      "Անդրե": 5605,
      "ձգտում": 5606,
      "եղբոր": 5607,
      "Լուսանկար": 5608,
      "գիտնականները": 5609,
      "Օբաման": 5610,
      "մշակել": 5611,
      "Բրյուսել": 5612,
      "դեկտեմբերին": 5613,
      "ապաշտպան": 5614,
      "ոնշյալ": 5615,
      "ct": 5616,
      "em": 5617,
      "ig": 5618,
      "Փետրվարի": 5619,
      "ծագ": 5620,
      "անները": 5621,
      "երազ": 5622,
      "որակի": 5623,
      "ասեր": 5624,
      "ոնին": 5625,
      "ագրությունը": 5626,
      "իրավաբանական": 5627,
      "ներկայացել": 5628,
      "տարածած": 5629,
      "ընկերությունները": 5630,
      "ազատման": 5631,
      "հաշիվ": 5632,
      "մեղադրանքով": 5633,
      "հասցնելու": 5634,
      "and": 5635,
      "նախաձեռնության": 5636,
      "տարածքներում": 5637,
      "հյուրանոց": 5638,
      "իրադարձությունների": 5639,
      "արհեստական": 5640,
      "կաշառք": 5641,
      "210": 5642,
      "ub": 5643,
      "Թում": 5644,
      "Հաշվի": 5645,
      "Մյուս": 5646,
      "Շնորհ": 5647,
      "Ող": 5648,
      "մոր": 5649,
      "յո": 5650,
      "սոց": 5651,
      "արանից": 5652,
      "առու": 5653,
      "աղմ": 5654,
      "անցնելու": 5655,
      "քաղաքագետ": 5656,
      "լինելով": 5657,
      "որոշումն": 5658,
      "ուլիսին": 5659,
      "ընկերությանը": 5660,
      "խնդիրն": 5661,
      "Կարմիր": 5662,
      "տղան": 5663,
      "1000": 5664,
      "աչափի": 5665,
      "սննդի": 5666,
      "սովորական": 5667,
      "բնապահպան": 5668,
      "67": 5669,
      "Անա": 5670,
      "Բեր": 5671,
      "ԻՊ": 5672,
      "Ճան": 5673,
      "մթեր": 5674,
      "վերադառնալ": 5675,
      "տրված": 5676,
      "պաշտոնեական": 5677,
      "ետրվար": 5678,
      "գծով": 5679,
      "Հովսեփ": 5680,
      "հիշյալ": 5681,
      "Հունաստանի": 5682,
      "ավտոմեքենա": 5683,
      "կորոնավիրուսով": 5684,
      "ջերմաստիճանը": 5685,
      "արդյունաբերական": 5686,
      "դաշտում": 5687,
      "օժանդակ": 5688,
      "Սեյրան": 5689,
      "NN": 5690,
      "Դես": 5691,
      "Կոլ": 5692,
      "Չեմ": 5693,
      "Ջերմ": 5694,
      "գոնե": 5695,
      "խարդ": 5696,
      "նեղ": 5697,
      "սափ": 5698,
      "տեքստ": 5699,
      "ենս": 5700,
      "ամշակ": 5701,
      "ամյակի": 5702,
      "նրբ": 5703,
      "Ռուսաստանին": 5704,
      "վաղուց": 5705,
      "Չինաստանը": 5706,
      "պատերազմը": 5707,
      "գրասենյակ": 5708,
      "Ներկայումս": 5709,
      "հավանականությամբ": 5710,
      "շուտով": 5711,
      "խիթար": 5712,
      "թեմայով": 5713,
      "Օգոստոսի": 5714,
      "մարդասիրական": 5715,
      "իսրայելական": 5716,
      "Ավստրալի": 5717,
      "Դմի": 5718,
      "Զուր": 5719,
      "դը": 5720,
      "թել": 5721,
      "կիլ": 5722,
      "սմարթ": 5723,
      "ամաք": 5724,
      "ույժ": 5725,
      "եմին": 5726,
      "գործընկերության": 5727,
      "հայտարարությամբ": 5728,
      "օգուտ": 5729,
      "վարչությունից": 5730,
      "հնարավորինս": 5731,
      "Թուրքիա": 5732,
      "խմբավորման": 5733,
      "ստեղծագործ": 5734,
      "կիրակի": 5735,
      "հավաքվել": 5736,
      "Բրազ": 5737,
      "Հունվարի": 5738,
      "էլեկտր": 5739,
      "Վանաձորի": 5740,
      "բռնկվել": 5741,
      "բենզին": 5742,
      "կանխարգելման": 5743,
      "Դմիտրի": 5744,
      "Զուրաբ": 5745,
      "Sp": 5746,
      "ԱԽ": 5747,
      "ԵՊՀ": 5748,
      "Ռոս": 5749,
      "Ցավ": 5750,
      "ակառավար": 5751,
      "ալը": 5752,
      "գործերով": 5753,
      "որդներին": 5754,
      "ուղարի": 5755,
      "լիներ": 5756,
      "երկուշաբթի": 5757,
      "ուշադրության": 5758,
      "իշխանություն": 5759,
      "շահերը": 5760,
      "հետախուզության": 5761,
      "տեղադրված": 5762,
      "Տեղեկ": 5763,
      "մտնում": 5764,
      "պետքարտուղար": 5765,
      "Press": 5766,
      "Դեկտեմբերի": 5767,
      "ՀՆԱ": 5768,
      "Մարկ": 5769,
      "Վիր": 5770,
      "կից": 5771,
      "որդու": 5772,
      "գրամ": 5773,
      "ագրել": 5774,
      "Ռուսաստանից": 5775,
      "մասնակցությունը": 5776,
      "աշրջան": 5777,
      "կետի": 5778,
      "Ուկրաինան": 5779,
      "ձեւով": 5780,
      "Աբդ": 5781,
      "զեկուց": 5782,
      "քվեարկության": 5783,
      "անմիջական": 5784,
      "հավանություն": 5785,
      "եղանակով": 5786,
      "խոստովանել": 5787,
      "ոռուպցիոն": 5788,
      "AP": 5789,
      "Կո": 5790,
      "Շենգ": 5791,
      "Ջր": 5792,
      "Ռազմ": 5793,
      "էլի": 5794,
      "պղ": 5795,
      "սատար": 5796,
      "ահուն": 5797,
      "եցնի": 5798,
      "ոսում": 5799,
      "տեսախց": 5800,
      "դատավ": 5801,
      "հաստատման": 5802,
      "պատգամավորի": 5803,
      "քայլերը": 5804,
      "հավելված": 5805,
      "զբաղվել": 5806,
      "աշխատակիցներին": 5807,
      "Հրանտ": 5808,
      "փախուստի": 5809,
      "օգնությամբ": 5810,
      "Այնուհետեւ": 5811,
      "այնուհետեւ": 5812,
      "թռչող": 5813,
      "(«": 5814,
      "Հեռ": 5815,
      "Սան": 5816,
      "Վազգ": 5817,
      "թվի": 5818,
      "ջարդ": 5819,
      "տեմ": 5820,
      "ացվում": 5821,
      "դրույթ": 5822,
      "տեսքով": 5823,
      "բոլորին": 5824,
      "նկատի": 5825,
      "հայտնաբերված": 5826,
      "ձեռքբեր": 5827,
      "Ֆրանսիայում": 5828,
      "հայրը": 5829,
      "դատախազի": 5830,
      "ենթարկված": 5831,
      "հերքել": 5832,
      "կորոնավիրուս": 5833,
      "Բաքվում": 5834,
      "խուսափելու": 5835,
      "հավանաբար": 5836,
      "Լավրովը": 5837,
      "փաստաթուղթ": 5838,
      "էլեկտրաէներգիայի": 5839,
      "հյուպատ": 5840,
      "72": 5841,
      "Զանգ": 5842,
      "տոտ": 5843,
      "ֆլ": 5844,
      "եսին": 5845,
      "համաճ": 5846,
      "կարի": 5847,
      "ելիքի": 5848,
      "ոյում": 5849,
      "հանդիպումներ": 5850,
      "բարոյ": 5851,
      "քերից": 5852,
      "զարգացում": 5853,
      "լուծելու": 5854,
      "գծի": 5855,
      "առանցքային": 5856,
      "մշակման": 5857,
      "միջոցառումները": 5858,
      "հանգամանքը": 5859,
      "ծախսերի": 5860,
      "շահագործման": 5861,
      "վճռական": 5862,
      "հափշտակ": 5863,
      "ըմբռ": 5864,
      "Լուկաշեն": 5865,
      "անցկացման": 5866,
      "Թագ": 5867,
      "Հարկ": 5868,
      "Տոն": 5869,
      "տաճ": 5870,
      "արյուն": 5871,
      "արյանն": 5872,
      "ացնող": 5873,
      "արգելի": 5874,
      "ուկը": 5875,
      "ակալության": 5876,
      "դասախոս": 5877,
      "արտահոս": 5878,
      "սպառազին": 5879,
      "արդյունքներով": 5880,
      "Ինտեր": 5881,
      "մասնաճյուղ": 5882,
      "դիտավորությամբ": 5883,
      "պատվիրակությունը": 5884,
      "պատժամիջոցներ": 5885,
      "հարթակ": 5886,
      "բացակայության": 5887,
      "ներկայացուցչի": 5888,
      "Պողոսյանը": 5889,
      "կոռուպցիայի": 5890,
      "հանրաքվեի": 5891,
      "Մուրադ": 5892,
      "Խաղաղ": 5893,
      "գերեզման": 5894,
      "Լաչինի": 5895,
      "VID": 5896,
      "Աֆր": 5897,
      "աչի": 5898,
      "մունքը": 5899,
      "ասելով": 5900,
      "եկավ": 5901,
      "ույգ": 5902,
      "կայանա": 5903,
      "առաջացել": 5904,
      "ժողովում": 5905,
      "Նախնական": 5906,
      "արգելված": 5907,
      "փողոցների": 5908,
      "Ֆրանսիան": 5909,
      "որովհետև": 5910,
      "առաջադրված": 5911,
      "նյութերի": 5912,
      "շրջանառության": 5913,
      "ֆրանսիական": 5914,
      "հոգեբան": 5915,
      "միգրանտ": 5916,
      "հրազենային": 5917,
      "Ճանապար": 5918,
      ",-": 5919,
      "Բարգավաճ": 5920,
      "ԶՈՒ": 5921,
      "ԿԲ": 5922,
      "Ցանկ": 5923,
      "կային": 5924,
      "յում": 5925,
      "յոթ": 5926,
      "ներկայացնող": 5927,
      "եյն": 5928,
      "Անց": 5929,
      "պարզվում": 5930,
      "նշանակել": 5931,
      "արգելել": 5932,
      "աջակցելու": 5933,
      "կիրառման": 5934,
      "հաղթել": 5935,
      "աղբյուրները": 5936,
      "Միջոց": 5937,
      "Կառավարությունը": 5938,
      "հղել": 5939,
      "հայրենիք": 5940,
      "Բայդենի": 5941,
      "Խորհրդար": 5942,
      "ավտոբուս": 5943,
      "գործառույթ": 5944,
      "Հրդեհ": 5945,
      "ախորհրդար": 5946,
      "Բանկ": 5947,
      "Գաբ": 5948,
      "տանում": 5949,
      "րահ": 5950,
      "ականատես": 5951,
      "ահանձնաժողով": 5952,
      "ալին": 5953,
      "ստական": 5954,
      "վածքի": 5955,
      "եցվել": 5956,
      "դիզ": 5957,
      "ադրույ": 5958,
      "ելիության": 5959,
      "աշխատատեղ": 5960,
      "ակումբ": 5961,
      "հանրությանը": 5962,
      "նկատեց": 5963,
      "մինչդեռ": 5964,
      "պաշտպանել": 5965,
      "տնօրենը": 5966,
      "բանկը": 5967,
      "անունից": 5968,
      "ազդեցության": 5969,
      "կանոնները": 5970,
      "բիզնեսի": 5971,
      "բժիշկները": 5972,
      "Օբամ": 5973,
      "ժշկական": 5974,
      "03": 5975,
      "120": 5976,
      "ՍՀ": 5977,
      "Սին": 5978,
      "բլ": 5979,
      "վետ": 5980,
      "ամպ": 5981,
      "օրս": 5982,
      "արգման": 5983,
      "քննարկելու": 5984,
      "քերն": 5985,
      "հաշմանդամ": 5986,
      "երիտասարդական": 5987,
      "փաստաթղթերը": 5988,
      "ուհու": 5989,
      "enta": 5990,
      "պարզաբանել": 5991,
      "կրկնակի": 5992,
      "ընթերց": 5993,
      "COVID": 5994,
      "թր": 5995,
      "ոտն": 5996,
      "ջել": 5997,
      "ցամաք": 5998,
      "ֆիկ": 5999,
      "ակոռուպցիոն": 6000,
      "ուրույն": 6001,
      "իսը": 6002,
      "Հայտարար": 6003,
      "պահեստ": 6004,
      "ուլյ": 6005,
      "ընտրություններից": 6006,
      "ղեկավարությունը": 6007,
      "թվականներին": 6008,
      "ցուցակում": 6009,
      "վարչապետին": 6010,
      "Փաշինյան": 6011,
      "ատրճ": 6012,
      "հարաբերություններում": 6013,
      "Ավագ": 6014,
      "բանկերի": 6015,
      "կառուցել": 6016,
      "կանխելու": 6017,
      "Հունգ": 6018,
      "ցանցի": 6019,
      "պայթյունի": 6020,
      "Արեւելյան": 6021,
      "2018թ": 6022,
      "կուսակցությունների": 6023,
      "2020թ": 6024,
      "թաղամաս": 6025,
      "Գեղամ": 6026,
      "տիրապետ": 6027,
      "կենսաթոշ": 6028,
      "հանձնարարել": 6029,
      "սուբյ": 6030,
      "Փորձագետ": 6031,
      "փոխգործակցության": 6032,
      "Անի": 6033,
      "Բարձր": 6034,
      "Զոր": 6035,
      "լեռ": 6036,
      "կոլ": 6037,
      "մերը": 6038,
      "սու": 6039,
      "ահաղորդ": 6040,
      "կարմիր": 6041,
      "քիմի": 6042,
      "դիվեր": 6043,
      "օգտագործելու": 6044,
      "բնակիչներին": 6045,
      "թեկնածուն": 6046,
      "սեպտեմբերին": 6047,
      "Մոսկվան": 6048,
      "գրանցված": 6049,
      "խուսափել": 6050,
      "առաքելության": 6051,
      "ավաճան": 6052,
      "ուրբաթ": 6053,
      "Գուր": 6054,
      "Գիտ": 6055,
      "Ժան": 6056,
      "Մակր": 6057,
      "Մելիք": 6058,
      "լող": 6059,
      "մաք": 6060,
      "նյա": 6061,
      "փետրվար": 6062,
      "նախաքննություն": 6063,
      "գործարք": 6064,
      "համարժեք": 6065,
      "քաղաքներում": 6066,
      "ոտի": 6067,
      "պահում": 6068,
      "երկրներին": 6069,
      "երիների": 6070,
      "անջատ": 6071,
      "Նախորդ": 6072,
      "արեւելյան": 6073,
      "Սիմոնյանը": 6074,
      "հսկողության": 6075,
      "Հրաչ": 6076,
      "կոշտ": 6077,
      "08": 6078,
      "ԱՍ": 6079,
      "Բադ": 6080,
      "Լյու": 6081,
      "Կաթ": 6082,
      "Յուր": 6083,
      "Չի": 6084,
      "Վե": 6085,
      "հսկ": 6086,
      "շղթ": 6087,
      "աննախադեպ": 6088,
      "ստանը": 6089,
      "տրվում": 6090,
      "դատի": 6091,
      "ակարգի": 6092,
      "սկսում": 6093,
      "բնակվող": 6094,
      "զորակոչ": 6095,
      "Ինչո": 6096,
      "հետևյալ": 6097,
      "անկարժեք": 6098,
      "հիմնավոր": 6099,
      "Անդրանիկ": 6100,
      "Պետրոսյանի": 6101,
      "կալանավորվել": 6102,
      "ցուցանիշը": 6103,
      "հետապնդում": 6104,
      "գնդապետ": 6105,
      "Վիկտոր": 6106,
      "ճեպազր": 6107,
      "51": 6108,
      "Be": 6109,
      "Ամբ": 6110,
      "դավաճան": 6111,
      "ծած": 6112,
      "մմ": 6113,
      "ամուր": 6114,
      "օրոք": 6115,
      "ներկայացրեց": 6116,
      "կատարելով": 6117,
      "ղեկավարները": 6118,
      "բարձրա": 6119,
      "ապահովում": 6120,
      "պատմությունը": 6121,
      "բռնի": 6122,
      "ամասնական": 6123,
      "ապրիլին": 6124,
      "երկարաձգ": 6125,
      "աղբյուրների": 6126,
      "Ալիեւի": 6127,
      "Վերջինս": 6128,
      "Գեւորգյանը": 6129,
      "մտածում": 6130,
      "միջադեպի": 6131,
      "օղլուն": 6132,
      "էներգետիկայի": 6133,
      "հասցեում": 6134,
      "միջանցքի": 6135,
      "ՔԿՀ": 6136,
      "հորդոր": 6137,
      "Հատուկ": 6138,
      "Apple": 6139,
      "Բրազիլի": 6140,
      "Ալավ": 6141,
      "ԱՏՄ": 6142,
      "ԽՍՀ": 6143,
      "Նուբար": 6144,
      "բորս": 6145,
      "խեղ": 6146,
      "կը": 6147,
      "կասում": 6148,
      "նռ": 6149,
      "նիկ": 6150,
      "վին": 6151,
      "հետաքննություն": 6152,
      "օրեր": 6153,
      "ավարությունը": 6154,
      "ակիցներին": 6155,
      "նմանատիպ": 6156,
      "Հարց": 6157,
      "հաստատված": 6158,
      "Վրաստան": 6159,
      "գործընթացին": 6160,
      "մուտքը": 6161,
      "կայունության": 6162,
      "հետազոտությունների": 6163,
      "Տարած": 6164,
      "Նշված": 6165,
      "արշավի": 6166,
      "կլիներ": 6167,
      "Գորիս": 6168,
      "Փրկարարները": 6169,
      "եթերում": 6170,
      "ri": 6171,
      "Զեյ": 6172,
      "Հենց": 6173,
      "Միշ": 6174,
      "դուստր": 6175,
      "լեյ": 6176,
      "լճի": 6177,
      "մուշ": 6178,
      "շեր": 6179,
      "ամրագր": 6180,
      "աղք": 6181,
      "ուղեղ": 6182,
      "սկու": 6183,
      "կանաչ": 6184,
      "բացվել": 6185,
      "շատերը": 6186,
      "տարբերակ": 6187,
      "տրամաչափի": 6188,
      "մրցույթի": 6189,
      "Ոստիկանությունից": 6190,
      "ոկի": 6191,
      "ոջը": 6192,
      "պատերազմում": 6193,
      "ազդեցությունը": 6194,
      "ճարտար": 6195,
      "նպաստել": 6196,
      "աշվիլին": 6197,
      "Մարտիրոսյանը": 6198,
      "Վազգեն": 6199,
      "Le": 6200,
      "Մհեր": 6201,
      "Ռուստամ": 6202,
      "Վոլ": 6203,
      "Քեր": 6204,
      "զմի": 6205,
      "լվ": 6206,
      "ճռ": 6207,
      "պոտ": 6208,
      "րղ": 6209,
      "ունքով": 6210,
      "վածքով": 6211,
      "նախապես": 6212,
      "սահմանվել": 6213,
      "սահմանապահ": 6214,
      "պայմանների": 6215,
      "տարբերություն": 6216,
      "դեռևս": 6217,
      "հասցեին": 6218,
      "վարկած": 6219,
      "առողջության": 6220,
      "Պարոն": 6221,
      "դպրոցում": 6222,
      "ամթերք": 6223,
      "գյուղատնտեսական": 6224,
      "Հնդկաստ": 6225,
      "Ցեղասպանության": 6226,
      "Առողջապահության": 6227,
      "An": 6228,
      "As": 6229,
      "ran": 6230,
      "Սիլ": 6231,
      "բուհ": 6232,
      "տած": 6233,
      "քանակը": 6234,
      "ացուց": 6235,
      "ագրման": 6236,
      "2000": 6237,
      "թիմի": 6238,
      "հասնում": 6239,
      "ծառայողական": 6240,
      "սպիտ": 6241,
      "կոյի": 6242,
      "տարբերակը": 6243,
      "իրավիճակին": 6244,
      "հիվանդության": 6245,
      "հրաժարականի": 6246,
      "հատվածը": 6247,
      "ժողովրդավարության": 6248,
      "թարմ": 6249,
      "Նախագահի": 6250,
      "ֆորմ": 6251,
      "եզրակացության": 6252,
      "ցեղասպանությունը": 6253,
      "պարտականությունները": 6254,
      "Հնդկաստանի": 6255,
      "ՀՔԾ": 6256,
      "փամփուշտ": 6257,
      "հյուպատոս": 6258,
      "Goo": 6259,
      "Ավան": 6260,
      "Ներս": 6261,
      "էթն": 6262,
      "լրջ": 6263,
      "յալները": 6264,
      "բացման": 6265,
      "Անգ": 6266,
      "վեճ": 6267,
      "զորամաս": 6268,
      "չափանիշ": 6269,
      "սպորտի": 6270,
      "խախտել": 6271,
      "դատավորների": 6272,
      "Հայրեն": 6273,
      "երեւում": 6274,
      "արժանացել": 6275,
      "շինարարության": 6276,
      "2013թ": 6277,
      "բաղկաց": 6278,
      "պարզաբանում": 6279,
      "կենդանիների": 6280,
      "Զելեն": 6281,
      "Միխայիլ": 6282,
      "76": 6283,
      "Բուլղ": 6284,
      "Դեռ": 6285,
      "Իջ": 6286,
      "Հոլ": 6287,
      "տաղ": 6288,
      "տից": 6289,
      "մանր": 6290,
      "տարր": 6291,
      "վարժ": 6292,
      "ընդդեմ": 6293,
      "աշինության": 6294,
      "խնամ": 6295,
      "գյուղը": 6296,
      "տալով": 6297,
      "հասցնել": 6298,
      "ակտիվորեն": 6299,
      "երեխաները": 6300,
      "բացառիկ": 6301,
      "Վահրամ": 6302,
      "թեթեւ": 6303,
      "շտապօգնության": 6304,
      "հավատարիմ": 6305,
      "պրոֆեսի": 6306,
      "չվերթ": 6307,
      "Շարմազանովը": 6308,
      "02": 6309,
      "78": 6310,
      "Տր": 6311,
      "գռ": 6312,
      "թոնի": 6313,
      "խլ": 6314,
      "անիչ": 6315,
      "եկած": 6316,
      "համերգ": 6317,
      "հանվել": 6318,
      "ակցային": 6319,
      "վարում": 6320,
      "այսպիսի": 6321,
      "բացատրել": 6322,
      "Ադրբեջանն": 6323,
      "Ուստի": 6324,
      "պահանջով": 6325,
      "խաղաղություն": 6326,
      "զբաղվող": 6327,
      "դեսպանատան": 6328,
      "շաբաթվա": 6329,
      "մասնակիցներին": 6330,
      "բաղադր": 6331,
      "Իտալիայի": 6332,
      "խրախ": 6333,
      "մթնոլորտ": 6334,
      "Բաղդասարյանը": 6335,
      "Shamshyan": 6336,
      "բարեգործական": 6337,
      "Րաֆֆի": 6338,
      "Դրանց": 6339,
      "Մխիթար": 6340,
      "խստ": 6341,
      "պապ": 6342,
      "քամ": 6343,
      "ներողություն": 6344,
      "ալյանը": 6345,
      "աղի": 6346,
      "տեսակ": 6347,
      "քաղաքականություն": 6348,
      "մտադր": 6349,
      "ինքնուրույն": 6350,
      "քաղաքապետը": 6351,
      "պայթուց": 6352,
      "Ներքին": 6353,
      "միջնորդությունը": 6354,
      "Մինչեւ": 6355,
      "Ամենայն": 6356,
      "կորցրել": 6357,
      "ճշգր": 6358,
      "գրոհային": 6359,
      "կալանավորված": 6360,
      "մանկապարտեզ": 6361,
      "79": 6362,
      "Բախ": 6363,
      "Բակո": 6364,
      "Գևոր": 6365,
      "Զր": 6366,
      "նեմ": 6367,
      "վկ": 6368,
      "ստու": 6369,
      "հայոց": 6370,
      "աբաշխ": 6371,
      "կրի": 6372,
      "իտալ": 6373,
      "դեպքերը": 6374,
      "ավելացրել": 6375,
      "գնալու": 6376,
      "պահանջը": 6377,
      "մեղադրական": 6378,
      "ֆինանսավոր": 6379,
      "դատախազությունը": 6380,
      "Լիբ": 6381,
      "զեկույց": 6382,
      "կուտակ": 6383,
      "փախստականների": 6384,
      "Նաիրա": 6385,
      "gle": 6386,
      "Եւ": 6387,
      "աու": 6388,
      "բրի": 6389,
      "ձոր": 6390,
      "երես": 6391,
      "ումի": 6392,
      "ամիտ": 6393,
      "ացույց": 6394,
      "աբազ": 6395,
      "պատահար": 6396,
      "կայքի": 6397,
      "որդական": 6398,
      "ծառայությունում": 6399,
      "պարուն": 6400,
      "սահմանների": 6401,
      "գիծ": 6402,
      "բարձրացել": 6403,
      "քննարկումների": 6404,
      "անդամակց": 6405,
      "խորհրդարանը": 6406,
      "համայնքային": 6407,
      "բռնություն": 6408,
      "ընդգծելով": 6409,
      "հրապարակային": 6410,
      "փրկարարները": 6411,
      "հանցագործություն": 6412,
      "շնորհավորել": 6413,
      "Հունաստ": 6414,
      "խոշորագույն": 6415,
      "էներգ": 6416,
      "թղթակիցը": 6417,
      "առնան": 6418,
      "Բարաք": 6419,
      "Դատախազ": 6420,
      "ինքնասպան": 6421,
      "ինտերնետ": 6422,
      "սիրիական": 6423,
      "Անահի": 6424,
      "զսպ": 6425,
      "սալ": 6426,
      "տանկ": 6427,
      "ումներից": 6428,
      "ողին": 6429,
      "գործն": 6430,
      "եռակողմ": 6431,
      "լիովին": 6432,
      "րիվ": 6433,
      "փորձաքննության": 6434,
      "ատեսակ": 6435,
      "պայմանները": 6436,
      "վաճառվել": 6437,
      "Մինասյանը": 6438,
      "Վարդանյանի": 6439,
      "Կրեմ": 6440,
      "ախմբի": 6441,
      "Google": 6442,
      "Bl": 6443,
      "Մաշտ": 6444,
      "Փո": 6445,
      "վն": 6446,
      "այգ": 6447,
      "ներառում": 6448,
      "ունու": 6449,
      "առգրավ": 6450,
      "մասում": 6451,
      "տեղումների": 6452,
      "ինչպիսին": 6453,
      "տեսանելի": 6454,
      "հայտարարությունները": 6455,
      "ընթացքը": 6456,
      "իսկոպ": 6457,
      "անվանում": 6458,
      "ոստիկանական": 6459,
      "Միայն": 6460,
      "ուցիչների": 6461,
      "բնակիչներ": 6462,
      "երեքշաբթի": 6463,
      "Հրայր": 6464,
      "հիշում": 6465,
      "Չինաստանում": 6466,
      "Մարաշ": 6467,
      "Նախարարը": 6468,
      "Գազպրո": 6469,
      "կանչել": 6470,
      "հացադուլ": 6471,
      "Հռոմի": 6472,
      "վկիան": 6473,
      "II": 6474,
      "Պակի": 6475,
      "Տուժ": 6476,
      "գանձ": 6477,
      "լյան": 6478,
      "կստեղծ": 6479,
      "մոբ": 6480,
      "ջի": 6481,
      "ողներից": 6482,
      "ազգի": 6483,
      "տեղահան": 6484,
      "կրել": 6485,
      "որդները": 6486,
      "անգլ": 6487,
      "որոշումների": 6488,
      "դեպքը": 6489,
      "տարածման": 6490,
      "ուկի": 6491,
      "երբուր": 6492,
      "միջոցներով": 6493,
      "խորհրդատ": 6494,
      "ընտանիքների": 6495,
      "նախաձեռնությունը": 6496,
      "հեռախոսազր": 6497,
      "պարբերականը": 6498,
      "Արաբկիր": 6499
    },
    "merges": [
      [
        "ո",
        "ւ"
      ],
      [
        "ա",
        "ն"
      ],
      [
        "ա",
        "ր"
      ],
      [
        "ե",
        "ր"
      ],
      [
        "ա",
        "կ"
      ],
      [
        "ա",
        "յ"
      ],
      [
        "ի",
        "ն"
      ],
      [
        "ո",
        "ր"
      ],
      [
        "ե",
        "լ"
      ],
      [
        "ու",
        "մ"
      ],
      [
        "ն",
        "եր"
      ],
      [
        "ու",
        "թ"
      ],
      [
        "ութ",
        "յ"
      ],
      [
        "ե",
        "ն"
      ],
      [
        "ա",
        "մ"
      ],
      [
        "ու",
        "ն"
      ],
      [
        "ա",
        "տ"
      ],
      [
        "ա",
        "ս"
      ],
      [
        "ա",
        "վ"
      ],
      [
        "ակ",
        "ան"
      ],
      [
        "ա",
        "ց"
      ],
      [
        "ե",
        "ւ"
      ],
      [
        "ո",
        "վ"
      ],
      [
        "ությ",
        "ուն"
      ],
      [
        "ե",
        "տ"
      ],
      [
        "ո",
        "ղ"
      ],
      [
        "ն",
        "ա"
      ],
      [
        "ա",
        "ռ"
      ],
      [
        "ությ",
        "ան"
      ],
      [
        "ա",
        "ծ"
      ],
      [
        "ի",
        "ր"
      ],
      [
        "ներ",
        "ի"
      ],
      [
        "ա",
        "հ"
      ],
      [
        "մ",
        "ան"
      ],
      [
        "ա",
        "գ"
      ],
      [
        "ա",
        "պ"
      ],
      [
        "ան",
        "ի"
      ],
      [
        "ե",
        "ղ"
      ],
      [
        "մ",
        "ի"
      ],
      [
        "ա",
        "զ"
      ],
      [
        "ե",
        "ս"
      ],
      [
        "ա",
        "լ"
      ],
      [
        "ս",
        "տ"
      ],
      [
        "ա",
        "ղ"
      ],
      [
        "ա",
        "շ"
      ],
      [
        "ե",
        "կ"
      ],
      [
        "դ",
        "ր"
      ],
      [
        "վ",
        "ած"
      ],
      [
        "հ",
        "ամ"
      ],
      [
        "յ",
        "ան"
      ],
      [
        "վ",
        "ել"
      ],
      [
        "աս",
        "տ"
      ],
      [
        "ո",
        "ն"
      ],
      [
        "այ",
        "ին"
      ],
      [
        "ի",
        "ց"
      ],
      [
        "ը",
        "ն"
      ],
      [
        "ներ",
        "ը"
      ],
      [
        "ե",
        "ց"
      ],
      [
        "ա",
        "ք"
      ],
      [
        "հ",
        "ետ"
      ],
      [
        "ավ",
        "որ"
      ],
      [
        "տ",
        "ար"
      ],
      [
        "ու",
        "ր"
      ],
      [
        "հ",
        "այ"
      ],
      [
        "նա",
        "խ"
      ],
      [
        "եր",
        "ի"
      ],
      [
        "որ",
        "ծ"
      ],
      [
        "մ",
        "աս"
      ],
      [
        "այ",
        "ն"
      ],
      [
        "են",
        "ք"
      ],
      [
        "ա",
        "բ"
      ],
      [
        "պ",
        "ատ"
      ],
      [
        "ի",
        "ս"
      ],
      [
        "ար",
        "դ"
      ],
      [
        "ան",
        "ց"
      ],
      [
        "կ",
        "ար"
      ],
      [
        "ի",
        "կ"
      ],
      [
        "ու",
        "յ"
      ],
      [
        "ա",
        "խ"
      ],
      [
        "օ",
        "ր"
      ],
      [
        "ու",
        "ս"
      ],
      [
        "ություն",
        "ը"
      ],
      [
        "տ",
        "ն"
      ],
      [
        "ել",
        "ու"
      ],
      [
        "հ",
        "ան"
      ],
      [
        "ե",
        "մ"
      ],
      [
        "ար",
        "կ"
      ],
      [
        "ո",
        "ս"
      ],
      [
        "ար",
        "տ"
      ],
      [
        "գ",
        "ործ"
      ],
      [
        "ք",
        "ի"
      ],
      [
        "դ",
        "ի"
      ],
      [
        "տ",
        "եղ"
      ],
      [
        "ան",
        "ակ"
      ],
      [
        "ամ",
        "բ"
      ],
      [
        "ր",
        "ա"
      ],
      [
        "ա",
        "ջ"
      ],
      [
        "վ",
        "եր"
      ],
      [
        "հ",
        "ար"
      ],
      [
        "ան",
        "ք"
      ],
      [
        "այ",
        "ի"
      ],
      [
        "Հ",
        "այ"
      ],
      [
        "ո",
        "լ"
      ],
      [
        "տ",
        "ր"
      ],
      [
        "ո",
        "ց"
      ],
      [
        "համ",
        "ար"
      ],
      [
        "ակ",
        "ց"
      ],
      [
        "ե",
        "ռ"
      ],
      [
        "ան",
        "ում"
      ],
      [
        "յան",
        "ը"
      ],
      [
        "փ",
        "ո"
      ],
      [
        "վ",
        "ում"
      ],
      [
        "կ",
        "ր"
      ],
      [
        "կ",
        "այ"
      ],
      [
        "որ",
        "դ"
      ],
      [
        "ին",
        "չ"
      ],
      [
        "ա",
        "դր"
      ],
      [
        "ժ",
        "ամ"
      ],
      [
        "մ",
        "ե"
      ],
      [
        "աղ",
        "աք"
      ],
      [
        "Ա",
        "ր"
      ],
      [
        "վ",
        "ար"
      ],
      [
        "ու",
        "ղ"
      ],
      [
        "մի",
        "ջ"
      ],
      [
        "մաս",
        "ին"
      ],
      [
        "գ",
        "ր"
      ],
      [
        "ու",
        "ց"
      ],
      [
        "ավ",
        "ար"
      ],
      [
        "Ա",
        "յ"
      ],
      [
        "ար",
        "գ"
      ],
      [
        "ագ",
        "ր"
      ],
      [
        "աշ",
        "խ"
      ],
      [
        "թ",
        "ե"
      ],
      [
        "հ",
        "ի"
      ],
      [
        "պ",
        "ետ"
      ],
      [
        "Հայ",
        "աստ"
      ],
      [
        "ք",
        "աղաք"
      ],
      [
        "փո",
        "խ"
      ],
      [
        "հ",
        "ր"
      ],
      [
        "է",
        "ր"
      ],
      [
        "ար",
        "ձ"
      ],
      [
        "ա",
        "դ"
      ],
      [
        "ատ",
        "ար"
      ],
      [
        "առ",
        "աջ"
      ],
      [
        "եր",
        "ը"
      ],
      [
        "ո",
        "տ"
      ],
      [
        "պ",
        "ես"
      ],
      [
        "ան",
        "գ"
      ],
      [
        "2",
        "0"
      ],
      [
        "ել",
        "ի"
      ],
      [
        "բ",
        "եր"
      ],
      [
        "ար",
        "ար"
      ],
      [
        "այ",
        "ս"
      ],
      [
        "ազ",
        "մ"
      ],
      [
        "ք",
        "ում"
      ],
      [
        "ություն",
        "ների"
      ],
      [
        "ներ",
        "ին"
      ],
      [
        "ն",
        "շ"
      ],
      [
        "պ",
        "ան"
      ],
      [
        "ապ",
        "ետ"
      ],
      [
        "լ",
        "ի"
      ],
      [
        "ի",
        "շ"
      ],
      [
        "»",
        ","
      ],
      [
        "այ",
        "դ"
      ],
      [
        "խ",
        "ան"
      ],
      [
        "ըն",
        "դ"
      ],
      [
        "ք",
        "ն"
      ],
      [
        "ո",
        "չ"
      ],
      [
        "ե",
        "պ"
      ],
      [
        "հայ",
        "տն"
      ],
      [
        "թ",
        "ի"
      ],
      [
        "ն",
        "ել"
      ],
      [
        "նախ",
        "ագ"
      ],
      [
        "ակ",
        "ի"
      ],
      [
        "ո",
        "շ"
      ],
      [
        "աշ",
        "տ"
      ],
      [
        "ի",
        "տ"
      ],
      [
        "մ",
        "եկ"
      ],
      [
        "աշխ",
        "ատ"
      ],
      [
        "չ",
        "ի"
      ],
      [
        "ությ",
        "ամբ"
      ],
      [
        "վ",
        "ի"
      ],
      [
        "կ",
        "ող"
      ],
      [
        "ր",
        "ջ"
      ],
      [
        "կայ",
        "աց"
      ],
      [
        "Հ",
        "Հ"
      ],
      [
        "յ",
        "ալ"
      ],
      [
        "ան",
        "դ"
      ],
      [
        "ե",
        "ք"
      ],
      [
        "Այ",
        "ս"
      ],
      [
        "ա",
        "փ"
      ],
      [
        "յ",
        "անի"
      ],
      [
        "տ",
        "ես"
      ],
      [
        "նախագ",
        "ահ"
      ],
      [
        "ն",
        "որ"
      ],
      [
        "ս",
        "կ"
      ],
      [
        "ում",
        "ը"
      ],
      [
        "հար",
        "ց"
      ],
      [
        "Ե",
        "ր"
      ],
      [
        "պ",
        "աշտ"
      ],
      [
        "մ",
        "ար"
      ],
      [
        "»,",
        "-"
      ],
      [
        "ներ",
        "ում"
      ],
      [
        "պ",
        "ահ"
      ],
      [
        "ան",
        "կ"
      ],
      [
        "ր",
        "դ"
      ],
      [
        "ժամ",
        "անակ"
      ],
      [
        "եր",
        "կր"
      ],
      [
        "այ",
        "լ"
      ],
      [
        "ան",
        "ը"
      ],
      [
        "լ",
        "ին"
      ],
      [
        "ն",
        "դ"
      ],
      [
        "աբ",
        "եր"
      ],
      [
        "ըն",
        "թ"
      ],
      [
        "ել",
        "ով"
      ],
      [
        "հ",
        "ատ"
      ],
      [
        "կ",
        "եր"
      ],
      [
        "ն",
        "ում"
      ],
      [
        "ն",
        "ի"
      ],
      [
        "տար",
        "ար"
      ],
      [
        "ող",
        "ով"
      ],
      [
        "կ",
        "ան"
      ],
      [
        "ո",
        "ստ"
      ],
      [
        "աց",
        "ի"
      ],
      [
        "իր",
        "ավ"
      ],
      [
        "հայ",
        "տարար"
      ],
      [
        "Հայաստ",
        "անի"
      ],
      [
        "0",
        "0"
      ],
      [
        "ր",
        "ել"
      ],
      [
        "կար",
        "ող"
      ],
      [
        "ներ",
        "կայաց"
      ],
      [
        "ոլ",
        "որ"
      ],
      [
        "նախ",
        "արար"
      ],
      [
        "նա",
        "եւ"
      ],
      [
        "ան",
        "ձ"
      ],
      [
        "ր",
        "ի"
      ],
      [
        "որ",
        "ոշ"
      ],
      [
        "ք",
        "ը"
      ],
      [
        "աց",
        "ել"
      ],
      [
        "հ",
        "աս"
      ],
      [
        "յ",
        "ուն"
      ],
      [
        "ի",
        "չ"
      ],
      [
        "մ",
        "եր"
      ],
      [
        "ու",
        "ժ"
      ],
      [
        "կ",
        "առ"
      ],
      [
        "ա",
        "թ"
      ],
      [
        "շ",
        "ար"
      ],
      [
        "ընթ",
        "աց"
      ],
      [
        "ա",
        "ձ"
      ],
      [
        "շ",
        "տ"
      ],
      [
        "ույ",
        "ն"
      ],
      [
        "դ",
        "եպ"
      ],
      [
        "ահ",
        "ման"
      ],
      [
        "որ",
        "ոն"
      ],
      [
        "օ",
        "գ"
      ],
      [
        "ություն",
        "ներ"
      ],
      [
        "ապ",
        "ար"
      ],
      [
        "ծ",
        "առ"
      ],
      [
        "ագ",
        "ործ"
      ],
      [
        "ժ",
        "ողով"
      ],
      [
        "տ",
        "ո"
      ],
      [
        "պ",
        "այ"
      ],
      [
        "պետ",
        "ք"
      ],
      [
        "ե",
        "ջ"
      ],
      [
        "եր",
        "կ"
      ],
      [
        "տար",
        "ած"
      ],
      [
        "վ",
        "ա"
      ],
      [
        "է",
        "լ"
      ],
      [
        "մաս",
        "ն"
      ],
      [
        "ն",
        "չ"
      ],
      [
        "ություն",
        "ները"
      ],
      [
        "ու",
        "կ"
      ],
      [
        "խ",
        "որ"
      ],
      [
        "գ",
        "ային"
      ],
      [
        "ն",
        "ր"
      ],
      [
        "խ",
        "ոս"
      ],
      [
        "դ",
        "ատ"
      ],
      [
        "վար",
        "չ"
      ],
      [
        "իր",
        "ական"
      ],
      [
        "կ",
        "ապ"
      ],
      [
        "շ",
        "րջ"
      ],
      [
        "այ",
        "ր"
      ],
      [
        "մ",
        "արդ"
      ],
      [
        "ծառ",
        "այ"
      ],
      [
        "են",
        "ց"
      ],
      [
        "բ",
        "ն"
      ],
      [
        "»",
        ":"
      ],
      [
        "ույ",
        "ց"
      ],
      [
        "պ",
        "ար"
      ],
      [
        "վ",
        "ող"
      ],
      [
        "հ",
        "ավ"
      ],
      [
        "որ",
        "ը"
      ],
      [
        "կ",
        "ազմ"
      ],
      [
        "ճ",
        "ան"
      ],
      [
        "իս",
        "ի"
      ],
      [
        "իս",
        "կ"
      ],
      [
        "դի",
        "մ"
      ],
      [
        "ն",
        "արկ"
      ],
      [
        "ակ",
        "ից"
      ],
      [
        "ու",
        "լ"
      ],
      [
        "ուն",
        "եց"
      ],
      [
        "հի",
        "մ"
      ],
      [
        "իկ",
        "ան"
      ],
      [
        "այ",
        "ում"
      ],
      [
        "ար",
        "ի"
      ],
      [
        "մի",
        "ց"
      ],
      [
        "այ",
        "ց"
      ],
      [
        "ամ",
        "են"
      ],
      [
        "ս",
        "պ"
      ],
      [
        "բ",
        "եջ"
      ],
      [
        "ա",
        "չ"
      ],
      [
        "հ",
        "աղ"
      ],
      [
        "մե",
        "ջ"
      ],
      [
        "ըն",
        "տր"
      ],
      [
        "մ",
        "ամբ"
      ],
      [
        "ս",
        "ահման"
      ],
      [
        "ըն",
        "կեր"
      ],
      [
        "տ",
        "ի"
      ],
      [
        "ր",
        "ագր"
      ],
      [
        "կ",
        "ատար"
      ],
      [
        "յ",
        "ա"
      ],
      [
        "տեղ",
        "եկ"
      ],
      [
        "ակ",
        "ում"
      ],
      [
        "ճ",
        "առ"
      ],
      [
        "բ",
        "աց"
      ],
      [
        "մ",
        "ոտ"
      ],
      [
        "ակ",
        "արգ"
      ],
      [
        "ների",
        "ց"
      ],
      [
        "ավ",
        "ելի"
      ],
      [
        "եր",
        "ին"
      ],
      [
        "ն",
        "ական"
      ],
      [
        "ա",
        "ժ"
      ],
      [
        "կող",
        "մից"
      ],
      [
        "եր",
        "բ"
      ],
      [
        "բ",
        "երի"
      ],
      [
        "գ",
        "ի"
      ],
      [
        "հետ",
        "ո"
      ],
      [
        "ակց",
        "ության"
      ],
      [
        "հ",
        "ո"
      ],
      [
        "եր",
        "թ"
      ],
      [
        "վ",
        "րա"
      ],
      [
        "Ա",
        "Մ"
      ],
      [
        "ր",
        "աստ"
      ],
      [
        "աց",
        "ման"
      ],
      [
        "ու",
        "տ"
      ],
      [
        "կ",
        "ամ"
      ],
      [
        "է",
        "ին"
      ],
      [
        "20",
        "1"
      ],
      [
        "որ",
        "ձ"
      ],
      [
        "ակ",
        "եր"
      ],
      [
        "ներ",
        "ով"
      ],
      [
        "ք",
        "ով"
      ],
      [
        "կ",
        "ին"
      ],
      [
        "ն",
        "կ"
      ],
      [
        "եմ",
        "բերի"
      ],
      [
        "ր",
        "ո"
      ],
      [
        "աս",
        "խան"
      ],
      [
        "թ",
        "վ"
      ],
      [
        "ք",
        "ր"
      ],
      [
        "աս",
        "ել"
      ],
      [
        "ալ",
        "ի"
      ],
      [
        "ության",
        "ը"
      ],
      [
        "ազ",
        "գային"
      ],
      [
        "մ",
        "բ"
      ],
      [
        "ան",
        "վ"
      ],
      [
        "ԱՄ",
        "Ն"
      ],
      [
        "յ",
        "ուր"
      ],
      [
        "ող",
        "ջ"
      ],
      [
        "միջ",
        "ոց"
      ],
      [
        "ուն",
        "են"
      ],
      [
        "դր",
        "ամ"
      ],
      [
        "կ",
        "ա"
      ],
      [
        "կառ",
        "ավար"
      ],
      [
        "ապ",
        "ահ"
      ],
      [
        "ու",
        "շ"
      ],
      [
        "արդ",
        "յուն"
      ],
      [
        "այս",
        "օր"
      ],
      [
        "ի",
        "մ"
      ],
      [
        "փ",
        "որձ"
      ],
      [
        "խոր",
        "հր"
      ],
      [
        "զ",
        "ի"
      ],
      [
        "հ",
        "ն"
      ],
      [
        "հ",
        "րա"
      ],
      [
        "ան",
        "ր"
      ],
      [
        "բ",
        "ոլոր"
      ],
      [
        "ապ",
        "ես"
      ],
      [
        "տեղ",
        "ի"
      ],
      [
        "կ",
        "են"
      ],
      [
        "ղ",
        "եկ"
      ],
      [
        "ն",
        "ելու"
      ],
      [
        "բ",
        "ան"
      ],
      [
        "ա",
        "ճ"
      ],
      [
        "a",
        "m"
      ],
      [
        "Ռ",
        "ուս"
      ],
      [
        "տր",
        "ոն"
      ],
      [
        "շ",
        "ատ"
      ],
      [
        "վեր",
        "ջ"
      ],
      [
        "հաղ",
        "որդ"
      ],
      [
        "Ա",
        "դր"
      ],
      [
        "ակ",
        "ալ"
      ],
      [
        "Ադր",
        "բեջ"
      ],
      [
        "ղեկ",
        "ավար"
      ],
      [
        "իր",
        "ենց"
      ],
      [
        "որ",
        "ի"
      ],
      [
        "պաշտ",
        "ոն"
      ],
      [
        "ար",
        "ավոր"
      ],
      [
        "իրական",
        "աց"
      ],
      [
        "քաղաք",
        "ական"
      ],
      [
        "հետ",
        "եւ"
      ],
      [
        "ե",
        "զ"
      ],
      [
        "ք",
        "անի"
      ],
      [
        "վեր",
        "աբեր"
      ],
      [
        "ներ",
        "ն"
      ],
      [
        "դ",
        "եմ"
      ],
      [
        "ակ",
        "այն"
      ],
      [
        "Թ",
        "ուր"
      ],
      [
        "կ",
        "ո"
      ],
      [
        "ոստ",
        "իկան"
      ],
      [
        "զ",
        "ին"
      ],
      [
        "ան",
        "ական"
      ],
      [
        "աշ",
        "ին"
      ],
      [
        "ուղ",
        "ղ"
      ],
      [
        "ինչ",
        "պես"
      ],
      [
        "ակեր",
        "պ"
      ],
      [
        "դի",
        "պ"
      ],
      [
        "ակ",
        "ը"
      ],
      [
        "ություն",
        "ն"
      ],
      [
        "տ",
        "անգ"
      ],
      [
        "ե",
        "յ"
      ],
      [
        "չ",
        "են"
      ],
      [
        "իշ",
        "խան"
      ],
      [
        "եղ",
        "ծ"
      ],
      [
        "Եր",
        "եւ"
      ],
      [
        "թվ",
        "ական"
      ],
      [
        "ի",
        "այի"
      ],
      [
        "պան",
        "ության"
      ],
      [
        "ազ",
        "ատ"
      ],
      [
        "որոն",
        "ք"
      ],
      [
        "Ո",
        "ւ"
      ],
      [
        "ապ",
        "ատ"
      ],
      [
        "լ",
        "ու"
      ],
      [
        "ատ",
        "ես"
      ],
      [
        "ում",
        "ների"
      ],
      [
        "բ",
        "արձ"
      ],
      [
        "1",
        "0"
      ],
      [
        "հ",
        "եռ"
      ],
      [
        "ուն",
        "ի"
      ],
      [
        "ձ",
        "եռ"
      ],
      [
        "որ",
        "պես"
      ],
      [
        "եղ",
        "ել"
      ],
      [
        "ր",
        "ամ"
      ],
      [
        "Ռուս",
        "աստ"
      ],
      [
        "պայ",
        "ման"
      ],
      [
        "հրա",
        "ժ"
      ],
      [
        "աշխատ",
        "անք"
      ],
      [
        "հն",
        "արավոր"
      ],
      [
        "Մ",
        "ի"
      ],
      [
        "ո",
        "յ"
      ],
      [
        "ավ",
        "ել"
      ],
      [
        "գ",
        "ամ"
      ],
      [
        "ար",
        "ժ"
      ],
      [
        "ան",
        "ս"
      ],
      [
        "Ա",
        "ն"
      ],
      [
        "եւ",
        "որ"
      ],
      [
        "հան",
        "ր"
      ],
      [
        "ընթաց",
        "քում"
      ],
      [
        "յ",
        "ուղ"
      ],
      [
        "տ",
        "ե"
      ],
      [
        "մ",
        "տ"
      ],
      [
        "ք",
        "ան"
      ],
      [
        "Ի",
        "ր"
      ],
      [
        "ություն",
        "ից"
      ],
      [
        "տ",
        "եմբերի"
      ],
      [
        "գ",
        "լ"
      ],
      [
        "մե",
        "ծ"
      ],
      [
        "զ",
        "բ"
      ],
      [
        "են",
        "թ"
      ],
      [
        "խ",
        "ն"
      ],
      [
        "ույ",
        "թ"
      ],
      [
        "հայտն",
        "ում"
      ],
      [
        "Թուր",
        "քի"
      ],
      [
        "մ",
        "եղ"
      ],
      [
        "վ",
        "իր"
      ],
      [
        "նդ",
        "իր"
      ],
      [
        "բ",
        "աժ"
      ],
      [
        "Ե",
        "վ"
      ],
      [
        "Ն",
        "ա"
      ],
      [
        "հայտն",
        "ել"
      ],
      [
        "կազմ",
        "ակերպ"
      ],
      [
        "պատ",
        "ճառ"
      ],
      [
        "գ",
        "տն"
      ],
      [
        "հան",
        "դիպ"
      ],
      [
        "N",
        "E"
      ],
      [
        "W",
        "S"
      ],
      [
        "շ",
        "ենք"
      ],
      [
        "գ",
        "նա"
      ],
      [
        "ան",
        "ջ"
      ],
      [
        "NE",
        "WS"
      ],
      [
        "ք",
        "են"
      ],
      [
        "նկ",
        "ատ"
      ],
      [
        "շար",
        "ուն"
      ],
      [
        "դ",
        "ար"
      ],
      [
        "1",
        "9"
      ],
      [
        "ն",
        "ույն"
      ],
      [
        "փ",
        "աստ"
      ],
      [
        "ի",
        "ճ"
      ],
      [
        "ն",
        "րա"
      ],
      [
        "ուն",
        "ք"
      ],
      [
        "աս",
        "աց"
      ],
      [
        "կ",
        "ական"
      ],
      [
        "մ",
        "ինչ"
      ],
      [
        "ց",
        "ախ"
      ],
      [
        "դ",
        "ա"
      ],
      [
        "վ",
        "եց"
      ],
      [
        "մ",
        "ենք"
      ],
      [
        "խ",
        "նդիր"
      ],
      [
        "ուց",
        "իչ"
      ],
      [
        "օր",
        "են"
      ],
      [
        "բարձ",
        "ր"
      ],
      [
        "թի",
        "վ"
      ],
      [
        "ե",
        "ական"
      ],
      [
        "հ",
        "ակ"
      ],
      [
        "մե",
        "քեն"
      ],
      [
        "կ",
        "աց"
      ],
      [
        "բ",
        "ար"
      ],
      [
        "ն",
        "ման"
      ],
      [
        "հայ",
        "տ"
      ],
      [
        "հան",
        "ձ"
      ],
      [
        "նշ",
        "ել"
      ],
      [
        "քն",
        "նարկ"
      ],
      [
        "հայտարար",
        "ել"
      ],
      [
        "համ",
        "աձ"
      ],
      [
        "ատ",
        "վ"
      ],
      [
        "սկ",
        "ս"
      ],
      [
        "խ",
        "մբ"
      ],
      [
        "ավ",
        "տո"
      ],
      [
        "գ",
        "իտ"
      ],
      [
        "յ",
        "ուս"
      ],
      [
        "օգ",
        "տ"
      ],
      [
        "օր",
        "ին"
      ],
      [
        "ն",
        "աս"
      ],
      [
        "երկ",
        "ու"
      ],
      [
        "ճան",
        "ապար"
      ],
      [
        "պատ",
        "ասխան"
      ],
      [
        "խ",
        "աղ"
      ],
      [
        "ո",
        "հ"
      ],
      [
        "գործ",
        "ող"
      ],
      [
        "ց",
        "ուց"
      ],
      [
        "ամ",
        "յա"
      ],
      [
        "ե",
        "շտ"
      ],
      [
        "գլ",
        "խ"
      ],
      [
        "ուր",
        "ջ"
      ],
      [
        "Հ",
        "անր"
      ],
      [
        "վարչ",
        "ապետ"
      ],
      [
        "եռ",
        "ն"
      ],
      [
        "մասն",
        "ակց"
      ],
      [
        "կար",
        "գ"
      ],
      [
        "գ",
        "յուղ"
      ],
      [
        "կեն",
        "տրոն"
      ],
      [
        "պար",
        "զ"
      ],
      [
        "ստ",
        "եղծ"
      ],
      [
        "Ար",
        "ցախ"
      ],
      [
        "յան",
        "ին"
      ],
      [
        "մ",
        "ահ"
      ],
      [
        "ք",
        "եր"
      ],
      [
        "անդ",
        "ամ"
      ],
      [
        "ման",
        "ը"
      ],
      [
        "ծ",
        "րագր"
      ],
      [
        "մ",
        "արտ"
      ],
      [
        "հ",
        "ազ"
      ],
      [
        "աշ",
        "րջ"
      ],
      [
        "անի",
        "ց"
      ],
      [
        "ե",
        "թե"
      ],
      [
        "ան",
        "ալ"
      ],
      [
        "համ",
        "ակարգ"
      ],
      [
        "մար",
        "զ"
      ],
      [
        "ն",
        "պատ"
      ],
      [
        "դ",
        "ես"
      ],
      [
        "անգ",
        "ամ"
      ],
      [
        "հ",
        "աշ"
      ],
      [
        "ոց",
        "ի"
      ],
      [
        "հ",
        "աստ"
      ],
      [
        "առաջ",
        "ին"
      ],
      [
        "մի",
        "այն"
      ],
      [
        "ուր",
        "ս"
      ],
      [
        "դ",
        "ոլ"
      ],
      [
        "տար",
        "ի"
      ],
      [
        "մ",
        "են"
      ],
      [
        "տար",
        "բեր"
      ],
      [
        "Հ",
        "ար"
      ],
      [
        "աշխ",
        "ար"
      ],
      [
        "պետ",
        "ական"
      ],
      [
        "ընդ",
        "ուն"
      ],
      [
        "ա",
        "փոխ"
      ],
      [
        "ող",
        "ների"
      ],
      [
        "հ",
        "ուն"
      ],
      [
        "արդ",
        "են"
      ],
      [
        "ու",
        "զ"
      ],
      [
        "աց",
        "ին"
      ],
      [
        "աց",
        "ած"
      ],
      [
        "առ",
        "նա"
      ],
      [
        "աս",
        "ն"
      ],
      [
        "յան",
        "ն"
      ],
      [
        "ս",
        "ակայն"
      ],
      [
        "ու",
        "ստ"
      ],
      [
        "չ",
        "է"
      ],
      [
        "տն",
        "տես"
      ],
      [
        "ի",
        "վ"
      ],
      [
        "ում",
        "ներ"
      ],
      [
        "դ",
        "ատար"
      ],
      [
        "ունեց",
        "ել"
      ],
      [
        "1",
        "5"
      ],
      [
        "ռ",
        "ազմ"
      ],
      [
        "ին",
        "քն"
      ],
      [
        "պահ",
        "անջ"
      ],
      [
        "տ",
        "ալ"
      ],
      [
        "կ",
        "ոս"
      ],
      [
        "թ",
        "եր"
      ],
      [
        "ի",
        "լ"
      ],
      [
        "գամ",
        "ավոր"
      ],
      [
        "նախ",
        "կին"
      ],
      [
        "գլխ",
        "ավոր"
      ],
      [
        "ու",
        "լի"
      ],
      [
        "Ա",
        "ռ"
      ],
      [
        "Հանր",
        "ապետ"
      ],
      [
        "Կ",
        "ար"
      ],
      [
        "զ",
        "ր"
      ],
      [
        "աք",
        "ն"
      ],
      [
        "անվ",
        "տանգ"
      ],
      [
        "գ",
        "ում"
      ],
      [
        "բն",
        "ակ"
      ],
      [
        "տ",
        "վ"
      ],
      [
        "Ն",
        "ախ"
      ],
      [
        "բ",
        "այց"
      ],
      [
        "ի",
        "ք"
      ],
      [
        "ո",
        "ք"
      ],
      [
        "կ",
        "ուս"
      ],
      [
        "միջ",
        "ազգային"
      ],
      [
        "ակ",
        "ել"
      ],
      [
        "ց",
        "անկ"
      ],
      [
        "զ",
        "արգ"
      ],
      [
        "Փ",
        "աշին"
      ],
      [
        "լին",
        "ի"
      ],
      [
        "»",
        "-"
      ],
      [
        "բ",
        "անակ"
      ],
      [
        "պ",
        "արտ"
      ],
      [
        "կ",
        "ետ"
      ],
      [
        "դ",
        "եռ"
      ],
      [
        "լու",
        "ծ"
      ],
      [
        "անք",
        "ով"
      ],
      [
        "նպատ",
        "ակ"
      ],
      [
        "վ",
        "ե"
      ],
      [
        "պ",
        "ր"
      ],
      [
        "ետ",
        "ր"
      ],
      [
        "ակ",
        "այ"
      ],
      [
        "յ",
        "ու"
      ],
      [
        "քր",
        "եական"
      ],
      [
        "եւ",
        "ս"
      ],
      [
        "մ",
        "լ"
      ],
      [
        "Հայաստ",
        "անում"
      ],
      [
        "նր",
        "անց"
      ],
      [
        "տո",
        "կոս"
      ],
      [
        "Ս",
        "արգ"
      ],
      [
        "հաստ",
        "ատ"
      ],
      [
        "նշ",
        "անակ"
      ],
      [
        "վերջ",
        "ին"
      ],
      [
        "3",
        "0"
      ],
      [
        "պատ",
        "գամավոր"
      ],
      [
        "վերաբեր",
        "յալ"
      ],
      [
        "մեղ",
        "ադր"
      ],
      [
        "հր",
        "ապար"
      ],
      [
        "վել",
        "ու"
      ],
      [
        "պատ",
        "րաստ"
      ],
      [
        "հի",
        "վ"
      ],
      [
        "ատ",
        "ր"
      ],
      [
        "տ",
        "ում"
      ],
      [
        "որ",
        "են"
      ],
      [
        "ագ",
        "ույն"
      ],
      [
        "եց",
        "ին"
      ],
      [
        "կող",
        "մ"
      ],
      [
        "կ",
        "յան"
      ],
      [
        "եր",
        "ով"
      ],
      [
        "մար",
        "մ"
      ],
      [
        "խոս",
        "քով"
      ],
      [
        "Ադրբեջ",
        "անի"
      ],
      [
        "ի",
        "ջ"
      ],
      [
        "Մ",
        "ենք"
      ],
      [
        "ժամ",
        "ը"
      ],
      [
        "ադ",
        "արձ"
      ],
      [
        "րո",
        "պ"
      ],
      [
        "Սարգ",
        "ս"
      ],
      [
        "գ",
        "ծ"
      ],
      [
        "կար",
        "ծ"
      ],
      [
        "ան",
        "ին"
      ],
      [
        "ուր",
        "դ"
      ],
      [
        "ճանապար",
        "հ"
      ],
      [
        "Այ",
        "դ"
      ],
      [
        "համաձ",
        "այն"
      ],
      [
        "հաղորդ",
        "ում"
      ],
      [
        "վ",
        "ազ"
      ],
      [
        "ավ",
        "ի"
      ],
      [
        "ան",
        "ել"
      ],
      [
        "1",
        "2"
      ],
      [
        "փ",
        "ող"
      ],
      [
        "ս",
        "ր"
      ],
      [
        "դ",
        "ուրս"
      ],
      [
        "հար",
        "աբեր"
      ],
      [
        "արկ",
        "ել"
      ],
      [
        "վար",
        "ի"
      ],
      [
        "ներկայաց",
        "ուցիչ"
      ],
      [
        "նկատ",
        "մամբ"
      ],
      [
        "ահ",
        "այ"
      ],
      [
        "վ",
        "ան"
      ],
      [
        "ն",
        "ության"
      ],
      [
        "հազ",
        "ար"
      ],
      [
        "ավ",
        "իր"
      ],
      [
        "Ա",
        "զ"
      ],
      [
        "եր",
        "ում"
      ],
      [
        "ոն",
        "ի"
      ],
      [
        "վ",
        "են"
      ],
      [
        "դ",
        "արձ"
      ],
      [
        "հրաժ",
        "եշտ"
      ],
      [
        "նի",
        "ստ"
      ],
      [
        "նա",
        "և"
      ],
      [
        "շ",
        "ակ"
      ],
      [
        "վի",
        "ճ"
      ],
      [
        "մ",
        "ամ"
      ],
      [
        "նա",
        "ծ"
      ],
      [
        "աս",
        "ում"
      ],
      [
        "լ",
        "ր"
      ],
      [
        "եր",
        "եկ"
      ],
      [
        "e",
        "r"
      ],
      [
        "կ",
        "ոն"
      ],
      [
        "ս",
        "ար"
      ],
      [
        "վ",
        "նաս"
      ],
      [
        "տվ",
        "յալ"
      ],
      [
        "Ռուսաստ",
        "անի"
      ],
      [
        "թ",
        "ուր"
      ],
      [
        "Ա",
        "Ժ"
      ],
      [
        "ակի",
        "չ"
      ],
      [
        "ար",
        "ել"
      ],
      [
        "1",
        "1"
      ],
      [
        "ո",
        "բ"
      ],
      [
        "իրավ",
        "իճ"
      ],
      [
        "ն",
        "ենք"
      ],
      [
        "գ",
        "եր"
      ],
      [
        "նա",
        "ժողով"
      ],
      [
        "ագ",
        "իր"
      ],
      [
        "փոխ",
        "անց"
      ],
      [
        "մ",
        "ատ"
      ],
      [
        "մ",
        "ակ"
      ],
      [
        "համ",
        "ագործ"
      ],
      [
        "աբ",
        "ար"
      ],
      [
        "րա",
        "ին"
      ],
      [
        "կ",
        "ոչ"
      ],
      [
        "նել",
        "ով"
      ],
      [
        "դոլ",
        "ար"
      ],
      [
        "ք",
        "ին"
      ],
      [
        "զ",
        "որ"
      ],
      [
        "աց",
        "րել"
      ],
      [
        "շ",
        "ահ"
      ],
      [
        "գ",
        "ն"
      ],
      [
        "Ն",
        "իկ"
      ],
      [
        "վ",
        "աղ"
      ],
      [
        "լ",
        "ավ"
      ],
      [
        "ություն",
        "ում"
      ],
      [
        "նա",
        "բեր"
      ],
      [
        "հ",
        "աջ"
      ],
      [
        "խորհր",
        "դար"
      ],
      [
        "ան",
        "հրաժեշտ"
      ],
      [
        "մինչ",
        "եւ"
      ],
      [
        "ապահ",
        "ով"
      ],
      [
        "ան",
        "քի"
      ],
      [
        "ադ",
        "իր"
      ],
      [
        "աբ",
        "ան"
      ],
      [
        "ին",
        "ը"
      ],
      [
        "ո",
        "գ"
      ],
      [
        "ռ",
        "ուս"
      ],
      [
        "ություն",
        "ներին"
      ],
      [
        "ույց",
        "ում"
      ],
      [
        "աշխար",
        "հ"
      ],
      [
        "Ի",
        "նչ"
      ],
      [
        "յ",
        "ութ"
      ],
      [
        "կ",
        "ն"
      ],
      [
        "շ",
        "ուրջ"
      ],
      [
        "թվական",
        "ի"
      ],
      [
        "մ",
        "ր"
      ],
      [
        "ար",
        "ակ"
      ],
      [
        "շարուն",
        "ակ"
      ],
      [
        "զ",
        "ոհ"
      ],
      [
        "Հայաստ",
        "ան"
      ],
      [
        "եր",
        "ն"
      ],
      [
        "շրջ",
        "անակ"
      ],
      [
        "համ",
        "այն"
      ],
      [
        "տր",
        "ամ"
      ],
      [
        "ավոր",
        "ման"
      ],
      [
        "տեղ",
        "ափոխ"
      ],
      [
        "հ",
        "արկ"
      ],
      [
        "չ",
        "ափ"
      ],
      [
        "ք",
        "ար"
      ],
      [
        "օգտ",
        "ագործ"
      ],
      [
        "բն",
        "ակիչ"
      ],
      [
        "ե",
        "ծ"
      ],
      [
        "դ",
        "ված"
      ],
      [
        "պատ",
        "մ"
      ],
      [
        "1",
        "6"
      ],
      [
        "հայտ",
        "նաբեր"
      ],
      [
        "կ",
        "աս"
      ],
      [
        "Նիկ",
        "ոլ"
      ],
      [
        "ստ",
        "աց"
      ],
      [
        "ստ",
        "որ"
      ],
      [
        "գ",
        "իշ"
      ],
      [
        "անց",
        "կաց"
      ],
      [
        "ո",
        "ռ"
      ],
      [
        "որ",
        "տեղ"
      ],
      [
        "ույ",
        "լ"
      ],
      [
        "ում",
        "ները"
      ],
      [
        "Թուրքի",
        "այի"
      ],
      [
        "անվտանգ",
        "ության"
      ],
      [
        "կ",
        "իր"
      ],
      [
        "հ",
        "երթ"
      ],
      [
        "իրավ",
        "ունք"
      ],
      [
        "ե",
        "փ"
      ],
      [
        "տ",
        "վել"
      ],
      [
        "օր",
        "ենք"
      ],
      [
        "եր",
        "ե"
      ],
      [
        "Ա",
        "լ"
      ],
      [
        "հո",
        "դված"
      ],
      [
        "ն",
        "որդ"
      ],
      [
        "դեպ",
        "քում"
      ],
      [
        "1",
        "4"
      ],
      [
        "1",
        "8"
      ],
      [
        "ար",
        "աբ"
      ],
      [
        "ին",
        "ք"
      ],
      [
        "թ",
        "ույլ"
      ],
      [
        "նշ",
        "եց"
      ],
      [
        "եր",
        "ից"
      ],
      [
        "դ",
        "իր"
      ],
      [
        "ո",
        "մ"
      ],
      [
        "մամ",
        "ուլի"
      ],
      [
        "լ",
        "րագր"
      ],
      [
        "ր",
        "անք"
      ],
      [
        "Արցախ",
        "ի"
      ],
      [
        "ոստիկան",
        "ության"
      ],
      [
        "հիվ",
        "անդ"
      ],
      [
        "տար",
        "վա"
      ],
      [
        "օ",
        "դ"
      ],
      [
        "ն",
        "վազ"
      ],
      [
        "վ",
        "այր"
      ],
      [
        "քաղաք",
        "ացին"
      ],
      [
        "վ",
        "ճ"
      ],
      [
        "երկր",
        "ի"
      ],
      [
        "հաս",
        "ց"
      ],
      [
        "Հանրապետ",
        "ության"
      ],
      [
        "խաղ",
        "աղ"
      ],
      [
        "Հ",
        "Կ"
      ],
      [
        "ամբ",
        "ողջ"
      ],
      [
        "գր",
        "ում"
      ],
      [
        "ան",
        "ոց"
      ],
      [
        "անի",
        "շ"
      ],
      [
        "ավոր",
        "ված"
      ],
      [
        "հան",
        "ուր"
      ],
      [
        "1",
        "7"
      ],
      [
        "փո",
        "փոխ"
      ],
      [
        "Ե",
        "ս"
      ],
      [
        "ի",
        "ան"
      ],
      [
        "պատճառ",
        "ով"
      ],
      [
        "նր",
        "ան"
      ],
      [
        "բ",
        "ռ"
      ],
      [
        "Երեւ",
        "անի"
      ],
      [
        "ազ",
        "մի"
      ],
      [
        "նախ",
        "ատես"
      ],
      [
        "ախ",
        "տ"
      ],
      [
        "կապ",
        "ված"
      ],
      [
        "հան",
        "գ"
      ],
      [
        "2",
        "5"
      ],
      [
        "պաշտ",
        "պան"
      ],
      [
        "տ",
        "ղ"
      ],
      [
        "ի",
        "զ"
      ],
      [
        "նախագահ",
        "ի"
      ],
      [
        "ո",
        "զ"
      ],
      [
        "կ",
        "րաին"
      ],
      [
        "համ",
        "ապատ"
      ],
      [
        "Ն",
        "րա"
      ],
      [
        "պաշտ",
        "պանության"
      ],
      [
        "ս",
        "ի"
      ],
      [
        "Ու",
        "կրաին"
      ],
      [
        "ք",
        "ների"
      ],
      [
        "նա",
        "գ"
      ],
      [
        "ոս",
        "ի"
      ],
      [
        "հ",
        "անց"
      ],
      [
        "արաբ",
        "աղ"
      ],
      [
        "վ",
        "արկ"
      ],
      [
        "միջ",
        "եւ"
      ],
      [
        "ազ",
        "ր"
      ],
      [
        "ավոր",
        "ապես"
      ],
      [
        "ղ",
        "թ"
      ],
      [
        "մեքեն",
        "ան"
      ],
      [
        "ես",
        "տ"
      ],
      [
        "Ն",
        "որ"
      ],
      [
        "գ",
        "ալ"
      ],
      [
        "Հ",
        "իշ"
      ],
      [
        "ուն",
        "ե"
      ],
      [
        "Ս",
        "եր"
      ],
      [
        "1",
        "3"
      ],
      [
        "Ֆ",
        "ր"
      ],
      [
        "մլ",
        "ն"
      ],
      [
        "արգ",
        "ել"
      ],
      [
        "Ս",
        "ա"
      ],
      [
        "փ",
        "ր"
      ],
      [
        "Ա",
        "Գ"
      ],
      [
        "a",
        "n"
      ],
      [
        "շ",
        "նոր"
      ],
      [
        "կար",
        "եւոր"
      ],
      [
        "2",
        "3"
      ],
      [
        "ու",
        "ք"
      ],
      [
        "քաղաք",
        "ապետ"
      ],
      [
        "ագ",
        "ետ"
      ],
      [
        "քաղաք",
        "ի"
      ],
      [
        "կ",
        "ալ"
      ],
      [
        "ան",
        "ա"
      ],
      [
        "2",
        "4"
      ],
      [
        "աջ",
        "ակց"
      ],
      [
        "երկր",
        "ների"
      ],
      [
        "պատ",
        "եր"
      ],
      [
        "հանձ",
        "նաժողով"
      ],
      [
        "առ",
        "անց"
      ],
      [
        "Ը",
        "ստ"
      ],
      [
        "ամ",
        "աս"
      ],
      [
        "յ",
        "ակ"
      ],
      [
        "ար",
        "ան"
      ],
      [
        "Ա",
        "վ"
      ],
      [
        "ել",
        "ը"
      ],
      [
        "օրեն",
        "ս"
      ],
      [
        "ու",
        "գ"
      ],
      [
        "ող",
        "ական"
      ],
      [
        "դ",
        "ադ"
      ],
      [
        "ազ",
        "դ"
      ],
      [
        "առաջ",
        "արկ"
      ],
      [
        ".",
        "-"
      ],
      [
        "ոս",
        "կ"
      ],
      [
        "շ",
        "աբ"
      ],
      [
        "առ",
        "ում"
      ],
      [
        "արտ",
        "ադր"
      ],
      [
        "հավ",
        "աք"
      ],
      [
        "Ա",
        "Կ"
      ],
      [
        "են",
        "ի"
      ],
      [
        "2",
        "2"
      ],
      [
        "տն",
        "օրեն"
      ],
      [
        "ք",
        "այլ"
      ],
      [
        "եց",
        "նենք"
      ],
      [
        "իջ",
        "ոց"
      ],
      [
        "2",
        "1"
      ],
      [
        "բ",
        "անկ"
      ],
      [
        "որ",
        "ում"
      ],
      [
        "մր",
        "ց"
      ],
      [
        "ծ",
        "ն"
      ],
      [
        "մ",
        "շակ"
      ],
      [
        "թ",
        "վում"
      ],
      [
        "ավ",
        "արտ"
      ],
      [
        "Այ",
        "ն"
      ],
      [
        "20",
        "0"
      ],
      [
        "թ",
        "ող"
      ],
      [
        "հայ",
        "կական"
      ],
      [
        "որոն",
        "ց"
      ],
      [
        "եւ",
        "է"
      ],
      [
        "հավ",
        "ել"
      ],
      [
        "Հ",
        "ով"
      ],
      [
        "մ",
        "այ"
      ],
      [
        "տ",
        "աս"
      ],
      [
        "նչ",
        "ական"
      ],
      [
        "ատ",
        "ի"
      ],
      [
        "ընդ",
        "հանուր"
      ],
      [
        "ու",
        "բ"
      ],
      [
        "գնա",
        "հատ"
      ],
      [
        "կ",
        "ած"
      ],
      [
        "ձեռ",
        "ք"
      ],
      [
        "բանակ",
        "ց"
      ],
      [
        "ակ",
        "տի"
      ],
      [
        "Հիշ",
        "եցնենք"
      ],
      [
        "ան",
        "դր"
      ],
      [
        "Ար",
        "մեն"
      ],
      [
        "մարդ",
        "կ"
      ],
      [
        "տարած",
        "աշրջ"
      ],
      [
        "հրաժ",
        "ար"
      ],
      [
        "ք",
        "ային"
      ],
      [
        "ճան",
        "աչ"
      ],
      [
        "կառավար",
        "ության"
      ],
      [
        "ան",
        "տ"
      ],
      [
        "ստ",
        "ացել"
      ],
      [
        "ատ",
        "եղ"
      ],
      [
        "աց",
        "նում"
      ],
      [
        "տ",
        "ակ"
      ],
      [
        "որ",
        "ն"
      ],
      [
        "մար",
        "զի"
      ],
      [
        "խն",
        "դր"
      ],
      [
        "ժամ",
        "կետ"
      ],
      [
        "ձ",
        "եւ"
      ],
      [
        "ում",
        "ն"
      ],
      [
        "ընդ",
        "գծ"
      ],
      [
        "նր",
        "անք"
      ],
      [
        "կառ",
        "ուց"
      ],
      [
        "որպես",
        "զի"
      ],
      [
        "աց",
        "նել"
      ],
      [
        "զբ",
        "աղ"
      ],
      [
        "Վ",
        "րաստ"
      ],
      [
        "դ",
        "աս"
      ],
      [
        "Բ",
        "ր"
      ],
      [
        "ուղղ",
        "ությամբ"
      ],
      [
        "բ",
        "ժ"
      ],
      [
        "հաս",
        "արակ"
      ],
      [
        "զր",
        "ույցում"
      ],
      [
        "տ",
        "անի"
      ],
      [
        "ս",
        "եփ"
      ],
      [
        "ապ",
        "ա"
      ],
      [
        "տնտես",
        "ական"
      ],
      [
        "ֆ",
        "ին"
      ],
      [
        "զարգ",
        "ացման"
      ],
      [
        "մեկ",
        "ը"
      ],
      [
        "գործ",
        "ընթաց"
      ],
      [
        "կար",
        "ար"
      ],
      [
        "տրամ",
        "ադր"
      ],
      [
        "դես",
        "պան"
      ],
      [
        "բ",
        "ր"
      ],
      [
        "ե",
        "վ"
      ],
      [
        "ան",
        "ագր"
      ],
      [
        "ն",
        "ություն"
      ],
      [
        "ռազմ",
        "ական"
      ],
      [
        "եկ",
        "ել"
      ],
      [
        "աք",
        "ին"
      ],
      [
        "բ",
        "ող"
      ],
      [
        "ք",
        "արտ"
      ],
      [
        "աշխատ",
        "ակից"
      ],
      [
        "շար",
        "ժ"
      ],
      [
        "երբ",
        "ակալ"
      ],
      [
        "թ",
        "եկ"
      ],
      [
        "Ա",
        "վել"
      ],
      [
        "արդյուն",
        "քում"
      ],
      [
        "Ն",
        "շենք"
      ],
      [
        "Ռ",
        "Դ"
      ],
      [
        "կ",
        "որ"
      ],
      [
        "ընկեր",
        "ության"
      ],
      [
        "հատ",
        "ուկ"
      ],
      [
        "տե",
        "խն"
      ],
      [
        "դ",
        "պր"
      ],
      [
        "դր",
        "ա"
      ],
      [
        "ստ",
        "ահ"
      ],
      [
        "գործ",
        "ունե"
      ],
      [
        "ը",
        "ստ"
      ],
      [
        "ադր",
        "բեջ"
      ],
      [
        "գր",
        "ել"
      ],
      [
        "վա",
        "ճառ"
      ],
      [
        "սպ",
        "աս"
      ],
      [
        "ս",
        "պան"
      ],
      [
        "պ",
        "եր"
      ],
      [
        "ար",
        "յանը"
      ],
      [
        "կան",
        "խ"
      ],
      [
        "համապատ",
        "ասխան"
      ],
      [
        "ապ",
        "րի"
      ],
      [
        "ն",
        "ակ"
      ],
      [
        "որ",
        "եւէ"
      ],
      [
        "պահ",
        "պան"
      ],
      [
        "օր",
        "ը"
      ],
      [
        "հետեւ",
        "անքով"
      ],
      [
        "հատ",
        "ված"
      ],
      [
        "Վ",
        "եր"
      ],
      [
        "ախ",
        "ազ"
      ],
      [
        "ահ",
        "ար"
      ],
      [
        "համ",
        "ալ"
      ],
      [
        "գտն",
        "վող"
      ],
      [
        "Ե",
        "Մ"
      ],
      [
        "Ո",
        "ստ"
      ],
      [
        "եկ",
        "տ"
      ],
      [
        "հ",
        "եղ"
      ],
      [
        "Ղ",
        "արաբաղ"
      ],
      [
        "գիշ",
        "երը"
      ],
      [
        "ձ",
        "երբակալ"
      ],
      [
        "առ",
        "անձ"
      ],
      [
        "թեկ",
        "նած"
      ],
      [
        "զ",
        "գ"
      ],
      [
        "մ",
        "ն"
      ],
      [
        "եր",
        "եք"
      ],
      [
        "իր",
        "են"
      ],
      [
        "մի",
        "լի"
      ],
      [
        "արժ",
        "եք"
      ],
      [
        "փող",
        "ոց"
      ],
      [
        "Ա",
        "մ"
      ],
      [
        "ո",
        "նա"
      ],
      [
        "ք",
        "երի"
      ],
      [
        "հայտն",
        "ի"
      ],
      [
        "ով",
        "ը"
      ],
      [
        "Ոստ",
        "իկան"
      ],
      [
        "աբ",
        "եկ"
      ],
      [
        "բ",
        "ազմ"
      ],
      [
        "տար",
        "ին"
      ],
      [
        "եկ",
        "ան"
      ],
      [
        "ույ",
        "թի"
      ],
      [
        "ծառայ",
        "ության"
      ],
      [
        "շրջ",
        "ան"
      ],
      [
        "մե",
        "զ"
      ],
      [
        "ո",
        "կ"
      ],
      [
        "առ",
        "ողջ"
      ],
      [
        "հետ",
        "և"
      ],
      [
        "ֆին",
        "անս"
      ],
      [
        "շար",
        "ք"
      ],
      [
        "համար",
        "ում"
      ],
      [
        "ո",
        "թ"
      ],
      [
        "Հ",
        "ամ"
      ],
      [
        "հ",
        "ին"
      ],
      [
        "քաղաք",
        "ացի"
      ],
      [
        "Ա",
        "շ"
      ],
      [
        "դ",
        "եր"
      ],
      [
        "Ազ",
        "գային"
      ],
      [
        "ժ",
        "մ"
      ],
      [
        "Հ",
        "ր"
      ],
      [
        "գ",
        "ազ"
      ],
      [
        "ներ",
        "դր"
      ],
      [
        "առնա",
        "լ"
      ],
      [
        "նպատակ",
        "ով"
      ],
      [
        "ան",
        "կար"
      ],
      [
        "հաջ",
        "ող"
      ],
      [
        "կո",
        "մի"
      ],
      [
        "փ",
        "ակ"
      ],
      [
        "ամ",
        "արտ"
      ],
      [
        "Ֆր",
        "անս"
      ],
      [
        "կայ",
        "ում"
      ],
      [
        "ում",
        "բ"
      ],
      [
        "որ",
        "ով"
      ],
      [
        "սեփ",
        "ական"
      ],
      [
        "Գ",
        "եր"
      ],
      [
        "կուս",
        "ակցության"
      ],
      [
        "Մ",
        "եր"
      ],
      [
        "արդ",
        "ար"
      ],
      [
        "դ",
        "ե"
      ],
      [
        "ո",
        "ջ"
      ],
      [
        "արտ",
        "ահ"
      ],
      [
        "այ",
        "ել"
      ],
      [
        "ահ",
        "ատ"
      ],
      [
        "ունեն",
        "ալ"
      ],
      [
        "ամ",
        "արդ"
      ],
      [
        "եղ",
        "աս"
      ],
      [
        "հո",
        "գ"
      ],
      [
        "Ե",
        "թե"
      ],
      [
        "և",
        "որ"
      ],
      [
        "նախ",
        "աձ"
      ],
      [
        "պ",
        "իսի"
      ],
      [
        "տ",
        "ան"
      ],
      [
        "աստ",
        "ի"
      ],
      [
        "ս",
        "եպ"
      ],
      [
        "քն",
        "նչական"
      ],
      [
        "գում",
        "ար"
      ],
      [
        "հար",
        "ձ"
      ],
      [
        "ամ",
        "ան"
      ],
      [
        "ժողով",
        "րդ"
      ],
      [
        "հայ",
        "ր"
      ],
      [
        "ստոր",
        "ագր"
      ],
      [
        "Վ",
        "արդ"
      ],
      [
        "Չ",
        "ին"
      ],
      [
        "Եր",
        "և"
      ],
      [
        "մ",
        "յուս"
      ],
      [
        "ն",
        "ավ"
      ],
      [
        "վ",
        "որ"
      ],
      [
        "ուլ",
        "իսի"
      ],
      [
        "»",
        "."
      ],
      [
        "կ",
        "լինի"
      ],
      [
        ")",
        ","
      ],
      [
        "կր",
        "թ"
      ],
      [
        "արձ",
        "անագր"
      ],
      [
        "ար",
        "եց"
      ],
      [
        "վ",
        "տանգ"
      ],
      [
        "միջոց",
        "առ"
      ],
      [
        "ով",
        "ի"
      ],
      [
        "հո",
        "կ"
      ],
      [
        "գ",
        "որ"
      ],
      [
        "մ",
        "այր"
      ],
      [
        "ման",
        "րամ"
      ],
      [
        "ն",
        "ող"
      ],
      [
        "դատ",
        "ախազ"
      ],
      [
        "կիր",
        "առ"
      ],
      [
        "ձեռ",
        "նարկ"
      ],
      [
        "թուր",
        "ք"
      ],
      [
        "ըն",
        "տանի"
      ],
      [
        "ի",
        "ստ"
      ],
      [
        "ենթ",
        "արկ"
      ],
      [
        ")",
        ":"
      ],
      [
        "Իր",
        "անի"
      ],
      [
        "ված",
        "ք"
      ],
      [
        "ներկայաց",
        "րել"
      ],
      [
        "հոդված",
        "ի"
      ],
      [
        "ունեց",
        "ող"
      ],
      [
        "եք",
        "ս"
      ],
      [
        "բ",
        "յուր"
      ],
      [
        "ամ",
        "ս"
      ],
      [
        "պ",
        "իտ"
      ],
      [
        "ուս",
        "ում"
      ],
      [
        "հիմ",
        "նական"
      ],
      [
        "որոշ",
        "ում"
      ],
      [
        "ռուս",
        "ական"
      ],
      [
        "ակց",
        "ությունը"
      ],
      [
        "5",
        "0"
      ],
      [
        "Ի",
        "սկ"
      ],
      [
        "երի",
        "տաս"
      ],
      [
        "ընդ",
        "դիմ"
      ],
      [
        "ակտի",
        "վ"
      ],
      [
        "երիտաս",
        "արդ"
      ],
      [
        "ն",
        "ոյ"
      ],
      [
        "Հ",
        "ակ"
      ],
      [
        "համագործ",
        "ակցության"
      ],
      [
        "Մ",
        "ոսկ"
      ],
      [
        "թվական",
        "ին"
      ],
      [
        "վարչ",
        "ության"
      ],
      [
        "հրապար",
        "ակ"
      ],
      [
        "o",
        "n"
      ],
      [
        "ց",
        "երեկ"
      ],
      [
        "հի",
        "շ"
      ],
      [
        "երե",
        "խան"
      ],
      [
        "վ",
        "ստահ"
      ],
      [
        "եկ",
        "տեմբերի"
      ],
      [
        "գր",
        "ավ"
      ],
      [
        "Ինչ",
        "պես"
      ],
      [
        "Ավել",
        "ի"
      ],
      [
        "կատար",
        "ել"
      ],
      [
        "ապ",
        "արտ"
      ],
      [
        "տ",
        "ուժ"
      ],
      [
        "e",
        "s"
      ],
      [
        "2",
        "7"
      ],
      [
        "ին",
        "ի"
      ],
      [
        "e",
        "n"
      ],
      [
        "Խ",
        "աչ"
      ],
      [
        "ախ",
        "ոս"
      ],
      [
        "թի",
        "ռ"
      ],
      [
        "սպ",
        "որ"
      ],
      [
        "փաստ",
        "աթ"
      ],
      [
        "ազ",
        "գ"
      ],
      [
        "ունեց",
        "ած"
      ],
      [
        "ն",
        "ամ"
      ],
      [
        "i",
        "n"
      ],
      [
        "արձ",
        "ակ"
      ],
      [
        "ար",
        "ագ"
      ],
      [
        "նախարար",
        "ության"
      ],
      [
        "անալ",
        "ու"
      ],
      [
        "ություններ",
        "ով"
      ],
      [
        "գր",
        "անց"
      ],
      [
        "առաջ",
        "ադր"
      ],
      [
        "փր",
        "կարար"
      ],
      [
        "ց",
        "ույց"
      ],
      [
        "ավ",
        "ալ"
      ],
      [
        "չ",
        "եմ"
      ],
      [
        ".",
        "."
      ],
      [
        "տալ",
        "իս"
      ],
      [
        "սկ",
        "զբ"
      ],
      [
        "մարդկ",
        "անց"
      ],
      [
        "Ս",
        "ակայն"
      ],
      [
        "հարց",
        "ը"
      ],
      [
        "թ",
        "ար"
      ],
      [
        "ուս",
        "ի"
      ],
      [
        "ահայ",
        "տ"
      ],
      [
        "ան",
        "ուն"
      ],
      [
        "դ",
        "ժ"
      ],
      [
        "ց",
        "ի"
      ],
      [
        "ամ",
        "իս"
      ],
      [
        "արտ",
        "աքին"
      ],
      [
        "հանց",
        "ագործ"
      ],
      [
        "վիր",
        "ավոր"
      ],
      [
        "1",
        "00"
      ],
      [
        "երկր",
        "որդ"
      ],
      [
        "տարած",
        "քում"
      ],
      [
        "մարտ",
        "ի"
      ],
      [
        "ող",
        "ները"
      ],
      [
        "իր",
        "ի"
      ],
      [
        "տղ",
        "ամարդ"
      ],
      [
        "Պ",
        "ար"
      ],
      [
        "տ",
        "ոն"
      ],
      [
        "աք",
        "ս"
      ],
      [
        "Հայաստ",
        "անը"
      ],
      [
        "ցերեկ",
        "ը"
      ],
      [
        "Փաշին",
        "յանը"
      ],
      [
        "աց",
        "ված"
      ],
      [
        "յուս",
        "իս"
      ],
      [
        "եր",
        "կար"
      ],
      [
        "աք",
        "ր"
      ],
      [
        "ոշ",
        "որ"
      ],
      [
        "ռ",
        "ե"
      ],
      [
        "է",
        "ջ"
      ],
      [
        "գ",
        "աղ"
      ],
      [
        "ծ",
        "անր"
      ],
      [
        "մ",
        "ուտ"
      ],
      [
        "խորհր",
        "դի"
      ],
      [
        "առ",
        "ավել"
      ],
      [
        "հիմ",
        "նա"
      ],
      [
        "Չին",
        "աստ"
      ],
      [
        "բաժ",
        "ան"
      ],
      [
        "տն",
        "ի"
      ],
      [
        "ստ",
        "ի"
      ],
      [
        "լին",
        "ելու"
      ],
      [
        "չ",
        "ության"
      ],
      [
        "միջոց",
        "ով"
      ],
      [
        "խորհր",
        "դ"
      ],
      [
        "ությունների",
        "ց"
      ],
      [
        "շաբ",
        "աթ"
      ],
      [
        "ար",
        "անի"
      ],
      [
        "ագ",
        "իտ"
      ],
      [
        "ու",
        "դ"
      ],
      [
        "եկ",
        "ամ"
      ],
      [
        "ույ",
        "ս"
      ],
      [
        "մասն",
        "ակից"
      ],
      [
        "ետր",
        "վարի"
      ],
      [
        "Գ",
        "րի"
      ],
      [
        "հաղ",
        "թ"
      ],
      [
        "մակ",
        "արդ"
      ],
      [
[...]
